#version: 0.2
Ħ Ø
Ù ĦØ
Ù Ī
Ù Ĩ
§ Ø
Ø §Ø
§ ÙĦØ
Ø §ÙĦØ
Ħ Ù
Ø ±
Ù ĦÙ
Ø §
Ġ Ø§ÙĦØ
Ø ª
Ø ©
Ø ¨
Ø ¹
Ø ¯
Ġ Ø§
Ù ģ
Ù ĩ
Ġ ÙĪ
Ù Ĥ
Ø ³
Ù ĥ
ĠØ§ ÙĦÙ
Ġ Ø
Ġ Ø¨
Ġ Ùģ
Ĭ Ø©
Ø Ń
ĠØ £
Ġ Ø¹
ĠØ§ÙĦÙ ħ
Ù ĬØ©
Ġ Øª
Ø§Ø ª
ĠØ Į
Ø§ Ù
Ø ¬
Ġ .
ħ ÙĨ
Ù ħÙĨ
ĠÙģ Ù
Ø§Ø ±
ĠÙģÙ Ĭ
Ĭ ÙĨ
Ø§ ÙĨ
Ġ ÙħÙĨ
Ø ·
Ù ĬÙĨ
Ø µ
ÙĪ Ù
Ø ´
Ø ¶
Ø ²
ÙĦÙ ī
Ø± Ù
Ø ®
Ø¯ Ù
ÙĦØ §
ÙĦÙ Ĭ
Ø§Ù ħ
Ĭ Ø±
Ġ Ùĥ
ĠØ§ÙĦØ ª
ĠØ§ Ù
ĠØ ¥
ÙĦÙ ħ
ĠØ§ÙĦØ ¹
ÙĪ ÙĨ
ĠØ Ń
Ùĩ Ø§
Ø °
Ġ Ø³
Ø±Ù Ĭ
ĠØ§Ù Ħ
Ù ĬØ±
Ø§Ø ¨
Ġ ÙĤ
ĠØ§ÙĦØ £
Ø§Ø ¯
Ø «
Ùĩ Ù
Ĭ Ù
Ø§Ø ¡
Ġ ÙĨ
ħ Ø§
ħ Ù
Ø £
ĠÙĪ Ø§ÙĦØ
Ġ ÙĦØ
ÙĪ Ø±
Øª Ù
Ø§Ø ³
ĠØ¹ ÙĦÙī
Ø§Ù Ħ
Ø§Ø ¦
Ù ħÙ
Ġ Ùĩ
ĠØ ¬
Ø§Ø ¹
ĠØ§ÙĦØ ³
ÙĦÙ ĥ
ĠØ£ ÙĨ
Ù ħØ§
ÙĦØ §Ø
ħ Ø¹
Ø¨ Ù
Ĭ Ø¯
Ù ĬÙ
ĠØ ´
Ġ "
ĠØ§ÙĦØ Ń
Ġ Ø±
Ù ħØ¹
ÙĪÙ Ħ
Ø ¸
ĠØ§ÙĦØ §Ø
Ġ Ø¯
Ø§ Ùģ
Ø º
Ø³ Ù
Ġ :
Ġ )
ÙĪÙ ħ
Ġ (
Ġ ÙĦÙ
ĠØ ®
ĠØ§ÙĦÙ Ĥ
ÙĩÙ ħ
Ġ -
ĠØ§ÙĦØ ´
ĠØ§ÙĦØ ¨
ĠØ¹ ÙĨ
Ù ī
ÙĦØ ©
ħ Ø±
ĠØ§ÙĦØ ¬
ĠØ§ÙĦ ÙĨ
ĠØ§ÙĦØ ¯
Ħ ÙĦØ
Ù ĦÙĦØ
Ġ ÙĦÙĦØ
Ĭ Ø¹
Ùĥ Ù
ħ ÙĪ
Ø³ Øª
ĠØ§ÙĦØ ±
Ø§Ø Ń
Ġ ÙħØ¹
ĠØ µ
Ø ¦
Ġ 2
ĠØ§ÙĦØ ¥
Ġ 1
ÙĨ Ø§
Ø§ ÙĦÙħ
Ĭ Ø§
ÙĦØ§ Ù
ĠØ§ÙĦÙ ģ
Ù ħÙĪ
Ø± Ø¨
ÙĤ Ù
ĠØ§ ÙĨ
Ø§Ø ¬
Ĭ Øª
Ø¹ Ù
Ù ħØ±
Ø§ ÙĦÙ
Ø¯Ù Ĭ
Ø± Ø©
ĠØ¥ ÙĦÙī
ÙĪ Ø¯
ØŃ Ù
ĠÙĩ Ø°
ĠØ§ÙĦÙ ĥ
ĠØ¨ Ø§ÙĦØ
ĠÙĪ Ù
ħ Ø©
ĠØ§ÙĦØ ®
Ø¨Ù Ĭ
Ø¨ Ø±
Ùģ Ù
ĠØ§ÙĦ ÙĪ
ĠØ§ÙĦØ §
Øª Ø±
ÙĨ Ù
Ø ¤
ĠØ§ÙĦØ µ
Ø§Ø µ
ħ Ø¯
Ĭ Ø³
Ø§ ÙĤ
Ø¹ Ø¯
Ø§Ø ¶
ĠØ ·
Ġ ,
ĠÙĪ Øª
Ĭ ÙĤ
ĠØ§ÙĦØª Ù
Ø± ÙĪ
Ĭ Ùģ
ħ Ø³
ÙĨ Øª
ĠØ£ ÙĪ
ħ Øª
ĠØ§ÙĦØ °
ĠØ§ÙĦØªÙ Ĭ
ĠØ£ Ù
ĠÙĪ Ø£
Ù ĬØ¹
ĠØ§ÙĦÙ ĦÙ
Ø± Ùĥ
Ġ ÙĦØ§
Ġ Â
Ø¹ Ø©
Ø¬ Ù
ÙĦÙ ĬØ©
Ø§Ø ·
ÙĬÙ ħ
Ġ Ø§Ø³
Ġ ÙħØ§
Ġ ÙĦÙħ
Ø§ÙĨ Ù
Ħ ÙĪ
ÙĦÙ ĩ
Ø¯ Ø©
ĠØ º
ØªÙ ħ
Ġ2 0
Ø¨ Ø©
Ø¯Ù ħ
Ù ĬØ³
ÙĤ Ø©
ÙĨÙ Ĭ
Ø§Ø± Ø©
Ù ĬØª
Ġ ÙħÙĪ
Ù ĬØ¯
Ø³Ù ħ
â Ģ
Ġ âĢ
ĠÙĪ ÙĤ
Ĭ Ø²
Ĭ Ø§Øª
ÙĦÙ ģ
ÙĦØ ³
Ù ħØ³
ĠØ¹ ÙĦÙĬ
ĠØ§ÙĦØ ·
ÙĪ ÙĤ
ĠØ °
ĠØª ØŃ
Ĭ Ùĥ
ħ Ø¬
ÙħÙ Ħ
ÙĬÙ Ħ
ÙĪ Ø§
ĠÙĦÙ ĦÙ
ÙĦØ ¨
ĠÙĥ Ù
ĠÙĥ Ø§ÙĨ
Ø§Ø ²
Ø± Ùģ
Ø§Ø ®
ÙģÙ Ĭ
Ø ¥
Ø§ÙĨÙ Ĭ
ħ ØŃ
ÙĪÙ Ĭ
ĠØ¨ ÙĨ
Ø¯Ù ī
Ĭ ÙĪ
ĠØ¨ Ù
Ø§Ø¦ Ù
ÙĦÙ Ĥ
ĠØ§ÙĦÙĦÙ ĩ
ĠØ§ÙĦØ «
ĠØª Ø¹
Ø¨ Ø¯
Ø§ Ùĩ
ĠÙĩØ° Ø§
ØªÙ Ĭ
Ø¯Ù ĬØ¯
ĠØŃ Ù
ĠÙĪ Ø§ÙĦÙħ
ħ Ø´
Ù ħØª
Ùĥ ÙĨ
ĠØ§ÙĦÙħ Øª
Ù ħØ¬
ÙĦØ§Ù ħ
Ùĥ Ø±
Ġ ÙħØ±
ĠØ «
ÙĩÙ Ĭ
Ġ ÙħØ¬
Ĭ ØŃ
Øµ Ù
ÙĦØ ª
ĠØ§ÙĦÙħ ÙĪ
Ø² Ù
ĠØ§ÙĦØ° Ù
ĠÙĦÙ ĩ
ĠØ§ÙĦØ°Ù Ĭ
ĠØ ¢
ĠØ ²
Ø¨ Ø§Ø±
Ġ20 1
Ù ħØŃ
Ø§Ø ´
Øª Ùĩ
ÙĨ Ø©
Ġ ÙħØ³
ĠØ¹ Ù
Ø¨Ù Ħ
ĠÙĪØ§ÙĦØ ª
ĠÙĩØ° Ùĩ
Ĭ ÙĪÙħ
ĠØ³ Ù
ĠØ¨ ÙĬÙĨ
ĠØ ¶
Ø¯ Ø±
Ġ ÙħØŃ
Ø±Ù ī
Ġ ÙĦÙĬ
Ùĥ Øª
ĠØ¥ ÙĨ
ĠØ§ÙĦÙħ ÙĨ
Ø® Ø±
Øµ Ø±
Ø³ Ø¨
ÙĦØ§Ù Ħ
Ù ħØ´
ĠØª ÙĤ
Ø§Ø¯ Ø©
Ùĩ Ø±
ĠØ¨ Ø¹Ø¯
Ġ ÙħØ´
Ø§Ø± Ù
Ø´ Ø±
ĬÙ Ħ
Ø¶ Ù
Ġ Ċ
Ø§ ÙĦÙĬ
ĠØ§ÙĦØ§Ø ³
ÙĪ Ø¨
Ø° Ø§
Ø¯ Ø§
Ø³Ù Ĭ
ĠÙģÙ ī
Ø¦ ÙĬØ³
Ø± Ø¶
Ĭ Ø®
Ġ ÙħÙ
Ø§Ø± Ø§Øª
ÙĬØ± Ø©
ĠØ§ÙĦÙ ī
ÙĪ Ø¹
ĠØ§Ø³ Øª
Ù ĬÙĥ
Ø§ÙĨ ÙĬØ©
Ġ ÙĦÙĥ
Ġ ÙĬØ¹
ÙĪØ± Ø©
Ø§Ø ©
Ø« Ù
ÙĦØ§Ø ª
Ø§Ø¯ Ù
Ġ ÙħØª
ĠÂ »
ĠØ§ÙĦØ¹ Ø§Ùħ
Ùģ Ø±
ĠÙĪ Ø¨
ħ ÙĤ
Ġ 3
Ù ĦÙĪ
ÙĥÙ ħ
ĠØ£Ù Ĭ
ĠÙĦØ ª
ØŃ Ø¯
Ù ħØ¯
ĠÙħÙĨ Øª
ÙĥÙ Ħ
Ùĩ Ø¯
Ù ĬÙĪ
ÙĦÙĬ Ù
Ĭ Ø¨
Ġ ÙĬØª
ÙĪ Ø§Øª
ĠÙĥÙ Ħ
Ħ ÙĨ
Ø± Ø§Ø¡
ÙĪ ÙĦØ©
Ù ĬÙģ
Ø¹Ù ħ
Ĭ Ø´
ĠØ§ÙĦÙħ Ø³
ĠÙĪ Ø¹
Ù ĬØ§
ØŃÙ ħØ¯
ØŃ Ø©
ĠØ§ÙĦÙ ĩ
ĠÙĩ ÙĪ
Ĭ Ø¬
Ø¹ Ø¶
ĠÙĪ Ùĩ
ĠÙĪ Ùĥ
ÙĤ Øª
ĠØ¹Ù ħ
ÙĨ ÙĬØ©
Ù ĬÙĤ
ĠØª Ù
ÙĨ Ø³
ĠØ¨ Ø£
Ø±Ùĥ Ø©
Ø±Ø¨ ÙĬØ©
Ø« Ø±
ĠÂ «
ÙĪ Ùģ
ĠØ¨ Ø±
ĬÙ ħ
ÙĤ Ø¯
ÙĪ Ø³
ĠÙĪ Ø§ÙĦÙ
ĠØ§ÙĦÙħ Ø´
ĠÙĪ Ø¬
Ù ħØ©
ĠØ§ÙĦÙħ ØŃ
Ø± ÙĤ
ĠØ§ÙĦØ³ Ù
ĠÙĦØ £
ĠØ§ÙĦÙħ Ø¹
Ĭ ÙĪÙĨ
Ùģ Ø³
Ĭ Ø«
Ø§ Ùĥ
Ĭ Ùĩ
ĠÙĪ Ø³
Ø§Ùģ Ø©
ĠØ§ÙĦÙħ Ø¬
ĠØ° ÙĦÙĥ
ÙĪÙ ī
Ù ħÙĤ
Ø¯ Ø¯
Ġ ÙħØ¯
ÙĨ Ø¯
ĠØ§ÙĦØ ²
Ġ ÙħÙĤ
Ø§ÙĦØ ©
ĠØª ÙĪ
Ø· Ø©
ØªÙ ī
ĠØ§ÙĦØ º
ĠØ¹ Ø§Ùħ
ĠØ® ÙĦØ§ÙĦ
ÙĪ Ø±ÙĬ
ħ Ø³Øª
ĠØªÙ ħ
Ø±ÙĬ ÙĤ
ĠÙĥ ÙħØ§
ĠØ§ÙĦÙħ Ø±
ĠØ¹ Ø¨Ø¯
Ġ ÙĬÙĤ
Ù ĬØŃ
Ø® Øµ
Ø§Ø± Ùĥ
e r
ĠØª Ø±
ÙĦØ ¯
Ĭ Ø§Ø³
Ø ¡
ĠØ£Ù ħ
ĠØª ÙĨ
ĠØ§ÙĦØ£ Ù
Ù ĬØ¬
Ġ 4
ĠØ£ Ùĥ
ØµÙ Ħ
ÙħÙ Ĭ
Ø§Ø «
ÙĦØ º
ĠØ§ÙĦØª Ø¹
ĠÙĤ Ø³Ùħ
ÙĤÙ Ĭ
ħ Ùĩ
Ø§Ø °
ħ Øµ
ĠØ Ł
ÙĪ Øª
ĠÙĪ Ø¥
Ù ĬØ´
ħ Ùĥ
ÙĪ ÙĬØ©
ĠØ¨ Øª
Ø¸ Ø±
ÙĤÙ Ħ
Ġ Ø§Ø¨
ĠÙĦØ §Ø
ĠØ§ÙĦÙ ĬÙĪÙħ
ħ ØŃÙħØ¯
Ġ 5
Ġ ÙĬÙĥ
Ø¦ Ø©
ĠØª Ø¬
ÙĦÙĬÙ ħ
Ĭ Ø§ÙĨ
Ù ħØ³Øª
ÙĬÙĨ Ø©
ĠÙĤ Ø¯
Ø±Ù ħ
ĠØ§ÙĦØ¹ Ø§ÙĦÙħ
ÙĤÙ ĬÙĤ
Ġ ÙĬÙĨ
Ġ ÙĬÙħ
Ø³ Ø±
Ġ Ø§Ø¹
Ġ ÙħØ³Øª
ÙħÙ ĬØ¹
ĠØ§ÙĦÙħ ÙĤ
Ġ ÙĬØŃ
ÙĦØ ¹
ĠÙħÙĨØª Ø¯Ùī
Øº Ù
Ø§Ùħ Ø¬
ĠØ§ÙĦØ£Ù ħ
ĠØª Øª
Ø¹Ù Ħ
ĠØ§ÙĦØ ¢
Ø³ Ø©
Ø§Ø¹ Ø©
ĠØ¨ Ø¯
Ġ ÙĩÙĬ
ĠØ£ Ø®
Ø¬Ù Ħ
Ø· Ø±
Ġ Ø§Ø®
Ù ħØŃÙħØ¯
ĠÙĪ ÙħÙĨ
Ġ ÙħØŃÙħØ¯
ĠØ¹ÙĦÙĬ Ùĩ
ĠÙĤ Ø¨ÙĦ
Ùģ Ø¹
Ġ 0
ĠØŃÙ ĬØ«
ÙĪ Ø²
ĠÙĪ Ø²
ĠØª Øµ
ĠÙĪ ØŃ
Ġ Ø§ØŃ
ÙĥÙ Ĭ
ĠØ§ÙĦØ¹ Ù
ĠØ§ÙĦÙħ ÙĨØª
ÙĪ Ø§ÙĨ
Øª Ø¨
ĠØ¨ Ø´
ĠØ§ÙĦÙħ Ø³Øª
ĠØº ÙĬØ±
ĠØ£ Ø¨
Ùģ Øª
ĠÙĪ ÙĦØ§
ĠØ¨ Ø§ÙĦÙ
Ø§Øµ Ø©
ÙĨ Ùĩ
ĠâĢ Ŀ
Ù ħØµ
ĠØ§ÙĦÙħ Øµ
ÙĪ Ø¬
ĠØ¨ Ùĩ
ĠØª Ùĥ
Ø° ÙĦÙĥ
ĠÙĪ ÙĨ
ÙĦÙĩ Ø§
Ġ ÙħØµ
ĠØ£ Ø³
ħ Ø¤
Ø§Ùħ Ù
§Ø ª
ÙĪ Ø©
Øª ÙĩØ§
ĠØ§ÙĦØ¹ Ø±
Ø² Ø©
ĠØŃ ØªÙī
ĠØª Ø³
ÙĦØ Ń
Ù ĬØ®
ĠÙĦØ ¯
ÙĩÙ Ħ
Ø§Ø¨ Ø©
ĠØª Ø´
Ø§ÙĦÙ ĬØ©
ĠØ§ÙĦØ¹ ÙĬÙĨ
Ù ħÙĥ
Ø§Ø¦Ù Ĭ
Ø§Ø¯Ù Ĭ
Ø«Ù Ħ
ħ Ø®
ÙĪÙħ Ø©
Ø¶ Ø¹
Ø¹ Ø±
ĠØ± Ø¦ÙĬØ³
Ø¹ Ø¨
Ù ħÙĩ
ĠÙĦÙĦØ ª
ĠØ³Ù Ĭ
Ø¯Ù ĬØ±
Ø± Ø§Ø±
ĠØ§ÙĦØ¯ ÙĪ
ÙĦÙ ĬÙĨ
ĠØ¨ Ø§ÙĦÙħ
ĠÙĪØ§ÙĦØ £
ĠÙĤ Ø§ÙĦ
ĠØ¨ ØŃ
Ø§ÙĦØ ¨
ħ Ø§Ø±
ĠØ§ÙĦÙħ Ø¯
ĠÙĩ ÙĨØ§
Ġ !
Ø± Ø¯
Ø« ÙĬØ±
ĠØ¨ Ø¹Ø¶
Ùĥ ÙĬØ©
ĠØ¢ Ø®Ø±
Ġ1 9
ØªÙħ Ø§Ø¹
ĠØ§ÙĦØ§Ø³ Øª
Ù ĬÙĪÙħ
Ĭ Ø¶
ØªÙ ħØ±
ĠØ§ÙĦØ£ Ø³
ĠÙĪØ§ÙĦØ ¹
Ĭ Ø·
Ù ĬØ§Øª
ĠÙĬÙħ ÙĥÙĨ
Ù ĬØ¨
Ù ħØ¤
Ġ ÙħØ¤
ĠÙĪ Ø§ÙĦ
Ġ 6
Ø¬ Ø©
Ġ ÙĬÙĪ
ħ Ø¨
Ø¹ Ø§
Ø§Ø¦ ÙĬØ©
ĠÙĪ Ùģ
ÙĦØ§ ÙĤ
Ø§ÙĦØ §Øª
ÙĦØ§Ø Ń
ÙĨ Ø§ÙĨ
Ù ĦÙĨ
Ù ħØ®
Ġ ÙĬØ¬
Ø· ÙĤØ©
Ġ Ø§Øª
Ġ ÙħØ®
ĠØ³ Øª
ĠØ§ÙĦØ± Ù
ÙĪØ± ÙĬØ©
Ġ ÙĦÙĪ
Ĭ Ø§Ø¶
ĠÙĥØ§ÙĨ Øª
ĠØ§ÙĦØ¹ Ø±Ø¨ÙĬØ©
ÙĪ Ø§Ø±
ĠâĢ ľ
Ø¨ ØŃ
Ø¶Ù Ħ
ĠÙģ ÙĤ
ĠØ¹ÙĨ Ø¯
Ġ Ø§Ø±
Ġ ÙĬÙĪÙħ
Ø ¢
ĠØ§ÙĦØ£ Ø®
Ø§ØŃ Ø©
ĠØ§ÙĦØª ØŃ
ÙĪ Ø¶
ĠØ£ÙĨ Ùĩ
ĠÙģ Ø±
Ø¨ ÙĬØ±
ĠØ« Ù
ĠØ§ÙĦÙĪ Ø·
Øµ Ùģ
ĠÙĦÙĦØ ¹
ĠÙĪ ÙģÙĬ
ĠÙĦØ ¨
ĠÙĪÙĩ ÙĪ
ĠØ§ÙĦÙħ Ø®
Ø§ÙĦØ ª
Ø§Ø±Ù Ĭ
Ø¨ Ùĩ
Ġ '
Ùĥ Ø³
ĠØ«Ù ħ
Ø¯ÙĬØ¯ Ø©
ĠÙĦÙ Ĥ
ĠØ§ÙĦØ ¶
Ø§Ø±Ù ĬØ®
ÙĦØ ·
Ø§ÙĨ ÙĪÙĨ
Ø¬ Ùĩ
Ġ [
ĠØ§ÙĦØ§Ø ª
Ø¨ Øª
Ø§Ø¦Ù Ħ
ØŃ Ø±
ÙĨ Ø§Ø¡
ÙĦØ§Ø «
ħ ØµØ±
ÙĩÙ ħØ§
ħ Ø·
Ġ ÙħÙĥ
ĠØ§ÙĦØ³ Ø¹
ÙĬÙĨ Ù
Ø¨ Ø§Øª
ĠÙĨ ÙĤ
ĠØ§ÙĦØ± Ø¦ÙĬØ³
Ø¨ ÙĬØ©
ÙĦØ§ ÙĨ
ĠØª Ø£
Ġ 7
ĠØ§ ÙĪ
ÙĦØ§Ø ¯
Ġ1 0
ĠØª Ø·
Ġ Ø§Ø¬
ħ Ø§ÙĦ
Ĭ ÙĬÙĨ
ĠÙħØ¬ ÙĦØ³
ĠØŃ Ø³
Ù ħØ¨
ħ ÙĦÙĬ
ĠÙĪØ§ÙĦØ §Ø
ĠØ§ÙĦÙĤ Ø±
ĠØ§ÙĦØ¥ Ø³
ĠØ§ÙĦÙħ Ø¤
ĠØ§ÙĦØ§ ÙĨ
ĠÙģ Ø¥
ĠØ¨ ÙĤ
Ø±ÙĬ Ø¯
ĠÙĪ Ø±
Ø¸ Ø§Ùħ
Ø§Ø³ Ù
ĠØ§ÙĦØ¨ Ø±
ĠØ¨ ÙĪ
Ø® Ù
Ø¨ Ø¹
ĠÙĦØ ¹
Ø§ÙħÙ Ħ
Ġ ÙĬØ³
Ùģ Ø©
Ġ ÙĦÙĨ
ĠØ¬ ÙħÙĬØ¹
Øµ Ø©
Ø§Ø¶ Ù
ĠÙĪ ÙĦÙĥ
Ù ħØµØ±
Ġ ÙħØµØ±
Ùģ Ø¶ÙĦ
Ø§ ÙĦÙĥ
Ġ ÙħØ¨
ĠÙģÙĬ ÙĩØ§
ĠÙĪ Ø§ØŃ
ĠØ¹ Ø¯Ø¯
ĠØ ¸
Ø§Ø¹ Ø¯
ĠØ¹Ùħ ÙĦÙĬØ©
ħÙ Ĭ
ĠØŃ ÙĪÙĦ
ĠÙĬÙĥ ÙĪÙĨ
Ĭ Ø³Øª
Ġ s
Ø§Ùģ Ø¸
ÙĨ Ùī
ĠØ¨ ÙĩØ§
ĠÙĪÙĤ Ø¯
Ùģ Ø§ÙĦ
ĠØ£ Øµ
ĠØ§ÙĦØŃ Ùĥ
ÙĦÙĤ Ø©
Ø§Ø± ÙĬØ©
ØŃ Ø¯Ø©
Ġ S
ĠÙĨ ØŃ
Ø° Ùĩ
ÙĪØ¯ Ø©
Ø§Ø¯ Ø±
ĠØ§ÙĦÙ Ĭ
Ø§Ø¨ Ø§Øª
ĠÙĪÙĤ Ø§ÙĦ
ÙĪÙĤ Ø¹
ĠÙģ Øª
Ø¬Ù ħ
Ø±ÙĬ Ù
o n
Ø¬ Ø¯
ĠØ§ÙĦØ§Ø ¬
Ġ 8
ħ Ø«ÙĦ
Øº ÙĬØ±
Ù ħØ·
Ø§Ù Ĭ
ĠÙĪØ§ÙĦØ ³
Ø§Ø¦ Ø±
Øª ÙĦÙģ
ĠØ¨Ø§ÙĦØ ª
Ø¨Ù ĬØ¹
ÙĤ Ø±
ĠØ´ Ù
Ù ĬØ¶
ĠØ¥ Ø°Ø§
ĠÙħÙĪ ÙĤ
ĠØ§ÙĦØª Ø±
ÙĦØ³ Ø·
ĠØ§ÙĨ Øª
Ùģ Ø§Ø¹
ĠØ¥ ÙĦØ§
Ù ĬÙĪÙĨ
Ø¶ Ø§
Øµ ÙĪÙĦ
ĠÙĦØ Ń
ĠØ¯ ÙĪ
Ø´ Ùģ
Ø§Ùħ Ø©
Ġ ÙĬØ±
Ø¸ Ù
Ø¬Ù Ĭ
ĠØ§ÙĦÙħ Ù
ĠØ£ Ø¹
ĠÙĨ ÙģØ³
ØªÙ ħØ¹
ĠÙģÙĬ Ùĩ
ĠØ§ÙĦØª ÙĤ
ĠÙĪÙĥ Ø§ÙĨ
ÙĦØ§Ø ±
ÙĨ ÙĬÙĨ
ĠØ§ÙĦØŃ Ù
ĠØ¯ Ø±
ĠØ´ Ø±ÙĥØ©
Ø§Ø º
Ø±Ù ĬØ±
ÙĤØª Øµ
Ø§Ø¶Ù Ĭ
ĠÙĦÙĥ ÙĨ
Ùĩ Ø©
Ġ *
ĠØ§ÙĦØª ÙĪ
Ø¯ÙĬ Ø«
Ù ħÙĦÙĬ
ħ Ø§ÙĨ
ĠØ§ÙĦØª Ø¬
l a
Ù ĬØ·
ĠØŃ ÙĤ
ĠØ£Ùĥ Ø«Ø±
ÙĪØ¯ ÙĬØ©
Ø§Ø± Ø¬
ĠØ£ ØŃØ¯
ĠØ¨ Ø·
Ø¯Ù ħØ§
Ø§Ø¨ Ù
Ġ Ø¯ÙĬ
ĠØ§ÙĦØ³Ù Ĭ
ĠØ§ÙĦÙģ Ø±
Ø£ Ø³
Ø· Ø§Ø¹
ĠØ§ÙĦØ³Ù ĬØ§Ø³
ÙĦØ§Ø ¬
ĠØ¨ Ø¹
ĠØ¨ Ø§ÙĦ
Ø¬ Ø±
ħ Ø«
ĠØª Ø¯
ĠÙĪ Ø´
ĠØ§ÙĦØ±Ù ĬØ§Ø¶
ħ Ø§Ùħ
Ġ ÙĬØ´
Ġ201 8
ĠØ® Ø·
Ġ A
Ø±ÙĪ Ø¹
Ġ ÙħØ·
Ø§ÙĤ Ø¹
Ġ20 0
i n
ÙĪÙ ĬØª
Ø¯ Ø§Ùħ
ÙĪ Ùĥ
ÙĨ ÙĪØ§Øª
Ġ ÙħÙĦÙĬ
ĠØ¨ Ø¥
a t
ĠÙĪØ§ÙĦØ Ń
ĠØ³ Ø¨
ĠØ§ÙĦØ´ Ø¨
ĠâĢ ĵ
ĠØ¯ ÙĪÙĨ
Ù ĬÙĩ
u r
ÙĤ Ø§Øª
Ø¯ Ø§Ø±Ø©
Ġ 9
Ø¹Ù Ĭ
Ø§Ø³ Ø©
ÙĦØ§Ø ¡
Ø§Ø¨ Ø¹
Ġ Ø±ÙĬ
Ø¹Ù ĬØ¯
ĠØ§ÙĦØ§Ø Ń
Ø§ÙĦØ Ń
ĠÙĦØ ¬
ĠÙĦÙĦØ £
ÙĪÙ ĬØ±
ĠÙĪÙ Ĭ
Ù ĬØ³Øª
ĠÙĪÙĦÙĥ ÙĨ
ĠÙĩÙĨØ§ Ùĥ
ĠØ§ÙĦØ§Ø ¹
ÙĪÙħ Ø§Øª
ĠØªØŃ Øª
ĠØ§ÙĦØ¹ ÙħÙĦ
ĠÙĦÙĩ Ø§
Ø§Ø¦ ÙĤ
ĠÙĦØ ¥
ÙĦØ§Ø ¨
Ù ĬØ§ÙĨ
Ø¯Ù ħØ©
ÙĨ Ø§ÙħØ¬
ĠØ¨Ø£ ÙĨ
ĠØ± Ø³
a r
ÙĪ ÙĦÙī
ĠÙĪ Ø§Ø³
ÙĤÙ ħ
ħ ÙĦÙĥ
Ġ ÙĬØ³Øª
ĠØ£ Ø´
ĠÙĪØ§ÙĦØ ¯
Ù ħØ«ÙĦ
ĠØ§ÙĦÙĪ Ø²
Ùĥ Ø¯
ĠØ§ÙĦØ° ÙĬÙĨ
Ø±ÙĬ Ø¨
ØŃ Ø§Ø¯
ĠØ¥ ÙĦÙĬ
Øª Ø§Ø¨
Ġ ÙĬØ¯
ĠÙħÙĨ Ø°
ĠØ§ÙĦØ¹Ø§Ùħ Ø©
Ùģ Ø§
ÙĦØ§Ùħ ÙĬØ©
Ø²Ù Ĭ
ĠØ§ÙĦØ§ ÙĨØª
ĠÙĪ Ø§ÙĨ
Ġ ÙħØ«ÙĦ
Ø¶ ÙĪØ¹
ĠØ§ÙĦÙĨ Ø¸Ø±
Ø¯ Ø«
Ø§Ø±Ùĥ Ø©
ĠØ§ÙĦÙħØª ØŃØ¯Ø©
ĠÙĪØ§ÙĦØ ¨
Ø±Ùĥ Ø§Øª
ĠØ¨ Ùĥ
Ġ H
ĠØ§ÙĦØ® Ø§ØµØ©
ĠÙĪØ§ÙĦØ ¥
ØŃÙ Ĭ
Øª Ø¨Ø±
ÙĦØ ¬
ÙĬÙĨÙ Ĭ
Ġ c
ĠØ¨Ø´ ÙĥÙĦ
ĠÙĪ Øµ
Ø³ Ø§Øª
Ĭ Øµ
Ù ĬØ²
Ø§Øµ Ù
ÙĥØª ÙĪØ±
Ø± ØŃ
ĠÙĤ Ø±
Øª Ùĥ
ÙģÙ Ħ
ĠÙĪ Ø¯
ÙĪ ØŃ
Ø§Ùħ Ø¹Ø©
ĠØ§ÙĦØª ÙĨ
ÙĪÙĨ Ù
ÙĬÙĨ ÙĬØ©
ĠØ£ÙĬ Ø¶Ø§
Ø§Ø¯ ÙĬØ©
Ø® Ø¯Ø§Ùħ
Ĭ Ø§Ùħ
Ĭ ØªÙħ
Ø¸Ù ħ
Ø¹ Ø§Ø±
ÙĪ Ø·
ĠÙĪÙ ħ
ĠÙģØ¥ ÙĨ
ÙĪ Øµ
ÙħÙ ĬÙĦ
Ø£ Ø©
Ø¯ÙĬ Ø§Øª
ĠØ§ÙĦØµ ØŃ
ÙĪÙĨÙ Ĭ
ÙĦØ§Ø ¹
Ù ĬØªÙħ
ØŃÙ ĬØŃ
ĠØ§ÙĦØ£ ÙĪÙĦ
ĠÙħÙĪÙĤ Ø¹
ĠÙĪ Ø®
Ø¸ ÙĬÙģ
Ġ P
Ø§Ø¦ Ø¨
ĠÙĪ ÙĩÙĬ
Ġ ÙĬØªÙħ
ĠØª Ø®
ĠØ Ľ
ĠØ¹ÙĦÙĬ ÙĩØ§
ÙĦÙĬÙ Ħ
ÙĪ Ø§Ø¬
ĠØ§ÙĦÙħÙĨØª Ø¯Ùī
ĠÙĪ Ø°ÙĦÙĥ
ĠØª Ùģ
ĠÙĨ Øª
Ġ C
Ø¹Ùħ Ø§ÙĦ
Ùĥ Ø©
Ġ M
Ø±ÙĬÙ ħ
ÙĤ Ø§
ĠÙĪ Ø·
ĠØ§ÙĦØ¹Ù ħ
ĠØ§ÙĦÙħ Ùĩ
ĠÙĦÙĥ Ù
ĠÙĦØ£ ÙĨ
ØŃ Ø§Øª
Ùģ Ø§ÙĤ
ĠÙĦÙĦØ ³
ĠÙģÙĤ Ø·
ØŃ Ø«
ĦÙ ĩ
Ø¯Ù ĬÙħ
ĠØ§ÙĦØ¹ ÙĦÙħ
Ø§Ù ĬØ§
ĠØª ÙĦÙĥ
ĠÙħÙĨ ÙĩØ§
ĠØ¹ Ø¨Ø±
³ Øª
Ùĥ Ø§ÙĨ
ĠØ¨Ù Ħ
Ø² Ø¨
ĠØªÙĥ ÙĪÙĨ
Ø± Ø§
ĠØ£ Ø¯
Ø§Ø¨ Ø·
ĠÙĨ Ø³
ÙħÙĪ Ø¹Ø©
ĠØ² Ù
ĠÙĪØ§ÙĦØ ´
Ø³Ø¨ Ø¨
Ĭ Ø§Ø©
a n
Ø§Ø° Ø§
Ø£ ÙĨ
ØªÙ Ħ
ĠØ£ ÙĤ
Ø¯Ùħ Ø§Øª
ĠØ§ÙĦØ¯ Ø±
Ø¶ Ø©
ĠØ§ÙĦØ´ Ø±
ĠØ§ÙĦÙħ Ø·
ĠØ§ÙĦØ³Ø¹ ÙĪØ¯ÙĬØ©
ĠÙĦÙĦØ Ń
ĠØ§ÙĦÙħ Øº
ĠØ§ÙĦØ§Ø ®
Ø¶ Ø±
ĠØ´ Ø¨
Ø£ Ù
Ø±Ùģ Ø©
ĠÙĪØ§ÙĦÙ Ĥ
Ù ħØ§ÙĦ
Ø¶ Ø§ÙģØ©
Ø¶ Ø§Ø¡
Ø±ÙĬ Ùģ
ĠÙĦÙĦØ ¨
ÙĦØ§ Ùģ
ĠÙĤ Ù
Ø²Ù ĬØ²
ÙĦÙĬ Ø§Øª
ĠØª Ø¨
ĠØ§ÙĦØ§Ø¬ ØªÙħØ§Ø¹
ÙĤ Ø¨
ÙĤ Ùī
ĠÙĨ ÙĪ
ĠØ§ÙĦØ¬ ÙĨ
ĠÙĦÙĬ Ø³
ĠØ§ÙĦØ§Ø ±
Ø§Ø® Ù
Ø®Ù Ħ
ĠØ£Ø¨ ÙĪ
ĠØª Ø³Øª
Ø§ÙĨ Ø¨
ĠØ£ ØŃ
Ø§ÙĦØ «
Ĭ Ø§Ø¯Ø©
Ġ %
ÙĬÙĨ Ø§
ÙĪ Ø§Ø¡
ĠØ§ÙĦØ§Ø ¨
ĠØ§ÙĦÙħ Ø¨
ØºÙ ħ
ĠØ¬ ÙĨ
ĠØ´Ù Ĭ
ĠØ£ Ø±
Ġ1 1
Ø´ Ù
ĠØ¥ Ø¹
Ø§ÙĨÙ ĬØ§
ĠØ£Ø® Ø±Ùī
ĠØ§ÙĦØ± Ø³
Ùĥ Ø²
ĠØ§ÙĦØ´ ÙĬØ®
Ùĥ ÙĪÙĨ
Ø§ØµÙ Ħ
Ġ1 2
ØºÙ Ĭ
Ø¸ ÙĬÙħ
ĠÙĪØ§ÙĦÙ ģ
Ø§Ø¨ Ø¹Ø©
Ø± Ø§Øª
o r
ĠØ§ÙĦØ§ Ù
ÙĪ ÙĦÙĩ
ĠØ§ÙĦÙĦÙ ĬØ²
Ø§ÙĦØ ¯
Ø§Ø¦ Ø¯
ĠÙĪØ£ ÙĨ
ĠØ§ÙĦØ¬ Ø²
ħ ÙĬØ©
ĠÙĪØ§ÙĦØ ¬
Ġ T
Ø¶ Ø§Ùģ
ĠÙĪ ÙĦÙĬ
g er
ÙĬÙ ħØ©
Ġ1 4
ĠØ§ÙĦØŃÙĥ ÙĪÙħØ©
ĠØ¹ ÙĦÙħ
ĠÙĪØ§ÙĦØ ±
ÙĪØ±ÙĬ Ø§
Ø§ÙĦÙ ģ
Ùĩ Ø§Ø¨
ĠØ§ÙĦØ¥ Ø¹
Ø§Ø®Ù Ħ
e n
ĠØ§ÙĦØ¯ ÙĪÙĦØ©
Ø§Øª Ùĩ
Ø§ÙĤ Ø©
ĠØ§ÙĦØ¹Ø± Ø¨ÙĬ
Ø´ Ø§Ø±
Ø¯Ù Ħ
Ù ħØ§Ø±
Ø§Ø² Ù
ĠÙĪØ§ÙĦØ §
Ġs ur
ĠÙĪ ÙĦÙħ
Øµ Ø¯
Øª Ø¯
Ø§Ùĩ Ø¯
Øº Ø·
Ùĥ Ø§
ħ ÙĥØª
Ø§Ù ĬØ±
ħ Ø¨Ø§Ø±
Ġ _
e s
ĠØ§ÙĦØ¢ ÙĨ
ÙĬØ± Ø§
ÙĬØ± Ø§ÙĨ
ħÙĦÙĥ Ø©
Ø° ÙĥØ±
Ġ ÙĬØ®
ÙĪ Ùĩ
ĠØ§ÙĦØª Ùī
ħ ÙĬÙĨ
ÙĦØ§ ÙħÙĬ
0 0
ĠÙģ ÙĤØ¯
ĠÙĪØ§ÙĦØª Ù
Ø§Ø¯ Ø§Øª
Ġ la
ĠÙĪØ§ÙĦ ÙĨ
Ġ ÙĬÙģ
ĠØ§ÙĦØª Øµ
Ø¬ ÙĬÙĦ
Ø§Ùģ Ù
ĠØ§ÙĦØª Ø³
ĠØ¨ Ø¬
ĠÙĥ Ø¨ÙĬØ±
Øª Ø¨Ø§Ø±
ÙĪÙ ħØ§
Ùģ Ø¶
Ø§Øª Ø¨
ĠÙħØ¯ ÙĬÙĨØ©
Ġ1 5
ĠÙĦØ ³
ÙĬØ§ Ùĩ
ÙĪ ÙĦÙĬ
Ø§Ø¹ Ù
Ø¨ Ø·
Ùĥ Ø«Ø±
ger y
ĠØ§ÙĦØ« Ø§ÙĨÙĬ
ĠØ£Ùħ Ø§Ùħ
Ø¨ ÙĬØ±Ø©
ÙĨØ³ Ø§ÙĨ
ÙģÙĬ Ø°
Ø® Ø¯Ùħ
Ù ħØ§ÙĨ
Ù ħÙĥØª
ÙĦÙĥ ØªØ±
Ġsur gery
ĠÙĪØ² ÙĬØ±
ĠØ§ÙĦÙħ ÙĦÙĥ
Ù ħØ¨Ø§Ø±
ĠØ§ÙĦÙħ Ø±Ùĥ
Ø§Ùħ Ø§
ĠØ¬ Ø²
Ġ ÙħÙĥØª
Ø¶Ù Ĭ
ØŃ ÙĦØ©
ĠØ§ÙĦØ´ Ø¹Ø¨
ÙĪ Ø¯ÙĬ
ĠØ§ÙĦØµ Ùģ
ĠØ§ÙĦØ£ ÙĨ
Ġ ÙħØ¨Ø§Ø±
Ø§ÙĦÙ ĩ
ĠØ£ Ùģ
ĠØ§ÙĦØ§ ÙĤØªØµ
ĠÙĪ ÙħØ§
Ùĥ Ø±ÙĬ
ĠâĢ ¦
ĠÙĪØ§ÙĦØªÙ Ĭ
ĠØ´ Ø®Øµ
ĠØ§ÙĦÙģ ÙĦØ³Ø·
ĠÙģ Ø¹
Ġ B
Ø§Ø¹ Ø§Øª
ĠØ§ÙĦÙĨ Ø§Ø³
ÙĪØ³ Ø·
ħÙ ĬØ²
ĠÙħÙĨ Ùĩ
Ø§Ø¨ ÙĤ
ĠÙģÙĬ ÙħØ§
ĠØ§Ø¨ ÙĨ
ØŃ ÙĨ
ĠØ§ÙĦØŃ Ø±
ĠØ§ÙĦØ£ ÙħØ±
ÙĤÙĬÙĤ Ø©
ĠØ¹ÙĨ Ø¯ÙħØ§
ĠØ§ÙĦØ£ ÙħÙĨ
Ġ @
ĠØ§ÙĦØ¬ ÙħØ¹
Ø¯ ÙĪØ¯
ĠØ¯ÙĪ ÙĦØ§Ø±
Ø§ÙģØ¸ Ø©
Ø¸ ÙħØ©
ĠØ§ÙĦÙĪ ÙĤØª
ĠØ§ÙĦØ¯ ÙĥØªÙĪØ±
Ġ e
Ø³ ÙĨ
ĠÙĪØ§ÙĦØ µ
ĠØ§ÙĦØ£ ÙĪÙĦÙī
Ø® ÙĪÙĦ
ĠØ§ÙĦØ® Ø·
ĠØ¯ ÙĪØ±
Ġ Ø§Ø¶
Ø§Ø± Ø³
Ø²Ù Ħ
ĠØ® Ø§ØµØ©
ĠÙĪØ§ÙĦØ ®
ĬÙģ Ø©
ħ ÙĦÙģ
ĠØ¨Ø§ÙĦØ ¹
Ø§Ùĩ Ø±Ø©
Øª ÙĤ
ĠØ£ ÙħØ§
Øª ÙĬÙĨ
ĠØ§ÙĦØ¹Ø± Ø§ÙĤ
ĠØ¹ ÙħØ±
ĠØ§ÙĦØ¥ Ù
ĠÙĪØ² Ø§Ø±Ø©
ĠØ¨Ø§ÙĦØ ¥
Ĭ Ø¦Ø©
ÙĪÙĨ Ø©
ĠØ· Ø±ÙĬÙĤ
Ġla s
ĠØŃÙ ħ
ĠØ¨ ÙħØ§
ĠØ± ÙĪ
ħ Ø§Ø±Ø§Øª
Øº Ø±
Ø¬ ÙĨ
Ø³Ù ī
ĠØ¨Ø§ÙĦÙ Ĥ
ħ Ø¯ÙĬØ±
Ø§Ø³ ÙĬØ©
Ġ ÙĬØ§
ĠØ§ÙĦØªØ¹ ÙĦÙĬÙħ
ÙĥÙ ħØ©
Ġ Ø§Ø´
ĠÙĦÙĦØ ´
Ø¹ Ø§Øª
ĠØ¬ Ùĩ
ĠØ« ÙĦØ§Ø«
ĠØ¹ Ø¯Ùħ
ĠØŃ ÙĦÙĤØ©
ĠØ¶ Ø¯
ĠØ§ÙĦØ¹ ÙĤ
ĠØ´ ÙĩØ±
Ø¯ Ø§Ø¯
ĠØ§ÙĦ ÙĦØº
ÙĦÙħ Ø©
Ø§ ÙĦÙī
ĠØ¨Ø± ÙĨØ§ÙħØ¬
ĠØµ ÙĪØ±
ĠÙĪØª ØŃ
ĠØ£ ØŃÙħØ¯
ĠÙħÙ ħØ§
ĠØ§ÙĦÙħÙĨ Ø·ÙĤØ©
ĠØ§ÙĨ Ùĩ
Ù ħØ«
ĠÙĪ ÙħØ¹
ĠÙĦØ¨ ÙĨØ§ÙĨ
ĠÙĬØ¬ Ø¨
Ġ ÙħÙĩ
ĠØ³ ÙĨØ©
Ø² ÙĬØ¯
a l
Øµ Ø§ÙĦ
Ù ĬØµ
Ø§Ùģ ÙĬØ©
ĠØ§ÙĦÙģ Øª
ĠØ§ÙĦØ¥ ÙĨ
ÙĪÙ ĬÙĦ
ĠØµ Ùģ
Ø§Ùģ ÙĤ
Ø§ ÙĪ
ÙĦØŃ Ø©
ĠØµ ÙĦÙī
ĠØ§ÙĦØ« Ø§ÙĦØ«
Ù ħÙĦÙģ
ĠØŃ ÙĬÙĨ
ĠØ¬ Ø¯ÙĬØ¯
Ø§Ø· ÙĤ
Ø§Ø¦ ÙĬÙĦ
Ġ ÙĬØ¨
ÙĨ Ø¹
Ø§Ø¦ Ùģ
ĠØ¬ Ø¯ÙĬØ¯Ø©
ĠØ§ÙĦØ£Ùħ ÙĬØ±
ĠÙħÙĨ Ø·ÙĤØ©
ĠØ¹ ÙħÙĦ
ĠØ§ÙĦØ£Ùħ Ø±ÙĬ
ĠØ§ÙĦØ¨ ÙĦØ¯
Ø±Ø¨ Ø©
Ø¨ ÙĬÙĨ
Ø¹ Ùģ
Ø±ÙĪ Ùģ
Ø±ÙĬ ÙĤØ©
Ħ ÙĪÙħ
Ĭ Ø§Ø±
Ø§Øµ Ø±
ĠØ¨ Ø³Ø¨Ø¨
Ù ħØ¯ÙĬØ±
Ġ ÙħØ¯ÙĬØ±
ĠØ§ÙĦÙħØ¬ ØªÙħØ¹
a c
Ø¨ Ø§
ĠØ§ÙĦ ÙĦØ¨
ĠØ§ÙĦÙħ Ø§Ø¶ÙĬ
ĠÙħÙĦÙĬ ÙĪÙĨ
Ø¹Ø¶ Ø§Ø¡
Ø³ Ø·
ĠØ§ÙĦØ¬ Ùĩ
ĠØ§ÙĦÙħ ÙĬØ§Ùĩ
ĠÙĦØ °
ĠÙĦÙĦÙ Ĥ
Ø¬ Ø²
ĠØ§ÙĦØ¯ ÙĬÙĨ
ĠØ¹ Ø§ÙĦÙħ
ĠØ· ÙĦØ¨
Ġ D
ĠØ§ÙĦÙĤ Ù
ĠÙĪØ§ÙĦØ °
Ø§Ø³Ù ħ
Ø±ÙĪ Ø¶
Ø§Ø¶ ÙĬØ¹
ĠØ§ÙĦØ® Ø§Ø±Ø¬
Ø³ Ø§Ø¡
Ø³ ÙĬÙĨ
ĠØ§ÙĦÙĤ Ø§ÙĨÙĪÙĨ
ĠÙĦÙĦØ ¬
ÙĤ ÙĤ
ĠØ³Ù ĬØ§Ø³
Ġ ÙħÙĦÙģ
ĠØ§ÙĦØ§Ø ·
ĠÙĪ Ø¶Ø¹
ĠØ´ Ø±
ĠÙħØ® ØªÙĦÙģ
ĠÙĪØ³ ÙĦÙħ
ØµÙ Ĭ
ØŃØ¯ Ø«
Ù ĬØ¦Ø©
Ø· Ø§Ø±
ØŃ Ø§Ø¨
ĠØ§ÙĦÙĪØ· ÙĨÙĬ
ħ ÙĬØ±
ĠØ¯ Ø§Ø®ÙĦ
ĠØ¬ ÙĪ
Ġ ÙĩÙĦ
ĠÙĪÙĩ Ø°Ø§
Ø³Ù ĬØ§
ĠØ¹ Ø¨
ħ Ø¨Ø±
Ø± Øª
ĠÙĪÙĤ Øª
ĠØ§ÙĦØ§Øª ØŃØ§Ø¯
Ġ Ø±Ùħ
ĠÙĥÙ ĬÙģ
ĠØ§ÙĦØ³ ÙĦØ§Ùħ
ÙĤ Ø§Ø¦ÙĤ
Ø¹ ÙĬØ©
Ø§ØŃ Ù
Ø· Ù
Ġ G
Ø§ÙģÙ Ĭ
Ġ Ø§Ø¯
Ġ ÙħØ«
ĠØ¬ Ø¯Ø§
ĠÙĤ Ø§Ùħ
Ø± Ø¬
Ø§Ø¹ Ø¯Ø©
ĠØ§ÙĦØ£ Ø¯
Ùĩ ÙĪ
Ùĥ ÙĪ
Ø§Ø¦Ù ħ
Ø§ÙĨ Ø§Øª
ØµØ± ÙĬØ©
Ø¶ ÙĪ
ĠØ¬ Ù
ĠØ§ÙĦÙħ ÙĪÙĤØ¹
ÙĦÙĬ Ø§
ĠÙĪØ¬ ÙĪØ¯
Ø¹ Øª
ĠØ§ÙĦØª Ø´
ĠÙħØ± ÙĥØ²
ĠØ§ÙĦØ³ ÙĦØ·
ĠØª Ø§Ø±ÙĬØ®
i s
ĠÙĤ Ø¶
Ĭ Ø¤
ĠØ³ ÙĨ
Ø§Ø¨Ù Ħ
Øª Øµ
Ġ ÙħØ§Ø±
Ù ĬØ¤
Ġ ÙĬØ¤
ĠØ§ÙĦØª Ø¯
ĠØ£Ù ħØ³
ĠØ§ÙĦÙĦØ¨ ÙĨ
Ø® Ø°
ĠÙĨØŃ ÙĪ
ĠØ§ÙĦÙħ Ø§Ø¡
ĠØ£ Øº
Ø¨ Ø§ØŃ
ĠØ§ÙĦÙħÙĪ Ø¶ÙĪØ¹
ĠØ£ ÙĪÙĦ
ÙħÙ ĬÙħ
Ø¯ÙĬ ÙĪ
ĠØ§ÙĦØ« ÙĦØ§Ø«
ĠÙħØ¬ ÙħÙĪØ¹Ø©
ĠØ¨ ÙĬØª
ĠØ£ÙĨ ÙĩØ§
Ġ F
Ġ1 8
ĠØ¨ Ø³
Ø±ÙĬ Ø·
Ø¯Ù ĬÙĦ
ĠØ¨Ø§ÙĦØ ±
ĠÙĦÙĩ Ù
ĠØ¨Ù Ĭ
Ø® Ø§Ø¨Ø§Øª
ĠØ° Ø§Øª
Ø¬Ùĩ Ø²Ø©
Ø¸ ÙĩØ±
ÙĨ Ùĥ
ĠØ¹ ÙĤ
Ġ ÙĬØµ
ÙĩÙħ Ø©
ĠÙĦÙ ģ
ĠÙĥ ØªØ¨
ĠØ§ÙĦØ£ ØŃ
Ø§ÙĦØ §
Ø§ ÙĪÙĨ
Ø§ÙĦÙĬ Ø§
ÙħÙ ħ
Ġ1 3
ĠÙĦÙĩÙ ħ
ÙĩØ¯ Ùģ
Ø± Ø¨ÙĬ
ĠØ§ÙĦØ¯ÙĪ ÙĦÙĬ
ÙĦØ§Ù ĬØ§Øª
ĠØ¨ Ø§Ø³
ÙĪØ¨ ÙĬØ©
Ø± Ø³
ÙĪ ÙĦÙĬØ©
Ġ p
ÙĪ Ø¡
ĠØ£ ÙħØ±
Ø®Ø± Ø¬
ĠØ§Ù Ĭ
Ġ t
Ø§Ø ¸
Ø¨Ø¯ Ø£
ØŃÙ ħ
ĠÙĪ Ø§ÙĦÙĥ
ĠÙĪØ¹ ÙĦÙī
ĠØ¹ Ø´Ø±
ĠÙĥ Ø«ÙĬØ±
Ø´ Ø©
ĠØ§ÙĦÙħØ¬ ÙĦØ³
Ø¨ÙĬ ÙĤ
ĠØ£ Ø¬ÙĦ
Ø® Ø¨
Ġ Ø§Øµ
ĠÙĨ Ø¬
Ø¯Ø§ ÙĬØ©
ĠØ§ÙĦ ÙĦØ¬
ĠØ£ ÙĦÙģ
ĠØ§ÙĦØ¯ ÙĪÙĦ
ĠØ£ Ø«
ĠØ¨ ÙĦØ¯
ÙĪØ± ÙĪ
ĠÙĦÙ ĦÙĨ
ĠØ¨Ø§ÙĦØ £
Ø· Ø¹
Ø§Ø¹ ÙĬØ©
ĠÙĪ ØºÙĬØ±
ĠØ§ÙĦØ« Ø§ÙĨÙĬØ©
ĠØ¨Ù ĬØ§ÙĨ
ĠØ¨Ø± Ø§ÙħØ¬
Ø¯ Ùģ
ĠÙĤ Ø§ÙĨÙĪÙĨ
ĠÙĪØ§ØŃ Ø¯
ÙĨÙĬ Ùĩ
ÙĪØ± Ø§Øª
ĠØ¹ Ø¯
ĠØ£ ÙĩÙħ
ĠÙĦÙĦØ ¯
ĠÙĦØ ´
ĠØ§ÙĦØ ¸
ĠØ§ÙĦØ« ÙĤ
ÙĤ Ø¨ÙĦ
Ø±ÙĪ Ø·
ĠÙĥ Ø¨ÙĬØ±Ø©
ĠØ§ÙĦÙĦÙĬØ² Ùĥ
ØŃÙ Ħ
ĠØ§ÙĦØ¨ ØŃØ±
ĠØ§ÙĦÙĥ Ø«ÙĬØ±
Ø§Ù ħÙĨ
ĠØŃ Ùĥ
Ø§ ÙĪÙĦ
Ø¬ Ø§ÙĦ
Ø¹ Ùī
ĠØ§ÙĦØ¬ Ø¯ÙĬØ¯
ÙĩÙ ī
ĠØ¶ ÙħÙĨ
ĠØ§ ÙĤ
Ø¨Ù ĬØ§
ĠØ¥ Ø¯Ø§Ø±Ø©
Ø§ÙĨ Ø©
Ø¬ Ø±Ø§Ø¡
Ø§Ø¹Ù Ĭ
Ø§Ùħ ÙĦØ©
ĠÙĦÙĦØ ¥
ĠÙĪØ¥ ÙĨ
Ø¨ÙĬ Ø¨
ĠÙģ Ø±ÙĬÙĤ
ÙĪ Ø§ÙĦ
Ø· ÙĬØ¹
Ø§Ø³ Ø¨Ø©
Ø¨ Ø§Ø¡
Ø§ÙĦÙ ĦÙĩ
ĠØ§Ø³Øª Ø®Ø¯Ø§Ùħ
Ø§Øª Ù
ĠÙĪØª ÙĤ
Øª Ø¬
ÙĦÙĩ Ù
Ø³ ÙĥØ±
Ø¶ ØŃ
Ġ1 6
Ġ E
r e
Ø±Ø¨ Ø¹
ĠÙĬÙĤ ÙĪÙĦ
ĠØ¹ÙĨ Ùĩ
Øµ ÙĪØµ
ĠØ§ÙĦØ´ Ø±ÙĤ
Ø§ÙĨ Ø§
Ġ #
ĠÙģ Ø£
ĠØ§ÙĦØ§Ø ´
ÙĪÙĨ ÙĬØ©
ĠØ¬ Ø§Ø¡
ĠÙĪØª Ø¹
ÙĪÙ ħÙĬ
ÙħÙ ī
Ø³Ø± Ø§Ø¦ÙĬ
ĠØ§ÙĦØ¨ ØŃØ«
Ø§Ø¯Ù Ħ
ħ Ùģ
Ø§ÙħÙ Ĭ
Ø§ÙĦØ ¬
ĠØ§ÙĦÙĨ Ø¸Ø§Ùħ
ÙĪÙħ ÙĬØ©
Ø³ Ø§Ùħ
Ø³Ø¨ ÙĪØ¹
ÙĪ Ø§Ø¨
ĠÙĨ Ùģ
ĠØ§ÙĦÙĬ ÙħÙĨ
ĠØ¬ ÙħØ¹
Ġ2 5
ÙĦÙħ ÙĬÙĨ
ĠÙĦØ¯ Ùī
ĠØ§ÙĦÙĥ ÙĪÙĬØª
ĠØ§ÙĦØŃ Ø¯ÙĬØ«
Ø± ÙĬØ©
ĠØ¯ ÙĪÙĦØ©
Ġ ÙĬØ²
Ø· ÙĦØ§ÙĤ
Ġ L
Ø§Ø³Ù Ĭ
ĠØ± ÙĤÙħ
ĠØµ ØŃ
Ġe y
ĠØ¨ Ø§Ø±
ĠÙħØ´ Ø±ÙĪØ¹
Øµ Ø§Ø±
ĠØ§ÙĦØ¥ ÙĨØ³Ø§ÙĨ
ĠØ§ÙĦÙĦØº Ø©
ÙĨÙ ħÙĬØ©
ĠØ§ÙĦØŃÙ ĬØ§Ø©
ÙĩÙ ĬÙħ
Ġ201 7
ĠØŃ Ø§ÙĦØ©
ĠÙĦÙ ħÙĨ
ØªÙ ħØ¯
ĠØ§ÙĦØ® Ø§Øµ
ĠØ¹ Ø±Ø¶
ĠØ¯ ÙĤØ§Ø¦ÙĤ
Ø¨Ù ĬÙĦ
ĠØ§ÙĦÙĪØ· ÙĨÙĬØ©
ĠÙĥ ØªØ§Ø¨
ĠÙĬØª Ø¹
ĠØ¨ Øµ
ØªØ± ÙĨØª
Ġ Ø§Ø«
Ø§Ø³ Ø¨
Ø§Ø¨ ÙĤØ©
Ø§Ø¯ Ø«
Ø³Ù Ħ
ĠÙĦÙĦØ¹ ÙĬÙĪÙĨ
ĠØ§ÙĦØ³ ÙĬØ¯
ĠÙħØ³ Ø¤
ĠØ§ÙĦØ¬ Ø¯ÙĬØ¯Ø©
Ħ ÙĦØ§Ø
ĠØ§ÙĦØ³ ÙĨØ©
Ø· ÙģØ§ÙĦ
ĠØ§ÙĦØ³ ÙĪØ¯
Ø§Ø¯ Ø±Ø©
ĠØ¶ Ø¹Ùģ
Ø§Ø¬ Ùĩ
ĠØ£ ÙģØ¶ÙĦ
ĠÙĪØ£ Ø¶Ø§Ùģ
ØªÙĬ Ø¬Ø©
ÙĪÙĤ Ùģ
ÙĪÙ ĬØ§Øª
ÙĩØ§ ÙĬØ©
ĠH D
ÙħÙĩ ÙĪØ±ÙĬØ©
ĠØ§ÙĦØ¹ Ø¯ÙĬØ¯
ĠØ§ÙĦÙĨ ÙĤ
ĠÙĨÙģØ³ Ùĩ
ĠÙĨ Ø¸Ø§Ùħ
ĠØ§ÙĦØª Ùģ
ĠØ¨ Ø§ÙĨ
ĠØ§ÙĦØª Ø·
ĠØ¥ Ø°
ĠÙĥ ÙĨØª
ĠÙĦØ ±
Ø¹Ø¯ Ø§Ø¯
Ø³ Ø³Ø©
Ù ĦÙĦØ§Ø
Ġ ÙĦÙĦØ§Ø
Øª ÙĩÙħ
Ø² ÙĬØ©
Ø§Ø¦ Ø¬
Ø¹ ÙĪ
ĠØ§ÙĦØ³ÙĬØ§Ø³ ÙĬØ©
ĠØ§ÙĦØ¯ÙĪ ÙĦÙĬØ©
ÙĦÙĬ Ùģ
i c
ĠÙĤ Øµ
Ġ ÙĬÙĪÙĨ
Øª Ùģ
ĠØ§ÙĦÙħÙ ħÙĦÙĥØ©
Ġ I
ĠØ§ÙĦÙħ Ø¹ÙĦ
Ø§Ø¨ ÙĬØ©
ĠÙĪ ÙĪ
ĠØ§ÙĦØ´ Ø±ÙĥØ©
Ù ħÙģ
ÙĦÙĩÙ ħ
ĠØ§ÙĦÙħØµ Ø±ÙĬ
Ġ ÙħÙģ
ĠØ§ÙĦØ¯ Ø§Ø®
ĠØ¨Ø§ÙĦØ §Ø
ÙĪ Ø¨Ø±
ĠØ§ÙĦÙģ Ù
ÙĨÙ ĬØ§
Ø³Ù ĬÙĤ
ĠØ£ Ø¬
ĠØ§ÙĦÙĨ Ùģ
ħ Ø§Ø¡
Ħ ÙĨØ§
ÙģÙ ĬØ¯
Ġ1 7
Ġ +
ĠÙĪØ¬ Ùĩ
ĠØ§ÙĦØ¨ Ø·
Ø¶Ù ħ
ĠØ§ÙĦÙĤ Ø¶
ĠÙħØ± Ø©
Ø§ÙĦØ ¹
Ġ >
ĠØ§ÙĦÙħ Ø¨Ø§Ø±
ĠØ¨ ÙħÙĨ
Ġey e
ĠÙħØ³Øª ÙĪÙī
Ø§ØŃ Ø¨
ĠØ§ÙĦÙģ Ø±ÙĬÙĤ
ĠØ§ÙĦØ§Ø ¯
ĠØ· Ø¨
Ġ3 0
ÙĦØ§ ÙĤØ©
Ø§Ø¦Ù ħØ©
Ø£ Øª
ÙĦØ¹ Ø¨
ĠØ§ÙĦØª Ø§Ø±ÙĬØ®
Ø¯ ÙĬØ©
ĠØ§ÙĦØ®Ø§Ø±Ø¬ ÙĬØ©
ÙĦØ³ Ù
ĠØ§ÙĦÙħÙĪ Ø§Ø·
ĠØ§ÙĦØ¨ ÙĬØ¶
ĠØ§ÙĦØ¹Ø§ÙĦÙħ ÙĬØ©
ĠØ® Ø§Øµ
ħ Ø²
Ùĩ ÙĪØ±
Ø³Ø± Ø§Ø¦ÙĬÙĦ
ĠÙĨ Ø´Ø±
Ø¨Ù ī
ĠØ° ÙĥØ±
Ùĥ Ø±Ø©
Ø§Ø± Ø¨
ĠØ§ÙĦÙĨ Ùĩ
Ø§Øª Ùģ
Ø§ØŃ ÙĬØ©
ĠØ¨Ø§ÙĦØ Ń
Ø¶ ÙĪØ±
ĠØ³ ÙĪÙĤ
Ø¹Ù ĦÙĨ
Ø§Ø± Ø¹
Ø§Øª ÙĩØ§
ĠØ§ÙĦØ¬ ÙĬØ´
Ġ ÙĩÙħ
ĠØ± Ø¨
ĠØ§ÙĦØ· Ø¨
Ø´Ù Ĭ
Ø´ Ø±Ø©
ĠØ§ÙĦØ¥Ø³ ÙĦØ§ÙħÙĬØ©
ĠØ§ÙĦÙħØ± Ø£Ø©
ØªÙ ħÙĬØ²
ĠØ³ ÙĪØ±ÙĬØ§
ĠØ§ÙĦØ¹ ÙĨ
ĠØ³ ÙĨÙĪØ§Øª
Ġ N
ĠØ§ÙĦÙħØ¯ ÙĬÙĨØ©
Ġ R
Ø³ Ùģ
ĠØ¹Ø§Ùħ Ø§
Ø§Ø¬ Ù
Ùĩ Ø±Ø¨
ĠØ§ÙĦÙĪ ÙĦØ§ÙĬØ§Øª
ĠØ¨Ø§ÙĦØ ¯
ĠØ´ÙĬ Ø¡
ØºÙĬ ÙĬØ±
ħ Ø§Ù
ĠÙĨ Ø¸Ø±
² Ù
Ø¦ Ù
ÙĪ Ø¹Ø©
ĠØ§ÙĦØ§Ø· ÙģØ§ÙĦ
Ø· ÙĦÙĤ
ħ ÙĦØª
ÙħØ§ ÙĬØ©
ĠÙħØ¨ Ø§Ø´
ĠØ£Ùĥ Ø¯
ħ ØªØ±
Ø§Ø¨Ù Ĭ
ĠÙĨÙĪ ÙģÙ
ÙĬÙ ħØ§
Ø§Ø¬ Ø©
Ġ Ø§Ø·
Ø´ Ø§Ø¡
ĠØ§ÙĦØ´ Ø¹
Ø³ Ø³Ø§Øª
ĠØŃ Ø¯
ÙĨØ³ ÙĬØ©
ØŃÙ ĬÙģØ©
ĠØªÙĤ Ø¯Ùħ
i on
ÙĪÙ ĬØ¯
ÙĪÙĦ ÙĪ
ĠØ§Ø¬ ØªÙħØ§Ø¹
ÙĬØ§ÙĨ Ø©
ĬÙĥ ÙĪÙĨ
ÙħÙĪ Ø¯
ÙĦÙħ Ø§ÙĨ
Ø±ÙĪ Ø³
ĠÙĨÙĪÙģÙ ħØ¨Ø±
ĠØ§ÙĦÙĪØ² Ø±Ø§Ø¡
ĠÙĪØ§ÙĦØ ·
ÙĦØ§ÙĤ Ø§Øª
ĠØ§ÙĦÙħ Ø§ÙĦÙĬØ©
ÙĥÙ ĬØ§
ĠØ§ÙĦØ¹ Ø¯
Ø§Ø± Ø¯
ĠØ³ ÙĪÙģ
ĠØ§ÙĦØ³ Ø§Ø¨ÙĤ
Ġ ]
Ø± ÙĬÙĨ
Ø¬ Ø§Ø²
ĠØ§ÙĦØŃ ÙĤ
ĠØ¬ Ø§ÙħØ¹Ø©
Ø§Ø¦ Ø±Ø©
ĠÙħÙ Ĭ
ĠÙĪØ§Ø³ Øª
ĠÙĨ Ø´
i t
Ù ħØªØ±
ĠÙĪÙ ĬØ¹
ĠÙĦÙĦÙ ģ
Ø²Ù ħ
Ġ ÙħØªØ±
Ø§Ø²Ù Ĭ
ĠØª Ø²
ĠÙĦØ§Ø ¹
ĠÙĪ Ø§Ø¶
ĠÙħØ¹ Ù
ħ Ø¶
ĦÙ ĬØ²
ĠØ£ ÙĪØ±
ĠØ§ÙĦÙħØ¹ÙĦ ÙĪÙħØ§Øª
ÙĤ Ùĩ
ĠØ³ Ø±
Ø· Ùģ
ØŃ Øª
Ħ ÙĪÙĨ
ĠØ§ÙĦØ¹ Ø±Ø¨
Ø¬ Ø§Øª
Ġ ÙĬØ·
ĠØ¨Ø§ÙĦØ ³
ÙĦØ µ
ÙĦØ§Ø ©
ĠØ§ÙĦØ® ÙĦÙĬ
ĠØ§ÙĦÙģÙ Ĭ
ħ Ø±ÙĬ
ĠØ¨ Ø®
Ġ201 6
ĠØªÙĤ ÙĪÙħ
ĠØ§Ø³ Ù
ĠØ§ Ùģ
Ø§Ø¹ Ø±
ĠØ§ÙĦØ¨ ÙĦØ§Ø¯
a m
Ù ħØ§Ù
ĠØ§ÙĦØ° Ùī
ĠÙĪØ§ØŃ Ø¯Ø©
Ùģ Ø¸
ĠÙĦÙĥÙ Ħ
ÙĦØ§Ø ¦
ĠÙĨØŃ ÙĨ
ĠØªØŃ ÙĤÙĬÙĤ
Ø¬ Ø§ÙĨ
ÙĪ ØªØ±
Ø§ ÙĬØ©
ÙĤØ± Ø§Ø·
ĠØªØ¹ Ø§ÙĦÙī
ĠØ£Ø® Ø¨Ø§Ø±
ĠØ¹Ø¨Ø¯ Ø§ÙĦÙĦÙĩ
Ø§Ù ĬØ§Øª
ĠÙĪÙ ĬØª
ĠØ§ÙĦØ´Ø¨ Ø§Ø¨
Ø¢ ÙĨ
ĠØ§ÙĦØ´ Ø¹Ø±
ĠØ§ÙĦÙĦØ¬ ÙĨØ©
ĠØ§ÙĦÙħ Ùģ
ĠØ§Ø± Øª
ĠÙĦØ µ
ÙĨØ³ Ø¨Ø©
Ø§Ø± Øª
ĠØ§ÙĦÙĥ Ù
ĠØ§ÙĦÙĤ Ø¯
ÙĪ Ø«
ĠÙĦÙħ Ø§
ĠÙĦÙĦØ ±
ÙĪ Ø§Ø¹
ĠÙĪØ§ÙĦØ° Ù
ĠØ§ ÙģØ¶ÙĦ
Ø´ Ø¯
ĠØ§ÙĦØ¥ Ø³Ø±Ø§Ø¦ÙĬ
Ø¬ ÙĦÙĬ
ĠÙĤ Ø±Ø§Ø±
ĠÙĦØ º
ĠØŃ Ø²Ø¨
ĠØ¬ Ø§ÙĨØ¨
ĠØ¥ÙĨ Ùĩ
ĠØ¯ ÙĬÙĨ
ĠÙĦÙ ĦÙĪ
ĠØ§ÙĦØª Ø£
ĠØŃÙĤ ÙĪÙĤ
Ø®Øµ Øµ
Ø¶ ÙħÙĨ
ĠØ§ÙĦØ£ Ø±Ø¶
ĠÙĪØ§ÙĦØ «
ĠÙĪØ§ÙĦØ°Ù Ĭ
ĠÙħÙĨØª Ø¯ÙĬØ§Øª
ÙĨ Ø§Ø©
ĠØ¨ Ø§Ø¨
ĠØ§ÙĦØ£Ø® ÙĬØ±Ø©
Ùĩ ØªÙħ
Ġ ÙħØ§Ù
ĠØ§ÙĦÙħ Ùĥ
ĠØ§ÙĦØ³Ø¹ ÙĪØ¯ÙĬ
ĠØ¹ Ø¯Ø©
ØªØ± Ø§Ùĥ
ĠØ³ Ø¹
ØªØ± Ùĥ
ĠÙħÙĥ Ø§ÙĨ
Ù ĬØ§Ø¶
ĠØ§ÙĦØ³ ÙĪØ±ÙĬ
ÙĪ Ø´
Ø± Ø±
Ø§Ø³ Ø§Øª
Ø¬Ù ĬØ§
ĠÙģ ÙĦØ³Ø·
ÙĨØª Ø§Ø¬
ĠÙģ ÙĨ
Ø¬ Ø§
Ø§ ÙĤÙĬ
ĠØ§ÙĦØ¥ ÙĦÙĥØªØ±
ĠØ¥ Ù
ĠÙĥ Ø§ÙģØ©
ĠØ§ÙĦØ¨ÙĬØ¶ Ø§Ø¡
ĠÙħÙĦÙģ Ø§Øª
ÙĦÙ Ħ
Ø§Ø¶ ÙĬØ©
ÙĦØ§Ù ħØ©
ĠØ§ÙĦØ¯ Ù
ac t
ĠØ£ Ø¨ÙĬ
Ø¬ Ø¹
ĠÙĦÙĦÙ ħÙĨ
Ø§ ÙĥÙĦ
Ġ2 4
Ø¶ Ø§ÙĨ
r o
ĠØ¥ ØŃ
ÙĪÙ ħÙ
Ùģ Ø§Ø¡
Øª ÙĦØ§ÙĦ
ĠØ¨ ÙĦØº
ĠÙĪØ§ÙĦÙ ħÙĨ
ĠØ£Ùĥ Ø¨Ø±
ĠØ§ÙĦØ¥ Ø±
Ø· ÙĨ
ĠØŃØ³ ÙĨ
Ø³ ÙĬØ©
Ø± Ø§Ø¨Ø·
Ø£Ù Ĭ
Ø«Ù ħØ§Ø±
Ø¦Ù Ĭ
ĠØŃÙ Ħ
Ø²Ù ħØ©
Ø· Ø§Ø¡
ĠÙĨ ÙĤÙĦ
ÙĪØ¨ Ø§
e d
ĠØ£ÙĬ Ø§Ùħ
ĠÙĦØª ØŃ
ĠÙĦÙĦÙ ĥ
ĠØ¨Ø§ÙĦÙ ģ
ĠØ§ÙĦØ¢ Ø®Ø±
Ùĥ ÙĦØ©
Ùĩ ÙĨ
ĠØ¥ Ø³Ø±Ø§Ø¦ÙĬÙĦ
s t
Ġ d
ÙĤÙ ĬØ§
ĠØ§ÙĦØ± ÙĪ
ĠØ§ÙĦÙĥ Ø±ÙĬÙħ
ĠØ£ ÙĥØª
ĠØ§ÙĦØ§Ø «
Ø¤ ÙĪÙĨ
Ù ħÙĦØª
Ġ ÙĬÙ
Ø¬ Ø¨
ĠØŃ Ø±
ĠÙĪ Ø§Ø¹
ĠØ¨ Ø§ÙĦÙĥ
Ĭ Ø£
Ø³ÙĥØ± ÙĬØ©
ĠØ® ÙĦÙģ
Ġ2 1
ÙĪ Ø§ÙĤ
ÙħÙ ĬØ³
ĠØ§ÙĦÙħ ØµØ±ÙĬØ©
ĠØ§ÙĦØ±Ø¦ÙĬØ³ ÙĬØ©
ĠØ§ÙĦÙħØ³ Ø¤
Ù ĬØ£
Ø¨Ø± Ø§
Ø±ÙĬ Ø§
Ø§ ÙĩÙħ
ØŃÙ ĬØ¯
ĠØ§ÙĦØ£ Ø´
Ø³Øª Ø§ÙĨ
Ø¨ÙĬ ÙĪØªØ±
Ġ ÙĬØ£
Ù ħØ²
Ø¯Ù ĬÙ
ĠØŃ Ø¯ÙĬØ«
ĠØŃ Ø³Ø¨
ĠØ¨ Ø§Øª
ĠÙĨ ÙĪØ¹
Ġ o
ĠÙĪØ¨ Ø¹Ø¯
ĠØ¹Ùħ ÙĦÙĬØ§Øª
ĠØ§ÙĦÙħØ±Ùĥ Ø²
ĠÙĪÙ ĬÙĤ
ĠØ§ÙĦØ£ ÙĤ
ĠÙĦØ¬ ÙĨØ©
ĠØ§ÙĦØ³ÙĬØ§Ø³ Ù
ĠØ¨ÙĨ Ø§Ø¡
ØŃ Ø¨
ĠØ§ÙĦØ´Ø¨ ÙĥÙĬØ©
Ġlas er
Ø¹Ø§ ÙĬØ©
ØªÙĬ Ø§Ø±
Ġ w
ĠØ§ÙĦÙĤ Øµ
ĠØ¹ ÙĤØ¯
ĠÙħÙĨ ÙĩÙħ
ĠÙħØ¬ Ø§ÙĦ
ĠÙĪÙĦÙĬ Ø³
ĠØ§ÙĦØµÙģ ØŃØ©
Ø§Øµ ÙĬÙĦ
ĠÙĬÙĤ ÙĪÙħ
Ø¦ Ø§Ø³Ø©
Ø§Ø¦ Ø¹
ĠØ§ÙĦØµ ÙĨ
Ùĩ Ø¨
ĠØ¥ÙĦÙĬ Ùĩ
ħ Øº
Ø® Ø§Øµ
ĠØ§ÙĦØª Ø±Ø¨ÙĬØ©
ĠÙĥ Ø±
ĠØ¬ ÙĬØ¯
Ø§Ø¯Ù ħ
ĠÙĨ Ø¹
l e
ĠØ¯ Ø¹
ĠØ§ÙĦØ¹ Ø§Ø¨
ĠØ¢ Ù
ĠØ§ÙĦØ³ Ùģ
ĠÙħØ³ Ø§Ø¡
Ø¨ ÙĪ
Ø§Øµ ÙħØ©
ĠÙĨ Ù
ĠØ¨Ø§ÙĦÙ ĦÙĬØ²
Ø¸ Ø©
ĠØ¬ Ø±
ĠØ¨Ø§ÙĦØ ¨
ĦÙĪ Ø§
ĠÙĬØŃ Øª
ĠÙĪØ¹ ÙĨ
ĠØ§ÙĦØ£ ØŃØ¯
Ġ ÙħÙĦØª
ĠØ±Ø³ ÙĪÙĦ
ĠÙĦÙĤ Ø¯
Ø´Ùģ Ùī
Ġ {
ĠØªÙĤ Ø¯ÙĬÙħ
Ø§Ù ĬØª
ĠÙĪÙĥØ§ÙĨ Øª
Ġ ÙħØ²
ĠØ§ÙĦØ· Ø¨ÙĬØ¹
Ĭ Ø§Ø±Ø©
ĠØ§ÙĦØ¬ Ù
ĠÙĪØ§ÙĦØª Ø¹
ħ ÙĥÙĨ
Ø§ ÙĪÙĬ
ĠØ§ÙĦØ¥Ù ħØ§Ø±Ø§Øª
ĠØª Ø¤
Ġ f
ĠØ§ÙĦØ£Ø® Ø±Ùī
Ø§ØŃÙ Ħ
Ø§Ù ĬØ¯
ĠØ§ÙĦÙĤ Ø¯Ùħ
Ġ }
Ø° Ø±
ĠÙĨ Ùĩ
Ø¨ Ø§Ø¨
ÙĩØ¯ Ø§Ùģ
Ø´ ØŃ
ĠØ§ÙĦØŃ Ø±Ø¨
Ø¦ Ø§Øª
ĠØ§ÙĨ Ùģ
ĠØ§Ø³Ù ħ
Ùĥ Ø§Ø±
Ø§Ùĩ Ø¯Ø©
ÙĪØ§ ÙĦÙĬ
Ø§Ø¦ ÙĦØ©
ÙĦÙģ Ø©
ĠØ§ÙĦØ¹Ù ĬÙĪÙĨ
ÙĪ Ø¨Ø©
ĠØ¯ ÙĪÙĦ
Ø·Ù Ĭ
ĠØªØµ ØŃÙĬØŃ
ĠØ§ÙĦÙħØ´ Ø§Ø±ÙĥØ©
ĠØ§ÙĦÙĦÙ Ĥ
ĠØ§ÙĦØ´ Ø®Øµ
ĠÙĥ ÙĪÙĨ
ĠØ§ÙĦÙĤ Ø·Ø§Ø¹
ĠØ¨ Øº
Ø±ÙĬ Ø§Øª
ħ Ø¨ÙĬÙĪØªØ±
ĠÙĦØ° ÙĦÙĥ
Ùĩ ÙĬØ±
ĠÙĤ Ø·Ø§Ø¹
ĠØ§ÙĦØ£ÙħØ±ÙĬ ÙĥÙĬØ©
ĠØ£Øµ Ø¨ØŃ
ĠØ´ Ø¹
Ø¶Ù ĬÙģ
ÙĦÙĪ Ø¨
ĠÙĪÙĥ Ø°ÙĦÙĥ
ÙĦØ³Ù Ħ
ĠÙĤ Ø¯Ø±
Ùģ ÙĤ
ĠØ¨ ÙĥÙĦ
Ù ĦÙĨØ§
ĠØ±Ùħ Ø¶Ø§ÙĨ
Ø§Ø¬ Ø¹
Ø§ØŃ Ø«
ĠÙĪ ØªØ±
ĠÙĦÙĬ Ø³Øª
ĠØ±ÙĬ Ø§ÙĦ
Ø§Ø¬ Ø§Øª
Ġ201 5
Øª ÙĨØ§
ĠÙĨ Ø¸
ĠØµ Ø§ØŃØ¨
Ġc at
ĠØ¥ ÙĤ
ĠØ§ÙĦÙĤ Ø§ÙĩØ±Ø©
ĠØ® Ø§Ø±Ø¬
ĠÙĪ ØªÙħ
ĠØ¨ Ø¯Ø§ÙĬØ©
ĠÙħÙĪ Ø¶ÙĪØ¹
ĠÙĪØ³ Ø·
ĠØ§ÙĦØ® Ø§Ùħ
ĠÙĦØ ·
ĠÙĤ Ø¨
ĠØ¥ Ø¯
ĠØŃ Ø¯Ø«
ĠÙĨ Øµ
ĠØ§ÙĦÙħ Ø²
Ġ201 4
ĠØ¨Ø§ÙĦØ ¬
ĠØ§ÙĦØ¯Ø§Ø® ÙĦÙĬØ©
Ø±ÙĬ ØŃ
Ø§ÙĦØ ³
ĠØ± Ø¤
Øª ÙĤØ¯
Ø³Ø¨ Ø§Ø¨
Ø§Ø± ÙĬØ¹
ĠÙĬÙħÙĥÙĨ Ùĥ
ĠØ¥ Ø³
ØªÙ ħØª
ĠØ¬Ù ħ
ØŃØ± Ø§Ùģ
ĠØ£ ÙħÙĨ
ĠØ§ÙĦÙĤØ± Ø¢ÙĨ
ĠÙĦÙĦØ µ
ĠØ§ÙĦØ£ Ø¹ÙħØ§ÙĦ
Ø§ ÙĪÙĦØ©
ĠÙĪ Ø³ÙĬ
ĠØ§ÙĦÙģØª Ø±Ø©
ĠÙĨ ÙĩØ§ÙĬØ©
ĠØ§ÙĦÙħ Ø¯Ø±
ĠØ¹ ÙĬÙĨ
ĠØ· Ø§ÙĦØ¨
ĠØ§ÙĦØ¯ ÙģØ§Ø¹
ĠØ¹ÙĨ ÙĩØ§
ÙĦÙħ Ø§
ĠØ¨Ø§ÙĦØ ´
ĠØµ Ø¨Ø§ØŃ
Ø´Ø± ÙĬÙĨ
ĠØ§ÙĦØ¬ÙħØ¹ Ø©
Ø§Ø¦ Ùĩ
ĠØ§ÙĦØ£ Ø±
ĠØ´ Ùĩ
Ġ Ø¯Ùħ
ĠØªØŃ ÙħÙĬÙĦ
ar act
ĠØ± Ø£Ø³
Ġ ÙĦÙĨØ§
ĠØ³ ÙĬØ¯
ÙĤ Ø·
ÙħØ§ ÙĦÙĬ
ÙĦØª Ùĩ
Ø³Ùħ ÙĬØ©
Ġ2 2
ĠØ§ÙĦÙħÙĪ Ø§Ø¶ÙĬØ¹
ĠÙĦØ§ ÙĨ
ĠØ¨ÙĬÙĨ ÙħØ§
Ø¯Ù ħØª
ÙĦØ§ Ùĥ
ĠÙĪ Ø§Ø´
Ù ħØº
ĠØ± Ø¯
ĠÙĦÙĦØ ·
ĠØ§ÙĦØŃ ØµÙĪÙĦ
ĠÙģ ÙĦØ§
ĠØ¨ Ø§Ø³Ùħ
Ĭ ÙĪÙħØ§
ĠØ§ÙĦØ³ÙĬØ§Ø³Ù Ĭ
Ø§Ø ¤
ĠØ«ÙĦØ§Ø« Ø©
Ġ201 3
ĠØ¨Ø§Ø³ Øª
Ù ĬØ§Ø³
ĠÙĪ Ø¢
ĠØ§ÙĦØ± ØŃ
Ġcat aract
ĠØ¨Ø§ÙĦ ÙĨØ³Ø¨Ø©
Ø´ ÙĤ
ĠÙĪ ÙĦØ
ĠÙĬÙĥ ÙĨ
ÙħÙ ĬØ¯
Ùģ ÙĬÙĨ
ĠÂ ·
Ø® Ø©
Øº ÙĬØ±Ø©
Ø¬Ù ħØ©
Ø¸ Ø§Ø¦Ùģ
ĠØŃÙ ĬØ§Øª
ĠØ± ØºÙħ
ĠØ¨Ø§ÙĦÙĦÙĬØ² Ø±
ĠÙĪØ¨ ÙĬÙĨ
ÙĤ Ø§Ø¡
Ø§ÙĨ Ùī
Ġ Ø§Ø°Ø§
ĠÙģ ÙĩÙĪ
ĠØ¹Ù ĬÙĪÙĨ
ĠÙĪ ÙħÙĪ
ĠÙĪ Ø«
i k
ĠØ§ÙĦØ´ Ø±ÙĥØ§Øª
ĠØµ Ø§ÙĦØŃ
ĠØ¹ Ø²
ØªÙħØ± Ø§Ø±
ĠØ§ÙĦÙ ĦÙĪ
Ø§ØªÙ Ĭ
ĠÙģ Ø§ÙĨ
ĠØ³ ÙĪØ§Ø¡
ĠÙĦØ ®
ĠØ¨Ø§ÙĦØ¥ Ø¶Ø§ÙģØ©
ĠØ® Ø¯ÙħØ©
Ø±ÙĬ Ø³
ĠØ§ÙĦØµ ÙĪØ±
ÙĪ ÙĦÙĬÙĨ
Ø¤ ÙĦØ§Ø¡
ĠØ³ ÙĬØ±
ĠØ³ ÙĦØ·
Ø¯ ÙĪÙĨ
Ġ m
ĠØ§ÙĦÙħÙĤ Ø¨ÙĦ
Ġ ÙħØº
ĠØ¬ ÙĨÙĬÙĩ
Ùģ Ø§Øª
ĠØ§ÙĦÙĦÙ Ĭ
ĠØ§ÙĦÙĨ Ø¨ÙĬ
ĠØŃ Ø§ÙĦ
ĠØ§ÙĦØµ ØŃØ©
ĠØ§ÙĦ ÙĦØ§Ø¹
ĠÙĨ ØªÙĬØ¬Ø©
ĠÙĪ ÙĬÙĨ
ĠÙħÙĥØª Ø¨Ø©
ĠØ¨ Ø¨
ĠØµ ÙĨ
ĠØ§ÙĦØ¬ Ø§Ùħ
ĠÙĦÙĦÙ ĩ
ĠØ§ÙĦÙĥ ØªØ§Ø¨
ĠØ¨ ÙĬØ±
ĠØ® Ø§ÙĦØ¯
Ø±Ø§Ø¡ Ø©
ĠØŃ Ø±ÙĥØ©
Ø§Ø¦ ÙħØ§
ĠØ§Ø® Ø¨Ø§Ø±
ĠÙĪ Ø§Ø®
ĠØªØ· ÙĪÙĬØ±
ĠØ£ÙĨ Ø§
Ù ĬØ§Ø±
ĠÙĤ ÙĪØ§Øª
ĠØ§ÙĦØŃ Ø³
ĠØ§ÙĦÙĪØ· ÙĨ
ĠÙĪØ£ ÙĥØ¯
ÙģØ± Ø§Ø¯
ĠØ® Ø¯ÙħØ§Øª
ĠØ§ÙĦØ¬Ù ħ
ĠØ§ÙĦÙħ Ø«
h e
Ø±ÙĪ Ø¬
Ø±ÙĪ Ø§
ĠÙħØŃ Ø§ÙģØ¸Ø©
ÙĪØ¬ Ùĩ
Ø± ÙĪØ±Ø©
ĠØ£Ø« ÙĨØ§Ø¡
ĠØ§ÙĦØ³ Ø¨
Ġ2 3
ĠÙħØ¨Ø§Ø± Ø§Ø©
ÙĦÙħ Ø§Øª
Ùĥ ÙĬÙĦ
ĠØ§ÙĦÙĤ Ø³Ùħ
ÙĪØ± Ø¯
ĠÙģØª Ø±Ø©
Ø§ ÙĥÙħ
ĠØ§ÙĦØ® ÙħÙĬØ³
Ø§Ø· Ø±
ĠÙģÙĤ Ø§ÙĦ
ĠØ§ÙĦØ§ÙĨØª Ø®Ø§Ø¨Ø§Øª
ĠØªØ· Ø¨ÙĬÙĤ
ĠØ¯ Ø¹Ùħ
ÙħØ§ ÙĦÙĬØ©
ÙĤ ÙĬØ©
ĠØ§ÙĦÙħØ± ØŃÙĦØ©
Ø§Ø¬ ÙĩØ©
ĠÙģ Ø¶
Ùĥ Ø§Øª
ĠÙĥ Øª
ĠØ§ÙĦÙħ ÙĥØª
ÙĪÙģ ÙĬØ±
ĠØ§ÙĦÙħØ³ ÙĦÙħÙĬÙĨ
Ùĩ Ø²Ø©
ĠØ§ÙĦØ¬ Ø§ÙħØ¹Ø©
ĠØ± Ø£
ĠØ§ÙĦÙħØ´ Ø±ÙĪØ¹
ĠÙģØª ØŃ
ĠØ¹ÙĦÙĬ ÙĩÙħ
ĠØ§ÙĦØ§Ø¨ ÙĬØ¶
ØŃ ÙĤ
ÙħÙ ĬØ²
ĠØ§ÙĦÙĩ ÙĨØ¯
ĠØ§ÙĦØ® Ø¯ÙħØ§Øª
ĠØ¨ Ùģ
ĠÙĬØ¹ ÙĨÙĬ
Ĭ Øº
Ġ Ø§Øº
ĠØ§ÙĦØ«ÙĦØ§Ø« Ø§Ø¡
ĠÙħÙĤ Ø§Ø¨ÙĦ
ĠÙħØ§Ø± Ø³
ĠØ§ÙĦÙģÙĦØ³Ø· ÙĬÙĨÙĬØ©
ĠØ§ÙĦÙĤ Ø¨
ĠØ³ ÙĦÙĬÙħ
Ø§Ø¦ Ø¯Ø©
ĠØ§ÙĦÙĤØ± ÙĨÙĬØ©
ħ Ø§Øª
ĠØ¨Ø¯ ÙĪÙĨ
ÙĨ Ø§Øª
Ø¨Ø¯ ÙĪ
ÙĦÙĬ ÙĪ
ĠØ® ÙħØ³
Ø§Ù ĬÙĨ
ĠØµ ÙĦØ§ØŃ
Ħ ÙĪÙħØ§Øª
ĠØ§ÙĦØª Ø®
Ø§Ùĩ Ø±
Ø³ ÙĥØ±ÙĬ
ĠØ§ ÙĥØ«Ø±
ĠØ² ÙĪØ¬
Ø±ÙĬ ÙĤÙĬØ§
ĠØ§ÙĦØŃ ÙĥÙħ
ĠÙĥ Ø«
Ġ a
Ø³ Ø¨Ø©
ĠØ± ÙģØ¹
ĠÙĦÙĩ Ø°Ø§
ØºÙ Ħ
ĠØ£ ÙĩÙĦ
ĠØ§ÙĦØ«Ø§ÙĦØ« Ø©
Ø¬ ÙĪÙħ
Ġ201 2
Ġ19 9
Ø´ ÙĬÙģ
ĠØ¨Ùĩ Ø°Ø§
Ø· ÙĦØ¨
Ġ ÙĬÙĩ
Ø±ÙĬÙ Ħ
ĠØ£ÙĨ Øª
ĠØ§ÙĦØ³ Ø§Ø¹Ø©
ĠØ§ÙĦØ¯ Ø¹
v e
ÙĪÙ ĬØ³
ÙĦØ§Ø ³
ÙĨØ§ ÙĪÙĦ
ĠÙĥ ÙĦÙħØ©
Ø¬ Ø§Ø±
Ġ10 0
ĠØ¨ ÙĨÙĬ
ĠØ£ÙĥØª ÙĪØ¨Ø±
ĠØ§ÙĦØ³ÙĬ Ø§Ø±Ø§Øª
ĠØ§ÙĦØ¥Ø³ ÙĦØ§Ùħ
ĠØ§ÙĦØ§Ø¬ØªÙħØ§Ø¹ ÙĬØ©
ĠØ§ÙĦØ£ Ø±Ø¨Ø¹
Ø´Ù Ħ
Ø¯ Ø§Ø±
ĠÙĨ Ø§Ø¯ÙĬ
ĠØ¨Ø§ÙĦ ÙĨ
ĠÙĪØª ÙĨ
ĠØªÙĨ Ø¸ÙĬÙħ
ĠÙĦØ¯ Ù
ÙĪØ± Ø§
Ùĥ Ø§Ùħ
ĠØ§ÙĦØ³ ÙĪÙĤ
Ø¬ ÙĪØ¯
Ġ W
Ø² Ø§Ùħ
ĠØ§ÙĦØ£ Ùģ
ĠØ´ Ø±ÙĥØ§Øª
ĠØ¬ÙĨ ÙĪØ¨
Ù ħØ¶
ĠØŃ Øµ
ĠÙħÙĪ Ø§ÙĤØ¹
ÙĬÙ ħÙĬ
ĠØ¸ Ù
ĠØ² Ø±
ĠÙĪØ§ÙĦÙ ĩ
ĠØªÙĨ ÙģÙĬØ°
ĠØ§ÙĦØªØ¹ Ø§ÙĪÙĨ
Ø¹ Ø§Ø¯Ø©
ĠØ§ÙĦØªÙĪ Ø§ØµÙĦ
ĠÙĦØ¯Ù Ĭ
ĠØ§ÙĦØ§ ÙĪÙĦ
ĠØ§ÙĦØ¯ÙĪ ÙĦØ§Ø±
Ø¨ Ø±Ø©
Ø¯ Ùĩ
Ø§Ø¯ ÙĤ
ĠØ§ÙĦØ¥ Ø¯Ø§Ø±Ø©
ĠÙĩÙĬ Ø¦Ø©
ĠØ³Ù ĬÙĥÙĪÙĨ
Ø§Ø¯ Øª
ĠØ§ ÙĥØª
ĠÙģÙĦØ³Ø· ÙĬÙĨ
ĠØ¸Ù Ħ
ÙĥÙ ĬØ¯
ĠÙĥ ÙĨ
ĠØ® ÙĦØ§
Ø§Ø¦ Ø©
ĠÙĦÙĥÙ ħ
Ø²Ù ĬÙĪÙĨ
ÙĪ ÙĦØ§
ÙĦØ §ÙĦØ
ÙĦØ¹ Ø§Ø¨
ĠÙħÙĦØª ÙĤÙī
ĠÙħØ¹ Ùĩ
Ø¯ Øª
ĠØ§ÙĦÙħØº Ø±Ø¨
ĠØ§ÙĦÙħ Ø²ÙĬØ¯
Ø´Ø± Ø§Øª
Ø³Øª Ø§Ø°
ĠÙħÙĦÙĬ Ø§Ø±
Ø§ÙĦÙĬ Ø§Øª
ĠØ§ÙĦÙĦØ¨ÙĨ Ø§ÙĨÙĬ
ĠÙĪ ÙħØ±
ĠØ¨Ø§ÙĦØ µ
ĠÙĥ Ø°ÙĦÙĥ
ĠØ§ÙĦØ§Ø¬ØªÙħØ§Ø¹ Ù
ÙĪÙĦÙĪ Ø¬ÙĬØ§
ĠØ§ÙĦÙħØ® ØªÙĦÙģ
en t
Øª ØŃ
ĠØ§ÙĦØ§ ÙĤ
ĠÙĨÙĤ Ø·Ø©
ĠØ§ÙĦØ£ Ø±Ø¯
Ø° Ø¨
ØµÙ ĬØ§Øª
ĠØ§ÙĦØ¹Ø§ÙĦÙħ Ù
Ġ5 0
Ø§Ùģ Ø¹
ĠØ£Ùħ ÙĬØ±
ĠØª Ø±Ùĥ
ĠØªØ¹ Ø±Ø¶
ĠÙĥ Ø£Ø³
ĠØ§ÙĦØ®ÙĦÙĬ Ø¬
ĠÙĪØª Ø´
Ø§ÙĦØ ±
ÙĥÙ ĬÙģ
Ĭ Ø§Ø±Ø§Øª
ĠÙĨØ³ Ø¨Ø©
Øª Ø§Ø±
ĠØ§ÙĦØ£ Ø¹
Ø§ØŃ Ø§Øª
ĠØ§ÙĦØ¨ ÙĬØ§ÙĨ
ÙĦØ§ÙĨ Ø§Øª
ĠØ§ÙĦÙĤ ÙĪØ§Øª
ĠØ´ ÙĩØ¯
Ø±ÙĬ Ùĥ
ÙĩØªÙħ Ø§Ùħ
Ø§Ùģ ØŃØ©
ĠØ§ÙĦØ§ÙĤØªØµ Ø§Ø¯ÙĬØ©
ÙĤÙ ĬØ¯
Ġ ÙħØ¶
Ġ201 1
Ø· Ø¨
ĠØ§ÙĦØ§Ø¬ØªÙħØ§Ø¹Ù Ĭ
Ø§ÙĦØ º
ĠØ§ÙĦØ³ ÙĪØ±ÙĬØ©
ĠØ§ÙĦØ¥Ø³ ÙĦØ§ÙħÙĬ
Ĭ ÙħÙĨ
ĠÙĦÙĦÙ ħÙĪ
ĠÙħØ´ Ø§Ø±ÙĥØ©
Ø¨ÙĬ Ùĩ
ĠØ§ÙĦØ¹Ù ĦÙĪÙħ
ĠØ§ÙĦÙĩ ÙĬØ¦Ø©
Ø±Ù ħÙ
ĠØ§Ø³ ØªØ±
ĠØ§ÙĦØ£ Ø·ÙģØ§ÙĦ
ĠØ§ÙĦØ¹ Ø¨
ĠØ§ÙĦÙħØ¹ Ø§Ø±
ĠØ§ÙĦØ¥ Ø®
ĠÙĦÙĦÙ ħØ±
Ø§Ùħ ÙĬØ©
ĠØ§ÙĦØŃ ÙĪØ§Ø±
ĠÙĪÙ ħØ³
ĠØº Ø²Ø©
ÙĨ ÙĪÙĨ
ĠØ§ÙĦÙħ Ø§Ø¶ÙĬØ©
Ø¬ Ø§Ùĩ
Ø±ÙĬ Øª
ĠÙĬÙĨ Ø§ÙĬØ±
ĠØ§ÙĦÙħØª Ø¹
ĠÙĪÙ ħØŃ
Ø§Ø¦ ØŃ
ĠØ§ÙĦØ¨Ø± Ø§ÙħØ¬
Ø¯ ÙĨ
ĠØŃ Ø§ÙĦÙĬØ§
Ø¯Ù ĬØ§
ĠØ§ÙĦØ¬ ÙħÙĬØ¹
o m
ĠØ¯ Ø§Ø±
Ù ĬØº
ĠÙĬØ¹ Ø±Ùģ
ÙģÙĬ Ùĩ
ĠØ§ÙĦØ¹Ø§ÙĦÙħÙ Ĭ
ĠØ£ Ø¹ÙħØ§ÙĦ
ĠØ¨ ÙĦØ§Ø¯
ÙĬÙħ ÙĤØ±Ø§Ø·
ĠÙĪØ§ÙĦÙħ Ø³
ĠØŃØ³ Ø§Ø¨
ÙĦÙĬÙĨ Ø§
ĠÙĨ Ø§Ø¦Ø¨
ĠÙĨÙ Ĭ
ĠØ§ÙĦÙħÙĨØª Ø¯ÙĬØ§Øª
ĠØ§ÙĦØ´Ø± Ø·Ø©
ĠØ§ÙĦÙħØ¤ ØªÙħØ±
Ø¬Ù ĬÙĩ
ĠØ§Ù ħ
ØªÙħ Ø¨Ø±
ĠØ¨Ø´ Ø£ÙĨ
Øµ Ø¨
ÙĬØ± Ø§Øª
ĠÙģ Ø¨Ø±
ÙĨ Ø¨
ØµÙ ĬØ¨
ĠØ§ÙĦØ¬ ÙħÙĩÙĪØ±ÙĬØ©
ĠØª ÙĥÙĨ
ĠØ§Ù ħØª
Ø¦ Ø§
Ø±ÙĪ ØŃØ§Øª
ĠØ§ÙĦØ³ Ø¨Øª
ĠØ§ÙĦØ¬ ÙĪ
ĠØ£ Ø¬ÙĩØ²Ø©
ĠÙĬØ¹ ÙħÙĦ
ĠÙĥ ÙĪ
ĠØ§ÙĦÙħÙĨ Ø§Ø·ÙĤ
ÙĪØ¶ ØŃ
Ġ O
Øµ Ø§ÙĦØ§Øª
ĠØ³Ø¨ ØªÙħØ¨Ø±
ĠØ· Ø¨ÙĬØ¹
ĠØªØ¹ ÙħÙĦ
ĠÙĥØ«ÙĬØ± Ø§
Ùĥ Ø¨Ø±
ĠÙĪ ÙĦØ¯
ÙĪÙĨ Ø³
Ø¤ Ø§ÙĦ
ĠØ¥ Ø¶Ø§ÙģØ©
Ø§Ø¨ Øª
Ġ b
Ø§Ø¯ Ùī
Øµ Ø§Ø¨Ø©
Øº Ø¨
Ø¹Ø§ ÙĪÙĨ
ĠØ²Ù ĬØ§Ø¯Ø©
ĠØ§ÙĦÙĥ Ø¨ÙĬØ±
ĠØ¨ ÙħÙĪ
ĠÙĨØª Ø§Ø¦Ø¬
ĠØ¸ ÙĩØ±
ĠÙĪØ£ Ø´Ø§Ø±
ĠÙĩ Ø¤ÙĦØ§Ø¡
ĠØ§ÙĦØ£ Øµ
ĠØ§ÙĦØ³ÙĦØ· Ø©
ĠØª ÙĦÙĤ
ĬØ¶ Ø§
ĠÙĪÙ ĦÙĪ
ĠØ¯ Ø§Ø¦ÙħØ§
ĠØ¨ Ø¹ÙĬØ¯
ĠØ¨ ÙĪØ±
in g
ĠÙĪ ØŃØ¯
ĠØ³ Ø¹ÙĬØ¯
ĠØ§ÙĦØ¨Ø± ÙĨØ§ÙħØ¬
Ø§Ø¦ ÙĩØ§
ĠØ§ÙĦØ² Ø±
ĠÙĪ ØµÙģ
ÙĤ Ø¯Ùħ
ĠÙĪÙ ĬØŃ
ĠØ§ÙĦÙģ ÙĨØ§ÙĨ
ÙĦÙĬ ÙĤ
Ġ2 6
ÙĩÙ ĬØ¯
Ø§Ø¡ Ø§Øª
ĠØ§Ù ħØ±
Ġlas ik
ĠØ¢Ù Ħ
ĠØ§ÙĦÙĤ Ø±Ø§Ø±
Ø±ÙĬ Ø¯Ø©
ĠØ§ÙĦØ¥ Ø¯
ĠÙħØ´ ÙĬØ±Ø§
ĠÙĦÙĩ Ø°Ùĩ
Ġ K
ĠÙĦØ£ ÙĨÙĩ
ĠØ§ÙĦÙĤ ÙĨÙĪØ§Øª
Ĭ Ø§Ø¨
Ø¯ ÙĬÙĨ
ĠØ³ Ø¹Ø±
ĠØ§ÙĦØ³ ÙĨ
Ùĩ ÙĦØ§
ĠØŃØ³ ÙĬÙĨ
ĠÙĪØ§ÙĦØ§Ø ³Øª
ĠØª ÙħØª
ĠØ´ Ùĥ
ĠØ§ÙĦÙħØŃ ÙĦÙĬØ©
ÙĩØ± Ø¬Ø§ÙĨ
ĠØªØ± ÙĥÙĬØ§
ĠØ§ÙĦÙħØ¨Ø§Ø± Ø§Ø©
ĠØ§ÙĦÙĥ Ø§ØªØ¨
Ø±ÙĬØ¨ Ø§
Ø§Ùħ Ø¨
Ø§ÙĨ ÙĪÙĬ
ĠØ§ÙĦÙ ĬÙĩ
ĠØ« ÙĤ
ĠØ§ÙĦØ· ÙĦØ¨
Ø§Ù ĬÙĦ
ĠÙĬØ¹ Ø¯
ĠØ§ÙĦÙĥ Ø±
ĠØ§ÙĦØ¨ Ø±ÙĬØ·
ĠÙĪØª Ø³
ĠØ§ÙĦÙĦØ¨ÙĨ Ø§ÙĨÙĬØ©
ĠÙĤ Ø·Ø±
ĠÙĤ Ø¯Ùħ
ĠØªÙĨ Ø¸ÙĬÙģ
ĠÙģ ÙĪ
Ø¬ Ø±Ø©
Ø« Ø©
Ġ2 7
ĠØ§ÙĦÙħØ®ØªÙĦÙģ Ø©
ĠØ§ÙĦØ´ ÙĩØ±
ĠØ§ÙĦØŃ Ø¯
Ø³Ù ĬØ³
ĠØ§ÙĦÙĨ Ø³
Ùĩ Ø§Ùħ
ĠØ§ÙĦØ¯ ÙĪØ±ÙĬ
ĠØ§ÙĦØŃ Ø§ÙĦÙĬ
Ø¨ Ø±Ùī
Ø±ÙĬ ÙħØ©
ĠØ³ Ø¹Ø¯
ĠØ§ÙĦÙĨ ÙĪ
ĠÙĦÙħ Ø¹
ĠØ§ÙĦÙĦÙĬØ² Ø±
ÙĦØ¨ ÙĬØ©
Ø« Ø§Ø±
ĠØµ Ø¯
ĠØµ ØŃÙĬÙģØ©
ĠÙģ ÙĪÙĤ
ÙĨ Ø³ÙĬ
Ø§Ø± ÙĤ
Ø¨Ø±Ø§ ÙĩÙĬÙħ
ĠØ§ÙĦØŃ Ø²Ø¨
ĠØ£Øµ ØŃØ§Ø¨
ÙħÙĨ Ø§
ĠÙĦÙħ Ø¯Ø©
Ø³Øª Ø±
ĠØ§ÙĦØ³ Ø±
ĠØ§ÙĦØ¨ Ø´Ø±
ĠØ§ÙĦØªÙĨ ÙģÙĬØ°
Ø¹ Ø§Ùħ
ĠØ§ÙĦØ¹ ÙħØ±
Ġ V
ĠÙĪØ¨ Ø§ÙĦØª
Ġ2 8
ĠØ§ÙĦØ¬Ø² Ø§Ø¦Ø±
ĠØ¨ ÙħØ¹
ĠØ§ÙĦØª Ùĥ
ĠØ§ÙĦÙĥ ÙĩØ±Ø¨
ĠØ§ÙĦÙĨ Ù
ĠØ§ÙĦØ¥Ø¹ ÙĦØ§Ùħ
ĠÙĪÙĤ Ø§ÙĦØª
ĠÙĦØ§Ø Ń
ĠØµ ÙĪØ±Ø©
Ĭ Ø±ÙĬØ¯
Ø¬Ø±Ø§Ø¡ Ø§Øª
ĠÙĪÙĩ ÙĨØ§
Ø¯Ø§ ÙĪÙĦ
ĠØ§ÙĦØ±Ø³ Ø§Ø¦ÙĦ
ĠØ£ Ø¹Ø¶Ø§Ø¡
ĠÙħØ¹Ù ĦÙĪÙħØ§Øª
ÙĪØ± Ùĩ
Ø¨Ø± Ø²
ĠØŃÙ Ĭ
Ø§Ø¦ Ø²Ø©
ĠÙĬØªØ¹ ÙĦÙĤ
ĠØ§Øª ÙģØ§ÙĤ
Ø§Ùĥ Ø²
ÙĤ Ùģ
ĠØ¹ÙĦÙĬ Ùĥ
ĠÙĪØ§ÙĦÙħ Ø¹
ĠÙĦÙĦØ ®
e c
Ù ĬØ§Ùħ
ĠÙĪØ§ÙĦØ º
Ù ĬØ±ÙĬØ¯
Ø®Øµ ØµØ©
Ġ ÙĬØ±ÙĬØ¯
ħ ÙĪÙĨ
ÙĦÙĬ Ùĩ
ĠØ´ Ø¹Ø¨
ĠØ§ÙĦØ´ Ùĩ
ĠØ§Ø±Øª ÙģØ§Ø¹
ĠØ§ÙĦÙĪ Ø§ÙĤØ¹
ĠØ§ÙĦØ¹ ÙĦØ§ÙĤØ§Øª
ÙĨÙ ĬÙģ
ĠØ£ Øª
ĠØ§ÙĦØ §ÙĦØ
ĠØ§ÙĦØ¯ Ø³Øª
ĠØ§ÙĦØ£ Ùĩ
ĠØ§ÙĦØ® Ø¨Ø±
ĠØ¯ Ø¨ÙĬ
ĠÙĤ ÙĪ
ĠØ§ÙĦÙħÙĪ Ø§Ø¯
ħ Ø§Ø¯Ø©
Ø· ÙĪÙĬØ±
ĠÙħØŃ ÙħÙĪØ¯
ĠØ§ÙĦØ¯ Ø®ÙĪÙĦ
Ù ħÙĬÙĨ
ĠØ§ÙĦÙħÙĪØ§Ø· ÙĨÙĬÙĨ
Ø±ÙĬ Ø¹
Øµ ÙĦØ§ØŃ
ÙĨØ³ Ø§
ĠØ§ÙĦØ¨ ÙĬØª
ĠØ± ÙģØ¶
Ø³ Ø§Ø¯
Ø³Ùħ Ø§Ø¡
ĠÙĬÙĪÙĨ ÙĬÙĪ
ĠØª ÙĨØª
ĠØ§ÙĦØ· Ø±ÙĬÙĤ
ĠÙĬÙĪ Ø¬Ø¯
Ø± Ø§Ø¹
ĠØ¯ Ø§Ø¹
ĠÙĨ Ø¯
ÙĪØ§ÙĨ ÙĬÙĨ
ĠÙĬÙĪ Ø³Ùģ
Ø§Ùģ Ø±
ÙĪØ±ÙĪ Ø¨ÙĬ
ĠØªØ¬ ÙħØ¹
Øµ ÙĪØ±
ĠØ¬ ÙĩØ©
ĠØµ ØŃÙĬØŃ
ĠØ§ÙĦÙħ Ø¯ÙĬØ±
ÙĪÙ ĬØ§
Ø±ÙĪ Ø¨
ĠÙĦØ§Ø ³Øª
ĠØŃ ÙĪ
ĠÙģ Ùĩ
ĠØ§ÙĦØ¯Ù ħ
ĠØ· Ø±ÙĬÙĤØ©
ÙĪØ¨ Ø§Øª
Øº ÙĬÙĦ
ĠÙģÙĬ Ø¯ÙĬÙĪ
ĠÙĥØ§ÙĨ ÙĪØ§
Ø§ÙĨ Ùĩ
ĠØª Ø¹Ø¯
ĠÙĥ Ùģ
ĠØ¬Ùĩ Ø§Ø²
ĠØ§ÙĦ ÙĪØ±
ĠÙħØ¤ Ø³Ø³Ø©
ĠÙĪÙ ħØª
ØŃ Øµ
ĠØ¨ Ø°ÙĦÙĥ
ÙĨØ§ Ùĩ
ĠØ§ÙĦØ¥ Ø¬
ĠÙĪ Ø¨Ø±
ĠØ¨Ø£ ÙĨÙĩ
ÙģÙ ĬØ§Øª
ĠØ§ÙĦØ¥ ÙĤ
ĠØ§ÙĦÙĤØ¯ Ø³
ĠÙħØ³ ÙĦØ³ÙĦ
ÙĦØ³ Ø©
ĠØ§ÙĦØŃ Ø¨
ĠÙĬØ¹ ØªØ¨Ø±
Ĭ Ø§Ø¯
ĠØ¨ÙĨ Ø³Ø¨Ø©
ĠØ¨Ø§ÙĦØ ®
ĠÙħØ®ØªÙĦÙģ Ø©
ĠÙĩ Ø§ØªÙģ
ĠØ§ØŃ Ø¯
ĠØ· ÙĪÙĬ
ĠØ¥ ÙĬØ±Ø§ÙĨ
ĠØ§ÙĦÙħÙĪ Ø³Ùħ
ĠÙĪ Ø¹Ø¯
Ø³Ùħ ØŃ
ĠÙĪ ÙĥÙĦ
ĠÙĪØºÙĬØ± ÙĩØ§
ĠØ§ÙĦÙĨÙģ Ø·
ĠØ§ÙĦØ£Ø±Ø¨Ø¹ Ø§Ø¡
ĠØ³ ÙĬÙĨ
ĠØ§ÙĦÙħÙĩ ÙĨØ¯
ĠÙĪ ÙĩÙħ
ĠØ§ÙĦØ¨ Ø¹Ø¶
ĠØ§ÙĦØ§Ø µ
Øª Ø¯Ùī
ĠØ¯ ÙģØ¹
ĠÙħØµ Ø§Ø¯Ø±
Ġ U
ĠØªÙĤ Ø±ÙĬØ±
ĠØ§ÙĦØªØ¬ Ø§Ø±ÙĬØ©
r a
ĠØ§ÙĦÙħÙĨØª Ø®Ø¨
ĠØ§ÙĦÙĥÙ ħØ¨ÙĬÙĪØªØ±
ĠØ§ÙĦØ¹ Ø³ÙĥØ±ÙĬØ©
ĠØ¥Ø¹ Ø§Ø¯Ø©
ĠØ§ÙĦØŃ Ø¬
ĠÙħØ¤ ØªÙħØ±
ÙĪ ÙĦØ§Øª
Øµ Ø¨ØŃ
ĠØ§ÙĦØ¬ Ø±
ĠØ§ ÙĩÙħ
ĠÙĪ ÙĬÙħ
ĠØ§ÙĦØ³ Ø§Ø¯
ĠØ§ÙĨÙģ ØµØ§ÙĦ
ĠÙħØ¹ Ø¸Ùħ
ĠØ¬Ø² Ø¡
Ø¬ÙĦÙĬ Ø²ÙĬØ©
ÙĦÙħ Ø§ÙĨÙĬØ©
ÙģØ³ ÙĬØ±
ĠØ¹ Ø¶ÙĪ
ÙĤÙ ĬØª
ĠØ£Ùħ Ø±ÙĬ
ĠØ§ÙĦØ¥Ø± ÙĩØ§Ø¨
ĠÙĪØ§ÙĦÙħ Ø±
ĠÙħØ¨Ø§Ø´ Ø±Ø©
ĠØª Øº
ĠØµ ÙĬØ§ÙĨØ©
Øª Ø§ØŃ
ĠØ¹Ø¨Ø¯ Ø§ÙĦØ¹
ĠØ£ Ø¹ÙĦÙĨ
ĠØ³ ÙĪØ±ÙĬØ©
ÙģÙ ĬÙĤ
ĠØŃ Ø¨
ĠØ§ØŃ ÙħØ¯
ĠÙĪÙ ħØ´
ĠØ® ØµÙĪØµ
ĠØª Ùĩ
ĠÙĬÙĪ ÙĦÙĬÙĪ
Ø§Ø²Ù Ħ
ĠØ§ÙĦØ± Ø¬ÙĦ
Ġ4 0
ĠØ§ÙĦÙĪ Ø¶Ø¹
ĠØ§ÙĦØ´ Ø±ÙĬÙģ
Ø² ÙĬÙĨ
ĠØ£ Ø³Ø¨ÙĪØ¹
ÙģØ§ ÙĪØ¶
ĠØ§ÙĦØ³ÙĪØ¯ Ø§ÙĨ
ĠØ§ÙĦØ¹ Ø§ØµÙħØ©
e t
Ø² Ùĩ
ĠØ¹ Ø§Ø¦
ĠØ§ÙĦÙħÙĪ Ø§ÙĤØ¹
ĠÙĤ Ø§ÙĦØª
Ø· Ø§Øª
Ø¬ Ø§ØŃ
ĠØ§ÙĦØŃ ÙĪ
Ù ĬØ§Ø±Ø§Øª
ĠØ§ÙĦÙħ Ø§ÙĦ
ĠÙħØ§Ù ĬÙĪ
Ġ201 0
Ø§Ø· Ù
ĠØ³ Ø§Ø¹Ø©
ĠØ¨Ø§ÙĦØ± ÙĬØ§Ø¶
ĠØ§ÙĦØ¬ÙħØ¹ ÙĬØ©
Ø³ Ø§ÙĨ
Ø° Ù
ĠÙĤ ÙĦØ¨
i l
ĠÙĪ Ø§Øª
ĠÙĥ Ø§ÙħÙĦ
ØªØ¨Ø§Ø± Ø§Øª
ĠØŃÙĥ ÙĪÙħØ©
ĠØ¥ Ø®
ĠØ§ÙĦØ§ØŃ ØªÙĦØ§ÙĦ
ĠØ§ÙĦØ¯ ÙĬÙħÙĤØ±Ø§Ø·
ĠØ§ÙĦÙģ ÙĨÙĬ
ĠÙĪ Øº
Ø° Ùĥ
ĠØ§ÙĦÙħÙĨ Ø´
ĠÙħØµ Ø¯Ø±
ĠÙĤØ¶ ÙĬØ©
ĠÙĪØ³ Ø§Ø¦ÙĦ
ĠØ¥ÙĦÙĬ ÙĩØ§
Ø°Ùĩ Ø¨
Ù ĬÙħÙĨ
ĠØ¥ Ø¨Ø±Ø§ÙĩÙĬÙħ
ÙĨØ¯ ÙĬØ©
ĠØ§ÙĦØ£ Ø¹Ø¶Ø§Ø¡
o u
ĠØ§Ø¶ Ø±Ø§Ø±
ĠÙĤ ÙĪÙĦÙĩ
ĠØ¹ÙĨ ÙĪØ§ÙĨ
ĠØ§ÙĦÙħØ³Øª ÙĪÙī
ĠØªØ¹ ÙĦÙĬÙħ
Ø§ ÙĪÙħØ©
ĠØ±ÙĪ Ø³ÙĬØ§
Ø³Ù ĬØŃ
ĠØ§ÙĦØ¹ ÙĦØ§Ø¬
ÙĦÙģ Ø²ÙĬÙĪÙĨ
ĠØ£ Ø±Ø¶
ĠØªØª Ø¹
i d
Ø¹ÙĦ ÙĨØª
ĠØ£Ø´ ÙĩØ±
ØªÙħ Ø§Ø¯
ĠÙĦÙĦØ¨ ÙĬØ¹
ĠØ§ÙĦÙħØ¯ ÙĨÙĬ
ĠØ§ÙĦØ§Ø« ÙĨÙĬÙĨ
Ø§Ø´ Ø±
ÙĤ ÙĪÙĤ
ÙĪ ÙĬÙĨ
ĠØŃ ÙĥÙħ
ĠØ§ÙĨ ØŃØ±Ø§Ùģ
ĠØ§ÙĦØ£ Ø³Ø¨ÙĪØ¹
Ø§Ùħ ÙĬÙĨ
ĠØ§ÙĦØ¹Ùħ ÙĦÙĬØ©
Ġ2 9
ĠÙģØ¨Ø± Ø§ÙĬØ±
ĠØªØŃ Ø¯ÙĬØ¯
ĠØ§ÙĦØŃ ÙĦÙĤØ©
ĠÙĪØ¹ ÙĦØ§Ø¬
ÙĬÙ ħØª
ĠØ¨Ø· ÙĪÙĦØ©
ĠÙĪÙģ ÙĤ
Ø±ÙĬ Ø¹Ø©
ĠØµ ÙĪØª
ĠÙģÙĬ ÙĦÙħ
ĠØ¹ Ø§ÙĦÙĬØ©
ħ Ø¯Ùī
ĠÙĪØ§ÙĦÙħ ØŃ
Ø° Ø©
ØªÙ ĬØ§Øª
ĠÙħØª ÙĨ
ĠÙĪ Ø§ÙĤ
ħÙ Ħ
Ø§Ø¬ Ø¯
o l
ĠØ§ÙĦÙĨ Ø³Ø§Ø¡
ĠØ¹ ÙĦØ§Ø¬
ĠØ¬ Ø¯
ĠØ§ÙĦØ· ÙģÙĦ
Ùĥ Ø§ÙĦ
ĠØ§ÙĦØ· ÙĦØ§Ø¨
ĠØ§ÙĦØ§ Ùģ
ĠØ§ÙĦÙģØ± ÙĨØ³ÙĬØ©
ĠØ§ÙĦÙħÙĤ Ø¨
Ùģ ÙĪ
ĠØ¹Ø¨Ø¯Ø§ÙĦØ¹ Ø²ÙĬØ²
Øª ÙĦØ§Ùģ
ĠØ¨ ÙĬØ¹
Ĭ ÙĦÙĬ
ĠØ§ÙĦØ£ÙħØ±ÙĬ ÙĥÙĬ
Ġ ?
ĠÙĤ ÙĨØ§Ø©
ĠØ§ÙĦ ÙĦØ§Ø
ĠØ§ÙĦØ§Øª ÙģØ§ÙĤ
Ù ĬÙĪÙħØ§
ĠØ¨ Ø§Ø¹
ĠØ§ÙĦØ¹ ÙĦÙĬØ§
² ÙħØ©
Ø±ÙĬ Ø¨Ø©
ĠØ§ÙĦÙģ Ø¶
ĠØ§ÙĦØ´Ø±ÙĤ ÙĬØ©
ĠÙĥ ÙĦÙĬØ©
ĠÙħØª ÙĪØ³Ø·
ĠØ¥ Ø·Ø§Ø±
ĠØ§ÙĦØŃ Ø±ÙĥØ©
ÙĤ Ø±Ø§Ø±
Ġ ÙĬØ¶
ĠÙĦØ§Ø ª
ĠØ§ÙĦÙħØŃ Øª
ĠØ§ÙĦØµØŃ ÙĬØ©
ĠØ§ÙĦØ§Ø´ ØªØ±Ø§Ùĥ
ÙĨØ¯ ÙĪÙĤ
Ø³Ùħ Ø¨Ø±
ĠØª Ø¹Ù
ĠÙĪØª ÙĪ
ĠØ§ÙĦØªØ³ Ø¬ÙĬÙĦ
ĠØ³ Ùģ
ĠÙĬÙĤ Ø¯Ùħ
ĠØ¨Ø¯ Ø£Øª
ĠØ§ÙĦØ£ ÙĪØ±
Ù ħØ§Ø¯Ø©
Ġ ÙĦØ§Ù
ĠØ¨ Ø«
ĠØ§Ù ĬØ¶Ø§
ĠØ¯Ø± Ø¬Ø©
Øµ Ùī
Ø§Ø¨ Ùĩ
ĠÙħØ¯ Ø±
Ĭ ÙĪØ±
ĠØ® Ø¨Ø±
ĠØ§ÙĦØ£ ÙħÙħ
ØŃ ÙĪ
ĠØ¨Ø§ÙĦØ ¶
ĠÙĦÙĪ ØŃØ©
ĠØ¯ÙĬ Ø³ÙħØ¨Ø±
Ø§ÙĤ Ø§Øª
Ø±Ø¨ Ø¹Ø©
ĠØŃ Ø±Ø¨
ĠÙħØ¤ Ùĥ
Ġ $
ĠØ§ÙĦØ¨ ÙĨ
ĠØ¨Ø¯ Ø£
ÙĤÙ ĬØ¹
ĠØ¥ Ø³Øª
ĠØ§ÙĦØ¹ÙĦÙħ ÙĬØ©
Ùģ ÙĬØ©
Ġ ÙħØ§Ø¯Ø©
Ø§Ø¨ Ø§
ĠÙħÙĥØª Ø¨
Ù ħØ¯Ùī
ĠØ§ÙĦÙĨÙ Ĭ
ĠØ§ÙĦÙģÙĦØ³Ø· ÙĬÙĨÙĬ
ĠØ´Ù ħØ§ÙĦ
Ġ ÙħØ¯Ùī
ĠÙĦÙĦØ³ ÙĨØ©
Ġ19 8
ĠÙĩ Ø¯Ùģ
ÙĬÙ ĬÙħ
Ø¨ Ø§Ø·
ĠØ§ÙĦÙĨ Ø§Ø¦Ø¨
ÙĨ Ø¯ÙĬ
Ø³ Ø¬ÙĬÙĦ
ĠØ± Ø¬ÙĦ
a d
ĠØ§ÙĦØ¥Ø³Ø±Ø§Ø¦ÙĬ ÙĦÙĬ
Ø§Ø¨ Ø±
ĠÙħÙĨ Ø§Ø·ÙĤ
o t
ĠØ¯ÙĬÙĨ Ø§Ø±
ÙĤØ¨ Ø§ÙĦ
ÙģÙ ĬÙģ
ĠÙĪØŃ ØªÙī
Ø¹ Ø§Ø¯
ĠØ´Ø¨ ÙĥØ©
ĠØ¨ ÙĩØ¯Ùģ
Ġ ÙħØ§ÙĨ
ĠÙĦÙĤ Ø§Ø¡
ħ ÙĪØ±
ĠÙĦÙĦØ º
ĠÙĤ Ø§Ø¦ÙħØ©
ĠÙĨ ÙħÙĪ
ĠØ¹ Ø±ÙĪØ¶
Ø® Ùģ
ĠØ¯ ÙĪØ±Ø©
ĠØ¨ÙĨ ÙģØ³
Ø¦ ÙĬÙĨ
ĠØ§ÙĦØ´Ø®Øµ ÙĬØ©
Ĭ Ø§Ø¡
Ù ĬØ§Ø¨
ĠØ§ÙĨ ÙĩØ§
ĠØ§ÙĦÙĨ ÙģØ³
ĠØ±Ø³ Ø§ÙĦØ©
ĠØ± Ø¬
ĠØ§ÙĦÙħØ® Ø±ÙĪØ·
Ġ ~
ĠØ§ÙĦØ· Ø¨ÙĬØ©
ÙĦÙģ Ø§Øª
ĠØªÙħ Ø§ÙħØ§
ĠØ¨Ø§ÙĦØ §
ØŃÙ ĬØ·
ĠØ¨Ø§ÙĦØ ·
ĠØ£ÙĩÙħ ÙĬØ©
ĠØ§Ù ħØ³
Ù ħØ§Ùħ
Ø¨Ù ĬØ¯
ĠÙĪÙĥ Ø§ÙĦØ©
ĠÙħØ´ Ø§ÙĩØ¯Ø©
Ø³Ø· Ø³
Ùģ Ø§Ø¸
ĠØªØ¹ Ø±Ùģ
ĠÙĨ Ø²
Ø¬ ÙĬØ©
Ù ĬÙĪØ±
Ø² Ø§
ĠØ® ÙĬØ±
ĠØŃÙ ĬØ§Ø©
Ø§Ø± ÙĬØ±
Ø±ÙĬ ØŃØ§Øª
ĠØ§ÙĦØ· Ø§ÙĤØ©
ÙĨØ³ Ø§ÙĨÙĬØ©
ĠØ§ÙĦÙĦÙĤ Ø§Ø¡
ĠØ§ÙĦØ¨ Ø¯
ĠØ£ ÙĦÙħ
ĠØ£Ø³ Ø¹Ø§Ø±
Ø§Ø¦ ÙĦØ§
Ø§ÙĤ Ø¨Ø©
ĠÙĥÙ ħ
ĠØª ØªÙħ
ĠØ§ÙĦØ¥ÙĦÙĥØªØ± ÙĪÙĨÙĬ
ĠØ· Ø±
ĠØ§ÙĨ ØªÙĩ
²Ù ħ
ĠÙĪÙģ ÙĤØ§
Ø° ÙĬØ©
ĠØ§ÙĦÙĨ Ø§Ø±
ÙĪÙĨ Ø§Øª
ĠØ§ÙĦØ§Ù ħÙĬØ±
ĠØ³ Ø¨ÙĬÙĦ
ÙĪÙ ĬÙĤ
ĠØ§ÙĦØµ ÙĬÙĨ
Ħ ÙĦØ§
ĠÙĪ Ø³Øª
ĠÙĥ Ø´Ùģ
ÙĪØ§ ÙĬØ©
Ùĥ Ø±Ùī
Ù ¡
ĠØ¹ Ø´
ÙĦØ§Ø¨ Ø³
ĠØ¶ Ø±ÙĪØ±Ø©
ĠØ§ ÙĤØªØµ
ĠØ£Ø³ Ø§Ø³
ĠØ¥ Ø±
Ø± Ø§Ø¦ÙĬ
ĠØ§ÙĦØ« ÙĪØ±Ø©
ĠØªØµ ÙħÙĬÙħ
ÙĬØ¬ ÙĬØ©
ĠØ´ Ø¹Ø±
ĠØ± Ø¬Ø§ÙĦ
Ø´ Ø§Ø±Ø©
ĠÙħÙĪ Ø§Ø¶ÙĬØ¹
ĠØ§ÙĦÙħØŃ ÙĥÙħØ©
Ġ3 1
ÙĦÙĬ Ø¨
ĠÙĥÙ Ĭ
ĠØ§ÙĦØ¥ ÙĬØ±
ĠÙĪ Ø§Ø¬
ĠØ¬ Ø¹
ĠØ´ ÙĥÙĦ
ĠØ§ÙĦØº Ø°
2 0
ĠØ§ÙĦØ® Ø¯ÙħØ©
ĠØ³ÙĦÙĬÙħ Ø§ÙĨ
ĠØ§ÙĦØ¬Ùĩ Ø§Ø²
Ù ħØ§Ø¡
Øº Ø§ÙĨ
ÙĦØ§Ø ´
ĠØ§ÙĦØ¥Ù ħØ§Ùħ
ĠØ§ÙĦÙĪØ² Ø§Ø±Ø©
ĠØ§ ÙģØª
ĠØª ØºÙĬÙĬØ±
ĠØ§ÙĦØ¯ ÙĪØ±
ĠÙĦÙĥ Ø±Ø©
ĠØ§ÙĦØ§ÙĤØªØµ Ø§Ø¯
ÙĪ Ø¨ÙĬ
ÙĩÙ ĬÙĦ
ħ ÙģØª
Ù ħÙĬØ±
Ø¯ÙĬÙ ħØ©
ĠÙģ ÙĩÙĬ
Ø§ ÙĪÙĬØ©
ĠÙĥ Ø±Ø©
Ġ4 5
ĠØ´Ø¨ ÙĥÙĬØ©
ÙĨØ§ ÙĤ
Ù ħÙĦÙĥ
Ġo f
ĠØ§ÙĦÙģØ± ÙĨØ³ÙĬ
ĠÙĦØ§Ø ¨
ĠØ¨Ù ħ
Ø±Ùħ ÙĬÙĨ
Ø§ÙĦÙ Ĥ
ĠØ§ÙĦÙĨ Øµ
ĠØ§ÙĦØº Ø±Ø¨ÙĬØ©
ĠØª Ø±ÙĬØ¯
ĠÙĬÙĨ Øª
ĠÙĨÙģØ³ ÙĩØ§
ĠØ§ÙĦÙĨ Ø§Ø¯ÙĬ
ØªÙĬ Ø¨
Ø¬ ÙĪØ¯Ø©
ĠØ¨ØŃ Ø«
Ù ħÙģØª
ĠÙĥØ« ÙĬØ±Ø©
ĠÙĦÙĦØ§Ø ³Øª
Ù ĦÙĦØ§
ĠØ¹ Ø±Ùģ
ÙĪÙĨ Ø§
ÙĨ Ùģ
Ø³ Ø¯
Ġ ÙħÙģØª
Ø³Ù ĦÙĪ
Ø° Ø§Ø±
ĠÙĪØ§ÙĦÙħ ÙĪ
ĠÙĤ ÙĪØ©
ĠÙĤ Ø·
ĠØ¨ ØŃÙ
ĠÙĪØ¹ Ø¯Ùħ
ĠÙħØ¹ Ø±Ø¶
Ø¹ Ùĩ
ĠØ§ÙĦØ´ ÙħØ³
ĠØ¨Ùĩ Ø°Ùĩ
ÙĪØ§Øª Ùģ
ĠØ¨ Ø±ÙĪ
ĠØ§ÙĦØ¹Ø± Ø§ÙĤÙĬ
ĠØ§ÙĦÙģ ÙĨ
Ġ0 1
Ø¨Ù ĬØª
ØªØ¯ Ø§Ø¡
ĠØ§ÙĦÙģ ÙĨÙĬØ©
ĠØ§ÙĦØ¹ Ø¶ÙĪ
ĠØ± Øº
ØªØ¨ Ø§Ø·
ĠØ¯ Ø®
ĠØ§ÙĦØ¹ Ø²ÙĬØ²
ĠÙĦÙĦÙ ħØ´
ĠØ§ÙĦØ´ Ø§Ø¹Ø±
Ġ ÙĬÙħÙĨ
ĠØ§ÙĦØªØŃ ÙĤÙĬÙĤ
ÙĥÙ ĬØ²
u m
ÙĬÙħ Ø§ÙĨ
ÙħÙĪ Ø§ÙĦ
Øª Ø²
ĠØ§ÙĦÙĬ Ø§Ø¨
Ĭ Ø¯ÙĬ
ĠØ®ØµÙĪØµ Ø§
Ø§Ùģ ÙĤØ©
ĠØ§ÙĦØ® ÙĬØ±
Ø· Ø§ÙĨ
ĠØ£ Ø¹ÙĦÙĨØª
ĠÙĤ ØªÙĦ
Ø¬Ùħ Ø§Øª
Ø® Ø§Ø°
ĠÙħØŃ Øª
ĠÙĪÙ ĬØ³
ĠØ²Ù ĬØ§Ø±Ø©
ĠØ§Ø® ØªÙĬØ§Ø±
ĠØ§ÙĦØ£ÙħÙĬØ± ÙĥÙĬØ©
ĠØ§ÙĦØŃÙ Ħ
ĠØ± ØŃÙ
ĠØ¹ ÙĬØ¯
ĠØ§ÙĦÙħØª ÙĪØ§Ø¬
Ġ ÙĦÙĦØ§
ĠÙĥ Ø§Ùħ
ĠØ§ÙĦØ³ Ø§Ø¨ÙĤØ©
ĠØ§ÙĦØ±ÙĬØ§Ø¶ ÙĬØ©
ĠÙħØ´ Ø§ÙĥÙĦ
ĠØ§Ø¨ ÙĪ
ĠØ³Ù ħ
ĠÙĤØ§Ùħ Øª
ĠØ¯Ø± Ø§Ø³Ø©
Ø´ Ø·Ø©
ĠØ± ØŃ
Ġ200 9
ĠØ§ÙĦÙħ Ø§Ø¯Ø©
Ġ ÙħÙĦÙĥ
ĠØ§ÙĦØª ÙĨÙħÙĬØ©
ÙĦØ ²
ĠØªØŃ Ø¯Ø«
Ù ł
Ø³ ÙĪÙĨ
Ø§ ÙĪØ±
ĠØ§ÙĦØ´Ø¹Ø¨ ÙĬØ©
ØªØ± Ø§Øª
ĠØ§ÙĦØ¨ Ù
ĠÙħØ³Øª Ø´ÙģÙī
ĠÙĪØª Ø£
ĠÙĤ ÙĬÙħØ©
ħØ§Ø± Ø³Ø©
on t
ĠØ§ÙĦØŃ ÙĬÙĪ
Ø±ÙĬ Ø¶
Ø§Ø±Ùĥ Ø§Øª
ĠØ§ÙĦØ«ÙĤ Ø§ÙģØ©
ĠØ£Øº Ø³Ø·Ø³
Ø§Ø± ÙĨØ©
at ion
ĠÙĪØ§ÙĦ ÙĪ
ĠØ¨ÙĬØ± ÙĪØª
Ùĥ Ø°Ø§
Ø¶ Ùī
ĠØ§ÙĦØµ ÙĦØ§Ø©
ĠØ§ÙĦÙĤØ± ÙĨ
ØªØ± Ø§
Ø·Ùģ Ùī
ĠØ¬ÙħØ¹ ÙĬØ©
ĠØ® ÙĦÙĬ
Øª ÙĨ
ĠØ§ÙĦØ³ÙĬ Ø§ØŃØ©
Ġ3 5
ĠØ§ÙĦØŃ Ø¯ÙĪØ¯
ĠØ§ÙĦØ§ ÙĦÙĥØªØ±
ĠÙģØ± ÙĨØ³Ø§
ĠÙĬØª ØŃ
ĠØ§ÙĦØ£Ùħ ÙĪØ±
ĠØ¥ØŃ Ø¯Ùī
Ø§ØŃÙ Ĭ
ĠÙĪØ¥ Ø°Ø§
ĠØ¹Ø§Ùħ Ø©
ĠÙħØŃ Ø§ÙģØ¸
ĠØ§ÙĦØ³ÙĦØ· Ø§Øª
ĠÙĪ Ø§ÙĦÙĬ
ĠØª Ø¶
ĠØ³ÙĬ Ø§Ø±Ø§Øª
Ġ re
ĠØ§ÙĦØ±Ù Ĭ
ĠØ§ÙĦÙħØ®Ø±ÙĪØ· ÙĬØ©
ĠÙĦØª ÙĤ
ĠØ§ÙĦØ£Ø® Ø¨Ø§Ø±
ĠØ® ÙĦÙĤ
ĠØ¨Ù ħØŃ
ÙĪØ¹ ÙĬØ©
Ø§Ø¯Ù ħØ©
Ø± Ø²
ĠÙĪØ£ Ø®
ĠØ³ ÙĪÙī
ĠØ¨Ù ħØ¯
ĠØ´ Ø±ÙĤ
e l
ĠØ§ÙĦØµ ÙĪØ±Ø©
ĠØªØ¹ ØªØ¨Ø±
ĠÙĦÙĬ Ø²
ÙĬÙĨÙ ĬÙĬÙĨ
Ø±Ù ħÙĪ
ØªÙħØª Ø¹
ĠØ§ÙĦÙĤÙ Ĭ
Ø¨ÙĬ ÙĤØ§Øª
Ø® ØµÙĬØ§Øª
ĠØ¬ ÙħØ§ÙĦ
ĠØ³ ÙħØ¹
ĠØ¬Ø² Ø±
ĠÙģ ÙħÙĨ
ĠØ§ÙĦØ¯ Ø¹Ùħ
ĠÙĨ ÙĪØ±
ĠØ£ÙĨ ÙĪØ§Ø¹
ĠÙĪÙĨ ØŃÙĨ
Ø«Ù ĬÙĤ
Ø§Ø± Ùģ
Ø² Ø§Ø¨
ĠÙħÙĨ Ø¸ÙħØ©
ĠØ¯ Ø®ÙĪÙĦ
ĠØ§ÙĦÙĨ Ø¨
ĠØ§ÙĦØ² ÙĪØ¬
Ġ i
ĠØ¹ ÙĦÙĬÙĨØ§
ĠØ§ÙĦÙħØ´ Ø§ÙĩØ¯
ÙĪÙĨ Ùĩ
ĠÙħÙĪÙĤ Ùģ
ĠØ£Ø¨ Ø±ÙĬÙĦ
Ø´ Ø§Ø·
ĠØªØŃ ÙĥÙħ
ĠÙħÙ ĬØ²
ĠØ§ÙĦØ£ Ø¨
ĠØ§ÙĦÙĪ ØŃÙĬØ¯
ĠØ§ÙĦÙħØ¤ Ø³Ø³Ø§Øª
r i
Ø§Ø· Ø©
Ù ĬØ§Ø¡
ĠØ« Ø§ÙĨÙĪÙĬ
Ġ ÙĬÙĪÙħØ§
ÙģÙ ĬØ§
ĠÙĪ Ø°ÙĥØ±
Ø¦ ÙĦØ©
ĠØ§ÙĦØ§Ø³Øª Ø«ÙħØ§Ø±
ĠØ§ÙĦÙĪ ØµÙĪÙĦ
Ø§ ÙĪØ²
Ùģ Ùī
ĠØ¨Ø§ÙĦÙ ħÙĨ
ĠØªØ¹ Ø¯ÙĬÙĦ
ħ ÙĦØ§Ù
a s
ÙĤ ÙĪÙĦ
ĠØ§ÙĦÙħØ¬ ÙħÙĪØ¹Ø©
ĠØ§Ù ħØ§Ùħ
ĠÙĤÙ ĬØ§Ùħ
Ùĥ ÙĬÙĨ
ÙĪÙĬ Ùĩ
ĠÙĪØ£ ÙĪØ¶ØŃ
ĠØ§ÙĦØ¬ Ø§ÙĨØ¨
Ø§ÙĦØ¬ Ø©
ĠØ¹ Ø±Ø¨ÙĬØ©
ÙĨ Ø·ÙĨ
ĠÙĪØ§ÙĦØªØ¹ ÙĦÙĬÙħ
Ø«Ù Ĭ
ĬÙĪ Ø¨
ĠØ§ÙĦØ² Ù
ĠØ¹Ùħ Ø§ÙĨ
ØŃÙ ĬØ§ÙĨ
ĠØ§ÙĦØ¯ ÙĪØ±Ø©
ØªØ± Ùģ
ĠÙĤØ± ÙĬØ©
Ø¹ ÙĪØ¯
Ø¸ Ø§Ø±
Ùģ Ø§Ø¯Ø©
ĠØ§ÙĦÙħØ³Øª ÙĤØ¨ÙĦ
Ù ħÙĦØ§Ù
ĠÙĥ ÙģØ±
ĠØ¹ Ø´Ø±Ø©
Ġ ÙħÙĦØ§Ù
Ø§Ø· ÙĨ
Ø¨ Ø®
ĠÙĪÙĩ Ø°Ùĩ
ĠØ¨ Ø¯Ø±
Ø· ÙĪØ±
o o
Ø§Ø¯ Ùĩ
ĠØ§ÙĦÙħ Ø±Ø¶
Ġ19 6
Ĭ Ø°ÙĥØ±
ĠØŃ Ø¬Ùħ
ĠØ§ÙĦÙĨ ÙĪØ§Ø¨
Ø§Ø¦ Ø¹Ø©
Ù ĬØ°ÙĥØ±
Ġ ÙĬØ°ÙĥØ±
ĠØ¨ØŃ Ø³Ø¨
ĠÙĪØ§ÙĦÙħ Ø´
ĠÙĦÙĦÙ ħØ³
ĠØ³ Ø§ÙĨ
ħ ÙĦØ©
Ø§Ø¦ Ø²
ĠØ³ ÙħÙĪ
ĠØ§ÙĦØ§Ø³ ÙĦØ§ÙħÙĬØ©
ĠØ§ÙĦØ£ ÙĪØ³Ø·
ĠØ¥ Ø·ÙĦØ§ÙĤ
Ø¸ÙĬÙģ Ø©
ĠÙħØ¹ Ø¯
ĠÙĪÙĬÙħ ÙĥÙĨ
ĠØ¬ Ø§ÙĨ
ĠØ§ÙĦÙĪ Ø³Ø·
Ĭ Ø¨Ø©
ÙħÙĨ Ùī
Ù ħØ±ÙĬ
Ø¨Ùĩ Ø©
Ø± Ø§Ùģ
Ġ19 7
ĠØ§ÙĦÙħØ¬ Ø§ÙĦ
Ø§Ø¬Ù ħ
ĠØ§ÙĦØ¨ ØµØ±
ĠÙĥÙĬÙģ ÙĬØ©
ĠØ§ÙĦØ£ Ø³ØªØ§Ø°
ÙĬÙ ĦÙĪ
ĠØªØ¹ Ø±ÙĬÙģ
ĠØ·ÙĪÙĬ ÙĦØ©
ĠÙĪØŃ Ø¯Ø©
ĠØ³ Ø¬
Ø§ÙĦÙĩ Ø§
ĠØ±Ø¨ ÙħØ§
ĠØ§ÙĦØ±ÙĬØ§Ø¶ Ø©
ÙĪÙĦ ÙĪÙĨ
ĠØ¥ ÙĬØ¬
ĠÙĪØ¨Ø§ÙĦØª Ø§ÙĦÙĬ
ĠØ¨Ù ħÙĤ
ÙĪØ³ ÙĬØ©
ĠØªØ± Ø§ÙħØ¨
ĠÙħØ± ØŃÙĦØ©
Ø¯Ø± Ø§Øª
ĠÙĪ Ø¶
ĠØªØ¹ ÙĦÙħ
ĠÙĨ ØµÙģ
ĠÙĪ ÙĬØ±
ĠØ§ÙĦØ¨Ù Ĭ
ĠØ³ÙĬ ØªÙħ
ĠØ¹ Ø¶
ĠØ§ÙĦÙĤ Ø¶Ø§Ø¡
Ø§ÙĤ Ùģ
ĠÙĪØ§ÙĦØª Ø±
Ø¨ÙĦ ÙĪÙħ
ĠØ¨ ÙħØ±
ĠØ³Ø¨ Ø¨
ĠØ£ÙĨ ÙĩÙħ
ÙĦØ³ ÙĦØ©
ÙĥÙ ĬØ¨
ħ ÙĩÙħØ©
ĠÙĬØŃ Ø¯Ø«
ĠØ¨ Ø³ÙĬ
ĠÙħÙĤ Ø±
ĠØ§ÙĦÙħÙĤØ¨ ÙĦØ©
ĠØ§ÙĦØ§ ÙĪÙĦÙī
ĠØ£ÙĪ ÙĦØ§
ĠÙħØ³ Ø§Ø¹Ø¯
Ø¹ ÙĬÙĨ
ĠØ§ÙĦØŃÙĥ ÙĪÙħÙĬØ©
ÙĬØ¯ Ø©
ĠØ§ÙĦØ± Ø§Ø¨Ø¹Ø©
Ùĥ ÙĬØ±
ĠØ§ÙĦÙĤØ¶ ÙĬØ©
ĠØ¯Ø§Ø¹ Ø´
Ø§ÙĨ ÙĪÙĬØ©
ĠÙĦÙĬ Ø¨ÙĬØ§
ĠÙĦØª ÙĨ
ĠÙħÙĥ Ø§ÙģØŃØ©
ĠÙħØ¨Ø§Ø´ Ø±
Ù ħÙĪÙĨ
e m
ĠÙĥØ¨ÙĬØ± Ø§
ÙĪØ³ Ø¹
Ø« ÙħØ±
ĠÙĪ Ø±Ø§Ø¡
ĠØ§ÙĦØ¥ Ø³Øª
ĠØ¹ Ø±
Ù ħÙĩÙħØ©
ĠÙħØŃ Ø§Ùħ
Ġ ÙħÙĩÙħØ©
ĠÙĬØ² ÙĬØ¯
Ø®Ø± Ø§
ĠÙĪ Ø¸Ø§Ø¦Ùģ
ÙħÙĩ ÙĪØ±
ÙħÙĨ Ø©
ĠØ¨ ÙĦØ§
ĠÙĪÙ ħÙĤ
ĠØŃ ÙħØ§ÙĬØ©
ÙĪØ§ Ùĩ
ÙĨØ¯ ÙĤ
ĠÙģØ¥ ÙĨÙĩ
Ġ Ø§Ø°
Ø¬Ù ĬØ¨
ĠØ£ ÙĤÙĦ
ĠÙĦØ ¶
ĠÙĤ Ø§Ø¦ÙĦØ§
ÙĨ Ø¬
ĠØ§ÙĦ ÙĦØŃ
ĠØ· Ø±Ùģ
ĠØª ÙĪÙĨØ³
ĠØ£ Ùī
Ø£ ÙĦØ©
ĠØ§ÙĦØ£Ø® ÙĬØ±
ĠØ§ÙĦØ£ÙħÙĨ ÙĬØ©
ĠØ¨Ø¯ Ø¡
ĠØ§ØŃ Øª
ĠØ³ÙĬØ§Ø³ ÙĬØ©
ĠØ¢ ÙĦØ§Ùģ
ĠØªÙħ Ø«ÙĦ
ĠÙĪÙ ĬØ¬
Ø¯ ÙĤ
ĠÙĪ Ø±Ø¯
ĠØ§ÙĦÙģÙĬ Ø¯ÙĬÙĪ
Ø¯ Ø§Ø¡
ÙĦÙħ Ù
ĠØ§ÙĦØ¥ÙĨ ØªØ±ÙĨØª
ĠÙħØ¤Ùĥ Ø¯Ø§
ĠØ§ÙĦÙĪ Ø§ØŃ
u s
ĠØ§ÙĦØ¹ÙĦÙħ Ù
Ø§Ø± Ø¨Ø©
ĠØ§ÙĦØ¬ÙĨ ÙĪØ¨ÙĬØ©
ØªÙ ħÙĦ
ĠØ§ÙĦÙĥ ØªØ¨
ĠØ§ÙĦØ±Ø³ ÙħÙĬ
ĠØ¨ Ø´Ø±
ĠØ§ÙĦØ± Ø§Ø¨Ø¹
ÙħÙĪ Ø¹
Ø´ Ø§Ùģ
Ø³ Ø³
ĠØ¨Ø¹ Ø¯ÙħØ§
Ġ ÙĬØº
ĠØ¹ Øµ
Ġ0 0
Ù ħØ§Øª
ĠØ£ÙĪØ± ÙĪØ¨Ø§
ĠØ§ÙĦØ¯Ø± Ø§Ø³Ø©
ĠØ§ÙĦØ¹ÙĦÙħÙ Ĭ
ĠØ§ÙĦÙħ Ø¹Ø¯
ĠØ§ÙĦØ· Ø±ÙĤ
ĠÙĪÙ ĬØ´
ĠÙĦÙĦÙ ħ
ĠØ¯ÙĬ ÙĪØ§ÙĨ
ØªØ± ÙĥØ©
Ø£Ù ħÙĬÙĨ
ĠØ§ÙĦØ§ÙĤØªØµ Ø§Ø¯ÙĬ
Ø§Øª ÙĩÙħ
ĠØ§ÙĦØ±ØŃ ÙħÙĨ
Ø¯ÙĬ ÙĤ
ĠØ§ÙĦØ¨ ØŃ
ĠØ§ÙĦØ± ÙĤ
ĠÙħØ¯Ø± Ø³Ø©
ĠØ¯Ùħ Ø´ÙĤ
ĠØ´ÙĬ Ø¦Ø§
ĠØ¹ ÙĦØ§ÙĤØ©
Ùĩ ÙĪÙĦØ©
ĠØ§ÙĦØ£ ÙĪØ±ÙĪØ¨ÙĬ
ÙĪ Ø±Ùī
ĠØ§ÙĦÙĤ ÙĦØ¨
ĠØ§ÙĦØ´ ÙħØ§ÙĦÙĬØ©
ĠÙħØ¨Ø§Ø± Ùĥ
ĠØ§ÙĦÙĥ Ø¨Ø±Ùī
ĠÙħÙĨ Ø²
Ù ĬØ¨Ø©
ĠØ§ÙĦØ¹ Ø³ÙĥØ±ÙĬ
ĠØ§Ø® Ø±Ùī
ĠØ§ÙĦÙħØ³Øª Ø®Ø¯Ùħ
Ø§ÙĦØ £
ÙĪ Ø§ØµÙĦ
Ø§Ø´ Ù
ĠÙĪØ§ÙĦØ§ ÙĨ
Ùĥ Ø§Ø¯
Ġ Ø§Ø²
ĬØ§ Ùĩ
ĠØ¨ÙĬÙĨ ÙĩÙħ
ĠØ³ Ùĥ
ĠØŃ ÙĪØ§ÙĦÙĬ
ÙģØª ØŃ
ĠÙĦÙĥ ÙĨÙĩ
ĠØµ ØŃØ©
Ø¹ ÙĬÙħ
ĠØ£Ø¨ ÙĨØ§Ø¡
ÙĦØ§Ø º
ĠØ§ ÙĨØ§
ĠØµ Ø¯Ø±
ĠÙħÙ ħÙĬØ²
ĠÙĦØª Ø¹
Ø§Ø² Ø§Øª
ĠØ§ÙĦÙĪØ² ÙĬØ±
ĠØ§ÙĦÙĤ ÙĪÙī
ĠÙĥ Ø§ØªØ¨
ĠÙħØ¬ ØªÙħØ¹
ĠØªØ£ Ø«ÙĬØ±
ĠÙģØ± ØµØ©
ĠÙħØ´ ÙĥÙĦØ©
ÙĪ Ø§Ùħ
ĠÙĤ ÙĦÙĬ
ĠØ§ÙĦØ± ØºÙħ
Ø±ÙĬ Ø±ÙĬ
ĠÙĦÙĥÙ Ĭ
ĠØ± ÙĪØŃ
ĠØ§ÙĦØ± Ø³ÙħÙĬØ©
ØªØ± Ø¶
ĠØ§ÙĦØ³ ÙģØ±
Ø§Ø´ Ø©
Ø¦ ÙĬØ©
Ø®Øµ ÙĪØµ
ĠÙĪØ§ÙĦØ§Ø ¬
ĠØ¯ ÙĦÙĬÙĦ
ĠØ£ ÙĦØ§
ĠÙĪØ§ÙĦØ ²
ĠÙĦÙĦÙħÙĨ ØªØ¯Ùī
Ø· Ø·
ĠÙħØ§ ÙĦÙĬ
ĠÙĪØª Ø¬
Øº Ø§ÙĦ
Ø§Ø± Ø§
ĠØ§ÙĦÙħØ¹Ø§Ø± Ø¶Ø©
t er
ĠØ³ÙĬ Ø§Ø±Ø©
Ø§Ø¨ ÙĤØ§Øª
ĠØ§ÙĦØªÙģ Ø§ØµÙĬÙĦ
Ø«Ù ħØ§ÙĨ
ĠØ± Ø¶ÙĬ
ĠÙħØŃ Ø§ÙĪÙĦØ©
ħ Ø§Ø³
ĠÙħÙĪ Ø³
ÙĦÙĬ ÙĤØ§Øª
ĠØ¯ ÙĪØ±ÙĬ
ĠØ¨ØŃÙ ĬØ«
ÙĦØ§ØŃ Ø¸
ĠØ¨ÙĪ Ø§Ø³
ĠØªØŃ ÙħÙĦ
Ġ h
o w
ĠØ· Ø±ØŃ
Ø±Ùģ Ø¹
ĠÙĦØ¯ ÙĬÙĨØ§
ĠØ§ÙĦØ£Ù ĬØ§Ùħ
Ø¬Ø§ ÙĪØ²
Ø¶ ÙĬØ±
ĠØ§ÙĦÙĥ Øª
ÙĨÙ ħ
ĠÙĬØ³Øª Ø·ÙĬØ¹
ĠÙĬØ£ ØªÙĬ
ĠØ§ÙĦÙģ ÙĥØ±
ÙĨÙĬ Ø§Øª
ĠØ§ÙĦÙħ ÙĥØ§ÙĨ
Ø§Ø³ Ø¨Ø§Øª
ĠØ§ÙĦÙĪ ÙĤ
ĠØ¬ ÙħÙĩÙĪØ±ÙĬØ©
ĠÙĨ ÙĬÙĪ
Ĭ Ø¨Ø¯ÙĪ
ĠÙħÙĪ Ø§Ø¬ÙĩØ©
ĠØ§ÙĦØ§Øª ØµØ§ÙĦ
ØªØ± Ø§Ùħ
ĠÙĦØ§Ø¹ Ø¨
ĠØ§ÙĦØ¬ Ø³Ùħ
Ø±Ùĥ ÙĬØ©
Ø±ÙĤ Ø§Ø¡
ĠØ¥ Ø¬
Ø¹ ÙħÙĦ
Ø· ØŃ
ĠØ´Ø¨ Ø§Ø¨
ĠÙĪ ØµÙĦ
ĠØ§ÙĦØ¨ ÙĨÙĥ
ÙĥÙĨ ÙĪÙĦÙĪØ¬ÙĬØ§
Ø¦ÙĬ Ø³ÙĬ
ĠØ³ Ø§Ùħ
ĠØ§ÙĦØªØ¹ Ø§ÙħÙĦ
ĠÙĦÙħ Ø¬
ĠÙĪÙ ĦÙĨ
ĠÙĪØ§ÙĦØª ØŃ
ÙħÙĬ ÙĦØ©
ĠÙĪØ§Ø´ ÙĨØ·ÙĨ
ÙĨÙ ĬØ³
ĠØ§ÙĦØ¨ØŃØ± ÙĬÙĨ
Ù ĬØ¨Ø¯ÙĪ
ØªØ± Ø§Ùģ
Ġ ÙĬØ¨Ø¯ÙĪ
ÙĥØ± Ø§
ÙĦÙħ Ø§ÙĨÙĬ
ÙĦÙħÙ Ĭ
u b
ĠØ§ÙĦØ£ Øº
Ġc o
ÙħØ¹ ÙĬØ©
Ĭ ÙĪÙħÙ
ØµØ¯ Ø§Ø±
ĠØª ÙĪÙģÙĬØ±
Ù ĬÙĪÙħÙ
ĠÙĦØ³ ÙĨØ©
ĠØ£ ÙĩØ¯Ø§Ùģ
Ġ ÙĬÙĪÙħÙ
ÙħØ§ ÙĩÙĬØ±
ĠÙĦØ° Ø§
Ø·Ø± Ø§Ùģ
ħ Ø§Ø°Ø§
ĠØª ØµÙĦ
ØŃÙĬ Ø§Ø¡
ĠÙĦÙħ Ø§Ø°Ø§
ĠØ§Ù ħØ§
ĠØŃ Ø¯ÙĪØ¯
ĠØ¥ÙĨ ÙĩØ§
ĠØ§ÙĦØ£ Ø¬
Ø´ ÙĨ
ĠØ§ÙĦÙħ ÙĤØ¯
ĠØ§ÙĦØ§ ÙħÙĨ
u n
ĠÙĪØ§ÙĦØ ¢
ĠÙĦÙħ Ø³
ĠØ§ÙĦØ£ Ø²
ĠØ£ Ø³Ø±
ĠØ§ÙĦØªÙĤ ÙĨÙĬØ©
ĠØ¨Øª ØŃ
Ø¸Ùħ Ø§Øª
ĠØ£ Ùĩ
ĠØ§Ø® ØªØ±
ĠØ§ÙĦØµ ÙĪ
ĠØ§ÙĦØ° Ø§Øª
Ø¹Ø¯ Ø¯Ø©
ÙĬÙ Ĭ
Ø«Ù ħ
Ġ =
ĠØ£ Ø·
ĠØªÙĥ ÙĦÙģØ©
ĠØ³ ÙĦÙħØ§ÙĨ
ÙĨ Ø§Ø¦ÙĬØ©
ÙĦØ¨ Ø©
ĠØ§ÙĦÙħØ¯Ø± Ø³Ø©
Ġ ÙħÙĪÙĨ
ĠØ§Øª ØŃØ§Ø¯
ĠØ§ÙĦÙĨ ÙĤÙĦ
Ø±ÙĪ ØŃ
ĠÙĪØ§ÙĦÙ ĦÙĩ
ĠÙħØ¹ ÙĩØ§
ĠØ£Ø¹ ÙĦÙī
ĠØ§ÙĦÙĥ Ø±Ø©
ĠØ§ÙĦÙħØŃ Ø§ÙģØ¸Ø©
ĠØ§ÙĦÙħÙĨ Ø²ÙĦ
ĠØµ ÙĨØ¹
ĠØ§ÙĦØ³ÙĬØ§Ø³ Ø©
ĠØ§Ø® Ø±
ĠØ¹Ø¨ Ø§Ø³
ĠØ¹ ÙĪ
ĠÙĤ Ø·Ø¹
ĠÙĪØ§ÙĦÙħ Ø¬
Ø±Ùģ ÙĬÙĨ
ĠÙĦØ§Ø ³
ÙĤ ÙĦØ©
ÙĤ Ø§ÙĦ
ĠÙĪ ÙħÙ
ĠØ§Ø³ ØªÙĩ
ÙĦÙĬ ÙħÙĬ
ĠØªØ¬ Ø§Ùĩ
ĠØŃ ÙģØ¸
ÙĥÙĨ Ø¯Ø±
Ø¨ÙĬ Ø¶
ĠØ§ÙĨ ÙĤ
ĠØ§ÙĦØ£Ø³ Ø±Ø©
ĠØ§ÙĦØ± Ø£ÙĬ
ĠØ§ÙĦØ¨ Ø¯Ø§ÙĬØ©
ĠØ§ÙĦØŃ ÙĪÙĦ
ÙĤ Ø§Ùħ
Ġ6 0
ĠØ¨ Ø²ÙĬ
ĠØ§ÙĦØ£ÙħÙĬØ± ÙĥÙĬ
ĠØ§ÙĦØª Ø§Ø¨Ø¹Ø©
Ø§ÙĪ ÙĦØ§Øª
ĠØ£ÙĨ Ùĥ
an d
Ġ in
Ġ ÙħØ§Øª
ĠØ¨ÙĬØ§ÙĨ Ø§Øª
Ø¢ Øª
ĠÙħØ· Ø§ÙĦØ¨
ĠÙģ Ø±Ø¶
Ø¹Ø± Ø§Ø¶
ÙħÙ ĬØ§Øª
ĠØ§ÙĦØªØ¬ Ø§Ø±Ø©
ĠØªØª ØŃ
ĠÙĦØ¹ Ø¨Ø©
ĠØ§ÙĦØªØ¹ÙĦÙĬÙħ ÙĬØ©
o v
Ù ¢
ĠØµÙģ ØŃØ©
ÙĬØ± Ùĩ
ĠÙĪ Ø§Ø¨
ĠØ§ÙĦØ¬Ùĩ Ø§Øª
Ġ v
Ø· Ø§ÙĦ
ĠÙģ ØŃ
Ø§ ÙĩØ§
ĠØ§ÙĦØ¹Ø±Ø§ÙĤ ÙĬØ©
ĠÙħÙĨ ØŃ
ĠÙĪØ§ÙĦØª ÙĤ
ĠØ§ÙĦÙħØµ Ø¯Ø±
ĠÙħÙĪ Ø§Ø¯
ĠÙĪÙĩÙĨØ§ Ùĥ
Ø§Ùħ ÙĬÙħ
Ø±Ù ħØ©
ĠÙĪÙ ħØ¬
ĠÙħØµ Ø·ÙģÙī
ĠØŃÙħ ÙĦØ©
Ø¨ ÙĪØ¹
ĠØ¨Ù ħØ´
ÙĨØ§ ÙĬØ©
ĠÙģØ¶ ÙĦØ§
ĠÙĥ Ø§ÙħÙĦØ©
ĠØµ ØºÙĬØ±Ø©
ÙĬÙħ ÙĬØ©
ĠÙĪØ§ÙĦØ§Ø ³
ħ ÙħÙĨ
ÙĨ Ø§Ùģ
Ø¹ ÙĪÙĨ
ĠØ§ÙĦÙĩ Ø¯Ùģ
Ġ ÙħØ§Ø¡
ÙĤÙĬÙĤ ÙĬØ©
ĠØ§ÙĦØ¹ Ø¯Ø¯
ĠØ·ÙĦØ¨ Ø§Øª
ĠØŃ ØµÙĦ
Ù ħÙħÙĨ
Ġ ÙħÙħÙĨ
ĠØ§ÙĦØ£ Ø·
ĠØ§ÙĦØ± ÙĪØŃ
ĠØ§ÙĦÙħØ¤ Ø³Ø³Ø©
Ĭ ØµÙĦ
ĠØ¨ ÙĤÙĬ
ĠÙĬØŃØª Ø§Ø¬
ĠÙĦÙĦØª Ø¹
ĠÙĨØ¬ Ø§ØŃ
ĠØ§ÙĦÙĤÙ ĬØ§Ùħ
Ù ĬØ«
Ù ĬØµÙĦ
ĠØ§ÙĦÙĨ Øª
Ø§Ø± Ùĩ
ĠØŃÙ ħØ¯
ĠÙĦØª Øµ
ØŃ Ùģ
ĠØ¹ ÙĤØ¨
ĠØ£Ø± Ø´ÙĬÙģ
ĠØ±ÙĬ Ø§Ø¶
ĠÙħØ± Ø¶
ĠÙĪØª Øµ
Ġ0 5
ĠÙħØŃ Ø¯
Ø¶ Ø¨
ĠØ® Øµ
ĠØ§ÙĦÙħØ³ ÙĦØŃØ©
Ùĥ ÙĦØ§Øª
ĠØ¨Ø§Ø³Øª Ø®Ø¯Ø§Ùħ
ĠØ®ÙĦØ§ ÙĦÙĩØ§
ĠØ¨Ø£ Ù
Ġ3 2
Ġ ÙĬØµÙĦ
ĠØ¯ ÙĥØªÙĪØ±
ĠØ³ÙĬØ§Ø³ Ø©
ĠØ¨ ÙĨØª
Ø§Ø¨ ÙĦØ©
ĠÙģ ÙĩÙħ
ĠÙĨ Ø³Øª
ĠØ³ Ø§Ø¹Ø§Øª
Ġ ÙĩÙ
ĠØ¹ÙĦÙĬ ÙĥÙħ
ĠØ£Ø® Ø°
ĠØ´Ø®Øµ ÙĬØ©
ĠØ§ÙĦØ£Ø³ Ø¯
ĠÙħØ¤ Ø®Ø±Ø§
ĠÙħÙ ħÙĥÙĨ
ĠØªÙĤ ÙĪÙĦ
ĠØ§ÙĦÙģ ØµÙĦ
Ù ĬÙĬÙĨ
ĠØ§ÙĦØ§ ÙħØ±
Ùģ Ø§Ùģ
ĠØ§ÙĦØ¨Ø± ÙĦÙħØ§ÙĨ
ĠØ§ÙĦØŃØ¯ÙĬØ« Ø©
ĠØ§ÙĦØ®Ø§Ùħ Ø³
ĠÙħÙĪ Ø³Ùī
ØŃ Ø§Ø¡
ĠØ§ÙĦØ¨Ø´Ø± ÙĬØ©
ĠØ§ÙĦØ£ ÙĥØ«Ø±
ĠØ¨ÙĪØ§Ø³ Ø·Ø©
ĠÙĥ Ø´
ĠØ¨Øº Ø¯Ø§Ø¯
ÙĪØ± Øª
ĠØ§ÙĦØ£ Ø²ÙħØ©
ĠØ¨ Ø³Ø±
ĠØ¨ ÙĩÙħ
ÙĬÙ ħÙĪ
ĠØ§Ø¬ ÙĩØ²Ø©
ĠØ¨Øª ÙĤ
ĠÙģØ¥ Ø°Ø§
ĠÙĪØª Øª
ĠØ§ÙĦÙĥ Ø¨ÙĬØ±Ø©
ĠØ¥ÙĨ Ø´Ø§Ø¡
ĠÙħÙĪ Ø¹Ø¯
ĠØ§ÙĦÙħØŃ ÙĦÙĬ
ĠØŃ Ø²
ĠØ§Ø³ Ø±
ØªÙĬ Ø§Ø¬Ø§Øª
ÙĬØª Ùĩ
ÙĩØ§ ÙĦÙĬ
Ùĥ Ø¨
ĠØ¨ÙħÙĨ Ø§Ø³Ø¨Ø©
ĠØª ÙģØ³ÙĬØ±
Ø³ Ø§Ø¨
Ø· ÙĬØ·
Ø§Ø² ÙĨ
ĠØ§ÙĦØ§Ø³ Ø±Ø§Ø¦ÙĬ
ĠØ§ÙĦØ± Ø¬
ĠØ´ Ø±Ø§Ø¡
ĠØ§ÙĦØ¯ ÙĨÙĬØ§
Øª Ø¨Ø©
ĠØ¨ÙĨ Ø§Øª
ĠÙĪØ§ÙĦÙħ Øª
ĠÙĨ Ø¨
ĠØ¹ ÙĩØ¯
ĠØ§ÙĦÙĦØ§Ø¹ Ø¨
ĠØªÙĪ Ø²
ĠØ¬ÙħÙĬØ¹ Ø§
Ġ200 8
Ø¹ Ø¨Ø©
ĠØ§ÙĦØŃ ÙĤÙĬÙĤØ©
ĠØ§ÙĦØ¥Ø³Ø±Ø§Ø¦ÙĬ ÙĦÙĬØ©
ĠØ¬Ù Ĭ
ĠÙĩ Ø¯
ĠØ¬ Ø§Ùħ
ĠØ§ÙĦØ¹ ÙĪ
ĠÙģ ÙĪØ²
ĠØ³ ÙĥØ§ÙĨ
ĠÙĪØ¬ Ø¯
Ø§Ø¬ Ø±
ØªÙ ĬÙĥ
ĠÙĬØ¤ Ø¯ÙĬ
ÙĦØª ÙĩØ§
Ø¸ Ø§Ùĩ
ĠÙħØ« ÙĦØ§
Ġ7 5
ÙħÙ ĬØ§
ĠØ§ÙĦØ¯Ø± Ø§Ø³Ø§Øª
ĠØ± Ø´
ĠØ§ÙĦÙģ Ø¹
ĠØ§ÙĦÙħ Ø³ÙĬØŃ
Ø§Ù ĬÙħ
ĠØ§ÙĦØ§ÙĨ ØªØ±ÙĨØª
ĠØ§ÙĦØ¯ ÙĬÙĨÙĬØ©
ĠÙĨØ´ Ø§Ø·
Ø¬ÙĨ Ø¨ÙĬØ©
ĠØ§ÙĦØ´Ø± Ø¹ÙĬØ©
ĠÙħÙĨ Ø¹
ÙĦØ§Ø µ
ÙĦÙĬ Ø³
ĠÙĦÙĦØŃ ØµÙĪÙĦ
ĠØªØ³Øª Ø·ÙĬØ¹
ĠØ§ÙĦØ¨ Ø§ØŃØ«
ÙĦØ³ ÙĦØ§Øª
ĠØ¹ÙĨ Ø§ØµØ±
ĠØ¨ÙĨ Ùĥ
ÙĤÙĬ ÙĤÙĬ
ĠØªØŃØª Ø§Ø¬
ĠØ§ÙĦØ¬ Ø§Ø±ÙĬ
ĠØ¯ ÙĤÙĬÙĤØ©
ĠØ§ ÙĤØª
ĠØªØ³ Ø¬ÙĬÙĦ
ĠØ§Ø¬ Ù
ÙĦØ§ÙĦØ ©
Ø£Ù Ħ
ĠÙģ ÙĩØ¯
ĠØ¹ Ø±Ø¨ÙĬ
ÙĦÙĬ Ùĥ
ĠÙħØ´ Ø§Ø±ÙĬØ¹
ĠÙĪÙĤ Ø¹
ĠØ§ÙĦÙĦÙĩ Ù
ĠÙħÙĨ Ø§Ùģ
Ø±Ø³ Ø§ÙĦ
ĠÙĪÙĤ Ùģ
ĠØ£ Ø·ÙĦÙĤ
ĠØ§ÙĦØª ÙĪÙĨ
ĠØµ ÙĪ
ØªÙħØ§Ø¹ ÙĬØ©
ĠÙħÙ ĬØ¯
ĠØ¨Ø§ÙĦØ º
ĠØ§ÙĦØ£ ÙĪ
ĠØ§ ÙĪÙĨ
Øµ ØŃ
ĠØ§ÙĦØ¹Ù ħÙĦÙĬ
ĠÙĦØ§ ÙģØª
ĠØ§ÙĦÙĨ Ø¸
ĠØ§ÙĦØ³ Ø§Ø¨Ø¹
ĠÙĤØ¶ Ø§ÙĬØ§
ĠØ§ÙĦØ² ÙħÙĨ
ÙĪÙĬ Ø¶
ĠØ§ÙĦØµ ØŃÙĬØŃ
Ø¹ Ø±Ø¶
ĠÙħÙĤ ØªÙĦ
ħ ÙĦØŃ
ĠÙĥ ÙĦØ§Ùħ
ĠØ§ÙĦØ¹ ÙĦØ§ÙĤØ©
Ġ n
Ø° ÙĨ
ÙĥØª Ø¨
ĠØ± ÙĥÙĨ
ĠØ§ÙĦÙĥ ÙĪÙĨ
ĠÙħØ¨Ø§Ø± ÙĬØ§Øª
Ø§Ø¶ Ùī
ĠØ§ÙĦØ¨Ø· ÙĪÙĦØ©
ĠØ® Ø·Ø©
ĠØ§ÙĨ Ø³
Ø§Ø³ Ø¹Ø©
Ø§Ø¯ Ø¦
ĠØ´ Ø£ÙĨ
ÙħÙĪ Ø¹Ø§Øª
ÙĪ ÙĦÙĩØ§
ĠØ§ÙĦÙĦÙĩÙ ħ
ĠÙģÙ ħØ§
ĠØ¥ ÙĨØªØ§Ø¬
ĠØ¨Ù ħØ¬
ĠØ® Ø±Ø¬
Ø¨ ØºÙĬ
ĠØ§ÙĦØ¨ÙĬØ§ÙĨ Ø§Øª
ØŃ Ø§
ĠÙĤ ÙĨÙĪØ§Øª
ĠØº Ø§ÙĦØ¨
ÙĦÙĥ Ù
Ù ħÙĦØŃ
ĠÙĬØ¹ ÙĪØ¯
ĠØ§ÙĦØ¹ÙĦÙħ Ø§Ø¡
Ø®Ù ħ
Ġ3 6
ĠÙģ Ø¹ÙĦ
Ø¨ÙĬ ÙĦØ©
ĠÙĪØ§ÙĦÙħ Ø¤
ĠØ£ Ø±Ø¯
Ø§Øµ ÙĦØ©
Ø´ Ø§Ø±Ø§Øª
ĠØ§Ø¯ Ø§Ø±Ø©
ĠÙħÙĪ Ø¸
Ø³ Ø§
ĠØ§ÙĦÙĦØ§Ø¹ Ø¨ÙĬÙĨ
ĠØ§ ÙĪÙĦ
ĠØ§ÙĦÙħØ¯ Ø§Ø±Ø³
ÙĤÙ ĬØ§Øª
ĠØ®ÙħØ³ Ø©
ĠØ§ÙĦØ£ ÙħØ©
ĠØ§ÙĦØ£ Ø¬ÙĩØ²Ø©
ĠÙĦØ¹ Ù
ĠØ¹ Ø·
ÙĤ Ø±Ø©
ĠØ§ÙĦØ£Ø±Ø¯ ÙĨ
ĠØª Ø´Ø±ÙĬÙĨ
Ø¬ ÙĬØ±
ĠØ§ÙĦÙħØ¨ ÙĦØº
ĠØ§ÙĦØ· Ø§ÙĦØ¨
Ø§Ùģ ÙĬØ§
Ġ ÙħÙĦØŃ
ĠÙĪ Ø±Ø¨
ĠØ§ÙĦØ« Ø§ÙħÙĨ
ĬØª Ùĩ
Ġ J
ÙĪ ØŃØ©
Ø±ÙĬ Ø¨ÙĬØ©
ĠØªØŃ Ø±ÙĬØ±
ĠÙĦØ¬ ÙħÙĬØ¹
Ĭ Ø±Ùī
ĠÙĪÙĦØ °
ĠØ§ÙĦÙħØªÙĪØ§Ø¬ Ø¯ÙĪÙĨ
Ø³ ÙĪÙħ
ĠØ§Ø³ ØªÙħØ±Ø§Ø±
ĠÙģ ÙĥØ±Ø©
ÙģØ§ÙĪØ¶ Ø§Øª
Ġ g
ħ Ø§ÙĬ
ĠÙĤÙ ĬØ§Ø¯Ø©
Ø·Ø± ØŃ
ħ ÙĩÙħ
ĠØ§ÙĦØ³ Ø¬
ĠÙĬØŃ ÙħÙĦ
ĠØ§ÙĦØ³ Øª
ĠØ§ÙĦÙħ ÙĦØª
ĠØ¨Ø· Ø±ÙĬÙĤØ©
ĠØ§ÙĦÙĨ ÙħÙĪ
Ġ14 3
o s
Ø³ ÙĪ
a g
Ø§Ø¦ ÙĩÙħ
ĠØ§ÙĦØª Ùĩ
ĠØ§ÙĦØ§ÙĨØª Ø®
ĠØªÙĪ ÙģØ±
ĠØ§ÙĦØ¨ ÙĬØ¦Ø©
ĠÙħØª Ø§Ø¨Ø¹Ø©
ĠØ¨ Ø±ÙĬØ·
ĠÙģ ÙĦÙħ
ØªÙħÙĬØ² Ø©
ħ ÙĩÙħØ§
ÙĪÙħ Ø§ÙĨ
ĠØ¬ Ø¹ÙĦ
ĠØ§ÙĦÙĤ Ø¯ÙĬÙħØ©
ĠÙħÙĨØª Ø®Ø¨
ĠÙĬÙĪÙħÙ ĬØ§
ĠØ§ÙĦØŃ Ø¶
ĠØ§ÙĦÙħÙĪØ§Ø· ÙĨ
ĠØ§ÙĦÙħÙĤ Ø§ÙĪÙħØ©
ÙĨ Ø§Ø¹
ÙģØ³ Ø§Ø±Ø§Øª
ĠÙĬØ¹ ÙĬØ´
Ø¨ ÙĪÙĦ
ĠØ§ÙĦÙħØ¤ ÙħÙĨ
Ø¬ Ø§Ø¬
ÙĥÙĨØ¯Ø± ÙĬØ©
ĠØ£ Ø¨Ø±Ø²
Ø§Ø¦Ø± Ø§Øª
ĠÙĨ Ø¹Ùħ
ĠØ§ÙĦØ¬ÙĨ ÙĪØ¨
Ø§Ø´ Ø§Øª
ĠØªÙģ Ø§ØµÙĬÙĦ
ĠØ§Ø® Øª
ĠØ§ÙĦØ² Ø±ÙĤØ§Ø¡
ĠØªØ¬ Ø§ÙĪØ²
ĠÙĦÙ ĬÙĨ
Ø§ÙĨÙ ĬØ§Øª
ĠØ§ÙĦØ§ÙĦØ ª
ĠÙĨ Ø·
ĠØ¨Øª ÙĨ
ĠØ§ÙĦØ± Ø¤
ĠØ§ÙĦÙĤØ§ÙĨÙĪÙĨ ÙĬØ©
ĠØ¨ ÙħØ³
Ĭ ÙĦØª
ÙĦÙĪ Ùĥ
ĠØ§Ù ĬØ±
ĠØ§ÙĦØ¬ ÙĪÙĬØ©
ÙĦÙħ ÙĪÙĨ
ĠØ¥ Ø¬Ø±Ø§Ø¡
ĠÙĦÙĦÙ ħØŃ
ĠØ¨ Ø±ÙĬ
ĠØ§ÙĦØªÙĤ Ø±ÙĬØ±
ÙģØ¹ ÙĬÙĦ
a ve
ĠØ§ÙĦØ³Ùģ ÙĬØ±
ĠØ§ÙĦØŃ Ø±ÙĬØ±ÙĬ
Ù ĬØ±Ùī
ÙĪÙĬ ØªÙĬ
Ù ħØ§Ø°Ø§
ĠØº Ø±Ø¨
ĠØªØ¹ Ø²ÙĬØ²
Ġ ÙħØ§Ø°Ø§
ĠÙĦÙĦÙ ħØ¹
Ùĥ ÙĪÙħØ©
ĠØ§ÙĦØ·Ø¨ÙĬØ¹ ÙĬØ©
ĠÙĪØ¥ÙĨ ÙħØ§
ØŃÙ ĬØ¨
ĠÙĦØ£ÙĨ ÙĩØ§
ĠØ² ÙħÙĨ
Ø§Ø¦Ù ĬØ§Øª
Ø§Ø¦ Ø±ÙĬ
ĠØ§ÙĦØ£Ø³ Ø§Ø³ÙĬØ©
ĠØ§ÙĦØ¢Ø®Ø± ÙĬÙĨ
ĠØ¯ Ø±ÙĪØ³
ĠØª ÙĨØ§ÙĪÙĦ
ÙħÙ ĬÙ
ĠØ§ÙĦØ¯ÙĬÙħÙĤØ±Ø§Ø· ÙĬØ©
ĠØ§ÙĦÙħØ±Ùĥ Ø²ÙĬ
ĠØªØ´ ÙĥÙĬÙĦ
ĠØ´ Ø§ÙĩØ¯
Ġ3 3
ĠØ§ÙĦØ´Ø¹ Ø¨ÙĬ
Ø¨ ÙĤ
ĠØ³ Ø§Ø¨
Ù ħÙĩÙħØ§
ĠØ§ÙĦÙĦÙĪ Ø§Ø¡
ĠØ§ÙĦØ³ ÙĨÙĪØ§Øª
ĠØ§ÙĦÙĤÙ ĬØ§Ø¯Ø©
ĠÙĨ ØµØ±
Ù ħØ§ÙĬ
ħ ÙĩØ±Ø¬Ø§ÙĨ
ĠÙĪ ÙĥÙĬÙģ
ÙĦÙģ Øª
ĠÙĨÙĤ Øµ
Ĭ Ø¡
ĠØªØ¬ Ø±Ø¨Ø©
ĠØ§ÙĦØ³ÙĬ Ø§Ø±Ø©
ĠØ§ÙĦØ¹ Ø±Ø¶
ĠØº Ø±ÙģØ©
Ø¨Ø¯ Ø§
ĠÙĤ ØµØ©
ĠØ§ÙĦÙħÙĩÙĨØ¯ Ø³
Ù ħÙĩØ±Ø¬Ø§ÙĨ
ĠØ¥ ÙħÙĥ
ĠØ¥ Ùģ
ĠØ§ÙĦØ¯Ø³Øª ÙĪØ±
Øµ ÙĬÙĦ
Ø¬ ØŃ
ĠØªØ³Øª Ø®Ø¯Ùħ
Ġ ÙħÙĩÙħØ§
ĠØ¹Ø¨ Ø§Ø±Ø©
ÙĤ Ø¹
ÙĤÙ ĬØ¨
Ġ ÙħÙĩØ±Ø¬Ø§ÙĨ
ĠØ§ÙĦØ® Ù
ĠØ§ÙĦØ§Ø´ØªØ±Ø§Ùĥ Ø§Øª
ĠØ§ÙĦØ§Øª ØµØ§ÙĦØ§Øª
ĠÙĦØ§ ÙĬÙĨ
ĠØ¬ ÙĪØ±
ĠÙĪÙ ħØ¯
Ġ ÙħØ§ÙĬ
ĠØ§ÙĦÙĤ Ø·
ĠÙĤ Øª
ĠØ¬Ùĩ ÙĪØ¯
ĠØ§ÙĦØªÙĨ Ø¸ÙĬÙħ
ĠØ§ÙĦÙħØ´ Ø§Ø±ÙĬØ¹
ĠØ§ÙĦÙħÙĨ Ø¸ÙħØ©
ĠØ³Ø¹ ÙĪØ¯
Ø§Ø¬ Ø¹Ø©
Ù ħÙĩÙħ
ÙĪ Ø³ÙĬ
ĠØ¹Ù Ĭ
ĠØ¶ Ø¨Ø·
ĠÙĬØ³Øª Ø®Ø¯Ùħ
ĠØ§ÙĦØªØ± ÙĥÙĬ
ÙĨ ÙĪØ§ÙĨ
Ø§Ø± Ø¶
c h
ÙĤ Øµ
Ùĩ Ø§Ø±
ĠØ§Ø¶ Ø§ÙģØ©
ĠØ§ÙĦØªÙ ħ
ĠÙĦØŃ Ù
ĠØ§ÙĦØ¨Ø±ÙĬØ· Ø§ÙĨÙĬØ©
ĠØ¯ Ø§Ø®
ĠØ§ÙĦØŃ Ø§ÙĦÙĬØ©
ĠØ§ÙĦØ¹ ÙĩØ¯
Ø± Øµ
Ø±Ø¨ ÙĬÙĨ
ĠØ§ÙĦÙģ ÙĪØ²
ÙĨÙĬ ÙĬÙĨ
ĠÙħØ¬ Ø§ÙĦØ§Øª
ĠØ§ÙĦØ¬Ø² ÙĬØ±Ø©
ĠØ³Ø¨ ÙĤ
ĠØ£ØµØ¨ØŃ Øª
ÙĤ ÙĪØ·
ĠÙħÙ ħØ«
ĠØº Ø±
ĠØ§ÙĦÙħØµ Ø±Ùī
ĠØ¨ ÙĪØª
ĠØ§Ø¬Ù Ħ
Ø®Ù ĬØµ
ĠØ§ÙĦØªØŃ Ø±ÙĬØ±
Ø§ÙĤ ÙĬØ©
ĠØ§ÙĦØ£Ø¹ ÙĦÙī
ĠØ¨ ÙĨØ§
Ø¸ Ø¨ÙĬ
ĠØ§ÙĦÙ ĬÙĪÙĨ
ĠØ§ÙĦØ± Ø¬Ø§ÙĦ
Ø³ÙĬÙĤ Ùī
ĠØ£ Ø³Ø¨Ø§Ø¨
ĠØ§ÙĦÙħ Ø¦Ø©
ĠØ¨ÙĦØº Øª
ĠØ¨Øµ ÙĪØ±Ø©
i r
ÙĪØ± Ùĥ
ĠØ§ÙĦØ¶ ØºØ·
ĠÙĨÙĤ Ø§Ø·
ĠØ§ÙĦØŃ Ø§ÙĦØ©
ĠÙħØ¹ Ø§
ĠØ§ÙĦØŃ Ø³ÙĬÙĨ
ĠØ§ÙĦØ¥ÙĦÙĥØªØ± ÙĪÙĨÙĬØ©
Ø®Ùģ Ø§Ø¶
ĠØ· Ø±ÙĤ
ĠØ¨Øª Ø¹
ĠØ§ÙĦØ¹ ÙĪØ¯Ø©
ĠØ§ÙĦÙĪ Ùģ
ĠØµ Ø§Ø±
ĠØ§ÙĦÙħ ØŃØ¯
Ø¯Ø± ÙĪÙĬØ¯
ĠÙĪ ÙĦÙĩ
ĠØ§ÙĦØ¹ÙĨ Ùģ
Ø³ Ø§Ø±Ø©
Ġ7 0
Ø¹Ù ħØ©
ĠØ§ÙĦØ± ÙĤÙħ
ĠØ¹Ø¨Ø¯ Ø§ÙĦØ±
ĠØ§ÙĦÙĨ Ø²
ĠØ±Ø¤ ÙĬØ©
ĠÙĪØ¬ ÙĩØ©
ĠØ¨Ø§ÙĦØ °
ĠÙĨØ¸Ø± Ø§
ĠØ§ÙĦÙħØ¹ Ø±ÙģØ©
ĠÙĦÙĦØª ØŃ
ĠØ± Ø´Ø¯
Ø¯ ÙĬÙĨØ©
ĠÙĤÙ Ĭ
Ø§ÙĨÙĬ ÙĬÙĨ
Ġ ÙĬØ§Ø³
ĠØ¨ÙĬÙĨ ÙĩØ§
ĠÙħÙĦØ§Ù ĬÙĬÙĨ
ĠÙĪ ÙģØ±
ĠØ§ÙĦØ¥ ÙĨØ³Ø§ÙĨÙĬØ©
ĠÙĪØ£ Ø¹
Ø§Ùħ Øª
ĠØ§ÙĦØª Ø±ÙĥÙĬØ©
ĠØ§ÙĦØ¥Ø® ÙĪØ§ÙĨ
Ø§Ø± ÙĤØ©
ĠØ³Øª ÙĥÙĪÙĨ
ĠØ§ÙĦØ³ ÙħÙĪ
ĠØ§ÙĦØ³Ø§Ø¯ Ø³
ĠØ§ÙĦÙģ Ø³Ø§Ø¯
i m
ĠØ§ÙĦØ´ Ù
ĠØ³ Ø§ÙĦÙħ
ĠØ§ÙĦØµ ÙĪØª
ĠØ§ÙĦØ² ÙĪØ§Ø¬
Ø§Ùħ Ø§Øª
Ø±Ø§ ÙĩÙĬÙħ
ĠØ§ÙĦØ£Ùĩ ÙĦÙĬ
ĠØ§ÙĦÙĤ Ø§Ø¯ÙħØ©
ĠÙĪ Ø³Ù
i g
ĠÙĪØª Ø¯
Ø±Ø¨ Ø§Øª
Ø§ÙĤ Ø¨
ĠØ§ÙĦØµ ØºÙĬØ±Ø©
ĠØ§ÙĦØ¥Ø¯ Ø§Ø±ÙĬØ©
ÙĦØ «
ĠØŃ Ø¶ÙĪØ±
ĠÙĪØ® Ø§ØµØ©
ÙĪÙĨ ÙĩØ§
ĠÙĪØ§ÙĦØ§Ø ¹
Ø¸Ù Ħ
ÙĪØ´ ÙĪØ¨
Ø° Ùģ
ÙĨÙĬØ³ Ø©
ĠØŃÙħ Ø§Ø³
ĠØ³ ÙĦØ³ÙĦØ©
Ġ ÙħÙĩÙħ
ĠØ³Øª Ø§Ø±
ĠØ§ÙĦÙħØ´Ø§ÙĩØ¯ Ø§Øª
Ø§Ø¦ ÙĨ
ĠØ§ÙĦÙħÙĦÙĥ Ù
ĠØ§ÙĦÙħÙĦÙĥÙ Ĭ
Ø§Ø¦Ù ĬØ§
ĠØ§ÙĦØµØŃ ÙģÙĬ
ĠØ§ÙĦØŃ Ø¨ÙĬØ¨
Ù ĬØ¯ÙĬ
ĠØ¬ Ø¨
ÙĨØª ÙĬÙĨ
ĠØ§ÙĦÙħ Ø¶
ĠÙģ ÙĥØ§ÙĨ
Ø§ÙĤ Ø´Ø©
ĠØ§ÙĦÙħØª ÙĨ
Ø±Ù ħØ¬
ĠÙĪÙ ħØ³Øª
ĠØ£ Ø±Ø¨Ø¹Ø©
ĠÙĬÙħ Ø«ÙĦ
Ø´Ø± Ø§Ùģ
ĠÙĪØ¬ Ø§Ø¡
ĠØµÙĨ Ø§Ø¹Ø©
Ø§Ø´ Ø¯
ĠØ§ÙĦÙħØŃ Ø§ÙģØ¸
ĠØ§ÙĦØªØµ ÙħÙĬÙħ
ĠØ´ Ø±Ùĥ
ĠØ³ Ø¨ØŃ
ĠØ¥Ø¹ ÙĦØ§ÙĨ
ĠØªØµ Ø±ÙĬØŃØ§Øª
Ø± Ùĩ
ÙĤ Ø³
ÙĦÙĤ Ùī
ĠØ´ Ø±ØŃ
ĠØ¨Ø± Ø¦Ø§Ø³Ø©
ÙĪØ¶ Ø§Ø¹
ĠØ§ÙĦØ±ÙĬØ§Ø¶ Ù
ĠØ§ÙĦØ±ÙĬØ§Ø¶Ù Ĭ
Ġ ÙĬØ±Ùī
Ùĥ Ø§ÙĦØ©
Ġ Z
Ø§Ø´ ÙĤ
ĠØ¯Ø± ÙĩÙħ
ØªØ¨ Ø·
ĠØ¯ÙĬ Ùĥ
Ø¬ ÙĪ
ĠØ´ Ø±ÙĪØ·
f r
ĠÙĬØ¤ ÙĥØ¯
ÙĪØ§Ø± Ø¹
ĠØ§ÙĦÙħ ÙģØª
ĠØª Ø¸ÙĩØ±
ĠÙģ Ø³
ĠÙĩ Ø§Ùħ
ĠØ§ÙĦØ¨ ÙĨØ§Ø¡
Ùĩ ÙĪØ¯
ĠØ´ Ø§Ø±Ùĥ
ĠØ± Ø£ÙĬ
Ø² Ø¹
ĠØ§ÙĦÙħØªØ¹ ÙĦÙĤØ©
ĠØ§ÙĦÙħØ´ ÙĥÙĦØ©
ÙħØ§ ÙĦÙĥ
ĠÙħØ¬ Ø±Ø¯
ĠÙħØªØ± Ø¬Ùħ
ĠØ§ÙĦØ· Ø¹Ø§Ùħ
ĠØ¨Ø¯ ÙĦØ§
ĠÙħØ¹ ÙĨØ§
p er
ĠÙħÙĥ Ø©
ĠØ§ÙĦØ±ÙĪ Ø³ÙĬ
ĠÙħÙĤ Ø§Ø±ÙĨØ©
Ø¯Ù ħÙĬ
ĠØ§ÙĦÙħ Ø§ÙĦÙĬ
ĠØ¨ ÙĥØ±
ĠÙĪØ§ÙĦØ §Øª
ĠØ§ÙĦØ±Ø³ ÙĪÙĦ
ĠØ£ÙĨ ÙģØ³
Ġw ave
Ø² ÙĨ
ÙĪØª ÙĪØ´ÙĪØ¨
ÙĦØ¹ Ø©
ĠØ§ÙĦÙħØ¬ Ø§ÙĨÙĬ
Ù ĦÙĪÙĨ
ĠØ§ÙĦØ£ Ø¨ÙĬØ¶
ĠØ§ÙĦÙħØ¯ ÙĨÙĬØ©
ĠØ§ÙĦÙĤ Ø§Ø¯Ùħ
Ġ ÙĩÙī
ĠÙĪØª Ø¨
ĠØ§ÙĦÙĪ ØŃØ¯Ø©
ĠØ§ÙĦØ£Ùħ ÙĬÙĨ
Ø±Ùħ Ø§ÙĨ
Ø§Ø¹ ÙĬÙĦ
ĠÙĤ Ø±Ø¨
ĠØ§ÙĦÙĦØ§Ø ²ÙħØ©
ĠØ§ÙĦØ£Ø´ Ø®Ø§Øµ
ĠØ¨ÙħØ¯ ÙĬÙĨØ©
ĠØªÙĤ ÙĬÙĬÙħ
ĠØŃ ÙģÙĦ
Ù ĬÙĦØª
ĠØ§ÙĦØ§Ø ²
Ùĩ ÙĪÙħ
ĠØ£Ùģ Ø±ÙĬÙĤÙĬØ§
ÙĬØ² Ù
ĠÙħØŃ ÙĥÙħØ©
Ø¹Ùħ Ø§Ø±
Øª Ø§Ø¬
Ø· ÙĤ
ĠÙħØ´ Ø¨Ø§Øª
ĠÙħØ¹ Ø±ÙģØ©
ĠØ§ÙĦØµÙĨ Ø§Ø¹ÙĬØ©
Ø§ÙĬ ÙĬØ±
Ø§Ø´ Ø±Ø©
ĠÙĤ Ø§Ø¦Ø¯
ĠØ£ ÙģØ±Ø§Ø¯
ĠÙħØ³ ØªÙħØ±
Ø§Ø·Ù Ĭ
ĠØ§ÙĦØ³Ø¨ Ø¨
ÙĤ Ø§Ø·
ĠÙĬØ¬ Ø¹ÙĦ
ĠØ§ÙĦØ«ÙĤ Ø§ÙģÙĬØ©
ÙĦØ ®
ĠÙĪÙ ĬØ¨
Øª Ø§
ĠØ§ÙĦÙħØª Ø¨
ĠÙĥ Ø§Ø±
ÙĦØ§Ø¹ Ø¨
Ø¯ Ø¯Ø§
Ø®Ø± Ø§Ø¬
ĠØ§ÙĦÙħØª ÙĩÙħ
ĠÙĥ ÙĦÙĩØ§
ĠØ§ÙĦÙĥ ÙĦØ§Ùħ
ĠÙĦØªØŃ ÙĤÙĬÙĤ
ĠÙĪÙĦØ§ ÙĬØ©
ĠØ§ÙĦÙĤØ¶ Ø§ÙĬØ§
ĠØ§ÙĦÙħØ¯ ÙĨ
ĠØ§ÙĦÙĨ ÙĤØ¯
ĠØŃ ÙĤÙĬÙĤØ©
ĠÙĪØª Ø®
Ø¨ Ø¨
ĠØ® Ø·Ø±
Ø§Ø¦ Ùī
Ø§Ø¨ Ø·Ø©
ĠØ¨ØŃ ÙĤ
ÙĤ Ø§Ø°
Ø° Ø¬
ĠÙħØ¬ ÙĦØ©
ĠØ§ÙĦÙĩ Ø§ØªÙģ
Ġ201 9
ĠØ§ÙĦÙħ ÙħÙĬØ²
ÙĩØ± Ø§ÙĨ
ĠÙģØ± Øµ
ĠØ§ÙĦØªØŃ Ø§ÙĦÙģ
Ø§Ø¦ Ø·
ĠÙģ Ùĥ
ĠØŃ Ø§ÙĦØ§Øª
ĠÙĪØ£ ÙĨØ§
Ġ ÙĬØ«
ÙģØ§Ø¹ Ù
ĠÙĨ Ø§ØµØ±
ĠÙĪÙģ Ùī
ĠÙĪØ£ Ø³
ĠØ§ÙĦØ§Ø® Ø¨Ø§Ø±
Ø§Ùģ Ø§Øª
ĠÙĤ ÙĪÙĬØ©
ĠÙĪØ± Ø¦ÙĬØ³
Øª ÙĪ
ĠØ§ÙĦØ§ ÙĨØ³Ø§ÙĨ
ĠØªØ¬ Ø¯
ĠØ¬ÙĬØ¯ Ø§
ÙĪÙĬ Ø¬
ĬØª ÙĩØ§
ĠØ· ÙĦØ§Ø¨
Øµ Ø±ÙĬ
ĠÙħØ³Ø¤ ÙĪÙĦÙĬØ©
ĠØ¹ ÙħØ§
1 0
Ø±Ø§Ø¡ Ø§Øª
Ø¬ Ø§Ø¨
ĠØªÙħ ÙĥÙĨ
ĠÙĦÙĦÙ ħØ¬
ĠØ§ÙĦÙħÙĨ Ø²
ĠÙĦØ¯ ÙĬÙĥ
ĠØ£Ø¯ Ø§Ø¡
Øµ ÙĬØ¯
Ø³Ù ĬÙģ
ĠØ§ÙĦÙħØª ØŃØ¯Ø«
ĠÙħØ¯ Ø±ÙĬØ¯
ĠØ§ÙĦÙģ Ø±ÙĤ
Ø¹Ù ĬØ´
ĠØªÙĤ Ø±ÙĬØ¨Ø§
ĠÙģ ÙĪØ±
ĠØ§ÙĦØ¨ Ø±ÙĬØ¯
ĠØ§ÙĦØŃØ± ÙĬØ©
ĠÙħØ¯ Ø©
Ġ3 4
ĠÙĪ Ø§
ĠÙĤØµ Øµ
i a
Ø§ÙĦØ µ
ĠØ³ ÙĪ
ĠØ³ Ø£
Ø§ÙĤ Ø´
ĠØ§ÙĨØª Ø®Ø§Ø¨Ø§Øª
Ġ0 2
Ø±Ùģ Ø¶
Ùģ Ø´
ĠØ¹Ù ĦÙĪÙħ
Ùĩ Ø§Øª
ĠØªÙĪØ² ÙĬØ¹
Ġf or
Ø±ÙĪ Ø©
ĠØ³ Ø¤Ø§ÙĦ
ĠÙĦØ£ Ù
Ø§ÙĤ Ø¯
ĠØ§ÙĦØŃ Ø³ÙĨ
ĠØ³Ù ĦÙĪ
ĠÙĦØ¯ ÙĬÙĩ
ØŃ Ø§ÙĨØ§Øª
ĠØ§ÙĦÙĨ ÙĪØ¹
Ø® Ø¨Ø§Ø±
ÙħØ§ ÙĥÙĨ
ĠÙĦØº Ø©
ĠÙĦÙħ Ø´
ĠØ§ÙĦÙ ĬØ¯
ĠØ§Ø¹ ØªÙĤ
ĠØ¹ Ø§Ø¯
Ø£ ÙĨÙĩ
ĠØ§ÙĦØ± ÙĪØ³ÙĬØ©
ĠÙĪÙ ħØµ
ħ Ø¸
Ø· Ø±Ø©
ĠØ§Ø¨ Ø±Ø§ÙĩÙĬÙħ
ĠØ¨Ø¹ ÙĨÙĪØ§ÙĨ
ĠØ§ÙĦØ§Ø¨ ØªØ¯
ĠØ§ÙĦØŃÙĤ ÙĪÙĤ
Ġ Y
Ø§ÙĨ Ø¹
Ø·Ù Ħ
ĠÙĪØ§ÙĦØ ¶
Ø§ÙĦØ §Ø
ĠØ³ ÙĬØª
ĠÙĥÙģ Ø§Ø±
ĠÙĪØ§ÙĦØ« ÙĤ
ĠØ§ÙĦÙĤ ÙĪØ©
ĠØ³ ÙĦÙħ
ĠÙģ Ø±ÙĪØ¶
ĠØ§ÙĦÙħØ´ ØªØ±Ùĥ
ÙĦØ¨ Ù
ĠØ¹Ø¯ Ø¯Ø§
ÙĦØ§Ø ·
ĠØ§ÙĦÙģ ÙĪØ±
Ù ħØ¸
ĠØ§ÙĦØ¬Ø² Ø¡
ÙĪØ³ Ø·Ø©
ÙĦÙĬ Ø¯
ĠØ§ÙĦØª Ø¨
ĠÙĪ Ø§Øµ
Ġ ÙħØ¸
ĠÙĪØ§ÙĦØ¹ Ø§ÙĦÙħ
ÙĦÙĬÙħ ÙĬØ©
ĠØ¨Øª Ø§Ø±ÙĬØ®
ĠØ£ÙĦÙħ Ø§ÙĨÙĬØ§
ĠÙĪØ¹ÙĦØ§Ø¬ Ùĩ
Ġ8 0
ĠÙĪØ§ÙĦÙħ Ø³Øª
ĠØ¨Ù ĬØ²
ĠØ¨ Ø§Ùĥ
Ø³ÙĦÙĪ Ø¨
ĠØ£ÙħØ±ÙĬ ÙĥØ§
ĠØ§ÙĦÙħÙĪ Ø¬ÙĪØ¯Ø©
ĠØ§ÙĦÙģÙĦØ³Ø· ÙĬÙĨÙĬÙĬÙĨ
ĠØ§ÙĦÙĨØª Ø§Ø¦Ø¬
ĠØµ ÙĦØ§Ø©
ĠÙĪÙĥ ÙĬÙĦ
Ùģ ÙĪØ±
ĠØ¨Ø§ÙĦØ¹ ÙĬÙĨ
ÙĪ ÙģØ±
Ġ ÙĬÙĦØª
Ø² ÙĤ
ĠØª Ø«
ĠØ§ÙĦÙĦÙ ĬÙĦ
Ø§Ø¨ ÙĬÙĨ
Ø§Ø± Ùī
ĠØ§ÙĦÙĤ Ø§Ø¦ÙħØ©
ĠØªÙ Ħ
ĠØ£ Ø¯Ùī
ĠØª Ø¨Ø¯Ø£
ĠØ§ÙĦØ®Ø§Ùħ Ø³Ø©
ĠÙĬÙ ħØª
ĠØ§ÙĦÙģÙĬ ÙĦÙħ
Ġ0 3
ĠØ§ÙĦÙħØ´ Ø§Ø±Ùĥ
ĠØ¥ Ø¨
ĠØ³ Ø§Ø¨ÙĤ
Ġ \
ĠØ¸ ÙĩÙĪØ±
ĠÙħÙ ħØª
ĠÙĪÙ ĬØ³Øª
ĠÙħÙĨ Ø§
ĠØ§ÙĦØª Ø±Ø¨
ħ Ø¶ÙĬÙģ
Ù ħØ¶ÙĬÙģ
Ġ ÙħØ¶ÙĬÙģ
ÙĦØº Ø§Ø¡
ĠÙĥ ÙĦÙĩ
ĠÙħØ® Ø§ÙĦÙģ
ĠØº ÙĬØ§Ø¨
ĠÙģØ¹ Ø§ÙĦÙĬØ§Øª
ĠØ§ÙĦØ± Ø¦ÙĬØ³ÙĬ
ĠÙĪ Ø§Ùģ
Ø§Ø±Ù ĬØ§
ĠØ³ Ø¬ÙĦ
Ø¬ ÙĬÙĨ
ĠÙĨ ÙĬÙĥ
ÙĪ ÙĩØ§
ĠØ§ÙĦÙħØº Ø±Ø¨ÙĬ
ĠÙĥ ÙĦØ§
ĠØ§ÙĦØ£ØŃ ÙħØ±
Ø®Ù Ĭ
Ùĩ ÙĦØ©
ĠØ§ÙĦØ§Ø± ØªØ¨Ø§Ø·
ĠØ¨Ø£Ù Ĭ
ĠØ¹ ÙĪØ¯Ø©
ĠØ´ ÙĬØ®
ĠÙĪØ§ÙĦØª Ø¬
Ù ħØ§Ø³
ĠØ§ÙĦÙĤ ÙĪÙĦ
ÙĨ Ø§Ø¹Ø©
ĠØ§ÙĦØ£ÙĤ Ø³Ø§Ùħ
ÙĤØ± Ø£
ĠØ§ÙĦÙħØ³ Ø¬Ø¯
ĠØ· Ùģ
ĠØ· Ø¨Ø±
ĠÙĪØµ ÙĦØª
ĠÙħÙĤ Ø§ÙĦØ§Øª
ĠÙĥ ÙĦÙħ
ĠØŃ Ùģ
Ħ ÙĦØ§Øª
ĠØ§ÙĦØ° Ùĩ
Ø¯Ù ħÙĪ
ĠØ§ÙĦÙħØª ÙĪØ³Ø·
ĠØ£Øµ Ø¯Ø±
ĠØ§ÙĦØªØ¯ Ø±ÙĬØ¨
ØŃÙ ħØ©
ĠØª ÙĪÙĤØ¹
Ø±ÙĬ Ø´
ĠØ§ÙĦÙħÙĪ Øª
Ħ ÙĪØ¯
Ġ X
ÙĦØ§Ø¬ Ø¦ÙĬÙĨ
ĠØ§ÙĦØŃ Ø±ÙħÙĬÙĨ
ĠØ§ÙĦØ£ ÙĦØ¹Ø§Ø¨
Ø§Ø® Ø±
ÙĦØ ¦
ØŃØ¯ Ø§Ø«
ĠÙĤ ÙĪÙĦ
ĠØ£ Ø«Ø±
Ø· Ùī
Ø¯ÙĬ ÙĤØ©
Ġ Ù¢
ĠÙĬÙĨ Ø¨ØºÙĬ
ħ Ø§Ø±Ùĥ
ĠÙĪØ¨ ØŃ
Ù ĦÙĦØ§Øª
ĠØ¨ ÙĬØ¯
ĠØ¥ÙĨ ÙħØ§
Ġ200 7
ĠØ§ÙĦÙħÙĪ Ø¸
ĠØ¬Ø§Ø¡ Øª
ĠØ£ÙĨ ÙĨØ§
ĠØ¬Ùħ Ø§Ø¹Ø©
ĠÙĨ ÙĨ
ØªÙ ĬÙĪØ¨
ÙĬÙ ħÙ
ĠØ§ÙĦØ¹ Ø§ÙĦÙĬ
ĠÙħØ± Øª
ĠØ¨ØŃ Ø¶ÙĪØ±
ÙħØ± Ø©
ÙĬÙĨ ÙħØ§
ĠP M
Ø³Ù ĬÙĪ
ĠÙħØ¹ ÙĩÙħ
Ġ3 7
ĠØ¯ Ø®ÙĦ
ĠØ¨Ø£ÙĨ ÙĩØ§
ĠØ§Ø³Ø± Ø§Ø¦ÙĬÙĦ
ĠØ¯ Ø§Ø¦Ø±Ø©
ĠØ¹Ø¨Ø¯Ø§ÙĦØ± ØŃ
ĠØª ØºÙĬØ±
ĠØ£ Ø¶
ĠØ§ÙĦØ£ ÙĤÙĦ
ĠØ§ÙĦØ¯ ÙĤÙĬÙĤØ©
ĠØ§ÙĦÙĤ ÙĨØ§Ø©
ĠØ³ ÙĥØ³
Ġ200 6
ĠÙħØ³Ø¤ ÙĪÙĦ
ÙĨ Ø¯Ø§
ĠØ§ÙĦØª Ø§ÙĦÙĬ
ĠØ¨ÙĦØ¯ ÙĬØ©
Ø« ÙĨØ§Ø¡
ĠÙĪ Ø§ÙĤØ¹
ĠÙĪ ÙĦÙĦØ
ĠØ§ÙĦÙĥÙĩØ±Ø¨ Ø§Ø¡
ĠØ§ÙĦ ÙĦØ¹
Ġre m
ÙĪ Ø®
Ø´ Ùĩ
ĠÙĪØ¹Ø¯ Ø¯
ĠØŃ Ø§Ø¯Ø«
ĠØ§ÙĦÙħ ÙĩÙħ
ĠØªØ¹ Ø¨Ø±
Ø§Ø· Ø¹
ĠØ´Ùĩ Ø§Ø¯Ø©
Ø¬ Ùī
ĠØ§ÙĦØ« Ø§ÙĨÙĪÙĬØ©
ĠÙĨ Ø¬Ø¯
ĠØ£ Ø³Øª
ĠØŃ Ø¶
Ġ ÙĦÙĦØ§Øª
ĠØ§ÙĦØ¥ ÙĨØªØ§Ø¬
ĠØ£ØŃØ¯ Ø«
ĠØ§Ø¹ ØªØ¨Ø±
ĠØ§Øª Ø®Ø§Ø°
ÙĦÙĤ Ù
ÙĪØ± ÙĩØ§
Ù¡ Ù
ĠØ§ÙĦØ«ÙĤ Ø§ÙģÙĬ
ĠÙĪØ¨ Ø¹Ø¶
ĠØ£ Ø±Ø¨Ø¹
Ùĩ Ø§Ø¡
ĠØ§ÙĦÙħÙĨ Ø§Ùģ
ĠÙĤ ÙĦØª
ÙĦÙ ĦÙ
Ø¬ ÙĦØ©
ĠÙħÙ ħÙĦÙĥØ©
Ø±Ùģ ÙĬØ©
ĠØ¨Ø§Ø¹ ØªØ¨Ø§Ø±
ĠØ§ÙĦÙĪ Ø³
ĠØ§ÙĤ ØªØ±
ĠØ§ÙĦØ³ ÙĪÙĬØ³
ÙĬÙ ĬØ¯
ĠØ¨Ø§Ø± ÙĬØ³
ĠØ§ÙĦØ£ Ø³Ø¨Ø§Ø¨
Ġ3 8
ĠØ§ÙĦØ£ØŃØ¯ Ø§Ø«
ĠÙħØ± Ø§Øª
ĠÙĪØª Ø·
ÙħÙ ĬÙĩ
ĠÙĪØ· Ø§ÙĦØ¨
ĠØ§ÙĦØª ÙĦÙģØ²ÙĬÙĪÙĨ
ÙĦØ§ ÙĨØ¯
ĠÙĥ ÙĦÙħØ§Øª
ĠØ§ÙĦØ· Ø±ÙĬÙĤØ©
ĠØ§Ø³Øª ÙĤ
ĠÙĪØª Ùģ
Ĭ ÙĩÙħ
ÙĬØ¹ Ø©
ĠÙĪØª Ø§Ø¨Ø¹
ĠÙĪÙħÙĨ ÙĩØ§
ĠÙħØ§ ÙĦÙĬØ©
ĠØ§ÙĦÙĩ ÙĦØ§ÙĦ
Ø§ ÙĩÙħØ©
Ġ0 9
Ø±ÙĬ ÙĤÙĬ
ÙĬÙĨ Ø§Øª
ĠÙĬØ¨ ÙĦØº
ĠØ§ÙĦÙħÙĨ Ø§Ø³Ø¨Ø©
es t
ĠØ§ÙĦÙħÙĨ ÙĪØ±Ø©
ĠØ§ÙĦØŃ Ø§ÙĦ
ĠØ§ÙĦØ¹Ù ħØ§ÙĦ
ĠØ§ØŃ ØªØ¬
ĠÙĦÙĬ ÙĦØ©
ĠÙĦÙĬØ² Ùĥ
Ġ0 7
Ĭ Ø¸ÙĩØ±
fr ont
Ùģ Ø°
ĠØ¹ ØµØ±
ĠØ¥ Ø²
ĠÙĩ ÙĨØ¯
ÙĦØ¨Ù Ĭ
Ù ĬØ¸ÙĩØ±
Ø§Ø¬Ù Ĭ
Ġ ÙĬØ¸ÙĩØ±
Ø§ ÙĥÙħØ©
ĠØ§ÙĦØ¨ Ø´
ĠÙĪØ§Ø³ Ø¹Ø©
Ġwave front
Ø§ÙĦÙĬ Ø¯
Ø§Ø² Ø©
ĠØ§ÙĦØ± Ø¦
ĠØ¶ ØŃ
ĠØ£ Ø²ÙħØ©
Ø§Ø¯ Ø§
ĠØ§ÙĦÙħÙĥØª Ø¨
ĠØ§ÙĦØº Ø±Ø¨
ĠØ¹ÙħØ± ÙĪ
Øª Ø³
Ø· ÙĦØ§Ø¹
ĠØ£ Ø²
ĠØ§ÙĦØ§Ø¹ Ø¶Ø§Ø¡
ĠØ§ÙĦØ¹Ø§Ùħ ÙĦÙĬÙĨ
ĠØ£Ø¨ÙĪ Ø¸Ø¨ÙĬ
u l
ĠØ§ÙĦØ® Ø±
ĠØ§ÙĦØ¹ Ø¯ÙĦ
ĠØ§ÙĦØª Ø§ÙĦÙĬØ©
ĠØ¬ ÙĪÙĨ
ĠØ§ÙĦØ¹ÙħÙĦÙĬ Ø§Øª
Ùģ ÙĨ
Ø§Ø· Ø¦
ĠS t
ĠØ§ÙĦÙĨ Ø´Ø§Ø·
ĠØ¬ Ø¯Ø©
ĠØ§Ø¹ ØªØ¨Ø§Ø±
ĠÙĪÙĨ ÙĤ
ĠÙħÙ ĬØ§Ùĩ
ÙĩÙ ĬØ²
ĠÙĪØ§ÙĦØ¨ Ø±
ÙħÙ ĬÙĤ
a b
ĠØ§ÙĦØ¨ Ø§Ø¨
Ġ0 4
ĠØ¹Ø§Ùħ Ù
ĠØ£ ØµÙĦ
ĠØ§ÙĦØµ ÙĬÙģ
ĠÙĪÙ ĬÙĪ
ħ Ø¦
ĠØ³ ÙģØ±
ĠØ§ÙĦØ´ Ø¤ÙĪÙĨ
Ø³Ù ħØ©
ĠØ· ÙĨ
ĠÙĦØ¯ÙĬ ÙĩØ§
ĠÙĨ Ø³Ø¨
ĠØªØ¯ Ø®ÙĦ
Ø¦ ÙĬØ§Øª
ĠÙĪ Ø¨Ø¯
Ø§Ø± Ø¯Ø©
ĠØªÙĤ Ø§Ø±ÙĬØ±
ĠØº Ø¯Ø§
ĠØ§ÙĦØ£ÙĪØ± ÙĪØ¨ÙĬØ©
ĠÙĦÙĥÙĨ ÙĩØ§
ĠÙģ ÙģÙĬ
ĠÙĪ Ø´Ø±
Ø§ÙĦØŃ Ø©
ĠØŃ Ø§Ø¬Ø©
ĠØ·Ø¨Ø± Ø¬ÙĦ
ÙĦØº Ø©
ĠÙĬØ³ Ø§Ø¹Ø¯
ÙĦÙĪ Ø§
ĠØ³ ÙĪØ¯
ĠØ§ÙĦÙĤ Øª
ĠØ§ÙĦØŃ ÙħÙĦ
ÙĦØ £
ĠØ§ÙĦØ¥ ÙĬØ·
ĠØ£Ùħ ÙĬÙĨ
ĠØªØ³ Ø§Ø¹Ø¯
ÙĥÙħ Ø§ÙĦ
ÙģÙ ĬØª
ĠØªÙĪ Ø¬Ùĩ
ĠØ³ÙĦØ· Ø§ÙĨ
ĠØªØµ Ø±ÙĬØŃ
ĠØªÙĪ Ø¬Ø¯
ĠØµØ¨Ø§ØŃ Ø§
ĠÙĪÙ ħØ¤
ĠØ§ÙĦØ¬ Ø¨
ĠÙĪ Ø¨Ù
Ø§Ø¨ ÙĦØ³
ĠØ¥Ù ħ
ĠÙģ Ø¬
u t
Ù ĦÙĪÙħ
ĠÙħØ¹ ÙĬÙĨØ©
ĠØ§ÙĦØª ØºÙĬÙĬØ±
ĠÙĦØ£Ù Ĭ
ĠÙģ Ø¨
ĠØ§ÙĦØŃÙ Ĭ
ØªÙĬ ØŃ
ĠØªÙħ ÙĦÙĥ
ĠØ§ÙĦÙħØ³Ø¤ ÙĪÙĦÙĬÙĨ
ÙĦØ§ ÙĬØ©
ĠØ§ÙĦÙħ Ø³ÙĬ
ĠØº Ø±Ùģ
Ġ19 5
ĠØ¹ Ø¯ÙĬØ¯Ø©
ĠÙħØ± Ø§ÙĥØ²
Ø¯ÙĬ ÙĦØ§Øª
ØµÙ ĬØµ
ĠØ´ Ø§Ø±Ø¹
ĠØ§ÙĦÙĪØ§ØŃ Ø¯
ÙĦÙĤÙ Ĭ
ĠØ¹ Ø§Ø¯ÙĦ
Ġ4 8
Ġ0 6
ĠÙĥ Ø¨Ø§Ø±
ĠØ¨Ø§ÙĦØª Ø¹Ø§ÙĪÙĨ
ĠØ§ÙĦØ³Ù ħ
ĠØ¹ Ø«ÙħØ§ÙĨ
Ĭ Ø±ÙĬ
ĠØ§ÙĦØ° ÙĩØ¨
ĠØŃ ÙĪØ§Ø±
ĠÙĤ Ø±Ø§Ø¡Ø©
ĠØ« Ø§ÙĨÙĬØ©
ØºØ· ÙĬØ©
ĠØ® Ø§Ø¯Ùħ
ĠØ§ÙĦÙĨÙĬ Ø§Ø¨Ø©
ĠØ´ Ø¤ÙĪÙĨ
ĠØ¨Ø± Ø¬
ĠÙģ Ø§Ø³
Ġ ÙĩØ§
ĠØ§ÙĦÙħØ´ Ø§ÙĥÙĦ
ĠÙģ Ø±ÙĤ
ĠØ¨Ø¹Ø¯ ÙĩØ§
ĠØ§ÙĦØ§Ø º
ĠØ´Ø± Ø·Ø©
A R
ĠØ§ÙĦÙĪ Ø¬Ùĩ
ĠÙħØ¬ Ø§ÙĨÙĬ
ĠØ³ ÙĬÙħØ§
ĠÙĬØ² Ø§ÙĦ
ĠØ¨Ø¹ÙĬØ¯ Ø§
ĠØ§ÙĦØ® ÙħØ³
ĠØ§ÙĦØ·Ø¨ÙĬØ¹ Ù
ĠØ§ÙĦØ·Ø¨ÙĬØ¹Ù Ĭ
ĠÙĬØ¬ ÙĪØ²
Ø¨ØŃ Ø«
ĠÙĦÙĦØ¹ ÙħÙĦ
Ùģ Ø²
ĠÙħØ¯ Ø§Ø±
ÙĦÙ ħÙĨ
ĠØ´Ø®Øµ Ø§
ÙĪØ² ÙĬØ¹
ĠÙĦÙħ ØŃ
ĠØ« Ø§ÙĦØ«
ĠÙĦÙĦÙ ħØ³Øª
a i
ÙĥÙĪ ÙĬÙĨ
Ø§Ø¶ Ø±
ĠÙĬÙĪÙħ ÙĬÙĨ
Ø· ÙĬØ¨
ĠÙĪÙĬÙĤ ÙĪÙĦ
ĠØ¨ ØªØ±
ĠØ§ÙĦØ¬Ø§Ùħ Ø¹Ø§Øª
ĠØ£ÙĪ Ø¨
ĠÙĪØ¹ÙĨ Ø¯ÙħØ§
ĠÙħØ¯ Ø±Ø¨
ĠØ§ÙĦØ´ Ø§Ø±Ø¹
ĠØ§ÙĦØ¬ ÙĪÙĦØ©
ĠØ§Ø³Øª Ø¹Ø¯Ø§Ø¯
ĠØ§ÙĦØºØ° Ø§Ø¦ÙĬØ©
ÙĦØ§Ù ĬØ§
ĠÙĥ ÙĨØ§
ĠØ¬ ÙĦØ³Ø©
ĠØ§ÙĦÙħ ØªØ±
Ø³ ÙĬÙħ
ĠØ¨Ø§ÙĦØµ ÙĪØ±
Ø±ÙĬÙĤ ÙĬØ©
ĠÙĦÙĨ Ø¯ÙĨ
ĠÙĦØª Ø³
ĠÙħØ³ Ø¦
ĠØ° Ø§ØªÙĩ
ĠØ§ Ùĥ
ĠÙĪÙĪ Ø¶Ø¹
ĠØ¨Ø§ÙĦÙ ĦÙĩ
Ø« Ø±Ø©
ĠØ§ÙĦÙĥ ÙĪÙĬØªÙĬ
Ù ĬÙĩÙħ
ĠØªÙĤ Ø¹
ĠØ²Ù ĬØ§Ø±
Ø«Ù ħØ§Ø±Ø§Øª
ĠØ§ÙĦØµØŃ Ø§ÙģØ©
ØŃÙĬØ§ÙĨ Ø§
ĠØŃÙĦ ÙĪÙĦ
ĠØ¨Ø³Ø± Ø¹Ø©
ĠØ§Ùģ ÙĦØ§Ùħ
ĠØ§ÙĦÙħ ÙħØª
ĠØŃ Ø¶Ø±
Ø±Ø¯ ÙĬØ©
ĠØ§ÙĦØµ Ø¨Ø§ØŃ
ØŃÙ ĬØ§Øª
ĠÙĤ Ø§Ø¹Ø¯Ø©
ĠØ§ÙĦØ£Ø¯ Ø¨
Ø§Ø¯Ø± Ø§Øª
ĠÙĪØ§ÙĨ Øª
ĠØ£ØŃØ¯ Ø§Ø«
Ø± Ø¹
ĠØ¬ÙĬØ¯ Ø©
ĠØ¶ ØºØ·
ĠØ¬ Ø§Ø¦Ø²Ø©
Ġ0 8
ĠØ§ÙĦØ¹ Øµ
ĠØ§ÙĦØ³ ÙĥØ±ÙĬ
ĠØ§ÙĦØ¨ÙĦØ¯ ÙĬÙĨ
ĠØ³ Ø§Øª
ĠØ§ÙĦØªØ± Ø§Ø«
ÙĪ Ø°
ĠØ§ÙĦØ¬ ÙĪØ¯Ø©
Ø³ Ø§Ø³
ĠØ¹ Ø§Ø´
ÙĪ ÙĦØª
Ø§Ø± Ø¦
ĠØ§Ø³ ØªÙħØ±
ĠØ§ÙĦØªÙĤ ÙĦÙĬ
o c
ĠØ² ÙĬÙĨ
Øº Ø±Ø¨
ÙĬÙ ī
ĠØ¨Ø±ÙĬØ· Ø§ÙĨÙĬØ§
ĠÙĪØ§ÙĦØ¹ ÙħÙĦ
Ø® Ø±Ø©
Ø§Ùħ ÙĦØ§Øª
ĠØ¹ÙĦÙħ Ø§
Ø¨Ø¯ Ø§Ø¹
ĠØ¹ Ø³ÙĥØ±ÙĬØ©
ĠØ§ÙĦÙħØµ Ø§Ø¯Ø±
Ø´ÙĦ ÙĪÙĨØ©
ĠØªÙĪ Ø§Ø¬Ùĩ
Ġ and
ĠØ§ÙĦØ¹Ùħ ÙĦØ§Øª
ĠØ¨ÙĬØ² ÙĪ
ĠØ§ÙĦØ¹ Ø¶
ĠØ§ÙĦØ¸ Ø±ÙĪÙģ
ĠØ§ÙĦØ¯Ø¹ ÙĪØ©
ĠÙĪÙ ħÙĥ
Ø¹ ÙĦØ§Ùħ
Ù ħÙĪØ±
Ø§Ùĥ Ø©
ħ ÙĪÙĦ
Ø§Ø¹Ù ħ
ĠØ§ÙħØ± Ø£Ø©
ĠØ§ÙĦÙħ ÙĬØ¯
ĠÙĥ ÙĪØ±ÙĬØ§
Ø´ Ø§Ø¯
ÙĦØ§Ø¯ Ø©
ĠÙĦÙĦØ¹ Ø§Ùħ
ĠÙĪ Ø§Ùĥ
ĠØªØ¹ ÙĪØ¯
ĠØª ÙħÙĨ
ĠÙĤ Ø¯ÙħØª
ĠØ£ÙħØ± Ø§Ø¶
Ġt he
ĠØ§ ÙĪØ±
Ø§Ù ĬÙ
ĠØ§ÙĦØ³ ÙĪ
ĠØ§ÙĦÙĩ Ù
ĠØ§ÙĨ Ø·ÙĦØ§ÙĤ
ĠØ¨Ø§ÙĦÙħ Ø´
ĠØ§ÙĦØ± Ø¨
ĠØ±ØŃÙ ħÙĩ
ĠØ¨Øª ÙĪ
ĠØ§ÙĦØµ ØŃÙĬ
Ø±ÙĪ Øª
ÙĦØ· Ø©
Øº ÙĪ
Ø§Ùħ Ø±
Ø§Ø± ÙĥØª
ĠÙħØ³ ÙĦÙħ
ÙĩÙħ ÙĬØ©
ĠÙĪØ£ ÙĨÙĩ
ÙĦÙĪ Ø§ÙĨ
ĠØ§ÙĦÙħØ³ Ø§Ø¹Ø¯
Ùĩ ÙĦÙĥ
ĠØ¥ Ø³Ùħ
ĠÙĪØ§Ø¶ Ø§Ùģ
ĠÙĦØ¹ Ø§Ùħ
ħ ØŃÙĦ
ĠÙĪØ§ÙĦØª ÙĨ
ĠØ§ÙĦØ£Ø± Ø§Ø¶ÙĬ
ĠØªØ± Ø§Ø¬Ø¹
ĠØªØ£ ØªÙĬ
Ø§Ø¨ ÙĬØ¹
ĠØ§ÙĦØ³ ÙĦØ¹
Ġ4 2
Ø§ ÙĪÙī
ĠØ§ÙĦÙĨÙĩ Ø§Ø¦ÙĬ
ĠØ§ÙĦÙħØ´ ØªØ±ÙĥØ©
ĠØ« ÙĪØ±Ø©
ĠØ§ÙĦØ³ ÙĬØ±
ĠØ¹ Ø§Ø¯Ø©
Ø§Ø±Ù ĬÙĪ
ĠØ§ÙĦÙĨ Ø¬Ø§ØŃ
ĠØ± Ø¹Ø§ÙĬØ©
ĠØ§ÙĦØµ Ø¯
ÙĪ Ø§Ø¹Ø¯
ĠØªÙĤ Ø¯ÙĬØ±
ĠØ§ÙĦØ· ÙĬØ±Ø§ÙĨ
ĠØµ ÙĨØ¯ÙĪÙĤ
Ù ħØŃÙĦ
Ø°Ù Ħ
ĠÙħØ± ÙĪØ±
ĠØ§ÙĦÙĥ Ø´Ùģ
ĠØ§ÙĦØ¥ Ø¬Ø±Ø§Ø¡Ø§Øª
Ø¦ ÙĪÙĨ
Ø±ÙĬ Ùĩ
ĠØ§ÙĦÙĨ ØµØ±
ĠØ¹Ø¨Ø¯Ø§ÙĦØ±ØŃ ÙħÙĨ
ĠØ´ ÙĪ
ĠØ§ÙĦØ¬ ÙĨØ³ÙĬØ©
ĠÙĪÙĦØ° ÙĦÙĥ
Ġco st
Ġ ÙħØŃÙĦ
o x
ĠØ§ÙĦÙħ ÙĪÙĤÙģ
ĠØ§ÙĦØº Ø§Ø²
ÙĦØ °
ĠØ§ ÙĩØªÙħØ§Ùħ
ĠØ´ Ø§Ø¡
Ø§ÙĦÙĬ Ù
Ø¯ Ø§Ø¨
Ġp ro
Ĭ Ø³ÙħØŃ
ĠÙģÙĬ ØµÙĦ
ĠØ´ ÙĨ
ĠØ¥Ù Ĭ
ĠØ¨ÙĪ Ø§Ø¨Ø©
ĠØ§ÙĦØªØ· Ø¨ÙĬÙĤ
ĠÙĪÙ ĬØ¯
ĠØª ÙĪØ±
Ġ5 5
Ø³Øª Ø§ÙĨÙĬ
Ø§ÙĨ Øª
ÙĬØ² Ø©
Ø¬ ÙĬØ¹
Ø¶ Ø§Ø¹
ĠÙĬØŃ ØµÙĦ
Ġ is
Øµ Ø§Øµ
ĠÙĨØ³ Ø®Ø©
ĠØ§ÙĦØ§Ø³ ÙĦØ§ÙħÙĬ
Ø± Ø§Ø¦Ø¨
ÙģÙĬ Ø¶
Ø±ÙĪ Ø§Øª
ÙĨÙ ĬØ¹
ĠÙĬØ¹ ÙĦÙħ
ĠØª Ø±Ùī
Ø´ ÙģÙĬØ§Øª
ĠØªØ¹ ÙĦÙĬÙĤ
ħ Ø§Ø²
ØµÙģ ØŃ
ĠÙĪÙĦÙĥ ÙĨÙĩ
ĠÙĤÙ ħ
ĠØ£ÙĨ ØŃØ§Ø¡
Ø³ Ø§Ø¦Ø±
Ø± Ø£
Ù ĬØ³ÙħØŃ
ĠØ§ÙĦÙ ĬØ³
ĠÙĦØ¹Ù ħ
ÙĪØ¬ ÙĪØ¯
Ø¨ ÙĩØ§
Ø¯Ù ħØ±
Ø§ÙĬÙĨ Ø©
ÙĪÙĩ Ø§Øª
ÙĦÙĬÙģ Ø§Øª
Ø® ÙģØ¶
ĠØ§ÙģØª ØªØ§ØŃ
Ø§Ø· ÙĨÙĬÙĨ
ĠØ§ÙĦÙħØ¬ Ø§ÙĦØ§Øª
Ø¯ ÙĪ
ĠØ§ÙĦÙĤ Ø§Ø¹Ø¯Ø©
ĠÙĪÙģ Ø§Ø©
ĠÙĦØŃ ÙĤÙĪÙĤ
ÙĪÙĬØª Ø±
ĠØ§ÙĦØ± Ø£Ø³
ĠØ§ÙĦÙħ ÙĩÙħØ©
ØªÙ ĬÙĦ
Ø§ÙĦ ÙĨ
ĠØ¯Ø¹ ÙĪØ©
ĠØªØ´ ÙĩØ¯
ÙĥÙĨ ÙĬØ©
ĠÙĤ Ø§Ø¯Ø±
ĠØ§ÙĦÙħ Ø°Ùĥ
ĠØ§ÙĦØªØ¹ ÙĦÙĬÙĤØ§Øª
ĠØ§ÙĦØ¨ÙĦØ¯ ÙĬØ©
ĠØ§ÙĦØ¥Ø¹ ÙĦØ§ÙĨ
ĠØ¥ÙĤ Ø§ÙħØ©
ĠÙĪØ§ÙĦÙħ ÙĤ
Ù ĬÙĦÙĬ
Ø± Ø§ÙĤ
ĠÙħÙĨ Ø´
ĠÙģØ± Ø¹
Ø¶Ù ħØ§Ùħ
ĠØ²Ø± Ø§Ø¹Ø©
Ø§ÙĦØª Ùĩ
ĠØ§ÙĦØ´ ØŃÙĨ
ÙĦØ§ Ùĩ
ÙĩØ¯ Ø§Ø¡
ĠÙĤ ØµØ±
Øª ÙĬØ©
ĠØ§ÙĦØ· Ø§Ø¦Ùģ
ĠÙħØ³ Ø§ØŃØ©
ÙģØ± Ø¯
ĠØ¨ Ø°
Ġ l
ĠØ§ÙĦÙĤ Ø¯ÙĬÙħ
ĠØ§ÙĦÙħØ³Ø¤ ÙĪÙĦÙĬØ©
ĠØ´ ÙĤÙĤ
ĠÙĬÙħ ÙĦÙĥ
ĠØŃ Ø§ÙĪÙĦ
ĠÙĦÙĦÙ ħÙĤ
Ø§ÙĦÙĩ Ù
ĠØµÙĦØ§ØŃ ÙĬØ©
ĠØªØŃ Ø§ÙĪÙĦ
ĠØ«ÙĤ Ø§ÙģØ©
Ù ĬØ§Ø¯
ØªÙĬ Ø§ÙĦ
ĠØ§ÙĦØ¯Ø± Ø¬Ø©
ĠØ§ÙĨØª ÙĤ
ĠØ¨ÙĦØ§Ø¯ Ùĩ
ĠÙĦÙģ Øª
ĠÙĬØ´ ÙĥÙĦ
ĠØ¹ Ø²ÙĬØ²
Ø¹ Ø§Ø¡
Øº ÙĦØ§ÙĤ
ĠØ§ÙĦÙĤØ¯ Ø±Ø©
Ġ5 00
Ø§ÙĦÙĩÙ ħ
Ø±ÙĤ Ø§Ùħ
ħ ÙĦØ¹Ø¨
ĠØ§ÙĦØ£Ø³ ÙĪØ§ÙĤ
ĠØ§ÙĦØµ ÙĩÙĬ
ĠÙĦØª Ø´
ÙĬØª ÙĩØ§
Ù ħÙĦØ¹Ø¨
ĠÙĪØ§ÙĦØª Ùī
ĠØ± Ø§Ùħ
ħ Ø°
ĠØ§ÙĦØªØ¬ Ø§Ø±ÙĬ
ĠÙĬØ¬ Ø±ÙĬ
Ġ ÙħÙĦØ¹Ø¨
ĠØªØ´ ÙĥÙĦ
Ġ ÙħØ§Ø³
ĠØ° Ùĩ
ĠØµ ÙĬØ¯
Ø³ ÙĬØ±
ĠØ¯ Ø¹Ø§
ĠØ£ Ø³ÙħØ§Ø¡
ĠÙĤÙ ĬØ§Ø³
ĠÙĦÙĦÙĪ ØµÙĪÙĦ
ĠÙĪØ´ Ø±ÙĪØŃØ§Øª
ĠØ§ÙĨØªÙĩ Ø§Ø¡
ĠÙħÙĨ Ø¸
ĠØ§ÙĦØª Øº
ĠÙĪØ§ÙĦØ³ ÙĬØ§Ø³
Ġ9 0
ĠÙĦØ ²
ĠÙħØª Ø¹Ø¯Ø¯Ø©
ĠÙģ Ø§Ø²
ĠØ§ÙĦØªÙĨÙģÙĬØ° Ù
ĠØ§ÙĦØªÙĨÙģÙĬØ°Ù Ĭ
ĠÙĪØ§ÙĦØª Øµ
ĠØ§ÙĦØŃ Ø§Ø¯Ø«
ĠØ· ÙĪØ§ÙĦ
ĠØ§ÙĦØ¥ Ùģ
ĠØ§ÙĦØ¯Ø§Ø® ÙĦÙĬ
ÙĦØ ±
ĠØ§ÙĦØ«ÙĦØ§Ø« Ø©
Ø¬Ù ĬØ§Øª
ĠØ§ÙĦÙħ Ø§ÙĦÙĥ
ĠØ§ÙĦØ³ÙĬ Ø§ØŃÙĬØ©
ÙĩØ¯ Ø¯
ØµÙ ħ
ĠØ¨Ø· Ø§ÙĤØ©
ĠØ§ÙĦØ§ØŃ Ø¯
Ĭ Ø§ÙĦ
ĠÙĨ Ø®
ĠØ§ÙĦØ± Ø¯ÙĪØ¯
Ø§Ø¬Ù Ħ
ĠØ§ÙĦÙħØ± Ø´ØŃ
ĠÙħØ³Øª ÙĪÙĬØ§Øª
ÙĨØª Ø®Ø§Ø¨Ø§Øª
ĠØ§ÙĦÙħØ³Øª Ø´Ø§Ø±
ĠÙĦØ¯ Ø®ÙĪÙĦ
Ø§Ø´ Ø§
ÙĪØ¹ Ø§Øª
Ġ ÙĬØ³ÙħØŃ
ĠØ§ÙĦØ® ØµÙĪØµ
ĠÙĪØ±Ø¨ ÙħØ§
ĠØ§ÙĦØŃ ÙģØ§Ø¸
ĠØ¥ Ø´
ĠÙĪØ§ÙĦØ§ ÙĤØªØµ
ħ Ø£
Ø¤ ÙĥØ¯
Ġrem ov
ĠØ§ÙĦØªØ¹ Ø±ÙĬÙģ
ĠØŃØ¯ ÙĪØ«
Ø¬Ù ĬØ¯
ĠÙģÙĩ Ø°Ø§
ĠØ§ÙĦÙħÙĨØª Ø¬Ø§Øª
ĠØ§ÙĦØ¹Ø§Ùħ ÙĦØ©
ÙĪÙ ĬÙģ
ĠÙĪØ§Ø¶ ØŃØ©
ÙĪØ² Ø§Ø±Ø©
ĠØ¬ Ø±Ø§Ø¡
ĠØ§ÙĦØŃ Ø§ÙĦØ§Øª
ĠØ§ÙĦÙħØ³ Ø±ØŃ
ĠØ§ÙĦØ¥ Ø«
ĠÙħÙĨ ØµÙĪØ±
ĠÙģ ÙĥØ±
ÙĤÙ ĬÙĩ
Ø¯ Ø®ÙĦ
Ĭ Ø¨Ø¯Ø£
Ħ ÙĪÙĬ
ĠØ¨ ØµÙģ
Ù ĬØ¨Ø¯Ø£
Ġ ÙĬØ¨Ø¯Ø£
ĠÙħØ· Ø§Ø±
e w
ÙĤ Ø§ÙħØ©
Ù ĬØ§Ø©
ĠØ§ÙĦØ¹Ùħ ÙĪÙħÙĬØ©
ĠØ³ÙĬØ§Ø³ Ù
ĠØ³ÙĬØ§Ø³Ù Ĭ
Ø² ÙĬÙĦ
Ø§Øµ Ø±Ø©
ĠØ§ÙĦØ¬ ÙĪØ§ÙĦ
ĠØ¹ Ø§Ø¦ÙĦØ©
ĠÙĪÙģ Ø¯
ĠÙĦØ§Ø¨ Ø¯
o g
ĠØ§ÙĦÙħØ³ ØªÙħØ±
ĠØ¢ Ø³ÙĬØ§
ĠØ§ÙĦØ¹ Ø¸ÙĬÙħ
ĠØª Ø±Ø¨
ĠØ§ÙĦØ® Ø¶
ØŃ Ø§ÙĨ
ĠØ§ÙĦÙĬÙĪÙħ ÙĬØ©
3 0
ÙĨ ÙĪØ¨
ĠØ° ÙĪÙĬ
Øª Ø§ÙĨ
ĠØ§ÙĦØµ Ø±Ø§Ø¹
ĠÙģ Ø§Ø±
ĠØ§ÙĦØµ ØŃÙĬÙģØ©
ĠØªÙĤ ÙĨÙĬØ©
ĠØ§ÙĦØµØŃ Ùģ
ĠØ§ÙĦØ§ ÙĩØªÙħØ§Ùħ
ĠØ´ Ø¨Ùĩ
ĠØµ Ø±
ĠÙĪÙĦØ £
ĠØªØŃØª ÙĪÙĬ
ÙĦØ§Ùħ Ø§Øª
ĠØªØ² Ø§ÙĦ
ĠØªØ¯ Ø±ÙĬ
ĠØ§Ø¹ ÙħØ§ÙĦ
ĠÙĦØµ Ø§ÙĦØŃ
ĠØ£ ÙĬØ©
ĠÙħØ¬ Ø§ÙĨØ§
ÙĬÙĨ ÙĬØ§
ØŃ Ùĩ
ĠØ³Øª Ø©
ĠØ§ÙĦØ§Ù ħØ±ÙĬ
Ø¯ÙĬ Ø§ÙĨ
ĠØ§ÙĦØ£ ÙĦÙħØ§ÙĨÙĬØ©
Ù ħØ¦
Ø§ÙĦØ ·
Ù ħØ§Ø²
ĠØ³Ø§Ø¨ ÙĤØ§
ĠØ§ÙĦÙħÙ ħÙĥÙĨ
Ø²ÙĬ Ø§Ø¡
ĠØ§ÙĦØª Ø¶
ĠØª ÙħØ±
Ø§Ùħ Ùĩ
ĠØ§ÙĦÙĤØ¨ Ø¶
ĠØµÙģ ÙĪÙģ
n d
ĠØ§ÙĦÙħ ØªÙħÙĬØ²Ø©
ĠÙĦØ£ ØŃØ¯
ĠØŃØ± Øµ
ĠØ¥ Ø¹Ø¯Ø§Ø¯
Ø³ÙĬ Ø·
ĠÙħØ§ ÙĦÙĥ
ĠØ® Ø²
ĠØ§ÙĦØ£ Ø³Ø±
ĠØŃÙĤ ÙĤ
ĠØ§ÙĦØŃ Ø§Ø¬Ø©
ĠÙħØ¤ Ø³Ø³Ø§Øª
ĠØ¬ Ø§Ùĩ
ĠØŃÙĬØ§Øª Ùĩ
ĠØ³ Ø§ØŃØ©
ĠØ§ÙĦØ¬Ø² Ø§Ø¦Ø±ÙĬ
ĠÙĪ ÙĦÙĤ
Ġ3 9
ĠØ® Ù
Øµ Ø§Ø¨
Ù ħØ°
Ø¶Ù ĬØŃ
ĠÙĪØ£ Ùģ
ĠØ£Ø¹ ÙħØ§
ÙĦØ§ ÙĬÙĨ
Ù ħØ§Ø±Ùĥ
ĠØ§ÙĦÙħ ÙĦÙģØ§Øª
Ġ ÙħØ°
Ø« ÙĪØ±
ĠØ§ÙĦØªØ§Ø±ÙĬØ® ÙĬØ©
ÙģØ§Ø¹Ù Ħ
ĠÙĦØ§Ø ¬
ĠØ§ÙĦØ§ÙĤ ØªØ±
Øº Ø©
ĠØªØŃ ÙĤÙĤ
ĠØ§ÙĦØµ ÙĬØ¯
ĠØ§ÙĦØ¨ Ø®
ĠÙĦØ¯ÙĬ ÙĩÙħ
Ø´ ÙĬØŃ
Ġ4 4
ĠØ§ÙĦØ¹ ØµØ±
ÙĦØª ÙĬÙĨ
Ø±ÙĪ ÙģØ©
ĠØ§ÙĦÙħÙ ĬØ²
Ø² Ø±
Ø§Ø¯Ù ĬØ«
ĠØ³Ù ĬÙģ
Ø§Ø´ÙĤ Ø¬ÙĬ
ĠØ¬ ÙĪØ¯Ø©
ĠØ§Ø³Øª Øº
ĠØµ Ø±Ùģ
ĠØ§ÙĦÙħÙĨ Ø§Ø³Ø¨
ĠØµ ØºÙĬØ±
ĠÙĬÙĤ Ø¹
ÙħÙĪ ÙĬØ©
ĠØ¶ ÙħØ§ÙĨ
ĠÙĩ ÙĥØ°Ø§
Ù ħØ£
ÙģØ§Ø¡ Ø©
ĠÙĨ Ø§ØŃÙĬØ©
ĠØ§ÙĦØ´ Ø§Ø¨
ĠØ¨Ø§ÙĦÙħ Ø¦Ø©
ÙĦÙĤ Ø§Øª
ĠÙħÙĩ ÙĨØ¯
ĠØªÙĪ Ø¬ÙĬÙĩ
ĠÙĤØ± Ø±
ĠØ§ÙĦØªØ¬ ÙħØ¹
ĠØ§ÙĦÙħ ÙĦÙģ
ÙħÙĥ Ø§ÙĨ
ĠØ¨Ø¹ Ø¯Ùħ
ĠÙĤÙĪ Ø§Ø¹Ø¯
ÙĬÙĨ Ùĩ
ĠÙģ Ø§Øª
ĠØ§ÙĦÙħÙĤ Ø±Ø±
ĠØ¨Ø¹Ø¶ ÙĩÙħ
Ġ200 5
Ġ ÙħØ§Ø²
ĠØ£Ø´ Ø®Ø§Øµ
ÙĪÙ ĬÙħ
ĠØªØ· Ø¨ÙĬÙĤØ§Øª
ĠÙĥ ÙĪØ±
Ø² ÙĪ
ĠØ¨Ø§ÙĦÙģ Ø¹ÙĦ
ĠØ§ÙĦØ£ ÙħÙĪØ§ÙĦ
ĠF or
ĠÙħØµ Ø§ÙĦØŃ
ĠØ§ÙĦØ§Ù ħØ§Ø±Ø§Øª
Ø¨ÙĬØ¹ Ø§Øª
ĠØ§ÙĦØ³ Ø¤Ø§ÙĦ
Ø§Ø¯ ÙĦØ©
Ø¨ ÙĪØ±
ĠÙĦÙĦØ ²
ĠØ§ÙĦÙħØµØ±ÙĬ ÙĬÙĨ
Ø¹Ù ħØ±
ĠØ§Ø±Øª ÙģØ¹
ĠØ² ÙĬØ¯
ĠØ¬ Ø¨ÙĦ
Ø±Ø¨ Øª
ĠØª ÙħÙĪ
Øµ Ø¯Ø±
ĠÙĪ Ø¹Ùħ
ĠT he
ĠØ§ÙĦÙħÙ Ĭ
ÙĨ Ø§Ø¦ÙĬ
ĠØ§ÙĦØ§ ÙħØª
ĠØ§ÙĦØŃ Ø¯ÙĬØ¯
ĠØ¢ Ø«Ø§Ø±
ĠØ§ÙĦØ£ ÙĥØ¨Ø±
Ø³ Ùĩ
ĠÙħØµ ÙĦØŃØ©
ĠØ§ÙĦÙĥ ÙĦÙĬØ©
ĠØ£ Ø¬Ø±
ĠØ´ Ø¯ÙĬØ¯
ĠØ§ÙĦÙħØº Ø±Ø¨ÙĬØ©
ĠÙĤØ± Ø§Ø±Ø§Øª
ĠØ¨Ø§ÙĦÙ ĩ
ĠØ§ÙĦØ§Ø¯ Ø§Ø±Ø©
ĠØ¨ÙĬÙĨ ÙĩÙħØ§
ĠØ¢ ÙĨ
ĠØ®Ø· ÙĪØ©
ĠØ§ÙĦØ´Ø±ÙĬÙģ ÙĬÙĨ
ĠÙħØŃ Ø·Ø©
ĠÙĦÙĦØº Ø§ÙĬØ©
ĠØ§ÙĦØŃ ÙħØ¯
ĠØ§ÙĦØ· Ø¨ÙĬ
Øª Ø§Ùħ
ĬÙĪÙħØ§ ÙĥØ³
ĠØ§ÙĦØ£Ø³ Ø¹Ø§Ø±
Ø§Ø³ Ø¹
ĠØ§ÙĦØ§ÙĨ ÙĤ
ĠØ§ÙĨ Ø¯
ĠØ§ÙĦØµ ÙĬÙĨÙĬØ©
ĠØ¨Ø± Ø´ÙĦÙĪÙĨØ©
ĠÙħØª Ø®ØµØµØ©
Ø§ÙħÙĨ Ø§
Ø· ÙĪØ±Ø©
ĠØ§ÙĦØ¨ Ø¹
ĠØ§ÙĦØ±Ø³ Ø§ÙĦØ©
ĠØ´ÙĩØ¯ Øª
Øº ÙĪØ·
ĠØ§ÙĦÙħØ±Ùĥ Ø²ÙĬØ©
ĠÙĬØµ Ø¨ØŃ
ĠÙĬØ¨ ØŃØ«
ÙĪÙĦ ÙĪØ¬
Ø´ Ø§Ø¨
ĠØ¥ Ø¬Ø±Ø§Ø¡Ø§Øª
ĠØ§ÙĦØ± Ø¯
ĠÙĤ Ø¨ÙĬÙĦØ©
ĠØ³ ÙĦØ§Ùħ
ĠØ§ÙĦØ¨ ÙĪ
ĠØ±Ø³ Ø§Ø¦ÙĦ
ĠÙĥØ§ÙĨ ÙĪÙĨ
ĠØ¹ Ø³ÙĥØ±ÙĬ
ĠÙħØ· Ø¹Ùħ
ĠØ§ÙĦØ§Ø³ ØªØ±
ĠØ§ÙĦÙĩÙĨØ¯ Ø³Ø©
ĠØ§ÙĦÙħØª ÙĤ
Ø§ØŃ Ùĩ
ĠÙħÙĨØª Ø¬Ø§Øª
ĠØ§ÙĦØ´ ÙĬÙĪ
Ø¶ ÙĬØ©
ĠØ§Ø³ Ø¹Ø§Ø±
ĠØ¨Ø£ Ø³
ĠØª Ø¶ÙħÙĨ
ĠØ£ Ø¹Ø¯
Ġ19 4
ĠØ®ÙĦÙĬ ÙģØ©
ĠØ§ÙĦØ¬Ùĩ ÙĪØ¯
ĠÙħØ¹ ÙĨÙī
o p
ĠØ§ÙĦÙħØ¯ Ø±Ø¨
ĠÙħØ¤ Ø´Ø±
ĠÙģ Øµ
ĠØª Ø³Ø¨Ø¨
ÙĦÙĤ Øª
ĠØ£ ÙĬÙĨ
ĠØ§ÙĦØ¥ Ø³Ø¨
ĠÙĤ ÙĨ
Ħ ÙĦØ§Ø¹
Ø¹Ù ĬÙĬÙĨ
ĠÙĪØª Ø·ÙĪÙĬØ±
ĠÙģ ØµÙĦ
ĠØ¬ ÙĦØ¨
ĠÙĪ ÙĩÙĦ
ĠA M
Øª ØµØ±
ĠØ§ÙĦØ¥ÙĬØ± Ø§ÙĨÙĬ
ĠØ¹Ø´Ø± Ø§Øª
Ø§Ù ĬÙģ
ĠØ¨ÙħÙĨ Ø·ÙĤØ©
ĠØ³ Ø±ÙĬ
Ġ4 3
ĬØ· Ø±Ø©
ĠÙĪ ÙĦØ¹
Ø²Ù ĬØ§
ĠØ§ÙĦØ¬Ùħ Ø§Ø¹Ø©
ĠØ§ÙĦÙħØ« Ø§ÙĦ
ĠØ§Ø¹ ØªÙħØ§Ø¯
Ġ4 6
Ø±Ùĥ Ø²
ĠØ§ÙĦØ£Ø³ ÙĩÙħ
ĠØ§ÙĦØ£ Ø¬ÙĨØ¨ÙĬØ©
ĠÙģ ÙĩÙĦ
ĠØ· ÙĪÙĦ
ĠØ§ÙĦØªÙĪ ÙĦÙĬÙģØ§Øª
ĠØª Ø¯Ø§ÙĪÙĦ
Ù ĦÙĦØ§Ø¹
Øª ÙĪÙĨ
ĠÙĦÙħ ÙĪ
Ġ ÙĦÙĦØ§Ø¹
ĠÙĤ ÙĬÙħØª
ĠÙĦÙĪ Ø²
ĠØ§ÙĦØ¨Ø±ÙĬØ· Ø§ÙĨÙĬ
Ø§Ø §
ĠØ´ Ø¹Ø§Ø±
ÙĪØ¯ Ùĩ
ĠØ§ÙĦØ« ÙĤØ©
ĠØ§ÙĦØ® ÙĦÙģ
ĠØ§ÙĨØª Ø´Ø§Ø±
ĠØ§ÙĦØŃ ÙĤÙĬÙĤÙĬ
ĠØ§ÙĦØ¨ Ø§ÙĦØº
ĠÙĤ Ø±ÙĬØ¨Ø§
on e
ĠØ¢ Ø°Ø§Ø±
ĠØ§ÙĦØ´ ÙħØ§ÙĦ
ÙĤØª ÙĩØ§
Ø§Ùĥ Ø±Ø©
ĠØ§ÙĦÙĤ ÙĪØ§ÙĨÙĬÙĨ
ĠØ§ÙĦÙĩ ÙĪØ§Ø¡
ĠØ§ÙĦØ³Ù ĬØ·Ø±Ø©
ĠØ¬ Ø±ÙĬØ¯Ø©
ĠÙĨÙĤ Ø¯Ùħ
ĠÙħØ³ Ø£ÙĦØ©
Ùĥ Ùī
ĠÙģ Ø®
Ø§ÙĦÙĬ Ø¨
Øª Ø¹
Ø§Ø³Ù Ħ
ÙĥØ± Ø±
ĠØ§ÙĦÙģ ÙĤ
ĠØ§ÙĦØ£ÙħØ± Ø§Ø¶
Ø¬Ø§Ø² Ø§Øª
ĠØ³ ÙĪØ±Ø©
Ġ ÙĬÙĩÙħ
ĠØ® Ø§Ø´ÙĤØ¬ÙĬ
ĠØ¬ Ø°
ĠÙĦÙĬ Ø±Ø©
ĠØ§ÙĦØ³Ù ħØ§Ø¡
ĠÙĬØ¬ Ø¯
ĠØ§ØŃ Ø¯Ø«
ĠØ´ Ùģ
Ġ4 1
ÙĪÙħ Ùĩ
Ø§ØµÙ Ĭ
ĠØ³ ÙĤÙĪØ·
ĠÙĪ Ø±ÙĪ
Ġ ÙĦÙĪÙĨ
Ø§ÙĨ Ø¯
ĠØ§ÙĦÙĩ Ø¬ÙĪÙħ
ĠØ§ÙĦÙĬÙħÙĨ Ù
ĠØ§ÙĦÙĬÙħÙĨÙ Ĭ
ĠØ¨Ø²ÙĬ Ø§Ø±Ø©
ĠØ§ÙĦØªÙĤ Ø¯Ùħ
ĠØ® ÙĦØ§Ùģ
ĠÙĬØª Ø±
ĠØ§ÙĦÙħÙĪ Ø§Ø±Ø¯
ĠÙħØª Ø£
ĠÙģ ÙĦØ§Ø´
ĠÙĬØ´ Ø§Ø±Ùĥ
ĠØ§ÙĦÙĪ Ø§ÙĤ
ĠØ§ÙĦØ¨ØŃØ± ÙĬØ©
ĠØ§ÙĦÙĨ ÙĩØ§ÙĬØ©
ĠØ§ÙĦØ±ÙĬØ§Ø¶ ÙĬØ§Øª
ĠØ¹ ÙĦØ§ÙĤØ§Øª
Ù ħÙĦÙĥØ©
ĠØ§ÙĦØ§Ø ¶
Ø·Ø± ÙĬØ©
Ø§Ø¯ ØªÙĩ
ĠØª Ø¶Ùħ
ĠØ§ÙĦØ· Ø¨ÙĬØ¨
ĠÙħØ¶ÙĬÙģ Ø§
Ø±ÙĪ ÙĤ
Ø° ÙĬØ¨
ÙĪÙģ Ø§
ĠØ±Ø£ Ùī
ĠÙĥØ´ ÙģØª
Ø¹ÙĪ Ø¨Ø©
ĠØ§ÙĦØ¶ ÙĪØ¡
ĠØ· Ø§Ø±ÙĤ
ĠØ§ÙĦÙħÙĦÙĥ ÙĬØ©
ĠØ§ÙĦÙħ Ø§Ø¦Ø©
Ø§Ø¶ Ø±Ø§Øª
ĠØŃ Ø§Ø¬
ĠØ§Ø³Øª Ø·Ø§Ø¹
ĠÙĪ Ø¬ÙĦ
ĠØ§ÙĦØ¹Ø¯ ÙĪ
ÙĥØ§Ø¯ ÙĬÙħÙĬØ©
ĠÙĬØŃ Ø§ÙĪÙĦ
ĠØ· Ø¨ÙĬØ¨
ĠÙģ Ø§ÙĦÙħ
ÙĪÙĬ ÙĪØ±Ùĥ
ÙĬÙħÙĪ ÙĤØ±Ø§Ø·
ĠØ£ Ø¨Ø¯Ø§
ĠØ§ÙĦØ¶ ØŃ
ÙĪØ¯ Ø§
Ġ Ø¯ÙĬÙ
ĠØ¢Ø®Ø± ÙĬÙĨ
ĠØ£ÙĥØ¯ Øª
Ùĥ Ùĩ
Ġ6 5
ĠØ§ÙĦÙħØ³Øª Ø´ÙģÙī
ĠØ§ÙĦÙĨ ÙĪÙħ
ĠÙģØ± Ø§ÙĨ
Ø® ØµÙĬ
ĠÙħØ¹ Ø§ÙĦØ¬Ø©
ĠÙĨÙģ Ø³ÙĬ
ĠÙħÙĨ Ø²ÙĦ
ĠØªØŃ Ø³ÙĬÙĨ
ĠØ¨ÙĦØ¯ Ø©
ĠØ² Ø§Ø¦Ø±
ĠØ§ØŃ ØªÙģ
ĠØ§ÙĦÙĦØ¹ Ø¨Ø©
ĠÙħØ¹ Ø§ÙĦÙĬ
ĠÙĨ ÙĬØ³
ĠØ§ÙĦØ´ ÙĩÙĬØ¯
Ø±ÙĤ ÙĬØ©
ĠØ² Ø§ÙĬØ¯
ÙħØ± Ø§Ø¡
ĠÙĥ ÙĪÙħ
ĠØ§ÙĦØ² ÙĬØª
ĠØª Ø¹ÙĦÙĨ
ĠØ§ÙĦØ¬ ÙħÙĩÙĪØ±
ĠÙĪØ§ÙĦØ§Ø Ń
Ø«ÙħØ± ÙĬÙĨ
ĠØ§ÙĦØ§Ø³Ø±Ø§Ø¦ÙĬ ÙĦÙĬ
Ù ħØ¨Ø±
ĠØ¬ Ø±Ùī
ĠØ§ÙĨ ÙĪØ§Ø¹
ĠØ¬ ÙĦØ³
ĠØ¨ Ø¶
ĠØ§ ÙĥØ¨Ø±
ĠØ§ÙĦØ´ Ø§Ùħ
ĠÙĬØ¯ Ø®ÙĦ
ĠØ§ÙĦØ¥Ø¹ ÙĦØ§ÙħÙĬ
ĠØ§ÙĦØ³ ÙĦÙģ
ĠØ§ÙĦ ÙĦØ§Ø¬Ø¦ÙĬÙĨ
ÙĪÙĬ Ø´
ĠÙĦØª Ø±
ĠØ¨ÙĤ ÙĦÙħ
Ġ ÙħØ§Ø±Ùĥ
ĠØ§ÙĦØŃÙ ħÙĦØ©
Ø³Ù ĬØ¯
ĠØ§ÙĦÙĨ ÙĪØ±
ĠØªØ´ ØºÙĬÙĦ
ĠÙĪØ§ÙĦØ± ÙĬØ§Ø¶
ĠØªÙĪ Ø¸ÙĬÙģ
m ent
ĠØ¨ÙĤ ÙĬÙħØ©
ØŃÙĦ ÙĪÙĦ
Ø§ØªÙ Ħ
ĠØ§ÙĦÙĤ ÙĪÙħÙĬ
ĠØ°ÙĥØ± Øª
ÙģØª Ø§Ø¡
Ø§Ù ī
ĠØªÙĪ ÙĤÙĬØ¹
ÙĦÙĥÙ ħ
ĠØ§ÙĦÙħÙĪ Ø§ÙģÙĤ
ĠØ§ÙĦÙĥÙĩØ±Ø¨ Ø§Ø¦ÙĬØ©
ĠØ¥ÙħÙĥ Ø§ÙĨÙĬØ©
ĠØ§ÙĦÙĤ ÙħØ±
ĠØ§ÙĦØº Ø±Ø¨ÙĬ
ĠØ§ÙĦØ³ ÙĦØ§ØŃ
ĠÙĦÙĦØ§Ø ³
ĠØ§ÙĦØ§Ø® Ø±Ùī
ĠØ¨ØŃ Ø§Ø¬Ø©
ĠØ¹ÙĦÙħ Ø§Ø¡
ĠØ³ ÙĬØ¹
Ġ4 7
ĠØ§ÙĦØ¥ ØµÙĦØ§ØŃ
Ø· ÙĦØ¹
ĠØ§ÙĦÙģ ÙĤÙĩ
ĠØ§ÙĦØ± Ø¨ÙĬØ¹
ĠØ³Ø¨ØŃ Ø§ÙĨÙĩ
ĠØ§ÙĦÙĨ Ø´Ø±
ĠØ§ÙĦØ¨ ÙĬØ¹
ĠØ¥ Ø¶Ø§Ùģ
Ø´ÙĬ Ø§Ø¡
ĠØ§ÙĦØ³ ÙĥØ§ÙĨ
ĠÙĦØ¥ ÙĨ
ĠÙĪØ§Ø¶ ØŃ
ĠØ§ÙĦÙħØ¤ÙħÙĨ ÙĬÙĨ
ĠÙĥ ÙĩØ±Ø¨
ĠØ§ÙĦÙħ Ø±Ø©
ÙħØ§ Ùĥ
ĠØªØ¯ Ø±ÙĬØ¨
ĠØ¶ Ù
ĠØªØ´ ÙħÙĦ
ĠØ§ÙĦØªØ¹ Ø¨ÙĬØ±
ĠØ§ÙĦÙħØ® Øª
ĠØ¹ÙĨ ÙĩÙħ
ĠØªØµ ÙĪÙĬØ±
ħ ÙĦØ§Ø¨Ø³
ĠØ§ÙĦØ¬ ÙĦØ³Ø©
ĠØ§ÙĨ Ø¹
Ø°Ù Ĭ
ØªØ¨ Ø§Ùĥ
ĠØ§ÙĦØªØ³ ÙĪÙĤ
ĠØ§ÙĦØ§ÙĨØªØ® Ø§Ø¨ÙĬØ©
ØªÙħ Ø§ÙĦ
ĠØ¨Ø§ÙĦÙĤ Ø±Ø¨
Ø® Ø§ÙĦ
ĠØªØ¨ ÙĤÙī
ĠÙĪØ§ÙĦØ£ Ø³
ĠØ° Ù
Ġ ÙĬØ¯ÙĬ
ĠØ£ ÙĦØ¹Ø§Ø¨
Ø§Ø« Ø©
ĠØ¬ ÙĬØ´
ÙĬÙħ Ø§Øª
Ø§Ø¯Ù ĬØ§
ĠØ¨Ù ĦÙĪ
ĠØ§ÙĦÙĪ Ø¸Ø§Ø¦Ùģ
ÙĦØ³Ù Ĭ
Ġ Q
ĠÙĥ Ø§ÙģÙĬØ©
ĠØ§ÙĦÙĥ ÙĪ
ĠØ§Ø¹ Øª
ĠØ§ÙĦØ¨ÙĨ ÙĪÙĥ
ĠÙħÙĨØª ØµÙģ
ÙĤÙ ĬÙģ
ĠÙħÙ ħØ§Ø±Ø³Ø©
Ġ ÙħÙĬØ±
ĠÙħØªÙĨ ÙĪØ¹Ø©
ĠØ¨Ø¹Ø¶ ÙĩØ§
ĠÙĤ ÙħØ©
ĠØ§ÙĦØ³ ÙĥØ±
Ø®Øµ ØµÙĬ
Ù ħÙĦØ§Ø¨Ø³
ĠØ³Ù ĬÙĤ
ĠØªØªØ¹ ÙĦÙĤ
ĠØ§ÙĨØª Ø®
ĠØªØ£ Ø³ÙĬØ³
ĠØ§ÙĦÙħØª ÙĪÙĤØ¹
ĠÙĪ ÙĩÙī
ĠÙĪØ³ ÙĪÙģ
ĠÙĬØŃØª ÙĪÙĬ
ĠØ§Ø³ ÙħÙĩ
ĠÙĥ Ø±ÙĬÙħ
ĠÙħØª ÙĪ
ĠØ§ÙĦØ¯ ÙĬÙĥ
ĠØ£ÙĪ Ø¶ØŃ
ĠØ§ÙĦÙ ĦÙĪÙĨ
ĠÙĪØ¬ Ø¯Øª
ĠÙĩ Ø´
ĠØ§ÙĦØ¹Ø¯ Ø§ÙĦØ©
ĠØªØŃ ÙĪÙĬÙĦ
ĠÙĪØ§Ø® ØªØ¨Ø§Ø±Ø§Øª
ĠØ± ØŃÙĦØ©
ĠØ§ÙĦØªØŃ ÙĥÙħ
ĠØ§ÙĦÙħÙĨØª Ø¬
ĠØ¨ÙĤ ÙĪØ©
er s
ĠÙħØ¹ ÙĬÙĨ
Ø® ÙĦØµ
ĠØ§ÙĦØŃØ± Ø§Ø±Ø©
ĠÙħÙĪ Ø¬ÙĪØ¯
Ø§ÙĦÙħ Ø§
es s
ØŃ ÙĬÙĦ
ĠØ§ÙĦØ²Ø± Ø§Ø¹Ø©
ĠØ§ÙĦØ± Ø§Ø¨Ø·
Ø±ÙħÙ ī
ĠØªØ¹Ù ĬÙĬÙĨ
ĠØ´ ØŃÙĨ
ĠØªØµ Ø¯Ø±
ĠØ¨Ø§ÙĦØª Ø¹
ĠÙĪ Ø§Ø±
ĠØ¨ Ø§ÙĤÙĬ
Ø§ÙĦØ¨ Ø©
ĠÙĬØª ØŃØ¯Ø«
ĠØ¹ÙĬ Ø³Ùī
in d
ÙĬÙĪ Øª
ĠØ· Ø¨ÙĬØ©
ÙĪØ§Ø¬ ÙĩØ©
ĠØ§ÙĦØ¥ÙĨ Ø¬ÙĦÙĬØ²ÙĬØ©
ĠÙħÙ ĬØª
ĠØ§ÙĦÙħØ¹ ÙĨÙĬØ©
Ġ ÙħÙĬÙĨ
ĠÙĬÙħÙĨ Ø¹
ĠÙĪ ØµÙĪÙĦ
ĠÙĥ Ø£
Ø¯ Ø±ÙĬØ¨
ĠØª ÙĪÙĬØªØ±
ÙĦÙĪ Ø¨Ø©
Ø§ÙĨ ÙĪ
ĠØ§ÙĦØ£ Ø·Ø±Ø§Ùģ
ĠØªØ¤ ÙĥØ¯
Øµ ÙĦØ©
Ġ ÙħÙĦØ§Ø¨Ø³
ĠØ±Øº Ø¨Øª
ĠØŃ ÙĦÙħ
E R
ÙĦØ ²Ùħ
p t
ĠÙĤ ÙĪÙī
ĠØ§ÙĦÙĨ Ø§Øª
ĠÙĬØ¹ ØªÙĤØ¯
ĠØ¨ÙĤÙĬ Ø§Ø¯Ø©
ĠØ± Ø¦Ø§Ø³Ø©
ĠÙħÙĪ Ø§ÙĤÙģ
ĠØ§ÙĦÙĨ Ø§Ø´
ĠØ§ÙĦÙĤØµ Øµ
ĠÙĬØŃ Ø¨
ĠØ§ÙĦØª ÙĥÙĨÙĪÙĦÙĪØ¬ÙĬØ§
ĠØª Ø§Ø¨Ø¹
ĠØªØ± ØºØ¨
ĠØ¨ Ø¹Ùħ
ĠØ¹ Ø¬
ĠØ¶ ÙĬÙģ
ĠØªÙ Ĭ
ĠØ± Ùĥ
ĠØ§ÙĦØ·ÙĦØ¨ Ø©
ĠØª Ø®Ø±Ø¬
Ø§Ø± Ø¬ÙĬ
ĠØ¥ Ø«Ø±
Ø§Ø±Ù ĬÙĥ
ĠÙĦÙĦÙħØ´ Ø§Ø±ÙĥØ©
ĠØ¨Ø§ÙĦÙĥ Ø§ÙħÙĦ
Ø· ÙĦØŃ
Ø«ÙĬÙĤ Ø©
Ġ ÙħØ±ÙĬ
ĠØ¹Ùħ ÙĦÙĩ
ĠØ± ÙĪØ§ÙĬØ©
ĠÙĬØ³ ÙħÙī
ĠØ¶ ÙĪØ¡
ĠØ§ÙĦÙĬÙĩ ÙĪØ¯
ĠØ§ÙĦØµ Ø§ÙĦØŃ
ĠØ§Ø® ØªØµ
ĠØº Ø³
ĠØ§ÙĦØ¯ Ùĩ
Ġ Ø¯ÙĬØ±
ĠÙĨØ· Ø§ÙĤ
ĠØ§ÙĦÙħØ¹ Ø±Ø¶
ĠÙĪÙ ħØŃÙħØ¯
ÙĦØ§ ÙĪØ©
ĠÙħÙĪ Ø¶ØŃ
Ø±ÙħØ¬ Ø©
ĠØ§ÙĦØ· Ø§Ø¦Ø±Ø©
ĠÙĪØ· ÙĦØ¨
ħ Ø²ÙĬØ¯
ĠÙĪ ÙĪÙģ
ĠÙĪÙĬ ØªÙħ
ĠØ§ÙĦØ° ÙĥÙĬØ©
ÙĨ ÙĩØ§
ĠÙģ Ø§Ø¹
Ø£ ØªÙĬ
Ø¸ Ùī
ĠÙĦØ§ÙģØª Ø§
ħØª Ùĩ
Ùĩ Ø¬
ÙĬÙĨÙ ħ
ĠØºÙĬØ± Ùĩ
ĠÙģ ÙĨÙĬ
ĠØ§ÙĦØ¬ ÙĨØ©
ĠÙĦÙĦÙħØ± Ø©
ĠÙĪØ£ ØŃ
ĠÙģ ÙĨØ¯ÙĤ
ÙĪÙĤ Ø§Øª
ĠØ¨ Ø§Ø®
ÙĦØ³ ÙģØ©
ĠØ§ÙĦØ¬ ÙĨØ³
ĠØ§ÙĦØªØ´ Ø±ÙĬ
ĠØ£ ÙĩÙĦØ§
ĠÙħÙ ħ
Ġ ÙħØ£
ĠØ§ÙĨ Ø®ÙģØ§Ø¶
Ø§Ø¦ ÙĨØ§
ĠÙĪØ² Ø±Ø§Ø¡
ĠÙĪÙ ħØ®
ĠÙĬØ¨ ÙĤÙī
ĠØ° ÙĩØ¨
ĠØ§ÙĦÙģØ± ØµØ©
ĠØ± Ùģ
ĠØ§ÙĦØ§Ø³ Ù
ĠØ§ÙĦØ§ÙĨ Ø¬ÙĦÙĬØ²ÙĬØ©
a y
ĠØªØŃ Ø¶ÙĬØ±
ĠÙĪØ§ØŃ Ø¯Ø§
ĠØ§ÙĦÙħØ¹ Ø±ÙĪÙģ
ĠØ§ÙĦØ¹ ÙĤØ¯
ĠÙĩ Ø²
ĠØ§ÙĦÙħØ® Ø§ÙĦÙģ
ĠE n
Ø¯Ùħ ÙĬØ±
ĠØ§ÙĦÙħØ¨Ø§Ø± Ùĥ
ĠØ§ÙĦØ® ÙĦØ§Ùģ
ĠÙĥØª Ø§Ø¨Ø©
ĠØ¸ Ø§ÙĩØ±Ø©
ĠØ§ÙĦØ¬ ÙĦØ¯
ĠØ§ÙĦØ§Ø³Øª ÙģØ§Ø¯Ø©
ĠØ¬Ø² ÙĬØ±Ø©
ĠÙĦØŃ Ø¸Ø©
ĠÙħÙĪ Ø³Ùħ
ĠØŃ Ø±ÙĬØ©
ĠØ¯ Ùĩ
ĠÙħØª Ø¹
ĠÙĪØ§ÙĦØ§Ø ®
ĠÙĪØ¹ ÙĨØ¯
ĠØ´ Ø§Ø¨
Ø§Ø· Ø¹Ø©
ĠØ§ÙĦØ§Ø³Øª ÙĤ
ĠØªØ¨ ÙĦØº
ĠØ´ÙĩØ± ÙĬÙĨ
ĠØ¯ Ø§
Ø¹Ø¯ Ø§Ùħ
ĠØ£ÙĤ Ø±Ø¨
ĠØ¨ Ø±ÙĬØ¯
ĠØ§ÙĦØ® Ø²
ĠØªÙĪ Ø§ØµÙĦ
ĠØ§ÙĦØ³ÙĬØ¯ Ø©
ĠÙħÙĨ Ø§Ø³Ø¨Ø©
ĠØ§ÙĦØ¯Ø± Ø§Ø³ÙĬ
ĠØ« Ø§Ø¨Øª
ĠØ§ÙĦØŃÙĬÙĪ Ø§ÙĨØ§Øª
ĠØ§ÙĦÙĤ ÙĨ
Ġ ÙħØ¨Ø±
ÙĬÙ ĬÙģ
ÙĤ ÙĪÙħ
Ĭ Ø®Ø±Ø¬
Ø´ ÙĬØ©
ĠØ§ÙĦÙĪÙģ Ø¯
ĠØ§ÙĦØ¹Ùħ ÙĦØ§Ø¡
ĠÙĪØ± ØºÙħ
ĠØ£ØŃ ÙĥØ§Ùħ
ĠØ§ÙĦØª Ø®ØµØµÙĬ
ĠÙĪØ§ÙĦØ³ ÙĦØ§Ùħ
Ø§ ÙĥØ±
ÙģØ¹ Ø§Øª
ĠØ³ ÙĦØ§ÙħØ©
ĠÙĪØ§Ø¹ ØªØ¨Ø±
ĠØ§ÙĦØ§ ÙĬØ±
ĠØªØ± ÙĥÙĬØ¨
ÙĪ Ø§Ø·Ø±
1 2
ĠØ¨Ù ĬÙĪ
ĠØ§ÙĦÙħØ· ÙĦÙĪØ¨
ĠØ« Ø§ÙĨÙĬ
ĠØ§ÙĦØ¯ Ø§Ø®ÙĦ
ĠØ§ÙĦØ± Ø§Ùĩ
ĠÙĦÙħ Øµ
ĠØ¨ÙħØŃ Ø§ÙģØ¸Ø©
ĠØ¥ ØµØ¯Ø§Ø±
Ø´ ÙĪ
Ø¸ Ø§ÙĩØ±
ĠØ§ÙĦÙĪ Ø«
ĠØ§ÙĦÙĨÙĪ ÙĪÙĬ
ĠÙĪØ£ Ø¨
Ù ħØ²ÙĬØ¯
ÙĪØ± ÙĬÙĨ
Ù ĬØ®Ø±Ø¬
Ø· Ø§
ĠØ§ÙĬØ± Ø§ÙĨ
Ġ ÙĬØ®Ø±Ø¬
ĠØ§ÙĦØ± Ø´
Øª Ø±ÙĬ
ÙĤÙĬØ¯ Ø©
ĠØ§ÙĦÙħ Ø±ÙĬØ¶
ĠØ§ÙĦØ¨ Ø§Ø±
ĠØªØ¹Ù ĬØ´
ĠÙħØ³ Ø±ØŃ
ĠØŃ Ø¬Ø±
ĠØ£ Ø·ÙģØ§ÙĦ
ĠØ¬Ø§ÙĨ Ø¨Ùĩ
ÙĬØ¶ Ø§
ĠÙħÙ ĬÙĥ
ĠØ§ÙĦÙĥ ÙĬÙħÙĬ
ĠÙĬÙĪ ØªÙĬÙĪØ¨
Ø´ Ø§Øª
ĠØ§ÙĦØ¨ ØªØ±
ĠØ§ØªÙģØ§ÙĤ ÙĬØ©
ĠÙĪØª Ùĥ
ĠÙĬÙĤ Ø§ÙĦ
ÙģØ± Ø§Øª
ĠØ³ÙĨ ÙĪÙĬØ§
Ùĩ Ø²Ùĩ
Ø£ ÙĥÙĬØ¯
ĠÙħØ³ ÙĦØ³ÙĦØ§Øª
ĠÙĦØªØµ ØŃÙĬØŃ
ĠØ§ÙĦØ§Ø¹ ÙĦØ§Ùħ
Ø¶Ø± ÙĪØ±Ø©
ĠÙģ Ø´
Ø±Ù ħÙĬ
ĠØŃ ÙĦØ¨
ĠÙĦØ¨ Ø¹Ø¶
ĠÙĤØ± Ø±Øª
Ø§ ÙĩÙĦ
ĠÙħØ³ Ø§Ø¨ÙĤØ©
ĠØµ Ø¨
Ġ4 9
ĠØ§ÙĦÙĤ Ø±Ø§Ø¡Ø©
ĠØª ØªØ±
Ĭ Ø¶Ø¹
ØªØ±Ø§Øª ÙĬØ¬ÙĬØ©
ĠØ§ÙĦÙĤ ØµØ©
ĠÙĪ ØµÙ
ĠØ£ Ø®Ø±
Ù ĬØ¶Ø¹
ĠØ§ÙĦØ±Ù ħØ¶
Ġ ÙĬØ¶Ø¹
ĠØ§ÙĦØ¥Ø¹ ÙĦØ§ÙħÙĬØ©
ĠØ§ÙĦØ² ÙħØ§ÙĦÙĥ
ĠØ§ÙĦØŃ Ø´Ø±Ø§Øª
ĠØ° ÙĪ
ÙĥÙ ĬÙĩ
Ø¯ Ø§Ùģ
Ø± Ø¹Ø©
ĠØ£ ØŃÙĬØ§ÙĨØ§
c e
ĠØ§ÙĦØ¥ Ø´
ĠØ§ÙĦØ¨ÙĦØ¯ Ø§ÙĨ
Ø³Ù ħÙĪ
ĠÙĦÙĦÙ ħØ¯
Ġ ÙħØ²ÙĬØ¯
ĠØ§ÙĦÙ ĬÙħ
ĠØ¹Ø§ÙĦÙħ ÙĬØ©
ĠØ§ÙĦÙħÙĩÙĨØ¯ Ø³ÙĬÙĨ
ĠÙħÙĨ Ø³
ĠØ¯ÙĪ ÙĦÙĬØ©
ĠØ±Ø³ ÙħÙĬØ§
ĠØ§ÙĦØ® Ø±ÙĪØ¬
ĠØ§ÙĦØ£Ø¯ Ø¨ÙĬØ©
Ĭ ÙĪØ±ÙĪ
ĠØ¨ÙĤ ÙĬØ©
ĠØªØ³ Ø¹Ùī
Ġ] [
ĠØª ÙĪÙĤÙģ
ĠØ§Ø¹ ØªÙĦØ§ÙĦ
ĠØ§ÙĦØªÙĬ Ø§Ø±
ĠÙĪØªØŃ Ø¯ÙĬØ¯
Ġ25 0
Ø° Ø§Ø¨
ØºØ§ÙĨ Ø³ØªØ§ÙĨ
Ø§Ø² ÙĨØ©
ĠØ¨ÙĪ Ùĥ
ĠÙħÙĨ Ùĥ
ĠÙħØ´ Ø§Ø±ÙĥØ§Øª
ĠÙĨÙĬ ÙĪÙĬÙĪØ±Ùĥ
Ø² Ø²
ĠØ§ÙĦÙĨÙĩ Ø§Ø¦ÙĬØ©
Øµ Ø§Øª
ĠØ§ÙĦØ³ Ø§ØŃØ©
ÙĬÙģ Ø©
ĠØ§ÙĦÙħÙĨØ´ ÙĪØ±Ø©
ĠØ§ÙĦÙĤ Ø§Ø¶ÙĬ
ĠØ§ÙĦØª Ø¯Ø§ÙĪÙĦ
ÙĨØ¯ Ø§Øª
ĠØ§Ø¬ØªÙħØ§Ø¹ ÙĬØ©
ĠÙĨ Ø¸Ùħ
ĠØ§ÙĦØ± Ø¦Ø§Ø³Ø©
ĠØ§ÙĦØ³ ÙĪÙĬØ¯
Ø³Ø¨ ÙĤ
ĠÙĪØ§ÙĦØª Ø³
ÙĬÙħ ÙĬÙĨ
ĠÙĪ Ø²ÙĬ
ÙĪÙĨ Ø¬
ĠÙĪÙĩ ÙĥØ°Ø§
ĠÙĦÙĦØ «
ĠØ§ÙĦØ· ÙĤØ³
Ġ5 2
ĠØ¥Ø³Ùħ Ø§Ø¹ÙĬÙĦ
Ø¬Ø² Ø§Ø¡
ĠØ§ÙĦØ¹ ÙĨØ§ÙĬØ©
ĠÙĤØ§ÙĨÙĪÙĨ ÙĬØ©
ĠØªØ± ØªÙĬØ¨
ĠÙĨÙģØ³ Ùĥ
ĠÙĪØ£ ÙĬØ¶Ø§
ĠØ§ÙĦØ¹ÙĤ ÙĪØ¨Ø§Øª
ĠØ§ÙĦÙħÙĦØª ÙĤÙī
ĠÙħØ³ Ø¨
ĠØ¸ Ø±ÙĪÙģ
ĠØ§ÙĦØ¯ ÙĬÙĨÙĬ
ĠØª ÙĨÙħÙĬØ©
Ø² ÙĪØ¬
Ù ĬÙĪØ±ÙĪ
ĠØ§ÙĦØ®Ø· Ø§Ø¨
ĠÙĪØ§ÙĦØ³ Ù
Ġ ÙĬÙĪØ±ÙĪ
Ħ ÙĦØ§ÙĨ
ĠØ£Ø³Ø¨ÙĪØ¹ ÙĬÙĨ
ĠÙĬØ¯ Ø¹ÙĪ
ÙģÙ ĬØ¹
is t
ĠØ¨ ÙģØ¶ÙĦ
Ø§Ù ĬÙĪ
Ø· ÙĬÙĨ
¶ Ø§ÙģØ©
ØŃ ÙĬÙĨ
ĠØ§ÙĦÙģØ¶ Ø§Ø¦ÙĬØ©
ĠØ§ÙĦØ§ÙĦÙĥØªØ± ÙĪÙĨÙĬØ©
Øº Ø§
Ø¹ ÙĦØ§ÙĨ
ĠØ§ÙĦØ¹ Ø¬
ĠÙĦØ¨ ÙĨ
ĠÙĦØ¹ Ø¨
Ø§Øµ ÙģØ§Øª
ĠØ§Ø± ØªÙĥ
ĠØ§ÙĦÙĥ Ø§ÙħÙĦØ©
ĠØ§ÙĦØ¹ Ø§Ø¦
ĠÙħØ± Ø´ØŃ
ĠØ£ÙĨÙģØ³ ÙĩÙħ
ĠÙĪ Ø°
ÙģÙ ĬØ³
ĠØ§ÙĦØ³ Ø¹Ø±
u st
Ø· Ùĩ
ĠÙĪØ§ÙĦÙħ Ø®
ĠÙĬØ´ Ø±Ùģ
ĠØ¥ ÙĦÙĩ
ĠØ¥ Ø«
ĠØ§ÙĦØ¹ ÙĬØ¯
ĠØ§ÙĦÙĤØ± Ø§Ø±Ø§Øª
o b
ĠØªØ¹ Ø§ÙĪÙĨ
ÙĬÙĥ ÙĬØ©
ĠØ§ÙĦÙĨ ÙĬÙĦ
ĠÙĪ Ø§Ùħ
ĠØ¢ Ø¨
Ø¹ ÙĪØ©
ĠØ± ÙĤ
ĠØ§ÙĦØŃ Ø§Ø¬
Ù ĦÙĦØ§ÙĨ
Ġ ÙĦÙĦØ§ÙĨ
ĠÙĦØ¯ Ø¹Ùħ
ĠØ· ÙĬØ¨
Ùĩ Ø±Ø©
ĠØ§ÙĦÙħÙĥØª Ø¨Ø©
ĠÙħØ¬ Ø§ÙĨÙĬØ©
ĠØ§ÙĦÙĨ Ø¬
ĠØ± ÙĪØ¨ÙĬØ©
ĠÙĪØ§ÙĦØ§Ø ¨
ÙĤ ÙĪØ¨
ĠÙĤØ¯ Ø±Ø©
Ø¨Ø¹ Ø§Ø¯
ĠÙĪØ£Ø¶Ø§Ùģ Øª
ĠØ§ÙĦØŃ Øµ
ĠØ§ÙĦÙħ ÙĦÙĬ
ĠØ§ÙĦØªØ´ ØºÙĬÙĦ
Ùĥ Ø§Ø¡
ĠØ£Ø± Ø§Ø¯
ĠØ§ÙĦØªÙģ ÙĥÙĬØ±
Ø´ Ø¨
ÙĦÙĬ ÙĬÙĨ
ĠØ§ÙĦØª Ø£ÙħÙĬÙĨ
ĠØ¬Ø²Ø¡ Ø§
ĠØ¨ Ø®ØµÙĪØµ
Ù ħÙĪÙĦ
ĠØ¹Ø§ÙħÙ Ħ
Ø¬ Ø§Ø¨Ø©
ĠØ®ÙĦØ§ ÙĦÙĩ
Ø§ÙĨÙĬ Ùĩ
ĠØ§ÙĦÙħ ÙģØ§ÙĪØ¶Ø§Øª
Ø§Ùģ Ø§
Ġremov al
ĠØ£ØŃ Ø¨
ĠÙħØ¨ ÙĦØº
ĠÙĦÙĬ Ùģ
ØªØ¨ Ùĩ
ĠØ§ÙĦØŃ ÙħØ§ÙĬØ©
ÙĨØª Ùĩ
ĠÙĬØ´ Ø¹Ø±
Ø±Ùĥ Ø§ÙĨ
ĠÙħØŃØª ÙĪÙī
ÙĩÙ ħÙ
ĠÙĪ Ø§Ø¯
i v
ĠØ§ÙĦØ¹ Ø§Ø¦ÙĦØ©
ĠÙĬØ® Øµ
ĠØ§Ù ĬØ¬
Ø±Ø¨ Ø§ØŃ
ĠØ§ÙĦÙĪØ² ÙĨ
Ġ3 00
ĠØ¥ ÙĦÙĥØªØ±
ĠÙĦÙĦØ¬ ÙħÙĬØ¹
ĠØ§ÙĦÙĥ ÙĦÙħØ§Øª
ĠØ§Ø¶ Ø·Ø±
ĠØªØŃ ÙĪÙĦ
Ø¦ Ø±
ĠØ§ÙĦØ§Ø± Ø¨Ø¹
Ø® ÙħØ©
ĠØ§ÙĦØŃ Ø§ÙĥÙħ
ĠØ§ÙĦÙħÙĤ Ø¯ÙħØ©
Ø¹ ÙĨ
ĠØ§ÙĦÙĪØ§ÙĤ Ø¹Ø©
ĠØ¨Ø¬ Ø§ÙħØ¹Ø©
ĠÙĪØ¥ ÙĦÙī
ĠÙĤ ÙĦÙĬÙĦ
ĠÙħØ³Øª ÙĤØ¨ÙĦ
ĠØ§ÙĦØ§ÙĨ Ùģ
ĠÙĪÙĤ Ø¹Øª
ĠÙĬØ¹ ØªÙħØ¯
ĠØ§ÙĦØªÙĪÙĨ Ø³ÙĬ
Ø§Ø¹ Ùĩ
p p
ĠÙħØ³ ÙĬØ±Ø©
ĠØµ ÙģØ±
ĠØ¨Ø§ÙĦÙħ Ø¹
Ø±ÙĬ ØŃØ©
ĠØ¬ Ø³
ĠÙħØ¯ Ø§Ø±Ø³
ĠØ§ÙĦØ³ ÙĬØ§
ĠØ¨Øª Ø³
ĠÙĪ ÙĨØª
Ġ ;
ĠØªØ± Ø¯Ø¯
ĠØ§ÙĦØ£ØŃ Ø²Ø§Ø¨
ĠØ¨Ø§ÙĦÙħ Ø¯ÙĬÙĨØ©
ĠØµ Ø§ØŃ
ĠØ£Ø¨ Ø·Ø§ÙĦ
ĠØ¨ ÙĪØ³Ø¹
Ø±ÙĬ Ø¬
ĠÙĤÙĦÙĬ ÙĦØ©
Ø´ Ùī
ĠØ§ÙĦØ§Ø® ÙĬØ±Ø©
ĠÙĦØªÙĤ Ø¯ÙĬÙħ
ĠØ¨Ù ħØ³Øª
ĠØ°Ù Ĭ
ĠØ¹ Ø¨ÙĬØ¯
Ø¬ÙĦÙĬ Ø²ÙĬ
ĠØ£ÙĪ ÙĦÙī
ĠØ§ÙĦØ²Ø± Ø§Ø¹ÙĬØ©
ĠÙħØ¹ Ø¯ÙĦ
ÙĪÙģ Ø©
ĠØ¥ Ø³Ø±Ø§Ø¦ÙĬ
Ø§Ø± ØªÙĩ
ÙħÙĬÙ ĬØ²
Ø¯ Ø¨
ĠI n
ĠØ£ ÙĪÙĨ
ĠÙĪ Ø¨Ø¯Ø£
Ø¨ÙĬ Ø§Ø¡
ĠØªØ¹ ØªÙħØ¯
Ø§ÙĦØ ¥
Ø§Ø´Ù Ĭ
ĠØ§ÙĦØ¹ ÙĤÙĦ
ĠØª Ø±Ùħ
ĠØ§ÙĦØ¬ ÙħØ§ÙĩÙĬØ±
ĠØ§ÙĦØª Ø§Ø¨Ø¹
Ø® ÙĬÙĨ
ĠÙĪÙ ĬÙģ
ĠØ¥ Ø±Ø³Ø§ÙĦ
ĠØ§ÙĦÙħÙĪ Ø¬ÙĪØ¯
ħ ØªÙī
ĠÙĤ ÙĦÙĪØ¨
Ġ5 6
ĠØ§ÙĦØ³ Ùĥ
ĠØ§ÙĦØ¹ Ø±ÙĪØ¶
ÙĪÙĨ Ø¯
ĠÙģØ¹ ÙĦØ§
ĠÙĬØ¯ ÙģØ¹
ĠÙĦÙħ ÙĪØ§Ø¬ÙĩØ©
ĠØ§ÙĦÙħØ³Ø¤ ÙĪÙĦ
Ø§ ÙĥÙĨ
ĠØ®Ø¨Ø± Ø§Ø¡
ÙĦØ§Ø¦ Ù
ĠØ®ÙĦÙģ ÙĬØ§Øª
ĠÙĪÙĦÙĥÙĨ ÙĩØ§
ĠâĢ Ļ
ĠÙĦØ§Ø ¦
ĠØ§Øª Ø¬Ø§Ùĩ
ĠØ§ÙĦÙĨÙĩ Ø§Ø±
Ø§Ùģ ÙĦØ©
ĠØ² ÙĬØª
ĠØŃ Ø§Ùħ
ĠÙĤØ§ÙĦ ÙĪØ§
ĠØ§ÙĦØ§ÙĨØª ÙĤ
ĠØ§ÙĦØ£Ùģ ÙĦØ§Ùħ
ĠØ§ÙĦØªØµ ÙĪÙĬØ±
ĠØ³ Ø·ØŃ
ĠØªØ´ ÙĬØ±
ĠØ§ÙĦÙħØ¨ Ø§Ø´Ø±
ĠØ¨Ø§ÙĦÙħ Ø§Ø¦Ø©
Ġ200 4
ĠØ§ÙĦÙĬÙħÙĨ ÙĬØ©
ĠØ¹ÙĦÙħ ÙĬØ©
ĠØ§ÙĦÙħØ³ Ø¦
Ø¯ Ø§Ø¹
ĠØ§ÙĦØ£ Ø«
Ùģ ÙĬØ±
ĠØ¬Ø¯ÙĬØ¯ Ø§
ĠÙĦØ¹ Ø¯Ùħ
c ed
ĠØ£Ùģ ÙĦØ§Ùħ
ÙĨ Ø²
Øµ Ø±Ùģ
Ø¨ØŃ Ø§Ø«
Ø§Ùĩ ÙĬØ©
ĠØ§ÙĦØ« Ø§ÙĨÙī
ĠØ¯Ø± Ø¬Ø§Øª
ØªØ± Ø§Ø¶
ĠØ¨ØŃ Ø±
Øµ Ø±Ø©
ĠØ¨Ø§ÙĦ ÙĦØºØ©
ĠØ¹ ÙĦØ§ÙħØ©
ĠÙĥ Ø³
Ø¯ÙĬ Ùĩ
ĠØ¶ Ø±Ø¨
ĠØ§ÙĦÙħÙĩ ÙĨÙĬØ©
ĠØ¨Ù ħÙĥ
ĠÙĥ ÙĬÙĦÙĪ
ĠØ³ ÙĦØ§ØŃ
Ùĥ ÙĬÙħ
ÙĪØ§ ÙĦÙī
ĠÙĦØ¯ Ø±
Øª ÙģØ§Ø¹
ĠØ¨ Ø§ÙĦÙĬ
ĠÙħØ¹ ÙĩØ¯
ĠÙĨ Ø¬Ùħ
ĠØ§ÙĦÙħØ´Ø§Ø±Ùĥ ÙĬÙĨ
ÙĪØª ÙĪ
5 0
ĠØ§ÙĦØ´ Ø±ÙĬØ¹Ø©
Ø·ÙĦØ¨ Ø§Øª
ĠØ§ÙĦØ¯ ÙĬÙħÙĪÙĤØ±Ø§Ø·
ĠØ§ÙĦÙħØ³ Ø§Ø¹Ø¯Ø©
ĠÙĪÙĥ Ø£ÙĨ
Ġ Ø©
Ø¨ Ø¹Ø©
ĠÙģ Ø§Ø·
ĠÙĪÙĦÙĬ Ø¯
ĠØ§ÙĦØªØ± ØŃÙĬØ¨
4 0
ØªÙ ĬÙģ
ĠØ§ÙĦÙĬØ§Ø¨ Ø§ÙĨ
ÙĥÙĬ Ø§Ø¬
Ġ ÙĬÙĦÙĬ
§ÙĦØ ª
ĠØ¹ÙĤ Ø§Ø±Ø§Øª
ÙĩØ§Ø¨ ÙĬØ©
ĠØª Ø³ÙħØŃ
ĠØŃØ³ Ø§Ø¨Ø§Øª
ĠÙħÙĪØ¶ØŃ Ø§
ĠØ¨Ø§ÙĦ ÙĪ
ĠÙħÙ ĬØ´
ĠÙĨ Ø§Ø±
ĠØ§ÙĦÙĤØ± ÙĬØ©
ĠØ§Ø® ØªØ¨Ø§Ø±
ĠØ£Ø´ Ø§Ø±
is h
ĠØ¨Ø± Ø³
Ġ5 1
Ø£ Ùī
Ø¸Ø§Ùĩ Ø±Ø§Øª
ħ ØªÙħÙĬØ²
ĠØ§ÙĦØ´ Øª
Ù ħØªÙħÙĬØ²
Ġ ÙħØªÙħÙĬØ²
Ø§Ù ĬØ´
ĠØ´ Ø±Ùģ
ĠÙĦÙĦÙ ħØ¤
o d
ĠØ§ÙĦØ¯ Ø¨ÙĦÙĪÙħ
Ø³Ù ĬØ¹
ĠÙĦØ´ Ø±ÙĥØ©
ĠÙħØª Ø³
ĠÙĦØ ¢
ĠØ·Ø± Ø§Ø¨ÙĦØ³
ĠÙħÙģØª ÙĪØŃ
ĠÙģ Ø¦Ø©
ĠØ§ÙĦØµÙĪ ØªÙĬØ§Øª
ĠØª ÙĤÙĦ
ĠØ§ÙĦØ§ÙħÙĬØ± ÙĥÙĬØ©
ĠØ± Ø§Ø¦Ø¹Ø©
ĠØ§ÙĦØ£Ø® Ø¶Ø±
Ø® ÙĬØ±
Ø³Øª ÙĬØ±
ĠÙĥ ÙĦÙħØ§
ĠØ§ÙĦØ§Ø¬ ÙĩØ²Ø©
ĠØ§ÙĦÙĥÙĪÙĬØª ÙĬØ©
Ø§ÙģÙ Ħ
ĠØ¹ÙĤ ÙĪØ¯
ĠØ¬ ÙħÙĬÙĦ
ĠØ´ Ø¦
ĠØ£Øº ÙĦØ¨
ĠØ± Ø¨ÙĬØ¹
Ø§Ø¶ Ø©
ĠØ§ÙĦØ· Ùģ
Ġ5 7
ÙĬÙĤ Ø§Ùģ
ĠÙĨ Ø§Ø³
Ġp r
Ø¯Ù ĬØ¹
ĠØª ÙĩØ¯Ùģ
ÙħÙĨ Ù
ħ ÙĦØ§ØŃ
ĠØ§ÙĦÙĤ ÙħØ©
ĠÙĦØ ²Ù
ĠØªØ· ÙĪØ±
ĠØ¯ Ùģ
ÙĪÙĤ Ø¹Ø©
Ø®Øµ Ø©
Ø§ ÙĪØ±Ø©
ĠØ§ÙĦÙħÙĪØ¸ ÙģÙĬÙĨ
ĠØ§ÙĦØ¥ ØµØ§Ø¨Ø©
ĠØ§ÙĦØ³ÙĪØ¯ Ø§ÙĨÙĬ
ĠÙħØ³ Ø§Ø±
ĠØ³ ÙĪØ¡
ĠØ§Øµ Ø¨ØŃ
ĠÙĪ Ø§Ø¬Ùĩ
ĠÙĥÙ ĬÙĪÙħØ§ÙĥØ³
ĠÙĪØ§ÙĦÙħØ¬ ØªÙħØ¹
ĠØ§ÙĦØ± Ø¹Ø§ÙĬØ©
ĠÙħØ³ Ø§Ø¹Ø¯Ø©
ĠÙģ ÙĦÙħØ§
ĠØ± Ø§Ø´Ø¯
ĠØªØ¨ ÙĬÙĨ
ĠØŃ ÙĤÙĬÙĤÙĬØ©
ĠØ¨ØªÙĤ Ø¯ÙĬÙħ
ĠÙĪØªÙĤ Ø¯ÙĬÙħ
ĠØ³ÙĬÙĨ Ø§Ø¡
ĠØªØª Ø¶ÙħÙĨ
ØŃ Ø§Ø«
ĠÙĪÙ ĬØ®
ĠØ§ÙĦÙ ĬÙĪ
oo k
ĠÙĬÙĪ Ø§Ø¬Ùĩ
ĠÙĪØ§ÙĦÙħ Øµ
ĠØ§ÙĦÙħ ÙĩØ±Ø¬Ø§ÙĨ
ĠØ§ÙĦØ± ÙĪØ§ÙĬØ©
ØªØ¨ Ø·Ø©
e b
ĠØ® ÙĬØ§Ø±
ĠØ§Øª Ø®Ø°
ĠØ§ÙĦØ§Ø³Ù ħ
ĠØ§ ÙĤØ±Ø£
Ġ15 0
ĠÙĦÙĦÙ ħØª
Ø§ÙĦØ ´
Ĭ Ø¯ÙĬÙĪ
ĠØ§ÙĦÙħØ· ÙĦÙĪØ¨Ø©
ĠØ§ÙĦÙĤ Ø§Ø¦Ùħ
ĠØ¨ ÙĥÙħ
Ø¹Ù ĬØ§
ĠØ¨Ø§ÙĦÙħØ´ Ø§Ø±ÙĥØ©
ĠØ§Ø³ØªØ± Ø§Øª
Ø¹Ø¯ Ø©
ĠØ§ÙĦØ¬ ÙĬÙĦ
ĠÙģÙ ĦÙĨ
Ø§Ø¶Ù Ħ
ĠÙĪØ£ ÙĥØ«Ø±
O N
Ù ĬØ¯ÙĬÙĪ
ĠØª ÙģØ¹ÙĬÙĦ
ĠØ±Ø¦ÙĬØ³ Ø§
ÙĪÙĦÙĪØ¬ ÙĬØ©
ĠØµØŃ ÙģÙĬ
ĠÙĬØŃ ÙĬÙī
ĠØ§ÙĦÙħØ³ ÙĦÙħ
ĠØ¨Ù ħØ«
ĠÙħØ¬ Ø¯Ø¯Ø§
ĠÙĦØª ÙĪ
ĠØ§ÙĦØ¹Ø¯ ÙĪØ§ÙĨ
ÙĨÙ ĬØª
ĠØ³ÙĬ Ø¯ÙĬ
ĠØŃ ÙĪØ§Ø¡
ĠØ§ÙĦÙħ ÙĦØŃ
Ġcataract s
ĠÙĬØ± Ø¬Ùī
Ø§Ø¡ Ø©
ĠÙĬØª Ø¶ÙħÙĨ
ĠØ§ÙĦØª Ø²Ø§Ùħ
ĠÙĪÙ ĬÙĥ
Ù ħÙĦØ§ØŃ
ĠÙĩ ÙĨ
Ùĩ ÙĦÙĬ
ĠØ§ÙĦÙħÙĪØ¶ÙĪØ¹ Ø§Øª
ĠØ§ÙĦÙĨ Ø¨Ø§Øª
ĠÙĪØ· ÙĨÙĬØ©
ÙĦÙ ĦÙĩ
ĠØ§ÙĦÙĦØº Ø§Øª
ĠØ³ÙĦØ· Ø©
Ħ ÙĨØª
ĠÙĥÙ ħÙĬØ©
ar t
ĠÙĪØ§ÙĦØª ÙĨÙħÙĬØ©
ĠØ§ÙĦØº ÙĬØ±
ĠØ£ Ø°
ĠØ³Ù ĬØŃ
ĠØ§ÙĦØ¨Ø± Øª
ĠØ§ÙĦØ¥ ÙĬØ¬
ĠØ§ÙĦØº Ø±ÙģØ©
ĠØ§ÙĦØ±Ø¤ ÙĬØ©
Øª Ø´
ĠØª Ø°ÙĥØ±
ØŃØ¯ Ø§Øª
ÙħÙĨÙ Ĭ
ĠØ´ ÙĥØ±
ĠÙĦØ£ ÙĪÙĦ
ĠØ§Ø« Ø§Ø«
ĠÙĬØ· ÙĦÙĤ
ĠØ§ÙĦØ§Øª Ø¬Ø§Ùĩ
ĠÙĤ Ø§Ø¹Ø©
ĠØ§ÙĦÙħØ¹Ø§Ø± Ø¶
ĠÙħÙĪØ³ ÙĥÙĪ
ĠÙĦØ§Ø ±
Ø± ÙĪÙĨ
Ø¹ ÙĦÙĩ
ĠØ§ÙĦÙħÙĤ ØªØ±
ÙĦÙĤ Ø§Ø¡
ÙĪØ§ÙĨ Ø¨
ĠÙĪÙĬØ¬ Ø¨
ĠØºÙĬØ± ÙĩØ§
ØŃ Ø§ÙĤ
ĠØ§ÙĦÙħ ØŃÙĬØ·
ĠÙĬØŃ ÙĤÙĤ
ÙĦØ¦ Ùĥ
Øº Ø§Ø±
ĠØ§ÙĦÙħ Ø°
ĠØ§ÙĦØ´Ø¹ ÙĪØ¨
Ø² Ø§Ø¡
ĠØ§ÙĦØ£Ø³ ÙĦØŃØ©
ĠØ§ÙĦØ¹ Ø¨Ø¯
Ø± ÙĨØ§ÙħØ¬
ĠØ¬ÙĪØ± Ø¬
Ø§Ø¦ Øµ
ĠÙħÙĪ Ø§Ø·ÙĨ
ĠÙħÙĨ ØµØ¨
ĠØ· ÙĩØ±Ø§ÙĨ
ĠØ§ÙĦÙĥØ± Ø§Ùħ
Ø°Ø§ Ùĥ
Øº Ø¨Ø©
ĠÙĥ ÙĪÙĥ
ĠØ§ÙĦÙĥØª Ø§Ø¨Ø©
ĠØ®Ø· ÙĪØ§Øª
ĠÙħØ¬ ÙħØ¹
ĠÙĪØ³ ÙĩÙĦØ§
Ø§ÙĦ ÙĪÙĨ
ĠØªØ£ ÙĥÙĬØ¯
ĠØ± ÙĪØ§Ùĩ
ĠÙĩ Ø¬ÙĪÙħ
ĠÙĤÙĦÙĬ ÙĦØ§
Øª ÙģØ§ÙĦ
ĠÙģ Ø´ÙĦ
ĠØªØŃ Ø¯ÙĬØ«
ĠØ·Ø¨ÙĬØ¹ Ø©
ĠÙħØ· Ø¨Ø®
ĠØ§ÙĦÙĩ ÙĪØ§ØªÙģ
Ø§ÙĦÙĬ Ùģ
ĠØ§ÙĦØŃ Ø¯Ø«
ĠØª Ø²ÙĬØ¯
Ùģ Ø§Ø±
ĠÙħÙģ ÙĩÙĪÙħ
ĠØ§ ÙĥØ³
ĠØ§Ø¹ ÙĦØ§ÙĨØ§Øª
ĠÙĤ ÙĪØ§ÙĨÙĬÙĨ
Ø§ÙĦÙĬÙ ħ
ĠÙħØ· ÙĦØ¹
Ġ r
ĠØŃ ÙħÙĦ
ĠØ§ÙĦØ¥Ø¬ ÙħØ§ÙĦÙĬ
ĠØ§Ù ĬØ§Ùħ
ĠÙĪØ¹ÙĦØ§Ø¬ ÙĩØ§
ĠØŃÙ ħØ§Ùħ
ĠØ§ÙĦØªØ® Ø·ÙĬØ·
ĠØ¥ ÙħØ§
ĠØ§ÙĦÙĥ ÙĨÙĬØ³Ø©
Ø§Ø¶ Ø±Ø©
ĠØ§ÙĦØ´ ÙĪØ·
ĠØ£ ÙĦØ¨
Ĭ Ø¶Ùħ
ĠØ§ÙĦÙħØ±Ø¶ Ùī
ĠØ§ÙĦØ¥ÙĬØ± Ø§ÙĨÙĬØ©
ĠØµ Ù
Ø§Ø¯Ø« Ø§Øª
ĠØŃØµ ÙĦØª
Ù ĬØ¶Ùħ
Ġ ÙĬØ¶Ùħ
ĠØ§ÙĦÙĪØ³Ø· Ùī
ĠØ¨ÙĨÙģØ³ Ùĥ
ĠØ§ÙĦÙĤ ÙĬÙħØ©
ĠØ§ÙĦØ§Ø³Øª ÙĤØ±Ø§Ø±
Ø¯ÙĬ Ø§ÙĦ
ĠØ² Ø§ÙĦ
ĠØ§ÙĦØ£ ÙģØ¶ÙĦ
Ġ5 3
ĠØ± Ø³ÙħÙĬØ©
ĠØ§ÙĦØ¯ ÙģØ¹
Ù ħØªÙī
ØªÙħØ§Ø¹ Ù
ĠÙĪ ÙĦÙģØª
ØªÙħØ§Ø¹Ù Ĭ
ĠØ§ÙĦØŃÙ ħ
ĠØ®Ø· Ø§Ø¨
ĠØ® ÙĦÙĬÙĦ
ĠØ§ÙĦØ£ Ø±Ø¬
ĠÙĪØŃØ¯ Ùĩ
Ġ5 4
ĠØ§ÙĦÙħØ± ÙĪØ±
ÙĬÙĪ Ùģ
ĠÙĪØ£ ØµØ¨ØŃ
ĠØ²ÙĪØ¬ ØªÙĩ
ĠØ¨Ø§ÙĦØª ØŃ
Ø¨ Ø³
ĠÙĦÙĬ ÙĥÙĪÙĨ
Ø¬Ùĩ Ø©
ĠØ§ÙĦØ«Ø§ÙħÙĨ Ø©
ĠØ§ÙĦØŃ Ø±Ø©
Ø§Ø· Ùģ
ĠÙĪØ¢ Ø®Ø±
ĠØ§ÙĦÙĥ Ø§ÙħÙĦ
Ġ ÙħØªÙī
ĠØ¥ ØµØ§Ø¨Ø©
Ø² Ø§ÙĬØ¯
ĠØ§ÙĦØ¯ Ø§Ø±
Ø£ ÙĥØ¯
ĠÙĪ Ø§Ø¯ÙĬ
ĠØ§ÙĦØ¬ ÙĨÙĬÙĩ
ĠØ§ÙĦØ¥Ø« ÙĨÙĬÙĨ
Ø§Ùĩ Ø¨
u e
Ùĩ Ø§ÙĨ
ĠØ§ÙĦØ²Ù ĬØ§Ø±Ø©
ÙģØ§ ÙĩÙħ
Ùĥ ÙĦÙĬ
ĠØ§ÙĦÙĨ ØªÙĬØ¬Ø©
Ø§Ø± Ø¶Ø©
ĠÙĪØ§ÙĦØª Ø´
ĠØ¥ ÙĬØ±
ĠÙĬØ³ Ø¹Ùī
ÙĦØ§Ù Ĭ
Ø§Ù ĬØ²
ĠØ¹ Ø±Ø¨
ĠØ£Ø³ ÙĩÙħ
ĠØ§ÙĦØ§ÙĦÙĥØªØ± ÙĪÙĨÙĬ
ĠÙĨ Ø§Ùģ
ĠØªØ¬ Ø§Ø±Ø©
ĠØ§ÙĦÙĪ Ø§Ø³Ø¹Ø©
ĠØ£ÙĬ ÙĩØ§
Ġt o
ĠØ²ÙĪØ¬ ÙĩØ§
ĠØ¬ Ø³Ùħ
ĠØ§ÙĦØ§Ø« Ø§Ø«
ÙĩÙĬ Ø§Ø±
Ø¯ Ø±Ø©
ĠÙģØ± ÙĨÙĥ
ĠÙħÙĪ Ø§Ø·
ĠÙĪØª Ø³Øª
ĠØµ Ø±ØŃ
ur e
ĠØ§ÙĦØ§Ø³ Ø¨ÙĪØ¹
ĠÙĬÙĨØª Ø¸Ø±
ÙĥØ§ ÙĪÙĬ
ĠÙħÙĨØª Ø¯ÙĬ
ĠÙĬØ· ÙĦØ¨
ĠØ§ÙĦÙħØ¹ Øª
ĠØ§ÙĦÙģ Ø§Øª
Ø§Ùħ Ø±Ø©
ĠØ§Ø³ØªØ±Ø§Øª ÙĬØ¬ÙĬØ©
ĠÙĬØ¹ ÙĤÙĪØ¨
ĠØŃ Ø¸
Ùĥ ÙĨØª
ĠØ¥ ÙĦØºØ§Ø¡
ĠÙĨØ´Ø± Øª
ĠØ¨Ø§ÙĦØ§Ø ¶Ø§ÙģØ©
ĠØ£Ø¨ ÙĨ
ĠØ§ÙĦØ³ Ø¬ÙĨ
ĠÙħØ¹ Ø±ÙĥØ©
ĠØªØ£ ÙħÙĬÙĨ
ĠØ² ÙĪØ§Ø¬
ĠØ§ÙĦÙĩÙ Ĭ
ĠÙĬØ¹ Ø§ÙĨÙĬ
ĠØ¨Ø§ÙĦØ§Ø ¹
ĠÙĦÙĦØ ¶
ĠØ£ÙħØ§ ÙĥÙĨ
ĠØ§ÙĦØ´Ø¨ ÙĥØ©
ĠØ¨ÙħØ´ Ø§Ø±ÙĥØ©
ĠÙĪ Ø¯Ø±
ĠØ§ÙĦØ§Ø² Ø±ÙĤ
ĠÙĬÙĤ Ùģ
ĠØ§ÙĦÙħØª ØŃ
ĠØ§ÙĦÙĨÙģØ³ ÙĬØ©
ÙĬØ¯ Ø±
ĠØ§Ø¹ Ø¶Ø§Ø¡
ĠÙĨ ÙĪÙģ
ĠØ®Ø· Ø£
ĠÙĪØ°ÙĥØ± Øª
ĠØ¥Ùģ Ø±ÙĬÙĤÙĬØ§
ÙĦØª Ù
ĠØ£ Ø¸ÙĩØ±
ĠÙĦÙĦØ¹ ÙĬÙĨ
ĠÙħØª ÙĤ
ĠÙĨ ÙĩØ±
ĠØ§ÙĦÙĦØ¨ÙĨØ§ÙĨÙĬ ÙĬÙĨ
Ħ ÙĪØ±
ÙĤ Ø§ÙģØ©
ĠØ´ Ø®ØµÙĬØ§Øª
ĠØ§ÙĦØ§ÙĦØª Ø²Ø§Ùħ
ĠØ®ÙĦÙģ ÙĬØ©
ĠØ¨Ø¬ ÙħÙĬØ¹
ĠØ§ÙĦØ³Ø§Ø¯ Ø³Ø©
ĠØ³Ù ĬØ§
ĠØ³ ÙĤØ·
ÙĪÙĦ ÙĨØ¯Ø§
ĠØ¢ ÙħÙĨ
ĠÙĪØ£ ÙħØ§
ĠÙĥ Ø§Ùģ
ĠÙĪØ§ÙĦØª ÙĪ
ĠØª Ø®ØµØµ
Ø³ÙĬÙģ Ø±Ø§Øª
Ø³ Ø¹
ĠØ§ÙĦØªØ± ÙģÙĬÙĩ
ĠØ· ÙĪÙĬÙĦ
Ġ5 8
ĠÙĪØ§ÙĦØ§Ø ±
ĠØ§ÙĦØ³Ùģ Ø§Ø±Ø©
ĠÙħØ¯ ÙĨ
ĠØ§ÙĦØŃ ÙĤÙĬÙĤÙĬØ©
Ġw h
ĠÙĨÙĬÙĪ Ø²
ĠØ§ÙĦØ£Ø³ ÙĪØ¯
ĠØ§ÙĦØ³ Ø¨Ø¹
ĠØ§ÙĦØªØ¬ Ø±Ø¨Ø©
ÙĬØ· Ø§ÙĨ
ĠØ£Ø³ Ø±Ø©
ĠØ§ÙĦÙĥ Ø§Ùħ
ĠØ§ÙĦØ³ Ø±ÙĬØ¹
ĠØ¥ ØµÙĦØ§ØŃ
ĠØª ÙĦÙģØ²ÙĬÙĪÙĨ
Øµ ØŃØ§Ø¨
ĠÙĥÙ ħØ§ÙĦ
ÙĨØª ÙĩØ§
ÙĦÙĬ ÙĦØ©
ĠØ§ÙĦÙģØ± ÙĨÙĥ
ĠÙĥ Ø±ÙĬ
ĠÙĪ Ø®ØµÙĪØµ
ĠØ§ÙĦØ£ ÙĪØ¶Ø§Ø¹
ĠØ§ÙĦØ± Ø¨Ø¹
ĠØ¬ Ø±ÙĬÙħØ©
Ù ħÙĥÙĨ
ĠØªØ¤ Ø¯ÙĬ
ĠÙĩ ÙĪØ§ØªÙģ
ĠÙĦÙĦØª Ø³Ø¬ÙĬÙĦ
ĠØ®Ø§Ø±Ø¬ ÙĬØ©
ĠØ§ÙĦØ£Ø¯ Ø§Ø¡
ĠØ§ÙĨ ÙĨØ§
ħ ÙģÙĬØ¯
Ø¯ ÙĪØ²
Ù ħÙģÙĬØ¯
ĠØ¨ÙĪ Ø´
ĠØ§ÙĦÙĩ Ø¬Ø±Ø©
ĠA l
ĠÙĥÙĨ Ø¯Ø§
ĠØ§ÙĦÙħÙĤ Ø§ÙĦ
ĠØ§ÙĦÙģ Ø±Ø¯
Ø¬ Ø§Ø±Ø©
Ġ ÙħÙĦØ§ØŃ
Ġ ÙħÙģÙĬØ¯
ÙĬØ²Ù ħ
ĠØ£ Ø¨Ø±
ĠØ§ÙĦØ´ Ø±ÙĪØ·
ĠØ§ÙĦØ£ ÙĦÙħØ§ÙĨÙĬ
ĠÙħÙģ Ø§Ø¬
ĠØ§ÙĦÙĪ ÙĥØ§ÙĦØ©
ĠÙĦØª Ø·ÙĪÙĬØ±
ĠØªØ¬ Ø¹ÙĦ
ĠÙĨØ³ Ø®
Ġ ÙħÙĪÙĦ
ĠØ§ÙĦØ± Ø§ØŃÙĦ
Ø¦ ÙĨØ§Ùģ
ĠØ§ÙĦØ¬ Ø±ÙĬÙħØ©
ĠÙĪØ¬ ÙħÙĬØ¹
ĠØ§ÙĦØ£Ø³ Ø§Ø³
ĠØ¯ÙĪØ± Ø§
ħ Ø¦Ø§Øª
ĠØªØ¨ Ø§Ø¯ÙĦ
ĠØ° ÙĥØ±Ùī
ĠÙĨØ¬ ÙĪÙħ
ĠØŃÙ ĦÙĪ
ĠØ£ ÙĤØ±
ĠØ£ÙħÙĨ ÙĬØ©
Ø§Ø¨Ù ĬÙĬÙĨ
ĠÙħØµ Ø±ÙĬ
ĠØ§ÙĦÙģ Ø¶Ø§Ø¡
ĠØ£ ÙħÙĦ
Ø§Ø¯ ÙĩØ§
ĠØ³ ÙĩÙħ
ØªÙħØ¯ Ø©
Ù ħØ¦Ø§Øª
Ġ ÙħØ¦Ø§Øª
ĠØ¯ Ø³Øª
ĠØ§ÙĦØ£ Ø´ÙĬØ§Ø¡
ĠØ£ÙĪØ¨ Ø§ÙħØ§
ĠØªÙĩ Ø¯ÙĬØ¯
ĠØ§ÙĦØ·Ø¨ÙĬØ¹ Ø©
ĠØ§ÙĦÙħÙĨ Ø§Ø²ÙĦ
ĠØ§ÙĦØ¯ ÙħØ¹ÙĬØ©
ĠÙĬØ¹ ÙĦÙĨ
ĠÙĥØªØ§Ø¨ Ùĩ
ĠØ§ÙĦØ´ ÙĥÙĦ
¹ Ø§Ø¨
ĠÙħØ± Ùĥ
ĠØ§ÙĦØ³ÙĪØ±ÙĬ ÙĬÙĨ
Ø§ÙĨ Ø§Ø©
ĠØ³ ØªÙĬ
ÙĨÙĬØ§ ÙĩÙĪ
ĠØ¬ ÙħÙĬÙĦØ©
ĠØ§ÙĦØ¬ Ø¯Ø¯
ĠØ¨Ø§ÙĦÙħ ØŃ
ĠØªØµ Ø¨ØŃ
ĠØ§ÙĦÙħÙĨØ§Ùģ Ø³Ø©
Ġ k
ĠØ§ÙĦØ¥ ÙĬÙħØ§ÙĨ
ĠØ§ÙĦÙĥ ØªØ±
ĠØ§ÙĦØ³ÙĬØ§ ÙĤ
ĠØ®Ø· ÙĪØ·
ĠØ§ÙĦØ§Ø¹ ÙħØ§ÙĦ
ĠØ§ÙĦØ¥Ø±ÙĩØ§Ø¨ ÙĬØ©
ĠÙħØª Ùĥ
ĠÙħØ¯ÙĬØ± ÙĬØ©
ĠÙĩ Ø§Ø±
ĠÙħÙĨ Ù
ĠÙĪØ§ÙĦÙħ Ùĩ
ĠØ§ÙĦÙĥ ÙĦÙħØ©
ĠØ§Ø· ÙģØ§ÙĦ
ĠØ® Ø±ÙĪØ¬
ĠÙĪØ£ Ø¯
ĠØ¥ÙĨ Ø³
ĠØ§ÙĦØ´ Ø¯ÙĬØ¯
ĠØ§ÙĦÙħØŃØª ÙĦØ©
ec h
Ø§ÙĦÙ ĬÙĨ
ĠØ§ÙĦÙħØ¨ Ø§Ø¯Ø±Ø©
Ø¤ Ø§Ø¯
ĠØ§ÙĦØ¬ ÙĩØ©
ĠÙĪ Ø§Ø±Øª
ĠØ£Ø® Ø¨Ø±
ĠØ§ÙĦØµ ÙĨØ¯ÙĪÙĤ
ĠÙĪØ´ Ø¯Ø¯
Ø³ ÙĦØ§Ùħ
ĠÙĦÙħ Ø±
ÙĪÙĬØª Ø±Ø²
Ø¹ Ø§ÙĨ
ĠØ§ÙĦØ´ Ø£ÙĨ
6 0
Ø§ÙĨÙ ĬØª
ĠØ§ÙĦÙħÙĥ Ø±ÙħØ©
ĠÙĪØ§ÙĦØ§Ø¬ ØªÙħØ§Ø¹ÙĬØ©
Ùĥ ÙĪØ±
ĠØ§ÙĦØ£Ø³ Ø§Ø³ÙĬ
Ø³Ø§Øª ÙĬÙĨ
ĠØ§ÙĦØ³ÙĬ Ø³ÙĬ
ĠØ´ ÙħØ³
ØªÙĬ Ø´
Ø§Ø¨ Ø±Ø§Øª
ĠÙĦÙħ ÙĪÙĤØ¹
ĠØ¨Øª Øµ
ĠÙħØµ ÙĨØ¹
ĠÙĨÙĤ ÙĪÙħ
Ø§Ø¹ ÙĬØ¯
ÙĦØ¹ Øª
ĠØ§ÙĦÙħØ· Ø¨Ø®
ĠÙħØ³Øª ÙĤÙĦØ©
ĠØ§ÙĦØ± Ùĥ
ĠÙĤ ÙĬØ¯
ĠØ¢ ÙĬØ©
ĠÙĪÙĨ Ø´Ø±
ĠØ§ÙĦØ· Ø±Ùģ
ĠÙĨÙĤ Ø§Ø¨Ø©
ĠÙĦÙĨ ÙģØ³
ĠÙħØ³Øª ÙĤØ¨
ÙĥÙ ĬØª
ĠØ³ÙħÙĪ Ùĩ
ub ai
ĠÙĦÙĦØª ÙĨ
ĠØ¨Ù ħØ¨
ĠØ§ÙĦ ÙĦØ°
ĠÙĦÙĦØª Ø±
ĠØºØ§ÙĦØ¨ Ø§
Ø±ÙĪ Ø¨Ø§Øª
ĠÙĨÙĩ Ø§Ø¦ÙĬ
ĠÙħØ¨ Ø§Ø¯Ø±Ø©
ĠØº Ø°
ĠØ§ÙĦÙģ ÙĪØªÙĪØ´ÙĪØ¨
ĠØ§ÙĦØº Ø§Ùħ
ĠÙħÙĨÙ Ĭ
in e
ĠØ¨Ø§ÙĦØ¯ ÙħØ§Ùħ
ĠØ§ÙĦØ¨ Ø¯ÙĬÙĦ
ĠÙģ Ø±ÙĬ
ĠÙĤ Ø§Ø¯Ø©
Ø§Ø² ÙĬÙĦ
ĦÙĨ Ø¯Ø§
ĠØ¨Ø§Øª Ø¬Ø§Ùĩ
ĠØ§ÙĥØª Ø´Ø§Ùģ
ĠØ§ÙĦØµÙĨ Ø§Ø¹Ø©
ĠØ§ÙĦØ· ÙĬÙĪØ±
Ø§Ù ĬØ³
ĠØ§ÙĦØ¨Ø® Ø§Ø±ÙĬ
ĠØ® Ø§Ø¶
ĠØ³ Ø§ÙĩÙħ
ĠØ£Ùģ ÙĥØ§Ø±
ĠÙĪØ¯ Ø¹Ùħ
Ø§ÙĦ ÙĪ
ĠØ§ÙĦØ¥ ØŃ
ÙĤØ¯ Ø§Ùħ
ĠÙĦÙħØ¬ ÙĦØ³
ĠØ§ÙĦØ§ ÙĨØ³
ĠÙĪÙĤ ÙĪØ¹
ĠØ¢ Ø¯Ùħ
ĠØ§ÙĦÙħÙĤ Ø±
ĠØ¥ÙĨ Ø¬Ø§Ø²
Ø¨Øª Ø¯
Ġ5 9
ĠØ§ÙĦØ§Ø± Ø¶
ĠÙĪ ÙĪØ²
ÙģÙ ĬÙģØ©
Øª ÙģØ¹
ĠØ§ÙĦÙģÙĨØ§ÙĨ Ø©
Ø§ÙĬØª Ùĩ
ÙĬÙĥ Ø§
ĠÙĦÙħ Ø³Øª
ĠÙĨÙĬØ³ Ø§ÙĨ
ħ ÙĦØ§Ø¡
Ø³Ù ĬÙĥ
ĠØ· Ø§Ø¦Ø±Ø©
ĠÙĪÙĥ ÙħØ§
ĠØ§ÙĦØ¢ ÙĬØ©
ĠØ¨Ø· ÙĦØ¨
ĠÙĪ ÙĦØª
ĠØ§ÙĦØ¹ Ø«ÙĪØ±
ĠØªÙĦÙĤ Ùī
ĠØ§ÙĦÙħØ³ Ø§Ø¨ÙĤØ§Øª
ĠØ¬Ø± Ø§Ø¦Ùħ
ÙĬØ· Ø§ÙĦÙĬØ§
Ø§Ø¬ ÙĬØ©
Ø· ÙĪØ§ÙĨ
ĠØ§ÙĦØŃ Ø¶ÙĪØ±
ØŃÙ ĬÙĬÙĨ
ĠØ¨ ÙĪØ¬ÙĪØ¯
ĠØŃ ØªÙĬ
ĠÙĬØª Ø·ÙĦØ¨
ĠÙħÙħÙĬØ² Ø©
ĠÙĬÙĥ ØªØ¨
ĠØ§ÙĦÙħØª Ø·
ØªÙ ĬÙĤ
ĠØ§ÙĦØ¹ÙĨ Ø§ØµØ±
ÙĪÙĨ Ø§ÙĦØ¯
ĠØ§ÙĦÙģ Ø§Ø¦
ĠÙĥ ÙĪØ¨
ĠØ§ÙĦÙĤ ÙĬÙħ
or t
ĠÙħØ® Øª
ĠØ¶ Ø¹Ù
ÙĨÙĬ ÙĩØ§
ĠØ¯ÙĪØ± Ø§Øª
Ø§Ø° Ø¬
ĠØ§ÙĦØ¹ Ø´Ø±ÙĬÙĨ
ÙģØ¹ Ø§ÙĦ
ĠØ³ Ø¨Ø¹
ĠØ§ Ùĩ
ĠØ§ÙĦÙħÙĤ Ø§Ø¨ÙĦ
Ġ ÙĩÙħØ§
ÙĪØ§Ø± Ø¦
ĠØ· ÙĬØ¨Ø©
ĠÙĪØ± Ø³
ĠÙĪØ· ÙĨ
ĠØ¨ Ø²
ĠØ¨Ø£ Ø³ÙħØ§Ø¡
ĠØ³ Ø§Ø¨ÙĤØ©
Ø§ØªÙ ħ
ĠØ§ÙĦØ¬ ØºØ±
ĠØ§ÙĦØªÙĨÙģÙĬØ° ÙĬØ©
ĠØ§ÙĦÙģÙĪØ± ÙĥØ³
Ø§Ø §ÙĦØ
ĠÙħØŃØ¯ Ø¯Ø©
Ø´ ÙĩØ¯
ÙĬÙģ ÙĪÙĨ
ĠØ§ÙĦÙħÙ ħØ§Ø±Ø³Ø©
ĠØ§ÙĦØ§Ø± Ø¯ÙĨ
ĠØ§ÙĦØµØŃ Ø±Ø§Ø¡
ĠØ§ÙĦÙħØ® Ø¯Ø±Ø§Øª
ĠÙħØ¬ Ø§ÙĦØ³
ØµÙĬ ÙĦØ©
ÙĬØ± ÙĪØ³
8 0
ĠÙĨÙģ Ø°
ĠÙĬØ¹ Ø±Ø¶
ĠÙĪØ§ÙĦØ¥ ÙĨ
ĠØ§ÙĦÙģ ÙĪ
ĠÙħØŃ Ø§ÙĪÙĦØ§Øª
ĠØ¨ Ø§ÙĤ
ĠÙĦÙĦÙ ħÙ
ĠØªØµ Ø±Ùģ
ĠÙĨ Ø±ÙĬØ¯
ĠØª Ø¨ØŃØ«
ĠÙħØ± ØŃ
ĠØ¨ÙħÙĪ Ø¬Ø¨
Ø§Øº ÙĪ
ĠØ§ÙĦÙħÙĩ Ø¯ÙĬ
ĠØ§ÙĦÙħØ¨Ø§Ø± ÙĬØ§Øª
ĠØ§ÙĦ ÙĦØ¹Ø¨
ĠÙħØ§ÙĦÙĬ Ø²ÙĬØ§
ĠÙħÙĤ Ø¯ÙħØ©
ĠÙĬÙĪ ÙģØ±
Ø¨ Ø§Ø¹
ĠØŃØ¯Ø« ÙĨØ§
Ø§Ø²ÙĬ ÙĦÙĬ
ĠØ¬ Ø¨ÙĩØ©
ØºÙĬØ± Ø§Øª
ĠØ§ÙĨ Ø·ÙĦÙĤ
ĠÙĨØ¯ ÙĪØ©
Ø´ ÙĥÙĦ
Ø§Ø¦ ÙģØ©
ĠØ§ÙĦØ¨ Ø±ÙĪ
ĠØ± Ø§Ø¨Ø·
ĠÙħØª Ø®ØµØµ
ĠØ³Ø± Ø¹Ø©
ĠÙĪØ®ØµÙĪØµ Ø§
ÙĨØ§ Ùĥ
ÙħØ¹ Ø©
ĠØ§ÙĦØ§ÙħÙĬØ± ÙĥÙĬ
ĠØªÙĥ ÙĪÙĬÙĨ
ĠÙĩ Ø§Øª
ĠÙĪØ¨ Ùĩ
ĠÙĪØ¹ Ø¨Ø¯
ĠÙĦØ§Ø ®
Ġo per
ĠÙĬØ£ Ø®Ø°
ĠØ§ÙĦÙħØ± Ø¬
ÙĥØ± Ø±Ø©
ĠÙħØ± Ø¨Ø¹
ĠØ§ÙĦØªØ¯ Ø®ÙĦ
ĠØ§ÙĦØ´ Ø®ØµÙĬØ§Øª
Ġ `
ĠÙĤ ÙĪÙĬ
ĠØµØ¯ ÙĪØ±
Ø± Ø§Ø³Ø§Øª
ĠÙģ Ø¶ÙĦ
ĠØ§ÙĦÙħÙĨØ² ÙĦÙĬØ©
ĠØ§ÙĦØ¬ Ø¯
ĠØ¨Ø¨ Ø¹Ø¶
ĠÙĦÙĤ Ø¨
ĠØ§ÙĦØªØ´ ÙĥÙĬ
ĠØ§ÙĦØ´ ÙĩØ¯Ø§Ø¡
ĠÙħØ¨ ÙĨÙī
ĠÙĦØ¶ ÙħØ§ÙĨ
ÙħØ± Ø§Ø¶
Ø§ÙĪ Ø§Ø©
ĠØ§ÙĦØ« ÙĨØ§Ø¦ÙĬØ©
ĦÙĪØ¯ Ø±Ø§Øª
ĠØ§ÙĦØ¹ Ø§ÙĦÙĬØ©
ĠÙĪÙ ħØ·
ĠØ§Ø¨ Øª
ĠØº Ø¯
ĠØ¥Ø¯ Ø§Ø±ÙĬØ©
ĠØ¸ÙĩØ± Øª
ĠØ§ÙĦØªÙĤÙĦÙĬ Ø¯ÙĬØ©
Ø´ ÙĬØ§Øª
ĠÙĦÙĦØ£ ÙħÙħ
ĠØªØ´ ØŃÙĨ
Ø¯ÙĬ Ø³
ĠØ§ÙĦØªØµ ÙĪÙĬØª
ĠÙĥ Ø£ÙĨ
ÙħÙĨ Øª
ÙĪ Ø¸
ĠØ§ÙĦØ¹ÙĤ Ø§Ø±ÙĬØ©
Ĭ Ø§ØŃØ©
ĠØ¨ÙħØ« Ø§Ø¨Ø©
ĠÙħØ³ Ø¬Ø¯
ĠÙĪØ§ÙĦØ£ ÙĨ
ĠØ§ÙĦÙħØª ÙĪ
ĠØ§ÙĦÙħÙĨ Ø¸ÙħØ§Øª
Ø´ ÙĬÙĨ
ĠØ§ÙĦÙħÙħÙĬØ² Ø©
ĠØ§ÙĦÙħ ÙĦØ§Ø¨Ø³
ĠØ§ÙĦØ£ ÙĩØ¯Ø§Ùģ
ÙħÙĩ ÙĪØ±ÙĬ
ĠÙħØ± Ø§ØŃÙĦ
Ø§Ù ĬÙĩ
ĠØª ÙĨØ§
ĠØ§ÙĦØª Ø§Ø³Ø¹
ĠÙĪ Ø±ÙģØ¹
ĠØ§ÙĤØªØµ Ø§Ø¯ÙĬØ©
ĠØ§ÙĦØ§Ø³ ØªØ±Ø§ØªÙĬØ¬ÙĬØ©
ĠÙĪØ¨ ÙĦØº
ØºÙ ĬØ¨
ĠØ§ÙĦØµ Ø¯Ø±
ÙĪØ¶ ØŃØª
ĠÙĪÙ ħØ¨
ĠØ§ÙĦÙħØµ ÙĪØ±Ø©
Ø¨ ÙĪØ·
ĠÙħÙĪ Ø¬ÙĪØ¯Ø©
ĠØµ Ø¯ÙĬÙĤ
ĠÙģØ§Ø· ÙħØ©
ĠÙĤ Ø±ÙĬØ¨
ĠØ§ÙĦØ· Ø±ÙģÙĬÙĨ
ĠØ· Ù
Ùĩ Ø§Ø¨ÙĬ
Ø· Ø¨ÙĬÙĤ
ĠØ§ÙĦØ§ ÙĪØ±
ĠÙĬØªØ¹ Ø±Ø¶
ĠÙĬØ´ ÙĩØ¯
ØªÙ ħØ§
ĠØ§ÙĦÙħÙĬ ÙĦØ§Ø¯
ØŃ Ø§Ùħ
ĠØ§ÙĦÙĦÙĬ Ø¨ÙĬ
ĠØ§ÙĦØ¹ ÙĦØ§ÙħØ©
ÙĪÙģ ÙĬØ©
ĠØ¬Ø¯ ÙĪÙĦ
ĠØ§ÙĦØªÙĨ Ø¸ÙĬÙģ
ĠR e
ĠØ§ØŃ ØªØ±Ø§Ùħ
ÙĤ ÙĪØ¯
ĠØ§ÙĦØªØ± ÙĥÙĬØ²
ĠØ§ÙĦÙħØŃØ§ÙģØ¸ Ø§Øª
ĠØµ Ø¹ÙĬØ¯
ĠØ³Ù ħÙĬØ±
ĠØª Ø¶Ø¹
ĠØªÙĪ Ø§ÙģÙĤ
ĠÙĨÙħÙĪ Ø°Ø¬
ĠÙĬÙ ħØ±
ĠØ§ÙĦØµ Ø§Ø¯Ø±
ÙĪØ¶ Ø©
ĠØ§ÙĦÙħØª Ø®ØµØµØ©
ĠØ§ÙĦØ® Øµ
ĠÙĪØ§ÙĦØ¨Ø± Ø§ÙħØ¬
ar e
ĠØŃÙĬÙĨ ÙħØ§
ØªØ± Ø§ØŃØ§Øª
ĠØ§ÙĦØ§Ø³Øª Ø§Ø°
ĠØ§ÙĦØ¥Ø¯ Ø§Ø±ÙĬ
ĠØ§ÙĦØ§Ù ħ
ĠØ£ÙĨ Ø¸ÙħØ©
ĠØªÙħÙĪ Ø²
ĠØ§ÙĦÙħ Ø±ÙĬ
Ø¶ Ø§ÙĬØ§
ĠØª ÙĥØ±
Ø· ÙĪÙħ
Ġoper ation
ĠØ§ÙĦØªÙĨ Ø³ÙĬÙĤ
Ĭ ÙĤÙĦ
Ø§Øº Ù
Ġ200 3
ØªÙĥ Ø§Ø±
ĠØ¨Ù ħØ®
ÙĦÙĬ Øª
ĠÙĨ Ø±
ĠØ¬ Ø§Ø¨Ø±
ĠØ§ÙĦÙĨ Ø¬Ùħ
ÙĪØ¶ Ùī
ĠØ¹ ÙĪÙĨ
Ø¬ÙħØ§Øª ÙĬØ²Ùħ
ĠØ§ÙĦØ³ ÙĦÙħ
ĠÙĬØ¬ ÙħØ¹
ÙĪÙĦÙĩ Ù
Ø³ÙĬ Ø·Ø±
Ø± ÙĤÙħ
Ø·Ù ħ
ÙĪÙĦÙĩÙ ħ
ĠØ¨ Ø§ØŃ
ĠØ§ÙĦØ§Ø³Øª Ø¬ÙħØ§ØªÙĬØ²Ùħ
ĠÙĪ Ø¸ÙĬÙģØ©
ĠØµØŃ ÙĬØ©
ĠØ§ÙĦÙħÙĨ Øµ
ÙĪØ¬ Ø¯
ĠÙĪÙĤ Ø¨ÙĦ
ĠÙĬØ· Ø§ÙĦØ¨
ĠØªØ¹ Ø¨ÙĬØ±
ĠØ§ÙĦØ´Ù ĬØ¡
ĠØ§ÙĦØ¶ ÙģØ©
ĠØ´ ÙĥØ±Ø§
ĠÙĪÙ ĬÙĥÙĪÙĨ
ĠÙħÙĪÙĤØ¹ ÙĨØ§
Ø¹Ù ħØ¯
Ø¸Ù Ĭ
ĠÙĥ Ø¨
ĠØ§ÙĦØ§Ø±Ø¨Ø¹ Ø§Ø¡
ĠØ± Ø§ØŃ
Ø±ÙĪ Ø±ÙĬ
ĠØ¨Ø§ÙĦØ¶ ØºØ·
ĠÙĨØª ÙĨÙĬØ§ÙĩÙĪ
ĠØº Ø¶
ĠØ§ÙĨ Ùĥ
A T
ĠØ¨ÙĤ Ø¯Ø±
ĠØ¹ Ø±Ø¨Ø©
ĠØªØ³ ÙĦÙĬÙħ
ĠÙĪØ§ÙĦØ£ Ø®
Ø§ÙĦØ ®
ĠØ§ÙĦØŃ ÙģÙĦ
ĠØ§ ÙĥØ¯
ĠÙģ ÙĨÙĬØ©
ĠÙĪØ¹ ÙĦÙħ
ĠÙĪØ¨ ÙĨØ§Ø¡
ĠØ· ÙĪ
Ø£ ÙħÙĦ
ĠÙģØ±ÙĬÙĤ Ùĩ
ĠÙħÙĨ ÙĩÙħØ§
ĠØ§ÙĦØ®Ø· ÙĪØ©
ĠÙĪÙĤ Ø§Ùħ
ħØ§Ø± Ø³Ø§Øª
Øª Ø®Ø¨
ÙĪÙħ ÙĬÙĨ
ĠØ§ÙĦØªØ³ ÙĪÙĬÙĤ
ĠØŃÙ ĬÙĪ
ĠÙħØª ØŃ
b ox
ĠØ§ÙĦØ´ ÙħØ§ÙĦÙĬ
Ø´ Øª
Øº Ø§Ùģ
ĠØ§ÙĦÙĤØ¶ Ø§Ø¦ÙĬØ©
ĠÙĥ Ø§Ø¨
ĠØ§ÙĦØ§Ø¨ØªØ¯ Ø§Ø¦ÙĬØ©
ĠØ¨Ùĥ Ø«ÙĬØ±
ĠØ¨Ø§ÙĦØ± ØºÙħ
ĠØ¨Øª Ø³Ø¬ÙĬÙĦ
ħ Ø±ÙĬÙħ
ĠÙĤØµ ÙĬØ±Ø©
ĠØ®Ø· Ø·
ĠØ¨Ø· Ù
ØªÙ ħÙĬ
ØªÙħ Ø§Ùħ
ĠÙĪØ¢ ÙĦÙĩ
ĠØ³ ÙĦØ¨
Ø±ÙĬØ± Ø©
ĠØ¬ÙĪ Ø¬ÙĦ
Ø¨ÙĬ Ø§ÙĨ
Ù ħØ±ÙĬÙħ
ĠØ§ÙĦØµ Ø¹ÙĬØ¯
ĠØ¨Ø§ÙĦØ¶ Ø±ÙĪØ±Ø©
ĠÙģÙĪ Ø§Ø¦Ø¯
ĠÙĦÙĦØ¯ ÙĪÙĦØ©
ĠØ£ØµØŃØ§Ø¨ ÙĩØ§
ĠØ¹ Ø¸
ĠØ§ÙĦØ£ÙĤ ØµÙī
ĠØ§ÙĦÙģÙĥØ± ÙĬØ©
ĠØ³ ÙĥØ±
ĠØ¬ ÙĦØ¯
ĠØ§ÙĦÙĤ Ø§Ø¦Ø¯
ĠØ³ ÙĬØ³
ĠÙĦÙĬ Øª
Ĭ Ø¯ÙĦ
Ø§Ø¯Ù ĬÙĤ
ĠÙĦÙĦØ§Ø ·
ĠØ¯ÙĬÙĥ ÙĪØ±Ø§Øª
ĠØ§ÙĦØ£Ø² ÙĩØ±
ĠØ£ÙĪ ÙĦØ§Ø¯
ĠØ§ÙĦØ¨ ÙĪØ±
ĠÙĪÙĦÙĩ Ø°Ø§
ĠÙĤÙĬÙħØª ÙĩØ§
ĠØ§ÙĦØµ Ø±Ùģ
ĠÙĨ Ø§Ø¬
ÙĥØª ÙĪØ±Ø©
ĠØŃØ² ÙĬØ±Ø§ÙĨ
Ø¦ ÙĬÙĦ
ĠØ§ÙĦÙħ ÙĥÙĪÙĨ
ÙĩØ§Ùħ Ø§Øª
ĠØ§ÙĦØ³ Ø§Ø¨Ø¹Ø©
ĠÙ¢ Ùł
ĠØ§Ù ī
ĠØ§Ø³ØªØ®Ø¯Ø§Ùħ ÙĩØ§
ĠØ¨ÙĪØ³Ø¹ Ùĥ
ĠØ§ÙĦÙģÙĨ Ø§Ø¯ÙĤ
ĠÙĪØ± Ø´Ø©
ĠØ¯ ÙģØ§Ø¹
ĠÙĪØ¹ ÙĦÙĬ
ĠØ® Ø±
ĠØŃÙĤ Ø§
ĠØ¹ Ø§ØµÙħØ©
Ø¯ Ø³
ĠÙĩØ´ Ø§Ùħ
Ù ĬØ¯ÙĦ
ĠØ§ÙĨØªÙĩ Øª
ĠÙĨØ³ Ø§Ø¡
ØµÙ ĬØŃ
ĠØ§ÙĦØ§Ø ¦
ÙĨØ³ Ø§Ø¡
ÙĪ ØºØ§ÙĨ
ĠØŃ Ø¨ÙĬØ¨
ĠØ§ÙĦØªØ¹ ÙĦÙĬÙĤ
ĠØ³Ø¨ Ø¹Ø©
ĠØ§ÙĦØ° ÙĥØ±Ùī
Ø§Ø¬ Ø§
ĠØŃ Ø¬
ĠØ¨Øª Ø´
ĠØ§ÙĨ ÙĩÙħ
ĠØ« ÙĤØ©
ĠØ§ÙĦØ®ÙĬØ± ÙĬØ©
Ĭ ÙĪÙĦ
Ġ ÙĬØ¯ÙĦ
ĠØ§ÙĦÙĨ Ø§Ø¬
ĠÙĤØ· Ø¹Ø©
ÙģØ§ ÙĩÙĬÙħ
ĠØ§ÙĦÙħØ³ ÙĦØ³ÙĦ
Ø¯Ø± Ø¬
ĠØ£Ø¯ ÙĪØ§Øª
ÙħÙĪ ÙĦØ©
ĠØ§ÙĦÙĨØ³ Ø®Ø©
ĠØ§ÙĦÙĤ ÙĪÙħÙĬØ©
ĠØ¨Ù ĬØ¶
Ø±ÙĬ Ø·Ø©
ĠØ§ÙĦØ¬ÙĨ ÙĪØ¨ÙĬ
ĠÙĦÙħØ¹ Ø±ÙģØ©
ÙĬØ± ÙĪÙĨ
ĠØ¨ ÙĦÙĬ
ĠØ£ÙĪØ± Ø§ÙĤ
Ùģ Ø±Ø©
ÙĬÙĦ ÙĪÙħ
ĠØ§Ø® ØªØ¨Ø§Ø±Ø§Øª
Ø²Ùħ Ø§Øª
ĠØ§ÙĦÙĨ Ø¯
ĠÙħÙĨ Ø§ÙĤØ´Ø©
ĠØ§ÙĦÙħØ¹ ÙĦÙħ
ĠØ³Ø¹ ÙĪØ¯ÙĬ
ĠÙħØ³Øª Ø´Ø§Ø±
ĠØ¯Ø± Ø§Ø³Ø§Øª
ĠØ§ÙĦÙĨÙĩ Ø¶Ø©
ĠØ¹ÙĨØ¯ Ùĩ
ÙĦÙĤ Ø§
ĠØ§ÙĦØ¹ Ø¸
ĠØ§ÙĦØµ ØºÙĬØ±
A M
Ø¨ Ø²
ĠØ£Ùħ ÙĪØ±
ĠØ§ÙĦÙĪ Ø¹ÙĬ
ĠØªÙħ Ø«
Ù £
ĠØ§ÙĦØ® Ø·Ø©
ĠØ§Ø« Ø±
Ø§Ø¬ Ø³ØªÙĬØ±
ĠØ´ Ø±ÙĪØŃØ§Øª
Ġ ÙħØ±ÙĬÙħ
ĠØ¨Ø´ Ø§Ø±
ĠØ¬ Ø§Ùĥ
ÙĨ Ø¨ÙĬØ©
ØªÙħ ÙĥÙĨ
ĠØ¨ÙħØ¹ ÙĨÙī
Ø§Ù ĬÙĥ
Ħ ÙĦØ§Ù
ĠØ§ÙĦØ¬ Ø¨ÙĩØ©
ĠØ§ÙĦØ¯Ø³Øª ÙĪØ±ÙĬØ©
ĠØ§ÙĦØ³ Ø§ØŃ
ĠÙħØŃ ÙĦÙĬØ©
ĠÙĪ Ø¸
ĠÙħØ´ Ø§Ø±Ùĥ
ĠØ± ØµØ¯
ĠÙĪØ¯ Ø¹Ø§
Ù ĬÙĤÙĦ
ĠØ§ÙĦØ£ØŃ ÙĪØ§ÙĦ
ĠØ§Ø« ÙĨÙĬÙĨ
ĠØ±ÙĬØ§Ø¶ Ø©
ĠØ¨Ø³ ÙĩÙĪÙĦØ©
ĠØ¨Ø§ÙĦÙħÙĨ Ø·ÙĤØ©
ĠØ§ÙĦØ¢ Ø±Ø§Ø¡
ĠÙģÙĬ ÙĩÙħ
ĠØ§ÙĦØ¹ÙĤ Ø§Ø±ÙĬ
ĠØ£Ùĥ Ø§Ø¯
ĠÙħØ³Ø¤ ÙĪÙĦÙĬ
ĠØ§ÙĦÙĩ Ø¯
ĠØ§ÙĦØ£Ø· Ø¨Ø§Ø¡
1 7
Ĭ ØªÙħØªØ¹
ĠØ¨ Ø¨Ø±
ĠØ§ÙĦØµ Ø±
Ġ Ù¡Ù
ĠØ³ÙĬØ§ ÙĤ
ĠØ³ ØªØ±
ĠÙĥ Ø¨Ø±Ùī
ĠØ§ÙĦØ· ÙĬØ¨
Ù ĬØªÙħØªØ¹
ĠØ± ØµÙĬØ¯
Ġ ÙĬØªÙħØªØ¹
ĠÙģ Ø¯
ĠØº ÙĪ
Ġ ÙħØ§ÙĦ
ĠØ§ÙĦØª ÙĪØ¬Ùĩ
ÙĤ ÙĬÙħ
ĠØ§ÙĦØª Ø®ØµØµ
ĠØ§ÙĦØ§Ø³Øª Ø®Ø¯Ø§Ùħ
ĠÙĪØ³ÙĬ ÙĦØ©
ĠØ¬Ø¹ ÙģØ±
ĠØ¨Ø¬ Ø§ÙĨØ¨
ĠØ§Ù ħÙĬØ±
ĠØªØ³ Ø¬ÙĦ
ÙĦÙĬÙ ħØ©
Ø¯ÙħÙĪ Ø§
Ġ ÙĬÙĤÙĦ
ĠØ§ÙĦØ®ÙĦÙĬØ¬ ÙĬØ©
ĠØ£ÙĤ ÙĪÙĦ
ĠØ§ÙĦÙħØ± Ø§ÙĥØ²
ĠØ§ÙĦØŃÙĥ ÙĪÙħÙĬ
d v
ĠØ§ÙĦØ³ ØŃØ±
Ø· ÙĪØ·
ÙĥÙ ĬÙĥ
ĠØ· ÙģÙĦ
ĠÙħØ± Ø§Ø¬Ø¹Ø©
ĠØ§ÙĦØ§Ø³ ÙĦØ§Ùħ
ĠØ§ÙĦÙĨÙĤ Ø§Ø´
ĠØ§ÙĦØ¢ Ø«Ø§Ø±
ĠØ§ÙĦÙħ Ø£
ĠØ§ÙĦÙħØ´ Ø§Ø±ÙĥØ§Øª
ĠØ§ÙĦÙĤØ·Ø§Ø¹ Ø§Øª
Ùĩ ÙĪØ©
ĠØ§ÙĦØ³ ÙĬØ±Ø©
ĠØ§ÙĦÙĨ Ø®
ĠÙģÙĨ ØŃÙĨ
ĠÙĨØ¹ Ø±Ùģ
ĠØ¥Ø° ÙĨ
ĠÙĨ Ø±Ùī
ĠÙĥ ÙĪÙĦ
ħ Ø¯ÙĬ
ĠØ§ÙĦØ§Ø³ Ø¨
ĠÙĦØŃ ÙħØ§ÙĬØ©
ĠØ² Ø§ÙĦØª
ĠØ£ÙĨ Ø¨Ø§Ø¡
ĠÙħØª ÙģØ±
ĠØ§ÙĦØ´ Ø®ØµÙĬ
ĠØ§ÙĦÙħ ØŃÙħ
ÙĦØ ´
ĠØ§ÙĦÙĬ ÙĩØ§
ĠÙĦØª ÙĥÙĪÙĨ
ĠØ£ÙĨ ÙĨÙĬ
ĠÙģ Ø¬Ø±
ÙĦØ§ ÙħÙī
ĠØ§ÙĦÙħØ´ ÙĩØ¯
ĠØ§ÙĦØ¬ ÙħÙĬÙĦØ©
ĠØ§ÙĦÙģ Ø¹ÙĦ
ĠÙħØ´ ØªØ±Ùĥ
ĠÙĪÙĬØ¹ ØªØ¨Ø±
Ø¨ÙĬØ¹ Ø©
Ø§Ø² ÙĬÙĨ
ĠØªØ¬ Ø±ÙĬ
ĠØ§ÙĦÙģ Ø¦Ø©
ĠØ² Ø§Ø¯
ĠØ§ÙĦØ£ ÙħØ§ÙĥÙĨ
g le
ĠØ§ÙĦØ®Ø· ÙĪØ·
Ĭ ÙĦØ¹Ø¨
ĠØªØ± Ø¬ÙħØ©
O P
ĠØ§ÙĦØ£Ùģ ÙĥØ§Ø±
ĠØ¹ ÙĪØ¯
Ù ĬÙĦØ¹Ø¨
Ø§Øµ Ø¨
ĠÙĦÙĦØ °
Ġ ÙĬÙĦØ¹Ø¨
ĠÙĪ Ø¬Ù
ĠÙħØ¯ ÙĪÙĨØ©
Ø¨Ø§Ø± ÙĬØ©
ĠÙħÙĪ Ø§ÙģÙĤØ©
ĠØ§ÙĦÙĥ ÙĨ
ĠØ§ÙĦÙĨØ¨ ÙĪÙĬØ©
ĠØ§ÙĦÙħØ¬ ÙħÙĪØ¹Ø§Øª
ĠØªØ¹ Ø§ÙĨÙĬ
Ø§Ø¯ ÙĨ
Ø§ÙĪ ÙĦØª
Ù ħØ¯ÙĬ
ĠØ§Ø³Øª ÙĤØ¨Ø§ÙĦ
ĠÙĪØ§ÙĦØ¯ Ùĩ
ĠÙħØ³ ÙĦØŃ
ĠÙĦØ± Ø¦ÙĬØ³
ĠØ£ÙĨ Ø´
ĠÙĪØ§ÙĦØµ ÙĬØ§ÙĨØ©
ĠÙħÙĨ Ø¯
ĠØµÙģ ØŃØ§Øª
Ġ ÙħÙĪØ±
ĠØ§ÙĦÙģ ÙĤØ±
ĠØ§Ø¶ ØºØ·
ĠÙĦÙĦØ³ Ù
ĠØº Ø²
ĠÙĪØ§ÙĦØ® Ø¯ÙħØ§Øª
ĠØªØ¬ Ø§Ø±ÙĬØ©
ĠØ§ÙĦØ¯ÙĬÙħÙĤØ±Ø§Ø· Ù
ĠØ§ÙĦØ¯ÙĬÙħÙĤØ±Ø§Ø·Ù Ĭ
ÙĪØ§Ø¬ Ø¯
ĠÙĪ ØŃÙĬØ¯
ĠFor um
ĠØ§ÙĦÙħØ± ØŃ
ĠØ·Ø¨ÙĬØ¹ ÙĬØ©
ĠØ§ÙĦØ® ÙĬØ§Ø±Ø§Øª
Ù ĦÙĦØ§Ù
ĠØ·Ø¨ Ø¹Ø§
ĠØ« ÙħÙĨ
ĠÙĨØ¹ ÙħÙĦ
Ø§ ÙĤÙħ
ÙĥØ§ ÙĪÙī
Ġd ubai
ĠÙĪØ¨Ø± Ø§ÙħØ¬
ĠØ§Ø± Ø¶
Ø¨Ø± Øª
ĠØ§ÙĦÙħØ³Øª Ø«ÙħØ±ÙĬÙĨ
ĠÙĬØ± ØºØ¨
Ġ ÙĦÙĦØ§Ù
ĠÙħØ¬ ÙħÙĪØ¹
ĠØ§ÙĦØ® Ø¨Ø±Ø©
ĠØªØ¹ ÙĨÙĬ
Ø³Ø¨ Ø§ÙĨÙĬØ§
ĠØ§ÙĦÙĪ Ø¬
ĠÙĦØ® Ø¯ÙħØ©
c t
ĠØ§ÙĨØª ÙĩÙī
ĠØ¨ÙĪ Ø¶Ø¹
ÙĤ Ø§Ø¯
ĠÙĪØ£Ø´Ø§Ø± Øª
Ġ4 00
ĠØ§ÙĦØ° ÙĩØ§Ø¨
ĠØ§ÙĦØ¬ ÙħØ§ÙĦ
ĠÙĥ Ø±Ùħ
Ø« ÙĦØ©
Ø¨Ø§Ø± Ùĥ
ĠØ¥ÙĬØ¬ Ø§Ø¯
ĠÙģ Ø¤Ø§Ø¯
ĠØ§ÙĦØ¶ Ø±Ø§Ø¦Ø¨
ĠØ§ÙĦÙħØ´ ÙĪØ±Ø©
ĠÙħØ± Ø§ÙĤØ¨Ø©
ĠÙĬØ´ ÙĬØ±
ĠÙħØ¹Ø¯ Ø§Øª
ĠØ³ ØŃØ¨
ĠÙĦÙĦÙ ħØµ
ĠÙĪØªØŃ ÙĤÙĬÙĤ
ĠØŃ Ø°Ùģ
ĠØ§ÙĦØ·Ø¨ ÙĤØ©
ĠÙĦØ§ØŃ ÙĤØ§
ĠØ± Ø§Ø¦Ø¹
ĠØ¬ ÙĩØ¯
Ġ on
ĠØ§ÙĦØª ÙĪØ§ÙĦÙĬ
ĠØ§ÙĦØµÙĩÙĬ ÙĪÙĨÙĬ
ĠØ§ÙĦÙĨÙĪ ÙĪÙĬØ©
ĠØ§ÙĦØªØ¬ ÙħÙĬÙĦ
ĠØ§Ø¹ ÙĦØ§ÙĨ
ĠÙĨÙĤ ÙĪÙĦ
Ø¹Ø§ ÙĦÙī
ĠØ£Ø¨ÙĪ Ø§Ø¨
ĠØªØ´ Ø§Ø±Ùĥ
ĠÙĦÙĦØ± Ø¦ÙĬØ³
ĠØ§ÙĦÙħØ¹ ÙĩØ¯
ĠØ± ÙĪÙĬØªØ±Ø²
ĠØ£ÙĤ Ø³Ø§Ùħ
Ø³ Ùĥ
Ø§Ù ĬØ¬
ĠØ§ÙĦØ¥Ø³ ÙĥÙĨØ¯Ø±ÙĬØ©
ĠØº Ø§ÙĬØ©
ÙĪÙĬ Ø¨
ĠØŃØ¯ÙĬØ« Ø©
ĠØª ÙħÙĬØ²
ĠÙĪÙĨ ØµÙģ
ÙĦØ ²Ù
ĠØ§ÙĦØŃÙ ħØ§Ùħ
ĠØ§ÙĦÙĤ Ø°
ĠØ§ÙĦÙħÙĨ Ø§Ø³Ø¨Ø§Øª
ĠØªØ® ØªÙĦÙģ
ĠØŃ Ø¯Ø¯
ĠÙĪØŃ Ø³Ø¨
ĠØ¨Ø¯ Ø¹Ùħ
ĠEn g
ĠØ¨ Ø¯ÙĬ
ĠÙģ ÙĨØ§ÙĨ
ĠØ§ÙĦÙħØ³Ø§Ø¹Ø¯ Ø§Øª
ĠÙĪØ£ Ù
ĠØ¹ ÙĥØ³
2 5
ĠØ§ÙĦØ´ ÙĬØ¹
ĠÙħÙĬØ¯ Ø§ÙĨ
ĠØ±Øº Ø¨Ø©
Ø± Ø§ÙĦ
ĠØ§ÙĦØªÙĪ ØµÙĦ
ĠÙħÙĦÙĬ Ø§Ø±Ø§Øª
ĠØ« ÙħØ©
ĠØ§ÙĦÙħ Ø§Ø¶Ùī
ÙĤÙĬ ÙĦØ©
ĠØŃ Ø°
ĠÙĨØ¬ ØŃ
ÙĦØ§ ÙĨÙĬ
ĠÙģ Ø±Ø¯
re am
ĠÙĪØ§ÙĦÙ ĦÙ
ic e
ØªÙĤ Ø§ÙĦ
Ø§Ø« Ù
ĠØ¨Ø§ÙĦØ§Ø ³
ØªØ± ÙģÙĬÙĨ
ØªÙĬ Ø§Ø·
Ø±ÙħÙ ĬÙĦ
ÙĨØ§ ÙĩØ§
ĠØ§ÙĦÙĤÙ ĬØ§Ø³
ĠØ§ÙĦÙĨ ØµÙģ
Ø³ÙĪ Ø§Ø±Ø§Øª
ÙĬÙĪ Ø§ÙĨ
ĠØª Ø¨Ø¯ÙĪ
ĠÙĦÙĬØ² Ø±
ĠØ§ÙĦØ· Ø§Ø¦Ø±Ø§Øª
ĠØ§ÙĦØªÙħ ÙĪÙĬÙĦ
ÙģØ± Ø§ØŃ
ĠÙĬÙĨ Ø¸Ø±
ĠØ§ÙĦÙĤ Ø§Ø±Ø¦
ĠÙĪØ§ÙĦÙħØ¤ Ø³Ø³Ø§Øª
ĠÙĨ Ø§Ø´
ĠØ§ÙĦØ¬Ø²Ø§Ø¦Ø± ÙĬØ©
ĠÙĬØµ Ø¯Ø±
ĠØ¨Ù ĬØ¦Ø©
ĠÙĪÙĦÙħ Ø§
ĠØ§ÙĦØªØ¯ Ø±ÙĬ
ĠØªØ§Ø±ÙĬØ® ÙĬØ©
ĠØ£Ø³ Ø³
Ø¹ ÙĪØ¯ÙĬØ©
ĠØªÙĨ Ø´
ĠÙĨ ÙĪÙħ
ĠØ¥ ÙĨÙĬ
ĠÙĪØ§Ø³ Ø¹
ĠØ§ÙĦØ® Ø§Ø±Ø¬ÙĬ
ĠÙĪÙ ĬØ·
ĠØªØŃ Ø§ÙĦÙģ
ĠÙĬØ¹ Ø¨Ø±
Ø®Ø¨Ø§Ø± Ø§Øª
ĠØ§ÙĦØ³ÙĪØ¯ Ø§ÙĨÙĬØ©
ĠØªÙĥÙĨ ÙĪÙĦÙĪØ¬ÙĬØ§
ĠØ§ÙĦØªØŃ ØªÙĬØ©
ĠØ§ÙĦÙģ ÙĨÙĪÙĨ
ĠâĢ Ķ
ĠÙĤØ¨ ÙĪÙĦ
ĠØ§ÙĦÙħØŃØª ÙĪÙī
ĠØ¥ ØºÙĦØ§ÙĤ
ĠØ´ ÙĤÙĬÙĤ
ĠØ§ÙĦØªØ± ØªÙĬØ¨
ĠØ§ÙĦØ§ÙĨØª ÙĩØ§Ø¡
ĠÙĦÙģØª Ø±Ø©
ĠØ§ÙĦØ´ ÙĪØ±Ùī
ĠØ§ÙĦØ°Ø§Øª ÙĬØ©
ĠÙħØ¹ Ø§ÙĦØ¬
ĠØª ÙĦØª
ĠØ¯ÙĪÙĨ Ø§ÙĦØ¯
Ø§Øª Ø°Ø©
ĠØ£ Ø³ØªØ§Ø°
ĠÙħØµ ÙĬØ±
Ø§Øº Ø©
Ġ al
Ø± ÙĤØ©
ĠØ¨Ø¹ ÙħÙĦ
ĠØ§Ù ħØ±ÙĬ
ĠØªØ± ÙĥÙĬ
ØªÙĬ Ø§Ø²Ø§Øª
ĠÙĪØ¨ØŃ Ø³Ø¨
ĠØ§ÙĦØ´ ÙĪØ§Ø±Ø¹
ÙĦØ§ÙĦØ §Øª
ĠØ± Ø§Ùģ
i es
ĠÙĪØ§ÙĦØ° ÙĬÙĨ
ĠØ§ÙĦØªØ±Ø¨ ÙĪÙĬØ©
ĠÙħØ¬ ÙħÙĪØ¹Ø§Øª
Ø§Ùģ Ùĩ
ĠØ°Ø§Øª ÙĩØ§
ĠÙħÙĩ Ø§Ø±Ø§Øª
ĠØ§ÙĦÙģ ÙĥØ±Ø©
ĠØ¹ ÙĪØ¶
ĠØ§ÙĦÙħ ÙĦØ§ØŃ
ĠØ£ÙĨ Ù
Ø§ÙĦÙ ħÙĨ
S T
ĠÙĦØŃÙ Ħ
ĠØ§Ø¹ Ø§Ø¯Ø©
ĠÙĬØ´Ø±Ùģ ÙĨØ§
ØŃÙ ĬØ§
ĠØ§ÙĦØ¹ Ø«Ùħ
ĠÙĦÙĦØª Øµ
ĠØ§ÙĦÙħØ¯ÙĨÙĬ ÙĬÙĨ
ĠØ§Ø¨ Ù
ĠØªØŃ ØµÙĦ
ĠÙħØŃØ¯ ÙĪØ¯Ø©
ĠØ¨Ø§ÙĦØª ÙĨ
ĠØ§ÙĦØ¯Ø± Ø§Ø³ÙĬØ©
ĠÙħØ´ Ø§ÙĩØ¯
ĠÙģ ØŃØµ
ĠØ§ÙĦØµ ÙĬØ§ÙĨØ©
it h
ĠØ§ÙĦÙħ Ø¹Ùħ
ĠØ§ÙĦØ®Ø¨Ø± Ø§Ø¡
ĠØª Ø§Ø¨Ø¹Ø©
ĠÙħÙĤ Øª
ĠØª Ø±Ø¨ÙĬØ©
Ø§Ø²Ù ħ
ĠØ§ÙĦØ£ ØŃÙĬØ§ÙĨ
ĠØ§ÙĦØ¨ ÙĤ
ĠØ§ÙĦÙģ ÙĬØ³
ĠØ²Ø± Ø¹
Ġ6 4
ĠØ§ÙĦØ£ÙĨ Ø´Ø·Ø©
Ġ6 7
ĠØ§Ø´ ÙĩØ±
ÙĬÙĨ Øº
ĠØ± Ø¨Ø¹
ĠØµ Ø¹Ø¨
Øµ ÙĦØª
ĠØ§ÙĦØ®ØµÙĪØµ ÙĬØ©
ĠÙħØ´ ØªØ±ÙĥØ©
ĠØ§ÙĦØ±ÙĤ Ø§Ø¨Ø©
Ĭ ÙĦØ©
ĠØ¨ÙĨ Ø¸Ø§Ùħ
ĠØªØµ ÙĨÙĬÙģ
ĠØ§ÙĦØªØ· ÙĪÙĬØ±
ĠØ§ÙĦØ´ Ø±ÙĪØŃØ§Øª
Ùģ Ùĩ
ĠØ¨ Ø§Ø±Ùĥ
ĠØ¯Ø® ÙĦØª
ĠÙĦÙĦØ´ Ø¹Ø¨
ĠÙħÙ ħØ«ÙĦ
ĠÙĤ Ø§Ø¯Ø±Ø©
ĠØ³ÙĬ ØªÙĬ
ĠÙĦØ¹ ÙĦØ§Ø¬
Øµ ÙĬØ©
ØªØ§Ø¨ Ø¹Ø©
ĠØ§ÙĦÙħ Ø¯Ùī
ÙĨ Ø¬Ø±
ĠØ¬Ùħ ÙĦØ©
ĠØ´ ÙĤØ©
ÙĬØ± ÙĪ
ħ Ø§Ø¯
ĠØ§ÙĦØ¯ Ø§Ø¦Ø±Ø©
ÙĦØ§ ÙĨÙĬØ©
ÙĦØ§ØŃØ¸ Ø§Øª
Ø§Ùĩ Ø©
ĠÙĪØ§ÙĦÙħ Ø¯
ĠØ§ÙĦØ³ÙĦØ· Ø§ÙĨ
ĠÙĦÙĦØ´ Ø¨Ø§Ø¨
ĠØ§Ø³Øª Ø«ÙħØ§Ø±
ĠØ§ÙĦØ´ ÙĬØ·Ø§ÙĨ
ĠØ¥ ÙĨØª
ĠØŃ Ø±Ø©
ĠÙĥ Ø§Ø³
Ø§Ø¬ Ø±ÙĬÙĨ
ĠØ§ÙĦÙĨØ¨ ÙĪÙĬ
ĠØµÙģ ÙĤØ©
ĠØ§ÙĦÙħØ³ Ø§Ø¨ÙĤØ©
ĠØªØµ Ø§ÙħÙĬÙħ
ĠÙĪØ§ÙĦØ¹ Ø´Ø±ÙĬÙĨ
ĠØ§ÙĦØªØŃÙĤÙĬÙĤ Ø§Øª
ĠÙĬÙģ Ø¹ÙĦ
ĠÙĦÙĦØ§Øª ØŃØ§Ø¯
Ø¹ ÙĪØ¨Ø§Øª
Ùī Ø¡
ĠØ±ØŃ ÙĦØ§Øª
ĠØ§ÙĦØ§ÙĨÙĤ ÙĦØ§Ø¨
ĠØ¹Ù ĬØ§Ø¯Ø©
Ù ĦÙĨØª
ĠØŃØ¯ÙĬØ« Ùĩ
ĠØ§ÙĦÙħØ¬ØªÙħØ¹ Ø§Øª
Ø³ Ø³Øª
ĠØ§Ø® ØªÙĦØ§Ùģ
ĠØ§Ø³Øª Ø®
ĠÙĤ Ø¶Ø§Ø¡
ĠØ¹ÙħØ± Ùĩ
ĠØ´ Ø§ÙħÙĦØ©
t h
Ø§ ÙĪÙģ
ĠÙĪØ¹ Ø±Ø¶
ĠS T
ĠØ§ÙĦÙħØ³ØªØ®Ø¯Ùħ ÙĬÙĨ
ĠÙĪÙĦÙĤ Ø¯
ĠÙĦÙħÙĨ Ø¹
ĠØ¨Ø§ÙĦØ¹ ÙħÙĦ
ĠÙĦØª Ø£
ØªÙĬ Ø§Ø²
ĠÙĪØ§Ø³ ØªÙĤ
ĠÙĦÙĦØ£ Ø·ÙģØ§ÙĦ
ĠØ´Ø¹Ø¨ ÙĬØ©
ĠØ¨Ø§ÙĦÙĤ Ø§ÙĩØ±Ø©
ĠØ± Ø³Ùħ
ĠØ²Ø§Ø¦Ø± ÙĨØ§
ĠØ¨ Ø¶Ø±ÙĪØ±Ø©
Ø¹Ø¯ Ø¯
ĠÙħØ¹ Ø±ÙĪÙģ
ĠØ§ÙĦÙħØ¹ ÙĦÙħÙĬÙĨ
ĠØ§ÙĦÙħØ³Øª ÙĩÙĦÙĥ
Ø· ÙĪÙĦØ©
ĠØ§ÙĦØŃÙĦ ÙĪÙĦ
Ø´ Ø®Ø§Øµ
ĠØ³Ù ĬØ´
ĠØ§ÙĦÙĪØ³ Ø§Ø¦ÙĦ
ĠØ§ÙĦØªØ· ÙĪØ±
ĠØ§ÙĦØ¬ ÙħÙĬÙĦ
ĠØ§ÙĦÙħØµ Ø§ÙĦØŃ
ĠØ§ÙĦØ£Ø³ Ø¦ÙĦØ©
ĠØ£Ø¹ ÙĦÙħ
ĠØ£Ø³ ÙĪØ§ÙĤ
ĠØªØª Ø¨Ø¹
ĠØ¬ÙĨ Ø¨
ĠØªÙħØª ÙĦÙĥ
ĠØ§ÙĦØ³ ÙĬÙĨÙħ
ĠØ§ÙĦØ§ØŃ ØªÙĬØ§Ø¬Ø§Øª
ĠØ£ØŃ Ø³ÙĨ
ĠÙĬØ¤ Ø«Ø±
ĠÙĬØªÙħ ÙĥÙĨ
ĠØ§ÙĦØ¥ ÙĨØ³
Ø¹Ø¯ Ø§Ø¯Ø§Øª
ĠØ§ÙĦÙģØ± Øµ
ĠØ§ÙĦØ±Ø¬ Ø§Ø¡
ĠØ§ÙĦØ¯Ù ħØ§Ùħ
ĠØ§ÙĦÙħ ÙĦØ¹Ø¨
ĠØ§ÙĦØ±ØŃ ÙĬÙħ
ĠØ§ÙĦØªØ® ÙĦØµ
ĠØ¹ Ø§Ø¬
ĠØ§ÙĦÙĨÙģ Ø³ÙĬ
ħ Ø§Ø¦Ø©
ĠØ¨Ø³ÙĬ Ø·Ø©
ĠØ§ÙĦØ³ ÙĬÙĨÙħØ§
ĠØ£ ÙĬÙĦ
ĠØ¨Ù ĬÙĥ
ĠØ§ÙĦÙĦØ¬ Ø§ÙĨ
Ø¸ Ø§Øª
ĠØ§ÙĦÙħØ® Ø§Ø·Ø±
Ø¹ ÙĪÙĥ
Ø§Ø·Ù Ħ
ħ ÙĦØ§Ø¦
ĠØ¨Ø¯ ÙĪØ±
ĠÙĦØ§ ÙĨÙĩ
ĠØ§Ø« ÙĨØ§Ø¡
oo gle
ĠØ§ÙĦØ¬ Ø§Ùĩ
ĠÙĤ ÙĬÙĦ
ĠÙĦØ¹Ùħ ÙĦÙĬØ©
ĠØ§ÙĦØ¹Ø± Ø¨Ùī
ĠØ§ÙĦÙĨÙĤ Ø§Ø¨Ø©
2 4
ĠØ§ÙĦØ£Ø±Ø¯ ÙĨÙĬØ©
ĠØ§ÙĦØ¥ Ø´Ø§Ø±Ø©
ĠØ³ÙħØ¹ Øª
ĠÙĪ ØŃÙħ
ĠØ¢ ÙĦÙĬØ©
ĠØ§ÙĦÙĦÙĬ ÙĦØ©
ĠØª ÙĪÙĨ
ent er
ĠØ° Ø§
ÙĪÙĦÙĪ Ø¬ÙĬ
ÙħÙĪ Ø§
ĠØ¹Ø§ÙĦÙħ ÙĬØ§
ĠÙĦÙħ Ø²ÙĬØ¯
Ø¨ ÙĨ
ĠÙħÙĬ ÙĦØ§Ø¯
ĠØ¨ Ø¢
ĠÙĨ ÙĪÙĨ
ust om
ÙĦØ¬ Ø£
ĠØµ Ø¯ÙĬ
ĠØ¨Ø§ÙĦØ§Ø ³Øª
ĠØ§ÙĦÙģ Ø¬Ø±
ĠØ±ØŃÙ ħØ©
ÙģØ± Ø§Ø¬
ĠØ£Ø± Ø§Ø¶ÙĬ
ÙĦØªÙ Ĭ
ĠÙĪØ¶Ø¹ Øª
ĠØ± Ø¨Ø·
Ĭ ÙĩØ¯Ùģ
ĠØ§Ùģ Ø±ÙĬÙĤÙĬØ§
ĠØ£ ØµÙĬØ¨
ĠÙĪØ£ÙĥØ¯ Øª
Ù ĬÙĩØ¯Ùģ
ĠØ§ÙĦÙĪØ« Ø§Ø¦ÙĤ
Ġ ÙĬÙĩØ¯Ùģ
ĠÙħØŃØ§ÙģØ¸ Ø§Øª
ĠÙĦÙĦØ³ ÙĦØ¹
ĠØ¹ Ø·Ø±
ĠØ±Ø¤ Ø³Ø§Ø¡
ĠØ§ÙĦØªÙĤ Ø§Ø±ÙĬØ±
ĠØ¬ ÙĬØ¨
ĠØ§ÙĦØ¬Ø§Ùħ Ø¹ÙĬØ©
Ø§ ÙĪÙħ
ØºØ± Ø§Ø¶
ĠØ³ ÙĪÙĬØ³
ĠØ§ØŃ ØªÙĬØ§Ø¬Ø§Øª
ĠØ§ÙĦØ® ÙĦØ§ÙĬØ§
ĠØŃ Ø±Ùģ
ĠØ¯ Ø¨ÙĦÙĪÙħ
ĠÙĬÙĤ ÙĪØ¯
ĠØ§Ø³Øª Ø¹ÙħØ§ÙĦ
ĠÙĨ Ø¶
ĠØ§ÙĦØ±Ø¦ Ø§Ø³ÙĬØ©
Ø¸Ø§Ùĩ Ø±ÙĬÙĨ
ĠØ¬ ÙģØ¹Ø§Øª
ĠØ¥Ø¹ ÙĦØ§ÙħÙĬØ©
ĠØ¨ÙĬ Ø±ÙĬ
ĠØ£Ù ĦÙĪ
ĠØ³ Ø§Ø¦ÙĤ
ÙĦÙĪ Ø³
ĠØ§ÙĦØ± ÙĪÙħ
ĠØ¹ Ø²ÙĦ
ĠØ§ÙĦØ¨ Ø´Ø±Ø©
ĠØ¹ Ø³ÙĬØ±
Ø§Ø¦ Ø³
ĠÙĬØª Ø¬Ø§ÙĪØ²
ĠØ£ Ø¶Ø§Ùģ
ĠØ¨ØµÙģ Ø©
ĠÙĪØ² ÙĬØ±Ø©
ĠØ§ÙĦÙħØ· Ø§Ø±
ĠÙģ Ø§Ø±Ø³
ĠÙĪØ£ ÙĤ
ĠØ§ÙĦÙħØ¹ ÙĨÙī
ĠØ¨Ø§ÙĦÙħ ÙĪ
ĠÙĦÙħ Ùĥ
ĠØ¯Ø± Ø§Ø³
ĠØ§ÙĦÙħØ³ÙĬØŃ ÙĬØ©
i f
ĠØ¹Ùħ Ø§ÙĦ
Ø²Ù ĬÙĩ
ĠS h
Ø± Ø§Ø¨
re at
ĠØ§ÙĦÙħØ§ÙĦÙĥ Ù
ĠÙĪØ§ÙĦÙħØ± Ø¦ÙĬØ§Øª
ĠØ§ÙĦÙħØ§ÙĦÙĥÙ Ĭ
Ø´ Ø³ØªØ±
ĠØ§ÙĨØª Ø¸Ø§Ø±
Ġc ustom
ĠÙģØª Ø§Ø©
ĠÙħÙĨ Ùģ
ĠØ§ÙĦØ® ÙĬÙħØ©
ĠØµÙĨØ¹ Ø§Ø¡
ĠØ§ÙĦØ£ ÙĨØ¯ÙĬØ©
ĠØ§ÙĦØ§ ÙĥØª
ĠØ§ÙĦØ¬ ÙĪÙĬ
ĠØ§ÙĦÙħØ³ Ø£ÙĦØ©
ĠØ§ÙĦÙħÙĤØ¯ Ø³Ø©
ĠØ³Ùħ Ø§ØŃØ©
ĠÙħÙĨ Øµ
ĠÙĦÙĦØµ ØŃ
1 1
ĠØ£Ø¹ Ø·
ĠÙĪØ§ÙĨ Ø§
Ø±Ø¨ Ùĩ
ĠØ¹ ÙģØ´
ec t
ĠØ§ÙĦØªØŃ Ø¯ÙĬØ§Øª
s s
ĠØ§ÙĦØ´ Ùĥ
ĠØ§ÙĦÙĤ Ø±Ùī
ĠØ§Ø¨ ØªØ¯
Ø§Ø³ ÙĪØ¨
ĠÙħØ³ØªÙħØ± Ø©
ĠØ¥ÙĦÙĬ Ùĥ
ĠØ§ÙĦØ£ÙĨ Ø¨Ø§Ø¡
Ø¬ÙĬ Ø§ÙĦ
ĠØ§ÙĪ ÙĦÙī
ĠØ§ÙĦØ¹ ÙħÙĬØ¯
ĠØ§ÙĦØ¹Ùħ Ø§ÙĦØ©
ĠÙĤ Ø§Ø¯
ĠØ§ÙĦØŃ Ø§Ø³Ø¨
ĠØ£ Ø¨ÙĬØ¨
ĠØ§Øª ØµØ§ÙĦ
Ø·Ø¨ Ø§ÙĤ
ÙĪØ¬ Ø©
ĠØ§ÙĦØ±ÙħØ¶ Ø§ÙĨÙĬØ©
ĠÙĪØ§ÙĦØ° Ùī
ĠØ´ Ø§Ø±
a f
Øµ Ø§Ø¨Ø§Øª
ĠÙĪ ÙĥØª
ĠÙĪØ§ÙĦØ® Ø¨Ø±Ø©
ĠØ§ÙĦØ´ Ø§ÙħÙĦ
ĠØ· Ø¨ÙĬ
ĠØ§ÙĤØªØµ Ø§Ø¯
ĠÙĪØ§ÙĦØ¨ ØŃØ«
ĠØ³Ø§Ùħ Ø³ÙĪÙĨ
Ø± Ø·Ø©
ĠØ¬ Ø§Ø²
ĠÙĪØ§ÙĦØ£ ØŃ
ÙĪÙģ Øª
Ø§Ø¤ Ùĩ
ÙĦØ§ÙħÙĬ Ø°
ĠP h
ÙĤØªØµ Ø§Ø¯
ÙĨ Ø§Ùħ
ĠØ§ÙĦØ³Ø± Ø·Ø§ÙĨ
ĠÙĬÙĤ Ø¨ÙĦ
ĠÙĦØ «
ÙĪÙħÙ ī
ĠØ§ÙĦØªÙĪ Ø¸ÙĬÙģ
ar d
ĠÙĬÙĤ Øª
Ùģ ÙĪÙĨ
Øª Ø©
ĠØ¹Ù ĬØ´
ĠÙĦÙĦØ£ Ø³
ĠÙĪØª Ø¹Ø§ÙĦÙī
l ish
ĠØ¶ØŃ Ø§ÙĬØ§
Ġ y
ĠØ§ÙĦÙħÙģØª ÙĪØŃØ©
ĠØ§ÙĦØ³ Ø¹ÙĬØ¯
ÙĦÙĬ Øµ
ĠØŃ ÙħÙĬØ¯
ĠØ§ÙĦØ£ ÙģØ±Ø§Ø¯
ĠÙħÙĬØ² Ø§Øª
ĠØ§ÙĦØ¯ÙĬÙĥ ÙĪØ±
ĠØ± Ø¶
ĠØ§ÙĦÙħÙĩ ÙĨÙĬ
ĠØ®Ø· ÙĬØ±Ø©
ĠØ§ÙĦØ®Ø· Ø£
Ø§Ø¶ ØŃ
ĠÙĦØª Ø®
ĠÙĩ Ø§ÙĬ
ĠØ® Ø¨Ø±Ø©
ĠØ¨ÙĪ ÙĦÙĬ
ĠØ§ÙĦØµ ÙĪÙħ
ØªØ¨Ø§Ùĥ Ø§Øª
ĠÙģØ¥ÙĨ ÙĩØ§
ĠØ¬ Ø±Øª
ĠØ§ÙĦÙħ Ø·Ø±
ĠØ¥ÙĨ Ø³Ø§ÙĨ
ĠØ§ÙĦØ³ ÙĥÙĨÙĬØ©
ĠC h
ĠØ£ Ø¹Ø¯Ø§Ø¯
ĠØ§ÙĦÙĦØŃ Ø¸Ø©
ĠÙĪØ® ÙĦØ§ÙĦ
ĠÙħÙĨ Ø·
ØŃ ÙĬØ©
ĠÙĥ ÙĬÙĦÙĪÙħ
Ø§Ø¬Ùĩ Ø§Øª
ĠÙĨ ÙĬØ±
ĠØ§ÙĦØ¨ ÙĤØ§Ø¡
ĠØ§ÙĦØ§Ø³ØªÙĤ ÙĦØ§ÙĦ
ĠØªØ¹Ø±Ø¶ Øª
ĠÙħØ± Ø³Ùī
ĠÙħØŃ ÙģÙĪ
ħ ÙĦØ¹
ĠØ¯ Ø§Ø¦Ùħ
Øª ØŃØ§Ø¯
ĠØ¨ÙĪ ÙĥØ³
ĠØ§ÙĦÙĥÙ Ħ
ĠØ§ÙĦÙĪØŃÙĬØ¯ Ø©
Ùĥ ÙĦÙħ
ĠØ§ÙĦØªØ£ Ø«ÙĬØ±
Ġ8 5
ĠÙĬØ§Ø³ Ø±
ĠÙĪØ§Ø¨ ÙĨ
ĠÙĬÙħØª ÙĦÙĥ
ĠØ§ÙĦÙĤ Ø§Ø¯Ø±
ĠØ¨Ø¥ ÙĨ
ĠØ® ÙģØ¶
ĠØ§ÙĦÙħ Ø´Ø±
ħ Ø¨Ø¯Ø£
ĠØµ Ø¹ÙĪØ¨Ø©
ĠØ´ ÙĩÙĪØ±
Ø± ÙĪØ±ÙĬØ©
Ø±ÙĬ Ø§ÙĨ
Ù ħÙĦØ¹
ĠØ§ÙĨ ØªÙĩØ§
ĠØ¥ Ø´Ø§Ø±Ø©
Ø³ Ø§Ø·Ø©
ĠØ§ÙĦØ´Ø± ÙĤÙĬ
ĠØª ØªÙħÙĬØ²
ĠØ§ÙĦØ¬ÙħØ¹ ÙĬØ§Øª
ĠØ§ÙĦØª Ø§Ø³Ø¹Ø©
ĠÙĬØ® ØªÙĦÙģ
ĠØ® Ø³Ø§Ø¦Ø±
ÙĪÙĬ ÙĦØ§Øª
Ù ħØ§Ø¦Ø©
ĠØªØ£ Ø®Ø°
ĠØ§ÙĦÙħØ®Øª ØµØ©
ĠØ³Ùģ ÙĬØ±
ĠÙĪ ØŃÙ
ĠØªØ® ÙģÙĬØ¶
Ø¶ÙĬ ÙĦØ©
Ø° ÙĬØ±
ĠØ§ÙĦØ´ ÙĩÙĬØ±
ĠÙĬØ³ Ø¨Ø¨
Ġ ÙħÙĦØ¹
ĠØ§ÙĦØµ Ø§Ø¯Ø±Ø©
u d
ĠØ£Ø³ ÙĪØ§ÙĨ
Ø§Ø¦ Ùĥ
ØªØ± ØŃ
ĠÙĨÙĪØ¹ ÙĬØ©
ĠØ§Ø³Øª ÙĤØ±Ø§Ø±
ĠØ§ÙĦØ£Ùĩ ÙĦÙĬØ©
ĠS p
Ø¯ ÙĤØ§Ø¡
Ø±Ø¨ ÙĪÙĨ
ĠØ£ Ø±ÙĬØ¯
ĠØ§ÙĦØ§ÙħØ±ÙĬ ÙĥÙĬØ©
ĠØ£Ø¹ Ø±Ùģ
ĠÙģÙĬ Ø³Ø¨
Ø· ÙĬÙĦ
ĠØ¨ ÙĦØ§Øº
ĠØ§ÙĦÙħØ´Ø±ÙĪØ¹ Ø§Øª
ÙĬÙģ Ø§
ħØ³ Ùĥ
ĠØ§ ÙħÙĨ
Ġ6 3
ĠØ§ÙĦØ¹ ÙħÙĬÙĦ
ĠØ¹Ø§Ùħ Ø±
Ù ħØ¨Ø¯Ø£
ĠØ·Ø¨ÙĬØ¹ Ù
ĠØ·Ø¨ÙĬØ¹Ù Ĭ
ĠÙĬØ± Ø¯
Ġ ÙħØ¨Ø¯Ø£
ÙĤ ÙĬÙĨ
ĠØ§ÙĦÙħÙĤØ¯ Ø³
ĠÙĬØ± ÙģØ¶
ĠÙĦÙĦØ£ Ø³Ùģ
ĠØ® ÙĬØ§Ø±Ø§Øª
ĠØ« Ø§ÙĨÙĬØ§
ĠÙĪØ£ ÙĨØª
ĠÙĪÙĨ ÙĤÙĦ
Ø· ÙĪÙĨ
Ø±ÙĪ ØŃØ©
ĠØ§ÙĦØ¹ Ø°
ĠØªØ´ ÙĥÙĬ
ÙĪ Ø§Ø¦ÙĬØ©
ĠÙĪØ§ÙĦØ¥ Ø³
ØµØ¯ ÙĤØ§Ø¡
ĠØ§ÙĦØ¹ Ø·
Ù ĬØ¡
ĠÙģ ÙĦÙĬ
ĠØ§Ø® ØªØ§Ø±
ĠØ§ÙĦØ¨Ø± Ø§Ø²ÙĬÙĦ
ÙĪ Ø£
ĠC N
ÙĩØ± Ø§Øª
ĠÙħØŃ Ø·Ø§Øª
ĠÙĪØ§ÙĦØµ ØŃØ©
ĠØ§ÙĦØŃ ØµØ§Ø±
ĠØ§ÙĦØ§ÙĦØ ¹Ø§Ø¨
ÙĪ ÙĦÙĬØ§Øª
ĠØ³ Ø±ÙĬØ¹
ħ Ø§Ø°Ø¬
ĠØ¨Ø§ÙĦØ¯ Ø®ÙĪÙĦ
ĠØ§ÙĦØ¹ ÙĬØ´
ĠÙĦÙĦØª ÙĨÙħÙĬØ©
ĠØ¥Ø¹ ÙĦØ§Ùħ
ĠØ® Ø§Ø±
ĠØ¹Ø¶ ÙĪØ§
ĠÙĪØ²ÙĬ Ø§Ø¯Ø©
ÙĤ ÙĪÙĦØ©
ĠØ§ÙĦØ±ÙĬ Ø§ÙĦ
ĠÙĪØ£ Ø´
ÙĪØ§Øª Ø¨
ĠØ§ÙĦØ³ÙĪØ¯ Ø§Ø¡
Ø¬ÙĨ Ø¨
ĠÙģØŃ Ø³Ø¨
ĠØ§ÙĦØ§Ù ħØ§Ùħ
ĠØ§ÙĦØ¸ ÙĩØ±
ĠØ§ÙĦÙħÙĪ Ø§ÙĤÙģ
Ø§ÙĨÙ ĬÙĥ
ĠÙĦØª Ø¬
Ø§Ø² ÙĬØ©
ĠØ§ÙĦÙĨÙĤ Ø§Ø·
ĠØ± Ø§Ø³
ĠØªÙħ ÙĥÙĨØª
Ø¹ ÙĦÙĩØ§
ĠØ§ÙĦØ²ÙĪØ¬ ÙĬØ©
ĠØ§ÙĦØ¹ Ø§Ø¯ÙĬØ©
ĠÙģÙ ĦÙĪ
ĠØ§ÙĦØªÙĪÙĨ Ø³ÙĬØ©
ĠØ£Ø¬ ÙħÙĦ
ÙĤØ§ ÙĬØ©
Ø§ÙĦØ ²
ĠØ±Ø³ ÙħÙĬ
ĠØ³ Ø¨Øª
ĬØ¨ ÙĬØ©
Ø§Ø±Ù ĬÙģ
ĠØ¥ ÙĬØ·Ø§ÙĦÙĬØ§
ĠØ§ÙĦØ¯ Ø®ÙĦ
ĠÙĬØ¤ ÙħÙĨ
ĠØ¯ Ø¨
ĠØ§ÙĦÙĦØ¬ ÙĪØ¡
ĠÙħÙĪ Øª
Ø³ÙĬÙĪ ÙĬØ©
ĠÙĪÙĦÙĥ Ù
ĠÙĪ Ø§Ø«
ĠØ± Ø¶Ø§
ħ ÙģØ±
ÙĬÙĥ Ø³
ĠØ¶Ù ħ
Ø³ÙĬÙĤ ÙĬØ©
ĠØ§Ø³Øª Ø¯
ĠØ§ÙĦØ§ØŃ ØªÙģØ§ÙĦ
ĠØªØ¬ Ø¯ÙĬØ¯
ĠØ£Ø« Ø¨Øª
ĠØŃ Ø§ÙģØ¸
ĠØ¬ ÙĪÙĦØ©
ĠØ§ÙĦÙĨ Ø´
ĠØ¥Ø¬ ÙħØ§ÙĦÙĬ
ĠØ£ Ø¹Ø±Ø§Ø¶
Ø¸ ÙĨ
Ù ħÙģØ±
ĠØªÙĨ Ø¸Ùħ
Ġ ÙħÙģØ±
ĠÙĦÙĦØ ¢
Ø® ØµÙ
Ø§Ø´Ù ħ
Ø¯Ù ĬØª
ĠØŃÙģØ¸ Ùĩ
ĠÙĪÙĦÙĬ Ø³Øª
ĠØ¨Ø·Ù Ħ
Ø¹ Ø§Ùģ
ĠÙĦØªÙĨ ÙģÙĬØ°
ĠÙĪØ§ÙĦØ¹Ø§ÙĦÙħ ÙĬØ©
ĠØªØ±Ùĥ ÙĬØ©
ĠØ§ÙĦØµ Ø¹Ø¨
ĠØ§ÙĦÙħÙĪ Ø³ÙĬÙĤÙī
ĠØ§ÙĦØ¹ Ø§Ø´Ø±Ø©
ÙĪ ØªÙĬ
ĠØª ÙĪØ¨
ĠÙĪØŃØ¯ Ø§Øª
ĠØ§ÙĦÙħØ¬ Ø§ÙĦØ³
ĠØ´ Ø¯ÙĬØ¯Ø©
ĠØªÙĥ Ø´Ùģ
Ø§Ø¤ Ù
ĠØ¥Ø² Ø§ÙĦØ©
ĠØ£ÙĬÙĦ ÙĪÙĦ
ĠÙĦØ§ØŃ Ø¸
Ø¨ Ø§ÙĬÙĦ
ĠÙĬÙĥ Ø´Ùģ
ĠØ§ÙĦØ§Ø¹ ØªØ¨Ø§Ø±
ĠÙĬØ±ÙĬØ¯ ÙĪÙĨ
ĠØ´ Ø§Ùĩ
ĠØŃ Ø±ÙĬ
ĠÙĤ Ø§Ø³Ùħ
ÙĪØ¬ Ø¨
ĠÙģ ÙĪØ±Ø§
ĠØ§ÙĦØ§Ø³Ø±Ø§Ø¦ÙĬ ÙĦÙĬØ©
ĠØ§ÙĦØ§ØŃ ØªØ¬
ÙģÙ ĬØ²
ĠØªØ¤ Ø«Ø±
Ø§Ø±Ù ħ
ĠØ§ÙĦÙĪ ÙĦØ§Ø¯Ø©
ĠÙģÙĤØ¯ Ø§ÙĨ
ĠØ§ÙĦØŃ Ø¬Ø±
ĠØ§ÙĦÙģ Ø§Ø±
ĠØ£ÙĬ Ø¯ÙĬ
ĠØ§Ø· Ø§Ø±
ol og
ĠÙħØ® ÙĬÙħ
Ø±ÙĪ Ø§ØŃ
Ùĩ Ø§Ø¨ÙĬÙĬÙĨ
Ø·Ø¨ ÙĤ
ĠÙĪØµ ÙĪÙĦØ§
ħ Ø¨ÙĬØ¹Ø§Øª
Ø§Ùĥ Ø§
ÙħØª Ùĩ
ĠØ§ÙĦØ´ Ø§Ø±ÙĤØ©
ĠØ§ÙĦÙħØ¯Ø± Ø³ÙĬØ©
Ù ħØ¨ÙĬØ¹Ø§Øª
ÙĪÙģ Ùī
Ġ ÙħØ¨ÙĬØ¹Ø§Øª
ÙĨ ÙĪ
ĠØ¬Ùĩ ØªÙĩ
ĠÙĬØª ÙĪÙĤØ¹
ĠØ¨Ø§ÙĦØ ²
ĠØ§ÙĦÙħØªÙĤ Ø¯ÙħØ©
ĠØ§Ø³Øª ÙĤØ¨ÙĦ
ÙĦØ§Ø« Ø©
2 7
ĠÙĪ ÙĦØ¨
ĠØ§ÙĦØŃ ÙħØ±Ø§Ø¡
ĠØ£Ø¹ ØªÙĤØ¯
ĠØ§ÙĦÙĬØ§Ø¨ Ø§ÙĨÙĬØ©
ĠÙĪÙĥ Ø°Ø§
ĠÙĪØºÙĬØ± ÙĩÙħ
Ø¨ ÙĪÙĥ
ĠØŃ ÙĦÙģ
ĠØ¥ÙĦÙĬ ÙĩÙħ
ĠÙģÙĬ Øª
ĠØ§ÙĦÙħØªÙĨ ÙĪØ¹Ø©
ĠØªÙħ ÙĪÙĬÙĦ
ĠÙĩØ§Ùħ Ø´
ĠÙħÙĨ ØµØ©
ĠØ§ÙĦØ¹ÙĤ ÙĪØ¯
ĠØ§Ø· ÙĦØ§ÙĤ
ĠØµ Ø±Ø§Ø¹
ĠØª ÙħØ³
ĠØ¨ Ø§Ùħ
ĠØ§ÙĦÙħØ±Ø´ØŃ ÙĬÙĨ
ĠÙħØµØ± ÙĬØ©
ĠÙħÙĨØ§Ùģ Ø³Ø§Øª
ĠØ® Ø§Ø·
Ø§Ø £
ÙĤ Ø§Ø¨
ĠØ§ÙĦØ¥ÙĬØ· Ø§ÙĦÙĬØ©
ĠØ³Ø¨ Ø§ÙĤ
ĠØ· Ùĩ
Ø§ÙĩØ¯ ÙĬÙĨ
ĠØ³Ø¨ Ø£
ĠÙĨØ¸ ÙĬØ±Ùĩ
ĠØ³Ù ĬØ¬
Ø¹ ÙĦÙħ
ĠÙĬØ³Øª ØŃÙĤ
ĠÙħÙĪ Ø¶Ø¹
ĠØ§ÙĦØ³ÙĨ ÙĪÙĬ
ħ Ø§ÙĦØ§
ĠØ¹ÙĨ ØµØ±
ĠÙħÙĨ ÙĥÙħ
ĠÙģÙĬØ³Ø¨ ÙĪÙĥ
ĠØº Ø±ÙĬØ¨
ĠØ· ÙħÙĪ
Ø¹ Ø«
ĠÙĥØ§ØªØ¨ ÙĩØ§
ĠÙĪØ£ ÙĪØ¶ØŃØª
ĠØ¨Ø¹ Ø«
ĠÙģ ÙĥÙĬÙģ
ĠØ£ÙħÙĬØ± ÙĥØ§
ĠØ§ÙĦÙĪØ§ØŃ Ø¯Ø©
ĠØ§ÙĦØ® ÙĪÙģ
ĠØ¨Ø¯ ÙĪØ±Ùĩ
Øª Ø¹Ø§Ø¯
ĠØ£ÙĬ Ø§Ø±
Ø±Ù ħØ§
ĠØªØŃ ÙĦÙĬÙĦ
ĠØ§ÙĦÙĤÙĬ Ø§ÙħØ©
ĠØ³ÙĬ Ø·Ø±
ĠØ¥Ø¹ ÙĦØ§ÙĨØ§Øª
ĠÙĪØ§ÙĦØ£ ÙħÙĨ
ĠÙħØ® Ø§Ø·Ø±
ĠØªØŃ Ø±Ùĥ
Ø¨ Ø«
Ø¯Ø± Ø§ÙĨ
Ø® Ø¯ÙħØ©
ĠØªØµ Ùģ
ĠØ¨ ØŃÙĬ
ĠØ§ÙĦØ¹ Ø§Ø´Ø±
] [
Ø± Ø§Ø¬
ĠÙĬØª ÙĨ
ĠØ¹Ø¨Ø¯ Ø§ÙĦÙħ
Ø¬ ÙĦØª
ĠÙĤÙ Ħ
ĠÙĦÙħ Ø¤
ĠØ§Ø¬ Ø±Ø§Ø¡
ĠÙĪØ§ÙĦÙ ĦÙĪØ¯Ø±Ø§Øª
ÙĪÙĬ ÙĦØ©
ĠØ§ÙĦÙħØ¤ ÙĦÙģ
ĠØ· ÙĬÙĪØ±
ĠØ£Ø± Ø¬
ĠÙĦØ¥ Ø¹Ø§Ø¯Ø©
ĠØ§ÙĦÙħØ¹ Ø§ÙĦØ¬
ĠØ§ÙĦØ¥ÙĤ ÙĦÙĬÙħÙĬØ©
ĠØ§ÙĦØ²ÙĬØª ÙĪÙĨ
ĠØ§ÙĦØ² ÙĩØ±
ØºØ· Ù
ØºØ·Ù Ĭ
ĠÙĪØ± ÙĤØ©
ĠØ§ÙĦØ´ Ø±Ø§Ø¡
m a
1 9
ĠØ£ ÙħÙĪ
ĠØ§ÙĦÙħØµ ÙĨ
Ø¬ Ø§Ø¹
ul t
ĠÙħØ¹ Ø³ÙĥØ±
ĠØ´ Ø§Ø´Ø©
ĠØ£Ø³ Ø¦ÙĦØ©
ĠØº ÙĬÙĨÙĬØ§
ĠØ§ÙĦØ¶ ÙħØ§ÙĨ
ĠØ² Ø¹ÙĬÙħ
ĠÙĦÙĪØ² Ø§Ø±Ø©
ĠÙĬØ¹ Ø·ÙĬ
ÙĦØ§Ù ĬØª
ĠØªØª Ø¬Ø§ÙĪØ²
ĠØ§Øª ØµØ§ÙĦØ§Øª
ĠØµØ¯ ÙĤ
ĠÙĩÙĪ Ø§Ø©
A S
ĠØªØ³ ÙĦÙħ
ĠØ§ÙĦÙĤ ØªÙĦ
ĠØ£Ø³ Ø§Ø¨ÙĬØ¹
ĠØ¯Ø§ ÙĪØ¯
ĠÙĪÙ ħÙĩ
Ø§Ø¤ ÙĩØ§
ĠØ¹ ÙĦØ§ÙħØ§Øª
ĠÙħÙĥ Ø§ØªØ¨
Ġ19 3
ĠØ§ÙĦÙħ Ø®Ø±Ø¬
ĠÙĪØ¥ Ø¹Ø§Ø¯Ø©
Ù ĬØ§Ø¯Ø©
ĠÙħØ¹ ØªØ¨Ø±
ĠØ§Ø³Øª ÙĨ
ĠØ£Ø® ÙĬØ±Ø§
ĠØ£Ø¯ Øª
O S
ĠØ¬ÙħØ¹ Ø©
ĠÙĥ Ø§Øª
ĠØ¯ ÙĤÙĬÙĤ
ĠØ¹Ùħ ÙĪÙħØ§
ĠÙħÙĩÙĨØ¯ Ø³
ĠØ³ÙĬØ¯ Ø§Øª
i e
ĠØ±Ùħ Ø²
ĠØ£Ø±Ø¯ ÙĪØºØ§ÙĨ
ĠÙĬØª Ø£
ĠØ§ÙĦØ£Ø³ ÙĨØ§ÙĨ
ØŃ Ø·
ĠØ§ÙĦÙĪØ· ÙĨÙī
ĠØ§ÙĦØ®Ø± Ø·ÙĪÙħ
ĠØ§ÙĦØ¥Ø³Ø¨ Ø§ÙĨÙĬ
Ù ħØ§Ø±Ø§Øª
ĠØ³Ø¹ Ø§Ø¯Ø©
ĠÙĪØ§ÙĦØª Ùģ
ĠØŃ Ø¸Ø±
ĠÙħØ´ ÙĬØ±Ø©
ĠØ¬ ÙħØ§ÙĩÙĬØ±
Ø§ÙģÙ ĬÙĬÙĨ
ĠÙĦÙĦÙģ Ø±ÙĬÙĤ
ĠØ§Ø¹ ØªÙħØ¯
ħ Ø§Ø¹
ĠØ¹ Ø¬Ø²
ĠØ§ÙĦÙĪ Ø§Ø±Ø¯Ø©
ĠØ§ÙĦÙħØ¹ Ø±ÙĥØ©
ĠØ§ÙĦØ´ Ùģ
ĠØ§ÙĦÙĪ Ø§Ø¬
ĠØ§ØŃ Ø¯Ùī
ĠØ¨ Ø¯ÙĦ
ĠØ§ÙĦÙĪ Ø¸ÙĬÙģØ©
ĠØ§ÙĦØ£Ø¯ ÙĪÙĬØ©
ĠÙĬØª Ø±Ùĥ
ĠØ± Ø§Ø¦
ħ ØºØ±
ĠÙĪØŃ ÙĪÙĦ
ĠÙĨ ÙĤØ¯
ĠØ§ÙĦÙħØ± ØªØ¨Ø©
Ø¹ ÙĪØ§
ĠØ§ÙĦØ· ÙĬØ¨Ø©
ĠØ§ÙĦØµÙĪØª ÙĬØ©
ĠÙĤØ±Ø§Ø± Ø§
Ø§Ùģ Ø³
Ù ħØºØ±
ĠØŃÙĪ Ø§Ø¯Ø«
Ġ ÙħØºØ±
ĠØ§ÙĦÙĬ ÙĪØ±ÙĪ
ĠØ§ÙĦÙĪ ØŃØ¯Ø§Øª
Ø±ØŃ Ùī
ĠÙħØ§ ÙĥØ³
ĠØ§ÙĦØ¬Ø± Ø§Ø¦Ùħ
Ø¦ Ø°
ĠØ§ÙĦØ£ÙħÙĨ Ù
ĠØ§ÙĦØ£ÙħÙĨÙ Ĭ
ĠØ°ÙĥØ± Ùĩ
ĠØ§Ù ħÙĥ
ĠØ´ ÙĦÙĨ
ĠØªÙĪ Ø§Ø¬Ø¯
Øª Ø§Ø¨Ø©
ĠØ¨Ø§ÙĦÙħ Ø³
ĠØ§ÙĦÙħÙĪ Ø§ÙģÙĤØ©
ĠØ¬ ÙĬÙĦ
ĠÙĪØ· ÙĨÙĬ
ĠØ§ÙĦØ¬ ÙħÙĩÙĪØ±ÙĬ
ĠØ§ÙĦØ¥Ø¹ ÙĦØ§ÙĨØ§Øª
Ù ĬØ±ÙĬ
ĠØ§ÙĦØªØ¯ Ø±ÙĬØ³
Ø¹Ù ĬÙĩ
ÙĪÙĦ ÙĨØ¯ÙĬ
ĠØ§ÙĦØµØŃÙģÙĬ ÙĬÙĨ
ĠÙĤÙĬ Ø§Ø¯Ø§Øª
ĠØ¨ ØºÙĬØ±
ĠØ£ ÙĩØ§ÙĦÙĬ
Ø¨ Ø¹Ø¯
ĠØ§ÙĦØ¯ Ø§Ø¦Ùħ
ħ Ø§Ø¹Ø©
Ø¨ Ø§Ùĩ
ĠØ£ Ø¬Ø²Ø§Ø¡
ĠÙĪÙħ Ø¯ÙĬØ±
ĠØªØ¯ ÙĪØ±
ĠÙĨ ÙĥÙĪÙĨ
ĠØ§ÙĦØ§Ø¹ ØªØ±Ø§Ùģ
Ġ6 6
Ġ200 1
ÙĦÙħ Ø¨ÙĬ
ĠØŃ ÙĤÙĬ
ĠØ¨ÙĦØ¯ Ø§ÙĨ
ÙĨØ§ÙĤ Ø¶
Ùĩ Ø§Ø²
ĠØ§ÙĦÙĦÙ ĬØ¨ÙĬØ©
ĠÙĬØ¯ Ø±Ùĥ
ĠÙħØ± Ø³ÙĪÙħ
u p
ĠØ§Ø³Øª Ø¹Ø§Ø¯Ø©
ĠØ§ÙĦÙĨ Ø¬ÙĪÙħ
ĠØ£Ø± Ø³ÙĦ
ĠØªÙĤ Ø¨ÙĦ
ĠÙĦÙĦØŃ ÙĥÙĪÙħØ©
ĠØ§ÙĦÙħØ´ Ø±Ùģ
Ø§Ù ĬØ¨
ĠØ³ Ø¯
ĠØª ÙĦÙĪ
ĠÙĥ Ø±Ø¯
ĠØ¹ ÙħÙĬÙĤ
Ø¨Ø§Ø± Ø§Øª
ĠØ§ÙĦØ±ÙĤÙħ ÙĬØ©
ĠÙĥ Ø±ÙĬØ§Øª
Ø§Ùĩ ÙĬØ±
ĠØ£Ø¨ Ø§
ĠØ§ÙĦØ£ ÙĦØ¨
ĠÙĪÙĦØ¹ Ù
ĠÙĬØ´ ÙħÙĦ
ĠÙĬØŃ Ø¯Ø¯
ĠØ§ÙĦØ´Ø¨ ÙĥØ§Øª
ĠØ§ÙĦÙħÙĨ Ø¸
Ø± Ø§Ø·
ĠØ§ÙħØª ØŃØ§ÙĨØ§Øª
o k
ÙģØ§ ÙĤÙĬØ§Øª
ĠØªØ¬ Ø§Ø±Ø¨
ĠØ§ÙĦÙħØ°Ùĥ ÙĪØ±Ø©
ĠÙĪ Ø±ÙģØ¶
Ø±Ø¨ Ø§
ĠÙħØª Ø§Ø¨Ø¹
ĠØ£Ø´ ÙĥØ§ÙĦ
ĠÙĥÙ ħØ¨ÙĬÙĪØªØ±
ĠØ¹ Ø±Ø§
ĠÙħØ¹Ù Ĭ
Ġ9 9
ĠØ£ Ø·Ø±Ø§Ùģ
ĠØ³Ø§ÙĨ Øª
Ø± Ø´
ĠØ¹ Ø§Ø¬ÙĦ
ĠÙħØ· ÙĦÙĪØ¨
ĠØ§ÙħØ± Ø§Ø¶
ĠÙħØ´ Ø§Ø¹Ø±
ĠÙĪØªØ¹ Ø²ÙĬØ²
ĠØ®Ø· ÙĪØ±Ø©
Ø§Ø¯ ÙĤØ©
ħ ØŃÙĬØ·
ĠØ§ÙĦØ² ÙħØ§ÙĨ
ĠØ§ÙĦÙĦÙĤ Ø¨
Ħ ÙĦØ§ØŃ
ĠØ¨Ø§ÙĦØ§ ÙĨ
ĠØ§ÙĦØ§Ø¯ Ø§Ø±ÙĬØ©
ĠØ§ÙĦØªØ± Ø¬ÙħØ©
ĠØ§ÙĨØ³ Ø¯Ø§Ø¯
ÙĬÙĤ Ø©
Ø§Ø® Ø±Ø©
ĠÙĪÙĨÙĤ ÙĦØª
ĠÙĥ ÙĦÙĬ
2 9
Øª Ø§ÙĦ
ĠØ§ÙĦØ§ÙĨØª ÙĤØ§ÙĦ
ĠØ§ÙĦØ¹ Ø§Ø·
ĠØ¹Ø§Ø¦ Ø´Ø©
ĠØ± Ø§Ø¨Ø·Ø©
ĠØ§ÙĦØ§ØŃ ØªÙģ
ĠÙħØ¹Ø¯ ÙĦØ§Øª
ĠØ§ÙĦÙħØ¬ Ø§ÙĨÙĬØ©
ĠØª ÙĤÙħ
ĠÙĥØªØ¨ Øª
ĠØŃ Ø¬Ø²
ĠØ¨Ø§ÙĦØ §Øª
ĠØ§ÙĦÙħÙĤ Ø§ÙĦØ§Øª
ĠØ§Ø± Ø´ÙĬÙģ
ĠØ£ÙĪ Ø¶Ø§Ø¹
ĠØ¥Ø³ ÙĦØ§ÙħÙĬØ©
ĠÙĦØ¨ Ø±ÙĨØ§ÙħØ¬
Ù ħØŃÙĬØ·
ĠØŃÙĥ ÙĪÙħÙĬØ©
Ġ ÙħØŃÙĬØ·
ÙĪØ³ Ø©
ĠÙĦÙħØ¹ Ø§ÙĬÙĨØ©
ĠØ§ÙĦØ·Ø¨ Ø®
Ø¸ ÙĩØ§Ø±
Ø²Ù ĬÙģ
ĠØ§ÙĦÙģ ÙĦØ§ØŃ
ĠØ£ÙĤ ÙĪÙī
ĠØ±ÙĬ Ø§Ø¶ÙĬØ©
ĠØ§ÙĦØ£ Ø¬ÙĨ
ÙĦÙģ Ù
ĠØ§ÙĦÙĨ Ø§Ø®
ÙģØ± Øª
ĠØ¨Ø¬ Ø¯Ø©
ĠØªØ¯ Ø¹ÙĪ
ĠØ±Ø£ ÙĬØª
ĠÙĤ Ø§Ø¨
ĠØ§ÙĦØ§ÙĤ Ø³Ø§Ùħ
ĠÙħÙĤ Ø¹Ø¯
ĠØ£ÙĤ ØµÙī
Ø³ÙĬ ÙĬØ±
Ø· ÙĪ
ĠÙħØ®Ø§ÙĦÙģ Ø©
ÙĬØ± Ø§Ø¯
ĠØ£ÙĨ Ø³
ĠØ§ÙĦØ·ÙĦØ¨ Ø§Øª
Ø¬ ÙĩØ§
ĠÙħÙĨ Ø§Ø²ÙĦ
1 5
ĠÙħÙģØª ÙĪØŃØ©
ĠØ¹ Ø§ÙĦÙĬ
Øº Ø±ÙĤ
ĠØ§ÙĦÙĤ ÙĪ
Ø¨ Ùĥ
ĠØµÙ Ĭ
ÙĪØ¶ ÙĬØ©
Ù ĦÙĦØ§ØŃ
ĠØ¹Ùħ ÙĦÙĩØ§
Ġ ÙĦÙĦØ§ØŃ
ĠØ¨Ø¹Ø¯ Ùĩ
Ø¨ Ø§ÙĨ
ĠØ§ÙĦØªØ· ÙĪØ±Ø§Øª
ĠØ§ÙĦØ¨ Ø§Ø¨Ø§
Ġ200 2
Ø· ÙĬØ§Øª
ĠÙĪØ§ÙĦØ´ Ø¹
ĠÙħØ³Øª ØŃ
Ù ¥
ĠØ¨ Ø³Ùħ
ĠÙĪØ¨ Ø°ÙĦÙĥ
ĠØ§ÙĦÙħØ³Øª Ø´ÙģÙĬØ§Øª
ĠØ§ÙĦØŃØ³ Ø§Ø¨
ĠÙĪÙĦØ¹Ù Ħ
ĠØ³ÙĬ Ø§ØŃÙĬØ©
ĠÙħØ¤ ÙĤØª
ĠØ§ÙĦØ¥ÙĬØ· Ø§ÙĦÙĬ
ĠØ£ ÙħÙĪØ§ÙĦ
Ø¨ÙĬØ¯ Ø§Øª
1 8
ĠØ§ÙĦØ£Ø² Ø±ÙĤ
ĠØ® ØªØ§Ùħ
ĠØ§ÙĦÙģ Ø§Ø¦Ø¯Ø©
ØªÙ ĬÙħ
2 6
ĠØªØ´ Ø¹Ø±
ĠÙĪ Ø§Ø°Ø§
ĠØ´Ø¨ Ø§Ø·
ĠØ§ÙĦØ§Ø³Øª Ø«ÙħØ§Ø±Ø§Øª
ĠØ§ÙĦØ§ ÙĬØ·
ĠØµ Ø¹Ø¨Ø©
Ø¯Ù ħÙ
ĠÙĪÙģ ÙĬÙħØ§
ĠØ§ÙĦØ§Ø¹ ØªÙħØ§Ø¯
ĠØ§ÙĦÙĨ Ø§ØŃÙĬØ©
Ø§Ø³ Ùĥ
ĠØ£ÙĪ ÙĥØ±
ĠØ§ÙĦÙħ Ø¨Ø¯
ĠØŃ ØµÙĪÙĦ
ĠØ§ÙĦØ¨ ØµØ±Ø©
ĠØ§ÙĦØ³ ÙĦØ§ÙħØ©
ĠØ§ÙĦØ´ ÙĬØ¹Ø©
ĠØ£ÙĦÙģ Ø§
E D
ĠÙĤ Ø¨Ø±
ĠØ§ÙĦÙģØª Ø§Ø©
ĠØ§ÙĦØ· ÙĪ
ĠØ§Ø¨ ØªØ¯Ø§Ø¡
ĠÙģÙĬ Ø³
ĠØ¯ ÙĪÙħØ§
ĠØªØ® ØµÙĬØµ
ĠØ§ÙĦ ÙĦØ§
ĠÙĩÙĨØ¯ Ø³Ø©
ĠÙĬÙĥ ÙģÙĬ
Ø§Ø¨ ÙĪÙĨ
ĠØ§ÙĦØ¬Ø§Ùħ Ø¹ÙĬ
ĠÙĪÙĥÙĬÙģ ÙĬØ©
ĠØ§ÙĦØ£ÙĨ Ø¸ÙħØ©
ĠØªØ¯ ÙģØ¹
ĠØ¨Ø§ÙĦØ° ÙĥØ±
Ø¹ ÙĩØ§
ĠØ§ÙĦØµ Ø¯ÙĬÙĤ
ĠØ§ÙĦÙħØ¹ Ø±ÙĪÙģØ©
ĠØ§ÙĦÙħØ± Ø§ÙģÙĤ
ÙĦØ³ Ø§ÙĨ
a p
ĠØª ØºØ·ÙĬØ©
Ĭ ÙĪÙħÙĬ
ÙĤ Ø§Ø¨Ø©
Ø§Ø¯ ÙĪØ±
ĠØ§ÙĦØ¶ ÙĪ
ĠØ² ÙĪØ§Ø±
ĠØ§ÙĦØªØ¹ ÙĦÙħ
ĠÙģÙĨ Ø§Ø¯ÙĤ
ĠØ§ÙĦÙħÙĨ Ø§Ø®
ĠØ§ÙĦØ£ ÙħÙĦ
ĠØ± Ø¬Ø¨
ĠÙħÙĤ Ø§Øª
Ù ª
Ġ Ùª
2 3
Ġ12 0
an g
ĠØ¥ Ø¯Ø±
ÙĦØ· ÙĬÙģ
ĠÙĪØ§ÙĦØ£ Ø¯
ĠÙħØŃ ÙĦØ§Øª
ĠØ¥Ø¶Ø§Ùģ ÙĬØ©
ĠÙĦÙħÙĥ Ø§ÙģØŃØ©
ĠØ§ÙĦÙĥ Ø¨Ø§Ø±
ĠØ± ÙģÙĬÙĤ
Ø¤ Ø¯ÙĬ
Ù ħØ§Ø¯
Ù ĬÙĪÙħÙĬ
ĠØ§ÙĦØ§Ù ħÙĪØ±
Ø§Ùģ Ùī
ĠØ§ÙĦØµ Ø§Ø¯ÙĤ
ÙĪÙģ Ø±Ø©
ĠØ§ÙĦØ¥ÙĤ Ø§ÙħØ©
Ø«Ù ĬÙĬÙĨ
ĠØ¢ ÙĦØ©
ÙĩÙĬØ¯ Ø§
Ø¬ Øª
a h
ĠÙħÙĨØ¸ ÙĪÙħØ©
ĠØ§ÙĦÙĩ ÙĪÙĬØ©
ĠØ§ÙĦØ£Ø¯ Ø¨ÙĬ
ĠØ§ÙĦØ¯ÙĪ ØŃØ©
Øº ÙĪÙĦÙĬ
ĠØ¨Øª Ùĥ
ĠØ¨ Ø¬Ø¯
ĠÙģ Ø£ÙĨ
ĠÙĪÙħÙĨ Ø°
ĠØªØ´ Ø·ÙĬØ¨
Ø§Ùħ Ø¨ÙĬØ§
ĠØ§ÙĦØ®ÙĦÙĬ Ø¬ÙĬ
ĠØª Ø°
ĠØ§ÙĦÙģÙĨØ§ÙĨ ÙĬÙĨ
ĠØªØ³ ÙĪÙĬÙĤ
o ur
ĠÙĦÙĦØª ÙĪ
ĠâĢ ĺ
ĠØ§ÙĦØ¨ØŃ ÙĪØ«
ØªØ¬ Ø§Øª
A N
Ġ ÙĬÙĪÙħÙĬ
ĠÙĦÙĦØ´ ØŃÙĨ
ĠÙĪØ§ÙĦØ¹ ÙĦÙĪÙħ
ĠØ§Øº ØªÙĬØ§ÙĦ
ĠØ§ÙĦØ§ ÙĪ
ĠØ£Ø´ Ø±Ùģ
ĠØ§ÙĦØªØ· Ø¨ÙĬÙĤØ§Øª
Ø³Ùħ Ø§Ø¹ÙĬ
ĠÙĪØª ÙĪÙģÙĬØ±
ĠØ§ÙĦØº Ø²
ĠÙħØ§ÙĨ Ø´Ø³ØªØ±
ĠØ£Ø¶ Ø±Ø§Ø±
ĠØ§ÙĦÙģ ÙĨÙī
ĠØ¨Øª Ø¬
ĠØ§ÙĦÙĨ Ø§ØµØ±
ĠÙĪØ§ÙĦØª Ø®
ħ Ø³ÙĬ
ĠØ§ÙĦØªØ¯ Ø±ÙĬØ¨ÙĬØ©
ĠØ§ÙĦØ£ ØµÙĦ
ĠØ£Ø³ Ø§ÙħØ©
ĠØ§ÙĦØ² ÙĪØ§Ø±
ĠØ£ Ø³ÙĦÙĪØ¨
ĠÙħÙĬÙĨ Ø§Ø¡
ĠØ° Ø§Ùĥ
ĠØ§ÙĦØ¨ ÙĨÙĬØ©
ĠØ§ÙĦØ³Ùħ Ø§ØŃ
ĠÙĦØ¥ Ø¯Ø§Ø±Ø©
ØŃ ÙĪÙĨØ©
ĠØ¹ Ø¯Ø§
Ùĥ Ø§Ø³
ĠØªÙ ĬØ§Ø±
ĠØ§ÙĦØ±Ø³ ÙĪÙħ
ĠØ§Ø¨ ÙĨØ§Ø¡
Ġ Ù¡
ĠÙĦÙĬ ÙĪÙĨ
ĠØ§ÙĦØ³ Ø§ØŃÙĦ
ĠØªØŃ Ø¯Ø¯
Ø² Øª
ĠØ§ÙĦØ´Ø¹ ÙĪØ±
Ø¨ ÙĪÙĨ
ĠØ§ÙĦØ± Ø¨ØŃ
ĠØ¨ÙĪØª ÙĬÙĨ
ĠØ³ÙĬØ§Ø³ ÙĬØ§
ĠØ® Ø´
v er
Ġp m
ĠØ§ÙĦÙħØª Ø¹Ø¯Ø¯Ø©
ĠØ¨ÙĤ Ø³Ùħ
ĠÙĬÙĦØª ÙĤÙĬ
ĠØ§ÙĦØ· Ø±
ĠÙĪÙĬÙĨ Ø¯ÙĪØ²
O R
ĠØ¬Ù Ħ
Ø§Ø¯ Ùģ
ĠØ§ÙĦÙĤØ¨ ÙĪÙĦ
ĠÙĬØ± Ø¬Ø¹
ĠÙĬÙĤÙĪÙĦ ÙĪÙĨ
ĠØ§ÙĦØ¯ÙĪ ÙĦÙī
ĠP ro
ĠØ§Ø³ Ø¨Ø§Ø¨
ĠÙĦÙĦÙħØ± Ø£Ø©
ĠØ³ ÙĪØ±ÙĬ
2 8
ĠØ§ÙĦÙħØª Ø§ØŃØ©
ĠØ§ÙĦØ£ ÙĪÙĦÙĬØ©
ĠØ§Ø³Ù ħØ§Ø¡
Ù ħØ§Ø¹Ø©
ĠØ¨ÙĨÙģØ³ Ùĩ
ħ Ø§ØŃ
ĠØ§ÙĦØ¯ ÙĥØªÙĪØ±Ø©
ĠØ§ÙĦØ« Ø§ÙĨÙĪÙĬ
ĠØ§ÙĦØµØŃ Ø§Ø¨Ø©
ĠÙĪØ§ÙĦØ± ÙĪ
ĠÙĤ ÙĦÙĤ
ĠØ§ÙĦØ£ ØŃÙĬØ§Ø¡
ĠØ§ÙĦØ¨Ø± ÙĦÙħØ§ÙĨÙĬØ©
ÙĪÙĤ ÙĪÙģ
ĠØ§ÙĦÙħ ÙĦØ§Ø¦
ÙĦÙĥ ÙĬØ©
ĠØ§ÙĦØªØ±Ø¨ ÙĪÙĬ
ĠØ§ÙĦØªØ¹ Ø±Ùģ
Ø² ÙĬÙħØ©
ĠÙĪØ§ÙĦØ§ÙĤØªØµ Ø§Ø¯ÙĬØ©
ĠØ£Øµ ÙĪÙĦ
ĠØ² Ø§Ø±
ÙĪÙĨ ÙĬØ§Øª
ĠØŃ ÙĪØ§ÙĦÙī
ĠØ§ÙĦØ§Ø± Ø¯
ĠØ§ÙĦÙħ ÙĬÙĥ
Ø¶Ù ĬØ§Øª
Ø·Ø§Ø¹ Ù
Ø® Ø¨Ø§Øª
ĠØ§ÙĦÙĤØª Ø§ÙĦ
ĠØ§ÙĦÙĤØ· Ø±ÙĬ
ĠÙĦÙĨ ÙĤÙĦ
1 4
ĠØµ ÙĬØº
ĠØ§ÙĨ Ø´
ĠØ§ÙĦØºØ° Ø§Ø¡
1 6
ĠØ§ÙĦØªØº Ø°ÙĬØ©
ĠØ¨Ø± Ø¹Ø§ÙĬØ©
ĠØ¨ ÙĦØ¬
ĠØ§ÙĦÙĤ Ø±Ø§Ø¡
ĠØ§ÙĦÙħØªÙĩÙħ ÙĬÙĨ
ĠØ¨ ÙĪØ²Ø§Ø±Ø©
Ùĩ ÙĪÙĦ
ĠØ¨Ø´ Ø¯Ø©
ĠØ§ÙĦØªØµ ÙĨÙĬÙģ
ĠÙħÙĨØª Ø¬
ĠØ§ÙĦØ£ ÙĦÙĪØ§ÙĨ
ĠØ³ Ø§Ø¹Ø¯
ĠEng lish
ĠØ´Ø± Ø·
ĠÙĪ ÙĤÙĬ
ħ Ø§Ø¬Ø¯
Ġc enter
ĠØªÙħ Ø§Ùħ
ĠÙĦØª Ùģ
ĠØ¨Ø§Ø± Ø§Ùĥ
ĠÙĪ Ø«ÙĬÙĤØ©
ĠØ§ÙĦØŃÙĬÙĪ ÙĬØ©
ĠÙĪØ¨ ÙħØ§
ĠÙħØ´ Ø±Ùģ
ĠÙĨÙĪ Ø§Ø¨
ĠØ£Ùģ ØºØ§ÙĨØ³ØªØ§ÙĨ
ĠØ¨Ø§Ùĥ Ø³ØªØ§ÙĨ
Ġ ÙħØ¯ÙĬ
ĠØªÙĤ Ø¯Ø±
ĠØ¨Ø§Øª Øª
ĠÙĦÙĦÙĤ ÙĪØ§Øª
ĠÙĪ Ø¹ÙĦ
ĠÙħÙĪØ¸ ÙģÙĬ
ĠØ£ÙĨ ØµØ§Ø±
ĠÙĦÙĬ Ø¨ÙĬ
ĠØ§ÙĦØ· ÙĪØ§Ø±Ø¦
ÙĨÙ ĬØ¯
ĠÙĤ ÙħØª
ĠØ§ÙĨØªØ® Ø§Ø¨
ĠØ£ÙħØ± Ø§
Ù ħØ§Ø¬Ø¯
ĠØ§ÙĦØ§Ø³ ØªÙĩ
ĠØ§ÙĦØ£Ø±Ø¯ ÙĨÙĬ
ĠÙħØ³ Ø§Ø¨ÙĤØ§Øª
Ø±ÙĬ ÙģØ©
ĠØ§ÙĦÙħØ® Ø§Ø¨Ø±Ø§Øª
ĠØ§ÙĦØ® ÙĬØ§Ø±
ĠØ¹ ÙĦØ§
ĠØ§ÙĦÙħØªØ¨ ÙĤÙĬ
ĠØ§ÙĦØ´Ùĩ ÙĬØ±Ø©
ĠØ§ÙĦÙħÙĪ Ø³
ĠØ§ÙĦÙħØ¨ Ø§Ø´Ø±Ø©
ĠØ£ÙĤ Ø¯Ùħ
ĠØ§ÙĦÙĤ ÙĦÙĬÙĦØ©
ĠØ§ÙĦØªØ¹ÙĦÙĬÙħ Ø§Øª
ĠØº Ø§ÙĨ
ĠÙĪ Ø§ÙģÙĤ
Ø§Ø¹ Ùī
Ø§ÙĬØª ÙĩØ§
ĠØ§ÙĦÙħØ¬ Ø§ÙĪØ±Ø©
ØªÙ ĬØ¹
ĠÙĬÙħ Ø§Ø±Ø³
ĠØ§ÙĦØªØ¬ Ø§Ø±Ø¨
ĠØ±Ø¦ÙĬØ³ Ø©
ĠØ§ÙĦØ´ Ø§ÙħÙĦØ©
ĠÙĦØ³ Ø§ÙĨ
ĠØ§ÙĦØ£ ÙĥØ§Ø¯ÙĬÙħÙĬØ©
ĠØ§ÙĦØ£ Ø«Ø±
ĠØ§ÙĦØ³ÙĬØ§Ø³ Ø§Øª
ĠØ§ÙĦØ¯ ÙĪØ±Ø§Øª
ĠØ² ÙĪ
Ø§Ø« ÙĦØ©
Ġ6 8
ĠØ¹ ÙĦØ§Ø¡
ĠØ¨Ø¹ ÙĬÙĨ
Ġw ith
ĠØ¨Ø§ÙĦØª ÙĪ
ØªÙ ĦÙĪØ§
Ġs t
ÙĤ Ø¯Ø©
ĠØ¬Ùĩ Ø§Øª
ĠØ³ ÙĩÙĦØ©
Ø³Ù ĬØ§Øª
ĠÙĪØª ÙĥÙĪÙĨ
ĠØ´Ø¨ ÙĥØ§Øª
ĠØ· Ø§ÙĦÙħØ§
ÙĪÙ ĬØ¹
ÙĪØ³ Ø§Ø¦ÙĦ
ĠØ£Ø¯ ÙĨÙī
Ġd e
ĠÙħÙĪ Ø§ØµÙĦØ©
Øª Ø¯ÙĬØ§Øª
ĠØ£ÙĪ ÙĦØ¦Ùĥ
ÙĪØ§Ø¬ Ùĩ
Ġ ÙħØ§Ø¬Ø¯
ĠØ± ÙĪÙħ
Ø³Ù ĬØª
ĠØ§ÙĦØ¥ Ø°
ĠØ§Ø± ÙĤØ§Ùħ
ĠÙģÙĩ ÙĨØ§Ùĥ
Ø¦ ÙħØ©
ĠÙħØ¹ Ø§Ø±Ø¶
ĠÙĪØª Ø§Ø±ÙĬØ®
ĠØ§ÙĦØµ ÙĬÙĨÙĬ
ĠØ§ÙĦØ¥ÙĨØ³ Ø§ÙĨÙĬ
Øµ ÙĬØ±
ØªÙħ Ø§Ø¡
ĠØ§ÙĦÙħÙĤ Øµ
ĠØ® Ø³Ø±
ĠÙĦØ§Ø¦ ØŃØ©
ĠÙħØ´ Ø±ÙĪ
ĠÙĦÙĦØ¬ ÙĨØ©
ĠØ§Ø¹ ÙĦÙĨ
ĠÙĦÙĦÙ ħØ·
ħ Ø·Ø±
Ġi P
ĠØ´ Ø±ÙĬÙĥ
ĠÙħÙĤ Ø§Ø¨ÙĦØ©
ĠØ§ÙĦÙĤØ§ÙĨÙĪÙĨ Ù
ĠØ§ÙĦÙĤØ§ÙĨÙĪÙĨÙ Ĭ
ĠØ¢ Ø±
ĠØµ Ø¯Ø§Ùħ
Ø¹ Ø±Ùģ
ĠÙĦØ£ÙĨ ÙĩÙħ
ĠØªØ£ Ø®Ø±
ĠØ§ÙĦØ§Ø® ØªÙĬØ§Ø±
ÙĪÙĤ Ø§Ùģ
ĠØ§ÙĦØŃ Ø¬Ùħ
ĠA nd
ĠØ§ÙĦØª Ø²
ĠØ´ ÙĪØ§Ø±Ø¹
ĠØ§ÙĦÙĤ ØµØ±
Ø¯ Ø§ÙħØ©
ĠØ§ÙĦØŃØ± Ø³
ĠØ§ÙĦØ´ ÙĥØ±
ĠÙĤ ÙĦØ©
ĠØ´ Ø£ÙĨÙĩ
ĠØ³ ÙĩÙĦ
ĠØ«Ùħ Ø§ÙĨÙĬØ©
ĠÙģØ± ÙĤØ©
ĠØŃ Ø¯ÙĬÙĤØ©
ĠØªØ¬ Ø§Ø±
Ø¨ ÙĪØ¨
ĠÙħÙĩ Ø§Ø¬
ÙĨØ¯ Ø¹ÙĪÙĥ
ĠØ§ÙĦÙģØ± ÙĤØ©
ĠØ§ÙĦØ¬Ùħ Ø§Ø¹Ø§Øª
ØŃ Ùĥ
ĠØ¹ ÙħÙĬØ¯
ĠØ§ÙĦÙħ Ø§Ø¦ÙĬØ©
ĠØ§ÙĦÙħØ³ ÙĦØŃ
Ùģ Ø§Ø¶Ø©
ĠØ§ÙĦØ®Ø¶ Ø±Ø§Ø¡
ĠØ§ÙĦØº Ø±
ĠØ¹Ø§Ø¦ Ø¯Ø§
Ø² Ø§ÙĨ
ĠØ£ÙħÙĬØ± ÙĥÙĬ
ĠØ§ÙĦØ´ Ø±Ùĥ
ĠÙħØ¹ Ø§ÙĬÙĬØ±
Ø¯ Ø§ÙĦØ©
Øµ Øµ
ĠÙĪØªØ¹ ØªØ¨Ø±
ĠØ§ÙĦÙħØª ÙĪØ³Ø·Ø©
ĠØ¨ Ø·Ø±
ĠØ²Ù ħØ§ÙĨ
Ø§ÙĨÙ ĬØ²
ĠØ§ÙĦÙĤØ¨ Ø§Ø¦ÙĦ
ĠÙĦØ ³Øª
ĠÙĦØ¨ ÙĨØ§Ø¡
ĠÙĩ Ø¬
i p
ĠØ§ÙĦÙħØŃØ¯ ÙĪØ¯Ø©
ĠÙĨ ØµÙĬØ¨
ĠÙĦØº Ø§Øª
ro id
Ġ9 5
ĠØ· Ø§Ø¦Ø±Ø§Øª
ĠØ§ÙĦØ§ÙĨ ØŃØ±Ø§Ùģ
ÙĬØ· Ø±Ø©
Ø« Ø§ÙĦ
Ù ¤
ĠØ± ÙĪÙĬ
ĠÙħÙĩ Ø§Ùħ
Ø¬Ø¯ Ø§Øª
ĠØ§ÙĦÙħÙĪ ØµÙĦ
ĠØ§Ø³ØªØ± Ø§ØªÙĬ
Ø«Ù ĬÙģ
ĠÙĤ ÙĬÙħ
ÙĦØ§ ÙĤÙĬ
reat ment
Ø² ÙĪÙĨ
ĠØ¹Ø¯ ÙĨ
ĠG oogle
ÙħØ§ ÙĦÙĩØ§
Ù ħÙĦØ©
Ø¬ ÙħØ¹
ĠÙĪ ÙĩÙħØ§
Ġ6 00
ĠØ§ÙĦØ¸ Ø§ÙĩØ±Ø©
ĠØ§ÙĦØ§Ø³ ØªÙħØ±Ø§Ø±
ĠØ§ÙĦÙħØ³Øª ÙĤØ¨
ĠÙĪØªØŃ ÙħÙĬÙĦ
ĠØ¯ÙĪ ÙĦÙĬØ§
Ø´ ÙģØª
ĠØ§ÙĦØ£ Ø¶
ĠØ§ÙĦØªÙĩ Ø¯ÙĬØ¯
Ø§Ùģ Ø¦
1 3
ĠØ§ÙĦ ÙĦØ§Øª
ĠØ¨ Ø¨Ø·
ĠÙĬÙĤ Ø¯Ø±
ĠÙĥÙĪÙĨ Ùĩ
ĠØ¬ ÙĨÙĬÙģ
ĠØ§ÙĦØ« Ø§Ø¨Øª
ĠØ§ÙĦØ¯Ùħ Ø§Øº
ĠÙĦÙĦÙħØ¬ ÙĦØ³
ØªØ±Ø§ ÙĪØŃ
Ø§Ø¶ Ø¹
ĠÙĤØ± ÙĨÙĬØ©
ĠÙĬØª Ø³
ĠØ§ÙĦØ£Ùħ Ø·Ø§Ø±
ĠØ§ÙĦØ¯ Ø±ÙĪØ³
Ø¹Øª ÙĤØ¯
ĠØ§ÙĦØ®Ø· ÙĪØ§Øª
ĠØªÙĪ ÙģÙĬ
ĠØ§ÙĦÙģ ÙĨØ¯ÙĤ
Ø§Ø´ ÙĬØ¯
ĠÙĬØ± ÙģØ¹
ĠØ¨Ø¬ ÙĪØ¯Ø©
ĠØ§ÙĦØ£ Ø¯ÙĬØ§ÙĨ
ÙĦØ²Ù ħØ§Øª
ÙĤ ÙĪØ§
ĠÙĪÙ ħØµØ±
ĠÙĪØ¥ Ø¯Ø§Ø±Ø©
ÙĬÙĨ ÙĬØ§Øª
ĠØ¯ÙĪÙĦØ§Ø± Ø§
ag e
ĠØ³Ø¬ ÙĦØª
Ø« Ùī
ĠØ§ÙĦØ± ÙĬÙģ
ĠØ¨Øª Ø£
ĠØ§ÙĦÙħØª Ø®ØµØµ
ĠØªØª Ø·ÙĦØ¨
Ø² Ø§ÙĦØ©
ÙĩÙĬ Ø¨
ĠØ§ÙĦØ§Ø¨ ØµØ§Ø±
ĠØ§ÙĦÙĤ Ø·Ø±ÙĬØ©
i al
Ø§Ø¦ ÙģÙĬ
ĠØ£Ø´ Ø¯
ĠØ§ÙĦØ§ØªÙģØ§ÙĤ ÙĬØ©
ĠÙĪ Ø±ÙĤ
ĠØ§ÙĦÙĥ Ø«
ĠØ§ÙĦØ§ ÙħÙħ
ĠÙĥ ÙħÙĬØ§Øª
ĠØª Ø¨Ø¹
Ø±Øª ÙĪÙĨ
ĠÙħØ° ÙĥØ±Ø©
ĠØ³ Ø¯ÙĬ
ĠØ· ÙĬØ±Ø§ÙĨ
ĠÙĦØŃ Ø²Ø¨
ĠØ§ÙĦØ´Ùĩ Ø§Ø¯Ø©
ĠØ¨Ø¯Ø¡ Ø§
ĠØªÙĤ Ùģ
ĠÙĪØª ØŃØ¯Ø«
ĠÙħÙĨ Ø§Ø³Ø¨
Ø® Ø§Ø¡
Ĭ Ø°ÙĩØ¨
ĠØ§ÙĦØªÙĤ Ùī
ĠÙĪØ¹ ÙĦÙĬÙĩ
ĠØ£ÙħØ±ÙĬ ÙĥÙĬ
ĠØ§Ø³ØªØº ÙĦØ§ÙĦ
ĠÙĪØªÙĤ Ø¯Ùħ
Øª ÙĥÙħ
Ġt reatment
ĠØ§ÙĦØ¬ Ø§Ø¦Ø²Ø©
ĠÙģ Ø³Ø§ØªÙĬÙĨ
ĠØ£Ø« Ø§Ø±
ĠØ¹Ø§Ùħ ÙĬÙĨ
ĠØ³Ø§ÙħØ³ÙĪÙĨ Ø¬
ĠØ§ÙĦØ£ØŃ ÙĥØ§Ùħ
ĠÙĪ ÙĨØ³
ÙħØª ÙĩØ§
ÙħÙ ĦÙĪØ§
ĠØ§ÙĦØ³Ø± Ø¹Ø©
ØªØµ Ø§Øµ
ĠÙĨØ¸ Ø±Ø©
ĠØ§ÙĦÙĪ Ø¬ÙĪØ¯
Ø§Ø¤Ù Ħ
ĠÙģ Ø±ÙĬØ¯
ĠØªØ³ ØªÙħØ±
ĠÙħØ§Ù ĬÙĥ
Ù ĬØ°ÙĩØ¨
ĠÙĤØµ Ø§Ø¦Ø¯
ĠØ§ÙĦØ¬ÙĨ ÙĪØ¯
Ġ ÙĬØ°ÙĩØ¨
ĠØ§ÙĦØ§Ø¯ ÙĨÙī
ĠØªØ¯ Ø¹Ùħ
ĠÙĪ Ø§Ù
ĠÙĪ ØµØ±
ĠÙĪØ§ÙĦØ§Ø ¯
ĠÙĪØ§ÙĦÙĨ ÙĤ
ĠÙĪØ§ÙĦØ«ÙĤ Ø§ÙģÙĬØ©
ĠØŃÙĬÙĨ ÙĩØ§
ĠÙħØ± ØªÙĬÙĨ
ĠØ±Ø¬ ÙĦØ§
ĠØ§ÙĦÙģØ¹ Ø§ÙĦÙĬØ§Øª
ĠØ¬ Ø¨Ø±
Ø³ Ø§Ø±
ØªÙĤ ÙĦÙĬÙĨ
ĠØ§ÙĦÙģ ÙĬØª
Ø§Ø± ÙĬÙĨ
ÙĦØ ¤
Ø¹ÙĦ ÙĪÙħØ§Øª
ĠØ§ÙĦØµÙĨ Ø§Ø¹ÙĬ
ĠØ²ÙĬØ§Ø± ØªÙĩ
ĠØ§ÙĦÙĥ ÙĪØ±
ĠØ³Ù ĬØ¨
Ù ħØ¨ÙĬÙĪØªØ±
ĠØ¯ Ø§Ùħ
ĠØ§ÙĦØªÙĪ ØªØ±
Ø¯ÙĬ ÙĪÙĩØ§Øª
ĠØ§ÙĦØ¹Ø§Ùħ Ù
ĠØ§ÙĥØª ÙĪØ¨Ø±
Øº Ø§ÙĦÙĬ
ĦÙĨ Ø¯ÙĬØ©
ÙĪÙĨ ÙĬØ§
ĠØ§ÙĦØ£Ø¬ Ø§ÙĨØ¨
ĠÙĪØ§ÙĦØ±ÙĬØ§Ø¶ Ø©
ħØ¨Ø± Ø§Ø·
a k
ĠØ±Ø´ ÙĬØ¯
ĠØ§ÙĦÙĤØ± Ø§ÙĨ
Ġ7 7
ĠØ§Øª ØµÙĦ
ĠØ§ÙĦØ¹ÙĤ Ø§Ø±Ø§Øª
ĠÙĥØª ÙĦØ©
ĠØ´Ø£ÙĨ ÙĩØ§
ÙĦØª ÙĩÙħ
ĠØ§ÙĦØ· ÙĪÙĬÙĦ
ĠØ¨ Ø§ØŃØ«
ÙĦÙĬÙģ Ø²ÙĬÙĪÙĨ
ĠØ¨Ø§Ø³ ØªÙħØ±Ø§Ø±
ĠØª ØªÙħØªØ¹
Ø§ÙĨÙ ħ
ĠØ§ÙĦØ¹Ø¶ ÙĪÙĬØ©
ĠØ¢Ù Ĭ
ĠØ´ Ø§ÙħÙĦ
ĠØ§ØŃ ØªÙħØ§ÙĦ
ĠÙĩ Ø§ÙħØ©
ĠØ§ÙĦØ¨ Ø±ÙĬ
ĦÙĬØ² Ùĥ
Ø¶Ùħ ÙĪÙĨ
ĠÙĪØ¥ ÙĦØ§
ĠØ§ÙĦØ¥ Ø·ÙĦØ§ÙĤ
ĠØ¹Øµ Ø§Ùħ
ĠØ§ÙĦØ´Ø¹Ø± ÙĬØ©
ĠØ§Ø± Ø³
Ġpro ced
ĠØ§ÙĦØ§Ø³ØªØ«ÙħØ§Ø± ÙĬØ©
ĠÙħØª Ø¬Ø±
ĠØ§ÙĦØ¬Ùĩ Ø§Ø¯
ĠØ§ÙĦØ£ ØµÙĪÙĦ
ech n
ĠØ§ÙĦØ°Ùĩ Ø¨ÙĬ
ĠÙĪÙĤ Ø±
ĠØ§ÙĦÙĨØ³ Ø§Ø¦ÙĬØ©
ĠØªØ³Øª ÙĩØ¯Ùģ
ĠØ´ Ø±ÙĬÙģ
ĠØ¹ÙĪ Ø§ÙħÙĦ
ĠÙĬÙĪÙĨ Ø³
ĠØ± ÙĪØ¨
ĠØ¨ÙĨ ØŃÙĪ
f t
ĠÙĪØ¨ ÙĨ
ĠØ§ÙĨ Ù
ĠØªÙĪÙĤØ¹ Ø§Øª
ĠØ±ÙĬ Ùģ
ØŃ ÙħÙĦ
ĠØ§ÙĦÙģ ÙĬØ²
ĠØ§ÙĦØ´Ø¨ ÙĥÙĬÙĩ
ĠÙħÙĬØ´ Ø§ÙĦ
ĠØ´ Øª
ĠØ¥Ø¯ ÙĦØ¨
ĠØ¹Ùħ Ø§Ø¯
ĠØ¨Ø¥ ÙħÙĥØ§ÙĨ
Ø§ÙĨ Ø³
Ø¶ Ø§Ø±
ĠØ§ÙĦÙħØ³ ÙĦÙħÙĪÙĨ
ĠØ§ÙĦÙħÙĬØ¯ Ø§ÙĨ
ĠØ£ÙĪ ÙĦÙĬ
Ø§ÙĦØª ÙĩØ§
ĠØ± Ø¹
ĠÙĩØ¯ ÙģØ§
ĠØ¥ÙĨ ÙĩÙħ
ĠØ´ Ø®ØµÙ
ĠØ¨Ø§ÙĦØ· Ø¨Ø¹
ĠØ§ÙĦØªØ¹ ÙĦÙĬÙħÙĬ
Ø¨ÙĬ Ø¨Ø©
ĠØ£ Ø¬ÙĨ
ĠÙĪØ§ÙĦØª Ø¹Ø§ÙĪÙĨ
ÙĪ Ø§ÙĨÙĬ
ĠØ§ÙĦØªØµ Ø±Ùģ
ĠØ§Ø« Ø§Ø±
ĠØ§ÙĦØ´Ùĩ Ø±ÙĬ
Ġe x
ĠØ¥ÙĨ ÙĨØ§
ĠÙħÙĤ Ø§ÙĪÙħØ©
ĠØ§ÙĦÙĨ ØŃÙĪ
ÙĪÙĨ Ùī
ĠØ¨Ø§ÙĨ Øª
ĠØ§ÙĦØ¯ÙĬÙĨ Ø§Ø±
ĠØ·ÙĪÙĬ ÙĦØ§
Ø§Øµ ÙģØ©
ĠÙĪØ³ ÙĨ
ĠØ§ ÙĬØ©
ĠØ§ÙĦØŃ ÙħÙĬØ¯
ĠÙħØ± Ø§Ø³
ĠØ§ÙĦØ£ÙĪØ± Ø§ÙĤ
ĠØªØª ØŃØ¯Ø«
ĠÙĪØ§Ø¶ ØŃØ§
ĠÙħÙĨÙĩ Ø¬
Ø§Ø¨ ÙĬØ±
ÙĬØ§ÙĨ Ø§Øª
ĠÙĬØªØŃ ÙħÙĦ
ĠÙĬØ¹ Ø§ÙĨÙĪÙĨ
ĠØ³ÙĬØ¯ Ø©
ĠÙĪÙĥ Ø´Ùģ
ĠØ¨ÙĤ ÙĪÙĦÙĩ
Ø¨ Ø±ÙĬ
ĠÙĦÙĦØ§Ø³Øª Ø«ÙħØ§Ø±
ĠØ§ÙĦÙģ ÙĦØ³ÙģØ©
ħ ÙĦÙħ
ĠØ§ÙĦØ£Ø« Ø§Ø«
ĠØ§ÙĦÙĤ Ø§Ø¨
ĠØ³ Ø¬ÙĨ
ĠÙĦØ´ Ø¤ÙĪÙĨ
ĠØ§ÙĦØ§ ÙĪØ±ÙĪØ¨ÙĬ
ĠØ§ÙĦØ¥Ø³ ÙĥØ§ÙĨ
ĠØŃØ³ Ø§Ùħ
Ø§Ùģ Ø±ÙĬÙĨ
ĠÙĬØ³ ØªÙħØ±
ĠØ§ÙĦØ§Ùģ ØªØ±
Ø·Ø§Ø¹Ù ħ
ĠØ§ÙĦØªØ§Ø±ÙĬØ® Ù
ĠØ§ÙĦØªØ§Ø±ÙĬØ®Ù Ĭ
ĠØ§ÙĨØª ÙĤÙĦ
ĠØ§ÙĦØ¨Ø¯ Ø¡
ĠÙģ Ø§ÙĦØŃ
ĠA n
Ù ħÙĦÙħ
ĠØ§ÙĦØ´Ø± Ø¹ÙĬ
e x
ĠØ²Ù Ĭ
ÙĪÙĤ Øª
ĠÙĨ ÙĬØª
ĠÙĪ ÙĦÙĦÙ
ÙĪØ¹ Ùĩ
ow s
ĠØªØ¬ Ø±Ø¨
ĠØ§ÙĦÙħØª Ø¸Ø§ÙĩØ±ÙĬÙĨ
ĠÙĪØ§Ø¬ Ø¨
Ġ ÙħÙĦÙħ
ĠØ¥ ÙĬÙħØ§ÙĨ
ĠØ§ÙĦØªØ¶ Ø§ÙħÙĨ
ĠÙĪØ§ÙĦØ¯ ÙĪÙĦÙĬØ©
ĠØ§ÙĦØ¹ÙĪ Ø§ÙħÙĦ
ĠØ§ÙĦÙħÙĨØ´ Ø¢Øª
ĠØ¨Ø¹Ø¯ Ø¯
ĠÙħØŃ Ø±Ùĥ
ĠÙĩ Ø§Ø¯ÙĬ
ĠØ³ ÙĪÙħ
Ġ7 3
ĠÙģ Ø§ÙĦØ£
Ø§Ø¸ Ø±
ĠÙĪØ§Ùĥ Ø¯
ĠØ¨Ø§ÙĦØª Ø±
ĠØº Ø¶Ø¨
ĠØ± ÙĪÙĨØ§ÙĦØ¯
ĠÙħØ¨ Ø§ÙĦØº
ĠØ£ØŃ Ø¯Ø§
ĠÙĬØª ÙĪ
ĠØªØªÙħ ÙĥÙĨ
ĠÙĨ Ø¨ÙĬÙĦ
ĠØ¨ ÙĦÙĤ
ĠØ§ÙĦØ¯Ùĩ ÙĪÙĨ
Ĭ ØªÙħÙĬØ²
ÙħÙĬ ÙĦÙĩ
Ù ĬØªÙħÙĬØ²
ĠØªØ¬ ÙĩÙĬØ²
Ġ ÙħØ§Ø¦Ø©
ĠØ§ÙĦØ´Ø¹ Ø±Ø§Ø¡
ĠÙĪ Ø§ÙĦÙī
ĠØª Ø¨Ø±
ĠØ£Ø¹ ÙĪØ§Ùħ
ĠØ± Ø¯Ø§
Ø§Ø¨ ÙĩØ§
ĠØ³ÙĪØ¯ Ø§ÙĨÙĬØ²
Ùĥ Ø§Ø©
ĠØ§ÙĦØ®Ø¨Ø± Ø§Øª
Ø¯ Ø§Øª
Ø§Ø¹ ÙħØ©
ĠÙħØ« ÙĦÙħØ§
ĠÙĦØ¹ Ø¯Ø¯
ĠØ¥ÙĤ ÙĦÙĬÙħ
ĠØ§ÙĦÙħ Ø§Ø¯ÙĬØ©
ĠØ§ÙĦØ¨ØªØ± ÙĪÙĦ
a la
ĠØ³Ù ĬÙĪ
ĠÙĪØºÙĬØ± Ùĩ
Ø± Ø®
ĠØŃ ÙĦÙĤØ§Øª
ÙĦÙĬ ÙĪÙĨ
ĠØ§ÙĦÙĨ Ø§Ø·ÙĤ
ĠÙĪØª Øº
ÙĪØª Ø§
Ġ ÙĬØªÙħÙĬØ²
ĠÙĦÙĪ Ø¶Ø¹
ĠÙĩÙĨØ§ ÙĦÙĥ
ĠÙĪØªÙĤ ÙĪÙĦ
ĠÙĪØ§ÙĦØª Ùĩ
i z
Ø¹Ø¨ ÙĬØ±
ĠÙĪØ£ ØŃÙħØ¯
ĠØ§ÙĦÙħØŃÙħ ÙĪÙĦ
ĠÙĪØ§ÙĦØ¯ ÙĥØªÙĪØ±
ĠØ§ÙĦØª Ø±Ùħ
ĠÙĬØ´ Ø¨Ùĩ
ĠØ³ÙĪÙĬØ³ Ø±Ø§
ĠØ§Ø³Øª Ø¹
ħ Ø¨Ø¯
ĠØ§ÙĦÙħÙĪ Ø§Ø¬ÙĩØ©
ĠØ§ÙĦØ£ Ø±Ø¨Ø¹Ø©
ĠØ§ÙĦÙħ ØŃÙĬ
ÙĬÙĪ Ø³
ĠÙĪØ§ÙĦØ«ÙĤ Ø§ÙģØ©
Ø«Ù ĬÙĪ
Ø° Ùī
ĠØ§ÙĦÙħØŃ Ø§ÙĥÙħ
ÙĪ ØªÙĩ
ĠØ® ÙĬØ±Ø§
ou t
Ù ħØ·Ø±
ĠÙĬÙĩ ØªÙħ
ĠÙĪØ¬Ùĩ Ùĩ
ĠØŃ ÙĪÙĦÙĩ
ĠÙĦÙĦØ¯ ÙģØ§Ø¹
ĠØ§ÙĦÙĪÙĤ ÙĪØ¯
ĠØ§ÙĦØŃÙĪ Ø«ÙĬ
Ù ħØ¨Ø¯
ĠØ¥ ÙĬÙĩ
ÙĬØª ÙĬÙĨ
Ġ ÙħØ¨Ø¯
Ø§ÙĨ Ø¯Ø©
ØªÙ ħÙ
ØŃ Ø§Ø±
ĠØ¬ Ø³Ø±
p h
ØªØ² Ø§Ø²
ĠØ§ÙĦØ° Ø§ÙĥØ±Ø©
ĠÙĪØ§ÙĦØ¹ ÙĦÙħ
ĠÙĦØª ÙĦÙĥ
ĠÙĪÙ ħØ«
Ø¬ Ø§Ùħ
ĠØ¨ Ø¯Ø§
ĠØ§ÙĦØªØµ Ø§ÙħÙĬÙħ
ĠØ§ÙĦØº Ø¯
ĠØªÙĥ Ø±ÙĬÙħ
ÙĩÙĬ Ø¦Ø©
Ġ ÙħØ·Ø±
Ø¦ Øª
ĠÙħØ± Ùģ
Ø¯ÙĬ Ø¨
Ø¬Ù ħÙĩ
ĠÙĨÙĩ Ø§Ø¦ÙĬØ§
ĠØ±Ø³ ÙĪÙħ
ĠØ³ Ø±ÙĬØ¹Ø©
ĠÙģÙĦØ§Ø´ Ø§Øª
ĠØ¹Ù ħÙĤ
ĠÙĨØ³Øª Ø·ÙĬØ¹
ĠÙĬØ¯ Ø¹Ùħ
ÙĩÙĨ Ø¦Ø©
ĠØ§ÙĦÙĤ ÙĪØ§Ø¹Ø¯
ĠÙĬÙĥÙĪÙĨ ÙĪØ§
ĠØªØ· Ø§ÙĦØ¨
ĠØªÙĨ Ø³ÙĬÙĤ
ĠØ§ÙĦØ£Ø® ÙĦØ§ÙĤ
ĠØ£ ÙĦÙĤ
ÙĦÙĬ ÙĩØ§
ĠØ§ÙĦÙģ Øµ
ĠØ¹ Ø¸ÙĬÙħ
Ġ am
ĠØ§ÙĦÙĨÙĬ Ø§Ø¨ÙĬØ©
ÙĩØ± Ø¬
ĠØ§ÙĦØ¥ Ø·Ø§Ø±
ÙĦØ¨ Ø§Øª
ĠÙĥ Ø³Ø±
Øª Ø¯ÙĬ
ĠÙħØ¯ ÙĬÙĨ
ĠÙĪØ§ÙĦØŃ ÙĬØ§Ø©
ÙĦØ§Ø³ Ù
Ø´ Ø§Ø±ÙĬ
ĠÙĨØµ Ø§Ø¦ØŃ
ĠØ§ÙĦØ§Ø³ ØªÙĬ
ĠØ¯Ø± Ø³
ĠØ§ÙĦÙħ ÙģØ±
ĠÙħØ¯ Ø®ÙĦ
ĠÙĨ ÙĩÙĬ
Ø§Ø¹Ù Ħ
ĠØ§ÙĦÙĤ ÙĦÙĪØ¨
ĠØ§ÙĦÙħ Ø±Ùģ
ĠÙĦÙĦØŃ Ø¯
Ø§ÙĤ Ùĩ
ØŃ ÙĪØ«
ĠØ§ÙĦÙħØ³ Ø§Ø¬Ø¯
Ø´Ø± ÙĪÙĨ
ĠØ§ÙĦØ´ Ø§Ø´Ø©
ÙĪØ¯ Ø§ÙĨ
ĠØ§Ø³ Ø§Ø³
ĠØ§ÙĦØ¢ ÙĦØ§Ùģ
ÙĬÙĪ Ø¨
Ĭ Ø·Ø±ØŃ
Ù ĬØ·Ø±ØŃ
Ġ ÙĬØ·Ø±ØŃ
Ø¤ ÙĬØ©
Ø±Ø¨ ÙĪÙĦ
ĠØ§ÙĦÙħÙĪ ÙĦØ¯
ĠØ§ÙĦÙħØ´ ÙĥÙĦØ§Øª
ĠØ§ÙĦØ³Ø¹ Ø§Ø¯Ø©
ĠØ¨ØªØ¹ Ø¯ÙĬÙĦ
ĠØªØ£ ÙĥØ¯
ĠØ§ÙĦÙħØ´ ØŃÙĪÙĨØ©
ĠØ¹Ùħ ÙĦØ§Ø¡
ĠØ±Ø£Ø³ Ùĩ
Ø¶Ù ĬÙĤ
ĠÙħØŃ Ø³ÙĨ
ĠØ§ÙĦØ¬ÙĨ Ø§Ø¦ÙĬØ©
ĠØ£Ø³ ÙĦØŃØ©
ĠÙĦØ§Ø¹ Ø¨ÙĬ
ĠÙħØ´ ÙĥÙĦØ§Øª
ĠÙħÙĪ ÙĦØ¯
ĠØ§ÙĦÙģ Ø¦Ø§Øª
Ø§Ø¹ ÙĬØ§Øª
ĠØ· Ø¨Ø¹
Ø§Ø¹ Ø§
Ù ħØ§Ø¹
ĠØ¬ÙĨ ÙĪØ¯
Ø¬Ø± Ø§ÙĨ
ĠØŃ ÙģØ±
ĠØ§ÙĦØ£Ø± Ø´ÙĬÙģ
olog y
ĠØªØŃ Ø¸Ùī
al l
ĠØ§ÙĦØº Ø§ÙĦØ¨
ĠØ§ÙĦØ£ Ø³ÙħØ§Ø¡
ĠØ®Ø±Ø¬ Øª
ÙĦØŃ ÙĤ
ĠØ³ ÙħØŃ
ĠØ§Øµ ØŃØ§Ø¨
ĠÙħØ¹ØªØ¨Ø± Ø§
ĠØ§ÙĦÙĨ ØµÙĪØµ
ĠØ¯ ÙĬÙĨÙĬØ©
ĠØ¶ Ø§Ø¨Ø·
ĠØ§ÙĦØŃÙĥ ÙĪÙħØ§Øª
ĠÙĦØªÙĨ Ø¸ÙĬÙħ
ĠÙĦÙĦØµ Ùģ
ĠØ¨Ø¥ Ø°ÙĨ
ĠØ¥Ù ħØ§Ùħ
ĠØªÙĨØª ÙĩÙĬ
ĠØ§ÙĦÙĥ Ø±ÙĬÙħØ©
ĠÙĦØª Ø¨
Ø¨ ÙĥØ©
ĠÙĬØ¯ Ùĩ
ĠØ£Ø·ÙĦÙĤ Øª
ĠØ§ÙĦØŃ ÙĤØ§Ø¦ÙĤ
ĠØ§Ø³Øª Ø®Ø¯Ùħ
ĠØ§ÙĦØ³ ÙħØ§
Ġ6 9
ÙħØ§ ÙĦÙĩ
ĠØ§ÙĦØ³ÙĨ ÙĪÙĬØ©
ĠÙĤ ÙĪÙħ
ĠØª Ø§ÙĬÙħ
ĠÙħÙĪ Ø±ÙĬØª
ĠØª Ø±ÙĬ
Ĭ ØªÙĬØŃ
Ø§Ùħ Ø±Ø§Øª
ĠØ§ÙĦÙħÙĤ Ø¯Ùħ
ĠØ§ÙĦØ¹Ø§ÙħÙ Ħ
Ġ7 6
ĠØ® Ø§ÙĦÙĬØ©
ĠØ§ÙĦØ§Ø± ÙĩØ§Ø¨
Ħ ÙĪÙĦ
Ù ĬØªÙĬØŃ
ĠØ§ÙĦØ¯Ø± Ø§ÙħØ§
Ġ ÙĬØªÙĬØŃ
ĠØª Ø§Ø¬
ĠØ® Ø§Ùħ
ĠØ¨Ø§ÙĦØª Ø£ÙĥÙĬØ¯
ĠÙħØ± Ø¬
ØªÙĤ Ø§Ø¡
Ġ x
ĠØ§ÙĦØ® ÙĦÙĤ
ĠØªØ£ ÙĦÙĬÙģ
ĠØ§ØŃ ØªØ±
ĠØ¨Ø§ÙĦØ «
Ø´ ÙĬØ±Ø©
ĠØ§ ÙģØ±
ĠØ§ÙĦØ³ ÙĥÙĨ
ĠØ§ÙĦÙ ĬÙĨ
ĠÙĪØµÙ ĬØ§ÙĨ
ĠÙĪØ§ÙĦØ¥ Ø¹
Ø· ÙĪÙĦ
ĠÙĨ Ø³ÙħØ©
ĠÙĨ Ø§
ĠÙģ Ø±ÙĪØ¹
ĠØ§Øª Ø¨Ø§Ø¹
ĠØ¨Ù ħØª
ĠØ§ÙĦØ± Ø³Ùħ
ĠØ§ÙĦÙħØ³Øª ÙĪÙĬØ§Øª
ÙĦØ§Ù ĬÙĬÙĨ
ĠØ´ ÙĬØ±
ĠÙħØ¹ Ùĥ
ÙĥØ± ÙĪÙĨ
ĠØ£ÙĪ Øº
ĠØ£Ø¯ ÙĨØ§Ùĩ
ĠÙģÙĬ ÙĨ
ĠØ³ÙĬ Ø·Ø±Ø©
ĠØ¨ Ø§
ĠØ¨ Ø±Ùģ
ĠØ§ÙĦØ¨Ø± Ø§Ø²ÙĬÙĦÙĬ
ĠÙĦØ§Ø³ ÙĬÙħØ§
ĠÙĨÙĪÙĨ Ø¨Ø±
ĠØªØ· ÙĦØ¨
ĠØ§ÙĦØ£Ùħ Ø§ÙĨØ©
Ø¯Ø± Ø³
ĠØ§ÙĦØªØ£ ÙĥØ¯
ĠØ§ÙĦØŃ ÙĥÙħØ©
ĠØ§ÙĦØ´ ÙĬØ±
ĠÙħÙĤ Ø§ÙĦ
ĠØ³ÙĦÙĪ Ùĥ
ĠÙĪØµ ØŃ
ĠÙħØ¨ Ø§ØŃØ«
ĠØ§ÙĦØ® Ø·Ø±
ĠØ§Ø³ØªÙħØ± Øª
ĠØ£ÙĨ Ø´Ø·Ø©
ĠÙħØ¹ ÙĦÙħ
Ø± Ø§Ø¹Ø©
ĠØ§ÙĦØ£ÙĨ Ø¨ÙĬØ§Ø¡
ĠØ§ÙĦÙħØª Ø£
ĠÙĪØ£ Ø¹ÙĦÙĨ
ĠØ³ ØŃØ±
ĠØ§ÙĦÙģ Ø·Ø±
ĠØ§ÙĦØ¨ÙĦØ¯ Ù
ĠÙĪ ÙģØ¹
ĠØ¨Ø¹ÙĬØ¯ Ø©
ĠØ§ÙĦØ¨ÙĦØ¯Ù Ĭ
Ø² Ø§ÙħÙĨ
ĠØ¬ ÙħÙĩÙĪØ±
ØªÙģ Ø¹Ø©
Ĭ Ø¨Ø±
ĠØ§ÙĦØ¨ Ø¯Ø±
ind ows
Ø· Øª
ĠÙĦØ¬ Ø§ÙĨ
Ø§Ø¹ Ø§Ø©
ĠÙħØ³Øª Ø®
ĠÙħÙĬ Ø¯ÙĬØ§
ĠØ§ÙĦÙĩ Ø§ÙħØ©
ĠØ§ÙĦØµ Ø¹Ø¨Ø©
ĠØ¯Ø§Ø± ÙģÙĪØ±
ĠØ§ÙĦÙħ Ø¸
ĠØ§ÙĦÙĨØ§Øª Ø¬
Ø³ Ø§Ø·
Ø§Ùĩ Ø¬
ÙĦØ§Ø³ ØªÙĬÙĥ
ĠÙħÙĨ Ø¨Ø±
ĠÙĦØ§Ø ¯
ĠØ²ÙĪØ¬ Ø©
ĠØ§ÙĦØ°Ùĩ Ø¨ÙĬØ©
Ùģ Ùģ
ĠP K
ĠØ¨Øª ÙĩÙħØ©
ĠØ¨Ø§ÙĦÙģ ÙĬØ¯ÙĬÙĪ
ĠØ§ÙĦÙħØ¬ ÙħØ¹
ĠÙĬØª Ø¨Ø¹
ĠÙħÙĪ Ø§ÙĦÙĬØ¯
I N
Ø¨ Ø¦Ø©
ĠØ§ÙĦØ§Ø® ÙĬØ±
ĠØ§ÙĦÙħØ¹Ø¯ Ø§Øª
ĠØ§ÙĦÙħÙ ħØ«
ÙĦÙĪ Ø¹
ĠÙĪÙĤ Ø¯Ø±
ħ ÙģØ§ÙĪØ¶Ø§Øª
ĠØ· Ø±Ø¯
ĠÙĪÙĪÙģ ÙĤØ§
ĠØ§Ø¹ØªÙĤ Ø§ÙĦ
ĠØ§ÙĦÙĤ Ø¯Ø±
ĠÙĪÙ ĬØ²
ĠØ§ÙĦØ´ÙħØ³ ÙĬØ©
ĠÙĪØµÙģ Ø§Øª
ĠÙħØ³ ÙĬØ±
ĠÙĪØ§ÙĦØ¹ Ù
ĠØ± Ø¨Ùĩ
Ø¬Ø§Ø² Ø©
ØªÙ ĬØª
Ù ħÙģØ§ÙĪØ¶Ø§Øª
ĠØ§Ø¨Ù Ĭ
ĠØ§ÙĦØ¬ ÙĦÙĬÙĦ
Ø¨Ø· Ø§ÙĦ
ĠØ§ÙĦØ¬ÙĨ Ø³ÙĬ
ĠÙĪØ± ØŃÙħØ©
ĠØ§ÙĦØ¹ Ø²
ĠØ¹ÙĨ Ø¯ÙĬ
ĠØŃ ØµØ©
ĠÙĦÙĪ ÙĥØ§ÙĦØ©
ĠØ¨Ù ħØµØ±
ĠØ§ÙĦÙħØŃ Ø§ÙħÙĬ
ĠØªØªØ¹ Ø±Ø¶
Ġ ÙħÙģØ§ÙĪØ¶Ø§Øª
ĠØ³ Ø§ÙħÙĬ
ĠÙĬØ³ ÙħØ¹
Ġs p
Ø§Ø« ÙĬØ©
ĠØ® Ø³Ø§Ø±Ø©
ĠØ£Øµ ÙĪØ§Øª
ĠØ§ÙĦÙħÙĥ ÙĦÙģ
ĠØª ÙĩÙħ
ÙĦØ§Ø¬ Ø§Øª
ÙĩØ¯ Øª
ĠØ³ Ø¨ÙĦ
ĠÙĪÙĬ Ø£ØªÙĬ
ĠØ¥Ø¯ Ø®Ø§ÙĦ
ÙĪØ§ ÙĩØ§
ÙĩØ±Ø¨ Ø§Ø¡
ĠØ£Ø® Ù
ĠØ¨Ø²ÙĬ Ø§Ø¯Ø©
ĠØ§ÙĦØ¹ÙĨ ÙĪØ§ÙĨ
Ø«Ø± Øª
ĠØ§Øª ÙĩÙħ
ĠØª ÙģØ±
ĠØŃ Ø§Ø±Ø³
ÙħÙ ĬØª
ĠØ§ÙĦÙħØ¹ ØªÙħØ¯Ø©
ĠØ§ÙĦÙħ Ø¹ÙĬØ´
ĠÙħØ¹ Øª
ĠØ§ÙĦÙħØ³Øª ÙĤÙĦØ©
ĠØ§ ÙĩÙĦ
ĠØ¥ Ø·
ĠØ§ÙĦØ¹ ÙĦÙĬ
Ùĥ ÙħÙĦ
ĠØª Ø¯Ø§
ĠÙĥÙĪÙĨ ÙĩØ§
ĠØ¢ÙĨ Ø°Ø§Ùĥ
h t
en d
ÙĦÙĩ ÙħØ§
ĠØ§ÙĦØ´ Ø±Ùģ
ĠØ§Ø³Øª ÙĤØ¨
ĠØ´Ø®ØµÙ ĬØ§
ĠØŃÙĬ Ø§ÙĦ
ĠÙĪØ§ÙĦØ ¸
ĠÙ¢Ùł Ù¡Ù
ĠÙĪØ§ÙĦØª Ø£
ĠØ§ÙĦØªØ¹ Ø§ÙĤØ¯
ĠØ§ÙĦÙĨØ¯ ÙĪØ©
ĠØ§ÙĦÙħØ°Ùĥ ÙĪØ±
ĠØŃØ± Ø§Ø±Ø©
ĠØ§ÙĦÙĤ ÙĪÙĬØ©
ĠØ§Ø³Øª Ø«
ĠØ³ÙĨ ØºØ§Ùģ
Ġ6 2
ĠØ§ÙĦÙĥ Ø³
ĠØ« Ø¨Øª
ĠÙĪØ§ÙĦØ¹ Ø±Ø§ÙĤ
ÙĨÙĩ Ø§Ø¡
ĠÙĪÙħÙĨ ÙĩÙħ
i an
Ø§Ø¦Ù ħÙĬÙĨ
ĠØ³ Ø§Ø±
ĠØ§ÙĦÙĤ ÙĦÙĤ
Ø§ÙĦØ¯ ÙĬÙĨ
ĠÙĬØ¹ÙħÙĦ ÙĪÙĨ
ĠÙĦÙĦÙĨ Ø§Ø³
at e
ÙĦØ§ ÙħÙĬÙĩ
ĠØ¨ ØŃÙĦÙĪÙĦ
ĠÙĦØªØ¹ Ø²ÙĬØ²
ĠØ§ÙĦØ² Ø¹ÙĬÙħ
ĠØªØ¹ Ø·ÙĬ
Ø§Øª ÙĨØ§
ĠØ§ÙĦØ£ Ø¨ØŃØ§Ø«
ØµÙ ĬÙģ
ĠÙĪ ÙĥÙħ
ĠØ§ÙĦÙħØµ Ø§ÙĦØŃØ©
ĠÙĬÙĤ ÙĬÙħ
Ø±ÙħÙĪ Ø²
ĠØªØª ÙĨ
ĠØ§ÙĦØµØŃÙĬØŃ Ø©
ÙĪÙĬ ÙĬÙĨ
ĠØ£Øµ Ø¯ÙĤ
ĠØ£Ø¬ ÙĪØ§Ø¡
ĠD e
ĠØŃÙĤ ÙĤØª
Ø±ÙħÙ ĬÙħ
ĠØµ ÙĦØ©
ĠÙĪØ§ÙĦØª Ø·
ĠØ´ Ø§Øª
ØªÙħ ÙĦØ©
ĠØªØªÙħ Ø«ÙĦ
ĠØªØ· ÙĦÙĤ
Ø±ÙĬØŃ Ø§
ĠÙĪØ§Ø³Øª Ø®Ø¯Ø§Ùħ
Ø§Ù ĬØ¹
ĠÙħØ¶ Ø§Ø¹
ĠÙĪØ£ Ø¬
ĠÙħØ§ Ùĥ
ĠÙĨÙĬ Ø¬ÙĬ
ĠØªØ¬ ÙĨØ¨
Ø´ Ø§
ĠÙĥ ÙĦÙĬÙĨ
ĠØ§ÙĦØ¨Ø± ÙĬØ©
ĠØ§ÙĦÙĬÙħ ÙĬÙĨ
ĠØªÙģ ÙĪÙĤ
ĠØ£ÙĨÙ Ĭ
ra b
ĠÙĬØ³ Ø§ÙĪÙĬ
ĠÙĦÙĦØ¬ ÙĬØ´
on d
ĠØµ Ø§Ø¯Ø±
Ù ĦÙĪÙħØ§Øª
ĠØ§Ø± ØªØ¨Ø§Ø·
ĠÙħØ³ Ø¹ÙĪØ¯
r an
ĠÙĦÙĦØ§ ÙĨØªØ®Ø§Ø¨Ø§Øª
ĠØ¥ÙĨÙĩ Ø§Ø¡
ĠØ·Ø¨ ÙĤØ§
ĠÙĪÙĤ Ø¯Ùħ
ĠØ§ÙĦØ§Ø³Øª Ø®Ø¨Ø§Ø±Ø§Øª
ĠØ§ÙĦØ¥ ÙĨØª
ĠØ¹ÙĤØ¯ Øª
ĠØ§ÙĦØªØ¯ Ø®ÙĬÙĨ
ĠØ§ÙĦØ´Øª Ø§Ø¡
ĠØ¹Ø±Ùģ Øª
Ø¦ Ø§Ø¨
ĠÙģ ÙĥÙĦ
ĠÙħØ´ Ùĥ
ĠÙĪØ§ÙĦÙĤ Ø§ÙĨÙĪÙĨ
ĠØ§ÙĦÙĬØ§Ø¨ Ø§ÙĨÙĬ
ĠØ§ÙĦØªÙ ħØ«
Øº ÙĦØ§ÙĦ
ĠÙħØ¨ Ø§Ø¯Ø¦
ĠÙĬØ² ÙĪØ±
ĠØ§ÙĦÙĨ ÙħØ³
ĠØ§ÙĦØ¹Ø§Ùħ Ùĩ
ĠÙĪ Ø¨ÙĬ
Øª Ø§ØŃØ©
ĠØ¨Ù ħØµ
ĠÙĪÙĪ ØµÙģ
ĠØ§ÙĦØ¥ ÙĦÙĩ
ĠÙģ ÙĪØ¬
ĠØ§ÙĩÙħ ÙĬØ©
ĠØ¯ÙĬ Ø³
ĠÙĬØ³Øª ÙĤØ¨ÙĦ
Ø·ÙĨ Ø¨ÙĪÙĦ
ĠÙĦØ£ ÙĥØ«Ø±
ĠØ§ÙĦØ³ Ø§Ø¹Ø§Øª
ĠÙĨ ÙģÙĬÙĩ
Ø§ÙĬØª Ø¯
Ø±Ù ħØª
ĠÙĪØŃ ÙħØ§ÙĬØ©
Ø§Ùħ Ùī
ĠØ´ Ø±ÙĬØ·
ĠØ§ÙĨ Ø´Ø§Ø¡
ĠØªÙĪ Ø³ÙĬØ¹
ĠÙĨØ¯ Ø§Ø¡
ĠØ§ÙĦÙħØ¨ ÙĥØ±
Ø¯ Ø¡
ÙģÙĬ ÙĬÙĨ
ĠØ§ÙĦØ®Ø· ÙĬØ¨
ĠØªÙĨ ÙģÙĬ
ÙĪØ§ Ùĥ
ĠÙĥ Ùĩ
ĠÙħØŃ Ø§Ø¶Ø±Ø§Øª
ĠØ£ ØŃØ±
ĠØ¨Ø§ÙĦÙĤ ÙĪÙĦ
ĠØ§ÙĦØ§Ø¹ ØªØ¯Ø§Ø¡
ĠØ´ ÙĬÙĪ
ĠÙĪ Ø§Ø·
ĠØ§ÙĦÙħ Ø§Ø³
ĠØªÙĤ Ø³ÙĬÙħ
ĠØ§ÙĥØª Ø´Ùģ
ĠØ§ÙĦÙĤØµ ÙĬØ±Ø©
ĠÙħÙĤ Ø§Ø·Ø¹
ĠØ´Ø¹ Ø±Ø§Ø¡
ĠØ§ÙĨÙ Ĭ
ĠØ§ÙĦØŃ Ø§Ø¶Ø±
ĠÙĦÙĦØ´ Ø±ÙĥØ©
Ĭ Ø°
ĠØ§ÙĦÙħØª ÙĪÙĤØ¹Ø©
ÙĪÙĨÙĬ Ø³ÙĬØ§
ĠØ¹ Ùĥ
ÙĬØ²Ù Ĭ
ĠØ§ÙĦÙħØ³ Ø§ØŃØ©
ĠØ§ÙĦØŃØ± Ø¨ÙĬ
ĠÙħØ±ØŃ Ø¨Ø§
ĠØ§ÙĦ ÙĪØ¯
ĠØ¨ÙħØ® ØªÙĦÙģ
ĠÙĦÙĬ Ø¨
ÙĪÙĨ Øº
ĠØ£Ø¬ ÙħØ¹
ĠÙħÙĦØ§ØŃ Ø¸Ø©
ĠØ§ÙĦØª ÙħØ±
ĠØ§ÙĦØ§ÙħÙĨ ÙĬØ©
ĠØ£ Ø±Ø¨Ø§ØŃ
ĠØ§ÙĦÙħØŃÙĬ Ø·Ø©
ĠØ§ÙĦØ¨ÙĪØ± ØµØ©
ĠØµØ§Ø± ÙĪØ®
ĠØªØ£ Ø¬ÙĬÙĦ
ĠØ§ÙĦØ° ÙĥØ±
ĠØŃ Ø¯Ø©
ĠÙħÙĪØ¸ Ùģ
ĠÙĬÙģ Ø¶ÙĦ
M D
ĠØ·ÙĦØ¨ Ø©
it y
ĠØ£ÙĨ Ø¯
ĠØªÙģ ÙĤØ¯
ØŃ Ùī
ĠØ§ÙĦÙħØ± Ø§ØŃÙĦ
M T
ĠØ§ÙĪ ÙĦØ§
ĠØ§ÙĦÙħØµ Ø§Ø¨ÙĬÙĨ
ĠØ´Ø± Ø¹ÙĬØ©
ĠØ¨Ø§ÙĦÙħ Ø³Øª
ĠÙĤØ¨ Ø§Ø¦ÙĦ
Ø§Ùĥ ÙĪ
ĠØ¹Ù ħØ¯
ĠÙĬØ« Ø¨Øª
ØªØµ Ø§Ùħ
Ĭ ÙģÙĬØ¯
ĠÙĩÙĪ ÙĬØ©
Ø¹ ÙĦÙī
ÙĪØ§ ÙĥØ¨
ĠØ¨ Ø¦Ø±
ĠØ§Ø±ØªÙģØ¹ Øª
ĠØ¨ Ø§Ø´
ĠÙĪÙĤ ÙĬÙĦ
ĠØ§ÙĦØ³ Ø§Ø®
ĠØª ÙģÙĬØ¯
ĠÙĦÙĦÙĤ ÙĬØ§Ùħ
ĠÙħÙĪ Ø³ÙĬÙĤÙī
ĠØªØ³ ÙħÙī
ĠØ§ÙĦÙħØ³Øª Ø®Ø¯ÙħØ©
ĠØ¯ÙĬÙĥ ÙĪØ±
ĠØªØµ ÙĨÙĬØ¹
ĠÙħØ± Ø³ÙĬ
ĠØ¯Ø§Ø® ÙĦÙĬØ©
ĠØ§ÙĨØ·ÙĦÙĤ Øª
ĠØ§ÙĦØŃÙĪ Ø§Ø¯Ø«
Ĭ ÙĦÙħ
ĠØ£ÙĪ Ø§Ø®Ø±
Ø´Ùĩ Ø§Ø¯
ĠÙĪØ§ÙĦØŃ Ù
ĠÙĪÙħÙĨ Ø¹
Ġ7 4
Ø´ ÙĬØ§
ĠØ§ÙĦØ¥ÙĨ Ø¬ÙĦÙĬØ²ÙĬ
ĠÙĪØ« Ø§Ø¦ÙĤ
ĠØ¶ Ø±Ø¨Ø©
Ùģ Ø§ÙĨ
Ġ9 6
Ù ĬÙĪÙĦ
9 6
Øµ Øª
ĠØ§ÙĦØŃØ± Ø§Ùħ
ĠØ«ÙĤ Ø§ÙģÙĬØ©
ĠØªØ³ Ø±Ø¨Ø§Øª
ĠØ§ÙĦØŃØ³ Ø§Ø¨Ø§Øª
r y
ĠØ§Ø¹ Ø¯Ø§Ø¯
ĠÙģÙĬ ÙĤÙĪÙĦ
ĠØ¥Ùħ ØªÙĬØ§Ø²Ø§Øª
ĠÙĬÙħÙĥÙĨ ÙĨØ§
Ø±ÙĬ ÙĬÙĨ
Ùĥ ÙĪÙħ
ĠØ¬Ø± Ø§ØŃØ©
ÙĬÙĨÙ ĬÙĩ
ĠØ§ÙĦÙĨØ² Ø§Ø¹
ĠÙģ ÙĦÙĬØ³
ĠÙģØ¹ ÙĦÙī
Ù ĬÙģÙĬØ¯
ĠØ³ÙĬØ± ÙģØ±
ĠØ§ÙĦØ¨ÙĦØ¯ Ø©
ĠØ§ÙĦÙħ ØªÙħ
ĠØ´ÙĩØ¯ Ø§Ø¡
ĠØŃ ÙĤÙĬÙĤÙĬ
Ø§Ù ĬÙĬÙĨ
ĠØ§ÙĦØªÙĤ ÙĨÙĬØ§Øª
Ø² Ø§Ø¦Ø±
ÙĪØ§ ÙĩØ±
ĠÙħÙĥ Ø«
Ø§ØŃ Ùģ
ØªØ±Ø§ ÙĥÙĬ
Ø¨Ø± ÙĬØ©
ØµØ¯ ÙĤ
ĠØ§ÙĦØ« Ø¯ÙĬ
ĠØ§ÙĦÙħØ± Ø§ÙĤØ¨Ø©
ĠÙĪØ¬ ÙĪÙĩ
ĠØªØª Ø£
ÙĪØ³ ÙĨØ©
ĠÙĬØ¶ ÙħÙĨ
ĠÙģÙĬ Ø±
A D
ĠØ§ÙĦØŃÙĥ ÙĬÙħ
7 0
ĠØªÙĤØ¯Ùħ ÙĩØ§
ĠØ§ÙĦØ¹ÙĤ Ø§Ø±
ĠØ§ÙĦØ¯ ÙħÙĪÙĬØ©
Ø¨Ø¯ Ø§ÙĦ
ĠØ§ÙĦØ± Ø§Ø¨Ø·Ø©
ĠÙĪØ¹ ÙħÙĦ
ĠØªÙĪ ÙģÙĬÙĤ
ØªÙ ĬØ§
ĠØ£Ø± Ø³
ĠÙħØª Ø·ÙĦØ¨Ø§Øª
ĠØ§ÙĦØ± Ø§Ùģ
ĠØ¹Ùħ Ø§Ø±
ĠØ§ÙĦØ·Ø§Ø¦Ùģ ÙĬØ©
ĠØ¨ ØµÙĬ
ĠØº Ø§Ø²
Ø³Ø§Ø¡ Ù
ĠØ¨Ø§ÙĦÙħ Ø¬
Ø³Ø§Ø¡Ù Ħ
ĠØµÙĬØ¯ Ø§
Ø· Ø£
ĠØ§ÙĦØ± ØºØ¨Ø©
ĠÙĨ Ø³ÙĬ
ĠØ¯ÙĪ ÙĦÙĬ
ĬØ¬ Ø§Ø±
ĠØ§ÙĦØŃ Ø¯ÙĬØ¯Ø©
ÙĪØ§ÙĨ Ø§
Ġ ÙħØ¦
ĠÙĪØŃ ÙĤÙĪÙĤ
ĠØ§ÙĦÙĥ Ùģ
ĠØŃØ§Ùħ Ø¯
ĠØ§ÙĦÙħØ¤ Ø´Ø±
ĠØ¨Ùģ ÙĪØ²
Ġproced ure
Ġ ÙĬÙģÙĬØ¯
ĠÙħÙħØ« ÙĦØ©
ĠØŃ Ø§ÙĥÙħ
ĠÙĪØ³ Ø¬ÙĦ
ĠØ§ÙĦØ£Øµ ÙĦÙĬ
ĠØ§ÙĦØ² Ø§Ø¦Ø±
ĬÙģ Ø§
Ø´Ø± Øª
ĠÙĤ Ø¨ÙĬÙĦ
ÙĥØ±ÙĬ Ø§
ĠØ§ÙĦÙĪ ÙĦØ§ÙĬØ©
Ø³Ù ħØª
ĠØªØ« Ø¨ÙĬØª
ĠÙĦÙĦØªØ¹ ÙĦÙĬÙħ
ĠØ± ÙĪÙħØ§
ĠÙĬÙģ ØªØŃ
ĠÙĪÙĤ ØªÙĩØ§
ĠØ¨Ø³ÙĬ Ø·
Ø¨ Ø¶
ĠØ§ÙĦÙħØ¤ ÙĤØª
ĠÙĦÙħÙĨ Ø§ÙĤØ´Ø©
ĠÙħÙ ħØ±
ĠØµ ÙģØ©
ĠÙĥØ« Ø±Ø©
ÙĪØ¶ ÙĪØŃ
ĠØ§Ø¹ØªØ¨Ø§Ø± Ø§
ĠÙĩ ÙĬØ±
ĠØ£Ø³ Ø§Ø³ÙĬØ©
ĠÙĪØ£Ø® ÙĬØ±Ø§
ĠÙĦÙģ Ø±ÙĬÙĤ
ĠØ£Øº ÙĨÙĬØ©
ĠØ³ ÙĦÙģ
ĠØ§ÙĦØ± Ø§Ø¦Ø¹Ø©
Ø´ ÙĬØ±
ĠØŃØ³ ÙĨÙĬ
ĠØ§ÙĦÙĩ Ø¬ÙħØ§Øª
ĠØ§ÙĦØ³ ÙĦØ¨ÙĬØ©
ĠÙĩ Ø§Ø¯
ĠØ¹Ø¯ Ø³Ø©
ĠØ§ÙĦØ¬ Ø³
ĠØ§ÙĦÙĪÙĤ ÙĪÙģ
ĠØ§ÙĦØŃ Ø±ÙĪØ¨
ĠØ§ÙĦÙħÙħØª Ø§Ø²
ĠØ§ÙĦÙĪ ÙĤØ§ÙĬØ©
ĠØ§ÙĦØŃ Ø§Ø±
ĠØ§ ÙĤÙĦ
Ø¹Ù ħÙĤ
ĠØ£Ø¹ Ø¸Ùħ
Ø§Ø±Ù ĬÙĩ
ĠØ§ÙĦÙĦÙĤ Ø§Ø¡Ø§Øª
Ø± Ø§Ø¶
ĠØ§ÙĦØ£Ø´ ÙĩØ±
ĠØŃÙĬØ§Øª Ùĥ
ĠØ£Ø®Ù Ĭ
ĠØ§ÙĦÙĤ Ø±ÙĬØ¨
ĠØ¨ÙħÙĤ Ø±
ĠÙĦÙĦØ¹ Ù
ĠØ§ÙĦØª ÙħÙĪ
ĠØ¥ ÙĬÙĤØ§Ùģ
ĠØ¬ÙĪ Ø§Ø¦Ø²
ĠÙĦÙĩ ÙħØ§
Ø±Ø¯ Ø´Ø©
ĠØ§ÙĦÙħØ® ØªØµ
ØµÙ ĦÙĪØ§
H D
ĠÙĪØªØŃ Øª
ĠØ¥ÙĬØ¬ Ø§Ø¨ÙĬØ©
ĠØ¶ ÙĪ
Ø£Ù ħ
ĠØ§ÙĦØ¢ ÙĦÙĬ
ØºØ± Ø³
ĠØ§ÙĦØ±ØŃ ÙĦØ§Øª
ÙĦÙĬ ØŃ
Ø±ÙĪ ÙĤØ§Øª
ĠØ§ÙĦØ¨ØŃ Ø±ÙĬ
ĠØ´ Øº
ĠØªÙĪ Ø«ÙĬÙĤ
Ùģ ÙĪÙĤ
ĠÙĬØª ÙĨØ§ÙĪÙĦ
ĠØªØ¹ ÙĦÙĬ
ĠØ§ÙĦØ§ÙħØª ØŃØ§ÙĨØ§Øª
ĠØ§ÙĦ ÙĦØ§Ø¦
ĠØ³ ÙĥÙĨÙĬØ©
Ùĩ ÙĬØ©
ĠÙĪØ£ Ø®Ø°
ĠØŃÙĬØ§Øª ÙĩÙħ
ĠØ· Ø¹Ø§Ùħ
ĠØ® Ø§ÙĨ
ĠØ§ÙĦÙħÙĩ Ø§Ø¬Ø±ÙĬÙĨ
ĠØ¶ Ø®ÙħØ©
ħ Ø°ÙĥØ±
S D
Ø°Ø§ ÙĥØ±
ĠÙĪØ§ÙĦØ¥ Ø±
ĠØ§ÙĦØ³ Ø§Ø¦ÙĤ
Ø§Ùħ Ø¹Ø§Øª
Ø§Ø¯ ÙĬÙĨ
Ù ħØ°ÙĥØ±
ĠØ§ÙĦØ¨Ø· Ø§ÙĦØ©
Ġ8 4
ĠØ§ÙĦØ¥Ø¬ ØªÙħØ§Ø¹ÙĬØ©
ĠØ¯ÙĬ ÙģÙĬØ¯
ĠØ§ÙĦØ§Ù ĬØ§Ùħ
ĠØ§ÙĦØªØŃ ÙĦÙĬÙĦ
ĠØ¹ ÙĦØ§ÙĤ
ĠØ¬ ÙĬÙĨ
Ġ ÙħØ°ÙĥØ±
ĠÙĪØ§ÙĦØ³ÙĬØ§Ø³ ÙĬØ©
ĠÙĤ Ø§ÙĦÙĩ
ĠØ¹ Ø³
ĠØ± ÙĪØ²
ĠØ¥ Ø®Ø±Ø§Ø¬
ĠØ§ÙĦØªØ´Ø±ÙĬ Ø¹ÙĬØ©
Ø¹Ø§Ø± Ùģ
ĠØ¨Ø§ÙĦÙħ ÙħÙĦÙĥØ©
ĠÙĪØ§ÙĦØ§ ÙĨØª
ÙĪÙĤØ¹ Ø§Øª
ĠÙħØª ØµÙģØŃ
ĠØ§ÙĦÙħ ÙĨØ§Ùĩ
ĠØ§Ø¬ ÙħÙĦ
ĠÙģ ÙĪØªÙĪØ´ÙĪØ¨
Ø¯ Ø¹
ÙĪØ· ÙĨ
ÙĦÙħÙĨ Ø§
ĠØŃ Ø§Ø¦ÙĦ
ĠØ¹Ø´Ø± ÙĬÙĨ
ĠØ§ÙĦÙħ Ø®ØµØµØ©
ĠØ¹Ø¯ Ø³Ø§Øª
Ø§Ø¯Ù ĬÙĩ
ĠØ¨Ùģ Ø¹ÙĦ
ĠÙĦØŃÙ ħ
ĠØ§ÙĦØ¹Ùħ ÙĦØ©
ĠØ§ÙĦØª ÙħÙĬÙĬØ²
ÙĥÙ ĬØ§Øª
ĠÙĥØ§Ùħ ÙĦØ§
ĠØ§ÙĦØ³ÙĬØ§Ø³Ù ĬÙĬÙĨ
ĠØ§ÙĦØªØŃ Ø¶ÙĬØ±
ĠØªØ¯ Ø±ÙĬØ¨ÙĬØ©
Ø§Ø §Ø
Ø±Ùħ ÙĪÙĨ
ĠØ§ÙĦÙħÙĨØª Ø¸Ø±
ĠØ¨ÙĪØ± ØµØ©
ħ Ø®ØµØµ
ĠØ§ÙĦØ¥ÙĤ ÙĦÙĬÙħÙĬ
ĠÙĪØ§ÙĦØ« Ø§ÙĨÙĬ
ĠØ³ÙĬØ¯ ÙĨØ§
ĠØµ Ø§Ø¯ÙĤ
ĠØ§ÙĦÙ ĬØ§Ø³
ub e
ĠØŃ ÙĬØ¯Ø±
ĠØ§ÙĦØµ Ù
ĠØ± Ø§Ø¨
Ù ħØ®ØµØµ
Ġ ÙħØ®ØµØµ
ØŃ Ø³ÙĨ
ĠØ²Ù ĬØ§Ø¯
ĠÙĪØ§ÙĦÙħ Ø¨
ac k
ĠØ§ÙĦÙħ ØªÙħÙĬØ²
ĠÙĦØµ Ø§ØŃØ¨
ĠØ§ÙĦÙħØª ÙĤØ¯Ùħ
ĠÙĦØªØŃ Ø³ÙĬÙĨ
ĠÙĪØ§Ø´ Ø§Ø±
Ø®Ø± ÙĬÙĨ
ĠÙĪØ³ÙĬ ØªÙħ
ĠØ£ Ø¬Ø¯
ĠØ¨ÙĬÙĨ ÙĨØ§
ĠØ§ÙħØª Ø¯Ø§Ø¯
ħ Ø®Ø±Ø¬
ĠØ§ÙĦØ§Ø³Øª Ø¹
ĠØªØ´ Ø¬ÙĬØ¹
ĠØŃ Ø´Ø±Ø§Øª
Ġ8 8
ĠÙĦÙĦØŃ ÙģØ§Ø¸
Y D
ĠØ§ÙĦØ¹Ø§Ø¦ ÙĦØ§Øª
Ø³ØªØ± Ø§ÙĦÙĬØ§
c k
ĠØ§ÙĦÙħ ÙĬØª
ĠÙĦÙĦÙĥ Ø§ØªØ¨
ĠØ§ÙĦÙĬØ³ Ø§Ø±
Ù ĬÙĦÙħ
ĠÙĪÙĪØ² ÙĬØ±
ĠØ¯ Ø¹Øª
ĠØ§ÙĦØ±Ù ħ
ĠÙĦÙħ ØµØ±
Ø¬Ùħ Ø§Ø¹
Ġ7 8
ĠØŃØ¯ÙĬØ« Ø§
id e
ĠØ§ÙĦÙħØ³ Ø§Ø±
ĠÙĪØ¨Ø¹Ø¯ ÙĩØ§
ĠØ§ÙĦØª ÙĩØ§Ø¨
Ø±Ø§Øª ÙĬØ¬ÙĬØ©
ĠØªØ³ ÙĬØ±
ĠÙĤØ§Ùħ ÙĪØ§
ĠØ§Ø³ ÙĪØ§ÙĤ
Ø¶Ø± Ø§Ø¨
ÙĦØ® Øµ
ĠØªÙĨ ÙĤ
Ù ħØ®Ø±Ø¬
ĠÙĬÙģ Øª
ĠØ¬ÙĦØ³ Ø§Øª
Ġ ÙħØ®Ø±Ø¬
ĠØ§ÙĨØª Ø§Ø¬
Ø¬ Ø±ÙĬ
ĠØª ØªØ±Ø§ÙĪØŃ
ĠAnd roid
ĠÙĤ Ø¯ÙĬÙħØ©
ĠØ¨ ØŃØ¯
ĠØ§ ÙĪØ¨
Ġ <
ĠØ§ÙĦØ§Ø¹ ÙĦØ§ÙĨØ§Øª
ĠØ§ÙĦØ± Ø§ØŃØ©
ĠØ§ÙĦØ§Ø³ Ø±Ø©
ĠÙĦÙĦÙĨ Ø¸Ø§Ùħ
Ġ j
ĠØŃ ÙĨ
ĠØ§ÙĦØŃØ¶ Ø§Ø±Ø©
ĠØ§ÙĦÙĨ Ø¶
ĠÙĪ ÙĪØ¬Ùĩ
ĠÙĪØ¨ Ø·
ÙģÙĦ ÙĪÙĨ
Ø¹Ø§Ø± Ø¶
ĠØ§ÙĦØŃ Ø¬Ø²
ĠÙĦØ£ Ø³Ø¨Ø§Ø¨
ĠØ§ÙĦØ¹ Ø³
Ġ ÙħØ§Ø¯
ĠØ¯ÙĬÙ ħÙĤ
ĠØ§ÙĦÙģØª Ø§ØŃ
ÙĦÙĪ Ø§Øª
Ø¨Ùĩ Ø§Øª
ĠØ§ÙĦØ£Øµ ÙĪØ§Øª
ĠØ¬Ø¹ ÙĦØª
ĠØ¨Ø§ÙĦØ§Ø Ń
ĠØ§Ø³ØªØ¹Ø¯Ø§Ø¯ Ø§
ĠÙĪØ¹ Ø¨Ø±
ĠØ®Ø² Ø§ÙĨØ§Øª
ĠØªØ³ Ø¬ÙĬ
Ø¨ ÙĪØª
ĠØª Ø¯ÙħÙĬØ±
Øº ÙĦØ¨
ħØª Ø¹
ĠØ¨ Ø§Ùĩ
ĠØ§ÙĦÙĤØµ ÙĬÙħ
ĠØ§ÙĦÙĪ Ø§Ø¶ØŃ
ĠÙĦÙĦÙħÙĪ Ø§Ø·ÙĨÙĬÙĨ
ĠØŃ Ø¯ÙĬØ¯
ĠÙĬÙĨ Ø§
ĠÙħØŃ Ø§ÙĥÙħØ©
ĠØ§ÙĦØ¨Ø§ØŃØ« ÙĬÙĨ
ĠØ¬ Ø³Ø¯
ĠØ§Ø¬ØªÙħØ§Ø¹ Ø§Øª
ĠÙĨ ØµÙĪØµ
ĠØ³ÙĦØ· Ø§Øª
ĠØ³ ÙĨØª
ĠØ¹ÙĨØ¯ ÙĩØ§
Ù ħØ³ÙĬ
ĠØ§ÙĦØºØ§Ùħ Ø¯ÙĬ
ĠÙĥ ÙĬÙĨ
ĠÙĦÙĦÙ ħØ¨
ĠØ§ÙĦØ³ ÙĦÙĪÙĥ
ĠØ¢Ø®Ø± ÙĪÙĨ
ĠØ§ÙĦØ· ÙĪÙĬÙĦØ©
ĠÙĪØŃ ÙĬÙĨ
ĠØ¹Ø±Ø§ ÙĤÙĬ
ĠØ§ÙĦÙģÙĬØ² ÙĬØ§Ø¡
Ø§Ø¦ Ø¨Ø©
ĠÙĤ ØµÙģ
Ø´ Ø¹
ĠØªØ± Ø´ÙĬØŃ
ĠØ±ÙĪ Ø§Ø¨Ø·
ĠØ± ÙģÙĬØ¹
ĠØ³ Ø§Ø®
ĠØ§ÙĦÙħØ¹ Ø§ÙĬÙĬØ±
ĠN ew
ĠÙĨ Ø§Ø¯Ùī
ÙĨØ§ÙĤ Ø´
ĠØ§ÙĦØ³ ÙĦÙĬÙħ
ÙĬÙĥ ÙĪ
ĠØ§ÙĦØ¨Ø´ Ø±ÙĬ
ĠØ£ÙĤ Ø§Ùħ
ĠØ§ÙĦØªÙĪ ÙĤÙĬØ¹
ĠÙħØ¬ Ø¯
ĠÙģÙĩ Ø°Ùĩ
ĠÙħÙĪ Ø§Ø±Ø¯
ĠÙħØ³Øª Ø¹
ĠØ§ÙĦØ§ÙĬØ± Ø§ÙĨÙĬ
ĠØ§Øª Ø´
ĠØ§ÙĦÙħØ¹Ø¯ Ø©
ĠÙĥÙĪÙĦ ÙĪÙħ
Ġ Ùł
ĠÙĪØ£ Ø±
ĠØ§ÙĦØ¬ ÙĬØ²Ø©
ĠØªÙĤ ÙĨÙĬØ§Øª
ĠØ´Ø¹ Ø¨Ø©
ĠØ§ÙĦÙħ Ø¬ÙĬØ¯
ĠÙĪØ£ÙĨ ÙĩØ§
ĠØ§ÙĦÙĬÙĪÙĨ Ø§ÙĨ
ĠØ§ÙĦÙģ Ø¬
Ġ8 00
Ø¨ Øº
ĠØ§ÙĦØ¨ Ø§Ø·ÙĨ
ĠÙĨ Ø§ÙĬÙģ
ĠØªÙĥØ± Ø§Ø±
ĠØ¨ÙħØ¬ Ø±Ø¯
ĠØ§Ø¹ ØªÙĤØ¯
ĠØ§ÙĦØµÙĨ Ø§Ø¹Ø§Øª
ĠÙĪØ³ ÙĪØ±ÙĬØ§
´ ØªØ±Ø§Ùĥ
ĠØ§ÙĦØ¢ Ø³ÙĬÙĪÙĬØ©
ĠÙħÙĨ Ø¸ÙħØ§Øª
ĠØ£Ø¸ÙĩØ± Øª
9 0
ĠÙĤ ØµØ¯
Ø± Ø¢ÙĨ
ĠÙģÙĦØ³Ø· ÙĬÙĨÙĬØ©
ĠÙģ Ø§ÙĦØª
ĠØ¨ ÙĥØª
ĠÙĦÙħ Ø®
ĠØ´ Ø§Ø±ÙĥØª
ĠØ§ÙĦØ¹ Ø§Ø¯ÙĬ
Ø§Ø¨ ÙĦØ§Øª
i ve
ĠØ¨ÙĬÙĨ Ùĩ
ĠØ§ÙĦØ¯ÙĬÙħÙĪÙĤØ±Ø§Ø· ÙĬØ©
ĠØ§ÙĦØ¨ Ø§Ùĥ
Øµ ÙĦÙĬØ©
ĠÙĦÙĦØª ÙĤ
ĠÙģØ¹ Ø§ÙĦÙĬØ©
ĠØ¨Ø§ÙĦÙĥ ÙĪÙĬØª
ĠØ§ÙĦÙħÙĪ Ø§Ø²ÙĨØ©
ĠØ§ÙĦØ¨ ÙĬÙĪØª
ĠÙĪØ§ÙĦØ¹ Ø±Ø¨ÙĬØ©
ħ Ø§Ø±Ø©
ĠØ§ÙĦÙħÙģ Ø§Ø¬
ĠÙĪØ« ÙĤ
ĬØ± Ø©
ĠÙĨ Ùĥ
ĠÙĥ Ø§ÙĦÙĬ
Ø· Ø§Ø¨
ĠÙĪ ØªØ±Ùĥ
ĠÙĦØªØŃ Ø¯ÙĬØ¯
ĠØ® Ø¨ÙĬØ±
Ø¦ Ùĩ
ĠÙħØ¹ ØªÙħØ¯
ĠW indows
ĠØ§ÙĦØ£Ùĩ ÙĦÙī
ĠÙĩ Ø¬ÙħØ§Øª
ĠØ§ÙĦØªØŃ ÙĥÙĬÙħ
ĠØ§ÙĦØ¹Ø§ÙĦÙħ ÙĬÙĨ
ĠØ§ÙĦØ³Ø¬ ÙĪÙĨ
ĠØµØŃÙĬØŃ Ø©
ĠØ§ÙĦØ¹ ÙĥØ³
Ø® Ø§Ùħ
ĠØ§ÙĦÙħØ± ØªØ¨Ø·Ø©
ĠÙĨÙ ħØ§Ø°Ø¬
ĠØ¨Ø§ÙĦÙ ĦÙ
ĠÙĦÙĪ Ø³
ĠÙĪÙĬØ¹ Ø¯
Ø§ØµÙ ħ
ĠÙħØ® Ø·Ø·
ĠÙĦÙĦØ£ ÙĨ
ĠÙĬÙĤ Ø±Ø£
ĠØ§ÙĦØ« Ù
ĠØª ÙĩØªÙħ
ĠØ£ Ø±ÙĤØ§Ùħ
ĠA L
ĠØµØ¯Ø± Øª
ĠØ§ÙĦØ® Ø§ÙĦØ¯
Ø¯Ùħ Ø§Ø¬
Ø§ ÙĥÙĬ
ĠØ§ÙĦØ¯Ø¹ Ø§Ø¡
ĠØ§ÙĦØ£ Ø²ÙĬØ§Ø¡
ĠÙĥ Ø³Ø¨
ĠØ§ÙĦØ¥ Ø¨Ø¯Ø§Ø¹
ĠØ§ÙĨÙģ Ø¬Ø§Ø±
ĠØ§ÙĦØ¬ ÙĩØ¯
ĠØ¨ØŃ ÙĥÙħ
Ø§Øª ÙĬØ±
ĠØ§ÙĦØª ÙģØ³ÙĬØ±
ĠÙĬÙģ ÙĩÙħ
ĠØ§ÙĦØ£ ÙĪÙĦÙĬ
Ø£ Ø®Ø°
Ø§ ÙĩÙĬ
Øª ØªÙħ
ĠØ¥Ø¹ Ø·Ø§Ø¡
Ù ĦÙĪØ±
ĠØŃ Ø±Ùħ
ĠÙħÙĬ ÙĦØ§ÙĨ
ĠØ¨ ÙĬØ³
ĠØ§ÙĦÙģ ÙĬØ±ÙĪØ³
Ø§Ø¬ Ø±Ø©
Ø±Ø¬ ÙĪ
ĠØ§ÙĦÙĦØ§Ø ²Ùħ
ĠØ§ÙĦØ£ ÙĦÙģ
ĠÙĦÙĦØ¨ ØŃØ«
ĠÙĥ Ø±ÙĬØ³
ĠØ¨Ø§ÙĦÙħ ÙĤ
S L
ĠØ§ÙĦØŃ Ø§Ø±Ø³
Ġ ÙħØ³ÙĬ
ĠÙĨØ¸Ø± ÙĬØ©
ĠØ³ Ø®
ĠØ§ÙĦØª ÙĦÙģ
t or
ĠØ±Ø£Ø³ ÙĩØ§
ĠÙģØ± ØŃ
ĠÙħØ³ ØŃ
ĠÙĨØ¹ ÙĦÙħ
ĠÙĩÙ ĬÙĥ
ĠÙħØŃ Ø§Ø¯Ø«Ø§Øª
ĠØ§ÙĦÙĪ ØµÙģ
ĠÙĪØ£ ÙĪ
Ø¤ ÙħÙĨ
ĠØ±ÙĪ Ø§ÙĬØ§Øª
ÙĦØ§Ø °
ĠÙĨ Ø¨ÙĬ
ĠÙĬÙĪÙĨ Ø§ÙĬØªØ¯
ĠØªÙĦÙĤ Ù
ĠØ§ÙĦÙĨ Ø§Ø±ÙĬØ©
ĠØ£Ø¹ ÙĦØ§Ùĩ
ĠØ¬ÙĪ ÙĦØ¯
ĠØª ÙģØª
ĠÙħÙĤ Ø§Ø·Ø¹Ø©
ĠØ§ÙĦÙĦØ° ÙĬÙĨ
Ġ8 6
Ù ĬØ°
Ġ7 2
ĠØ£ØµØ¯Ø± Øª
Øª ÙĨÙĬ
ĠÙħØ³ Ø§ÙģØ©
ĠØ§ÙĦØ´ÙĬÙĪ Ø®
ĠØªÙĦÙĤÙ Ĭ
ĠÙĪØ¥ ØµØ§Ø¨Ø©
Ø¶Ø§Ø¡ Ø©
ĠØ§ÙĦØ§ ÙĪØ³Ø·
ĠØ§Ø¨ ÙĨÙĩ
ÙĪØ¯ Ø¹
ĠØ§ÙĦØ¹ ÙģØ´
ĠØŃØµ Ø±ÙĬØ§
Ġ8 3
ĠØªØ® Ø²ÙĬÙĨ
ĠÙħØ¯ Ø±Ø³
Ø´ ÙĬØ¯
ĠØ§ÙĦÙħØ² Ø§Ø±Ø¹
ĠØ§ÙĦØ¥ ØŃØµ
ĠØªØ± Ø§Ø¬
ĠD ream
ĠÙħØŃ ÙĪØ±
ĠØ§ÙĦØ²Ù ĬØ§Ø¯Ø©
ĠÙĪØ¨ Ø´ÙĥÙĦ
ĠØ§ÙĦÙĨÙħÙĪ Ø°Ø¬
ĠÙĥØ± ÙĪÙĨØ©
ÙĦØ· Ø§Øª
ĠÙĥ Ø°Ø§
ĠØ§ÙĦØ¶ØŃ Ø§ÙĬØ§
ĠØ£Ø³Ø± Ø¹
ĠØ§ÙĦØ§ ÙģØª
ĠØ§ÙĦÙħØ´ Ø§Ø¹Ø±
s h
ĠÙĦÙĦØ³ ÙĬØ§Ø±Ø§Øª
ÙĪØ¹ Ø§
ĠÙĨ Ø¬ÙĬØ¨
ĠÙĥ ÙĦÙģ
ĠÙĬØŃ ÙĤ
ĠØ¹Ø§Ø´ ÙĪØ±
ĠÙĬØª ÙĪÙĤÙģ
ĠÙĦÙĬ Ù
ĠØ¨Ø¨ Ø³Ø§Ø·Ø©
ĠØºØ§ÙĦØ¨ ÙĬØ©
Ø· Ø·Ø§Øª
ĠÙĦÙĬ ÙĦØ§
Ø§Ùĥ Ø³
i le
ĠÙħÙĨ Ùī
ÙĦØ§ ÙĦÙĬØ©
ĠÙĪ ÙĥØªØ¨
ĠØ§Ø³ Ø±Ø§Ø¦ÙĬ
ĠÙħÙĥ Ø§Ùģ
ĠØ§ÙĦØ®Ø§Øµ Ùĩ
ĠØ² Ø¹
ĠØ§ÙĦØ´Ø± Ø§ÙĥØ©
ĠÙħØ¤Ùĥ Ø¯Ø©
E N
ĠØ§ÙĦØ¨ Ø¹ÙĬØ¯
ĠÙĤØµ ÙĬØ¯Ø©
ĠØ§ÙĦØ¨ ÙĦØ§Øº
ĠÙĬØª ÙĥÙĪÙĨ
Ø§Ø² Ø§Ø®
Ø³ Ø¹ÙĬØ¯
ÙĬÙĨ Øª
ĠÙĥ ÙĬÙħÙĬ
ĠØ§ÙĦØ§Ø® ØªÙĦØ§Ùģ
ĠÙħØ¶ Ùī
ĠØ¨Ø§ÙĦØª Ø³Ø¬ÙĬÙĦ
ĠØ£ Ø±Ùī
ĠØ§ÙĦØ§Ø³ØªØ± Ø§ØªÙĬ
ĠØ§ÙĦØ³ ÙĨÙĬÙĨ
ÙĦÙĪ Ùģ
ĠÙĬÙĨ ÙĤ
ØªÙħØª Ø§Ø¹
ÙĬØ¬ Ø§Ø±
ĠÙĬØª Ø®
ĠØ§ÙĦØ¹ Ø³ÙĦ
ÙĥØ±ÙĬ Ø§Øª
ĠØ§ÙĤ Ø³Ø§Ùħ
ĠÙģÙĥØ§ÙĨ Øª
ĠØ§ÙĦØ¯Ø¨ÙĦÙĪÙħ Ø§Ø³ÙĬØ©
ĠØªØ£ Ø³Ø³Øª
ĠØ´Ùĩ Ø§Ø¯Ø§Øª
ĠØ§ÙĦØŃ Ø¸
ÙģØ³ ÙĩÙħ
ĠØ£Øº Ø³
ĠØ§ÙĦØªÙĤ Ø¯ÙĬØ±
ĠØ¨ÙħØ± ÙĥØ²
ĠÙĦØ¹ Ø±Ø¶
ĠÙĪ ØŃÙĬ
ĠØªÙĤ Ø±Ø±
ĠÙħÙ ĬØ³
ĠØ¢ Ø±Ø§Ø¡
ĠØ§Ø³ Ø·ÙĨØ¨ÙĪÙĦ
ĠØ¨Ø§ÙĦØª ÙĤ
ĠØªØªØŃ ÙħÙĦ
ĠÙĦØ§ ÙĨØª
ÙĥØ± Ùĩ
ĠÙĬØ¹ ÙĤØ¯
ĠØ§ÙĦÙħØ³ ÙĦÙħØ©
ĠÙĤØ± Ø§Ø¨Ø©
ĠØ¨ØªÙĨ ÙģÙĬØ°
ĠØ§ÙĦÙĩ ÙĨØ¯ÙĬ
ÙģØª Ø§ØŃ
Ùĥ Ùĥ
ĠØ£ÙĪ ÙĤØ§Øª
ĠÙħÙĦØ§Ù ħØŃ
ĠØ¨Ø· Ø§ÙĤØ§Øª
ĠØ§ÙĦÙģØª ØŃ
ĠØ§ÙĦØŃ ÙĨ
Ø±ÙĪ Ø¶Ø©
ĠØªÙĤ Ø§Ùħ
ĠØ£ØŃØ¯ ÙĩÙħ
Ħ ÙĨÙĬ
ĠØŃ ÙħÙĪØ¯
ĠØ§ÙĦØªØ± Ø´ÙĬØŃ
Øº Ø¯
ĠÙĨÙĬ Ø§Ø¨Ø©
Ø± Ø§Ø³Ø©
ØªØ± Ø·
ĠØ¢ ÙĬØ§Øª
ÙĬÙĨ ÙĪ
ĠØªØ¹ÙĦÙĬÙħ ÙĬØ©
ØŃ ÙĦØ§Øª
Ùģ Ø·
Ġ ÙĬØ§Ø±
ĠØ§ÙĦØ¢ Ø¯Ø§Ø¨
Ĭ Ø§Ø·
ĠØ³Øª Ø³
ĠØ¹ÙĤ ÙĪØ¨Ø§Øª
l o
ĠØ§Øµ Ø¯Ø§Ø±
ĠØ§ÙĦØªØ¬ Ø¯ÙĬØ¯
ĠÙĤ Ø±Ø§Ø¡
ĠØ§ÙĦØ±ÙĪ Ø¨ÙĦ
ĠØ¨ÙĨ Ø´Ø±
ĠÙĤÙĦØ¨ Ù
ĠØ§ÙĦÙĤ Ø·Ø¹
ÙĬÙĥ Ø§ÙĨ
ĠÙĤÙĦØ¨Ù Ĭ
ĠØ§ÙĦÙĤ ÙĪÙĬ
ĠÙħØ´Ø±ÙĪØ¹ Ø§Øª
ĠØ§ÙĦÙĥ ÙĬØ§ÙĨ
ĠØ² Ø§ÙħØ¨ÙĬØ§
ĠØ§ÙĦØ§Ùģ ÙĦØ§Ùħ
ĠØŃ Ø°Ø±
ĠØ´Ù ħÙĦØª
ĠÙħÙĨØ² ÙĦÙĩ
ĠÙĩ Ø§Ø´Ùħ
ĠÙģØ±Ø§ÙĨ Ø³
ĠØ¬Ø² Ø§Ø¡
ĠØ§Ø¬ ØªÙħØ¹
Ø§ ÙĪØ±Ø§Øª
ĠØ§Ø¬ØªÙħØ§Ø¹ Ø§
Ø³Øª Ø§ÙĨÙĬØ©
ĠØ§ÙĦØ³ ÙĨÙĬ
Ø¬Ø¯ Ø¯Ø©
ĠÙĨÙĤ Ø§Ø´
ĠØ§ÙĦØª ÙĥÙĨ
ĠØ§ÙĦØ¹Ø±Ø§ÙĤÙĬ ÙĬÙĨ
Ø§ÙĬ ÙĦØ§Øª
ĠØ§ÙĦØ± Ø§Ø¦Ø¯Ø©
ØºØ± Ø§ÙģÙĬØ§
ØªØ¯ Ø§Ø¡Ø§Øª
ĠØ§ÙĦØ£ Ø³Ø¨ÙĤ
ĠØ§ÙĦØ«Ù ħ
ĠÙĬØ¹ ÙĬØ¯
ĠÙĪØ§ÙĦØ³ ÙģØ±
ĠÙĦÙĦØŃ Ø²Ø¨
ĠÙĩ ÙĪÙĦÙĨØ¯Ø§
ĠØ¨ÙĪ ÙĦØ§ÙĬØ©
ĠØ§ÙĦÙħØµ ÙĦØŃØ©
ĠØ§ÙĦÙħØ¨ Ø§ÙĨÙĬ
ĠØ§ÙĦÙĤØ° Ø§ÙģÙĬ
ĠA rab
ĠØ§ÙĦÙħØ³Øª ÙĪØ·
ĠØ£Ø´ ÙĬØ§Ø¡
ĠØ§ÙĦÙģ ØªÙĬØ§Øª
ĠÙĪØ§ÙĦØ¹ ÙĤ
ĠØ§ÙĦÙħØ± Ø§Ùĩ
ĠØ§ÙĦØ§ØŃØ¯ Ø§Ø«
ĠØ§ÙĦØ³ÙĬ Ø§ØŃÙĬ
ĠÙħÙĪ Ø¬Ø©
ĠØ§ÙĦØª ÙħÙĬØ²
ĠÙĦÙĦØª Ø³
ĠØ§ÙĦØ¶ Ù
ĠØ§Ø³Øª Ùģ
ĠÙĦÙĦÙĨ Ø³Ø§Ø¡
ĠØ§ÙĦÙħ Ø¶Ø§ÙģØ©
Ø« ÙĤ
ĠÙħØ´ Ø§Ø±ÙĥØª
Ø§ØŃ ÙĨØ§Øª
ĠØ±ÙĪÙĨØ§ÙĦØ¯ ÙĪ
ĠØ¢ ÙĦÙĬØ§Øª
ĠØ§ÙĦØ§Ø¹ ÙĦØ§ÙĨ
ĠØ¨Ø³ Ø¹Ø±
Ø¬ Ø§Ø¹Ø©
ĠÙĪÙĬÙĤ ÙĪÙħ
ĠØ§ÙĦØªØ£ ÙĥÙĬØ¯
a v
Ø§Ù ĬÙĤ
ĠÙģ Ø§Ø¦
ĠØ¢ ÙģØ§ÙĤ
ĠÙĬØª ÙĤ
ĠØ³Ø±ÙĬ Ø¹Ø§
ĠØ§ÙĦØ£Ø¬ ÙĪØ§Ø¡
ĠÙħØ¹ Ø§ÙĦÙħ
ĠØ¨Ø£ ÙĥØ«Ø±
ĠÙĦÙĦØ§Ù ĬØ¬Ø§Ø±
ĠØ§ ÙĩØªÙħ
ĠØª ÙĥØª
ÙĨ ÙĤ
ĠØ§Ù ĬÙģ
ĠØ§ÙĦÙħÙĤ Ø§Ùħ
Ĭ ÙĥÙĬ
ĠÙħØ³ Ø¬ÙĦ
ĠØ§ÙĦØ¨ ÙĨØ§Øª
ĠØ§ÙĦÙħØ² Ø¹
ĠØ± Ø¯ÙĪØ¯
ĠØŃÙħ ÙĦØ§Øª
ĠÙĪØ¬ Ø±
ĠØ§ÙĦØµ ÙĦØ§ØŃ
Ġ9 7
ĠØ§ÙĦØ¯ Ùģ
ÙĪØª ÙĩØ§
ĠÙĦÙħ ØªØ§Ø¨Ø¹Ø©
ĠØ¨Ùĥ ÙĦÙĬØ©
ĠØ¬ÙĨ Ø§ØŃ
ĠØ§ÙĦØ± Ø§Øº
ĠØ§ÙĦØŃ ÙĦÙħ
ĠÙħØ´ Ø¯Ø¯Ø§
ĠØ§ÙĦÙħØ¹ Ø§ØµØ±
Ø± ÙģÙĬ
ĠÙĪØ² ÙĪØ¬
ĠØ§ÙĦÙĩÙĨØ¯ ÙĬØ©
ÙĦØ§ ÙģØ©
ĠØ¯ÙĪØ± ÙĩØ§
ĠÙĪÙĥ ÙĨØª
ÙĬØ³ ÙĬØ©
ĠØ±ÙģØ¶ Øª
ĠØ£ ØŃÙĬØ§Ø¡
ĠØ§ÙĦØ§ØªØŃØ§Ø¯ ÙĬØ©
ĠØ§ÙĦÙģ ÙĦØ§Ø´
e y
ĠÙĥÙĩØ±Ø¨ Ø§Ø¡
ĠØºØ¶ ÙĪÙĨ
ĠÙĥÙĪ Ø§Ø´Ø§
ĠØ±Ø¦ÙĬØ³ ÙĬØ©
ĠØ³Ø± ÙĤØ©
ĠØ§ÙĦØ£Ø® Ø·Ø§Ø¡
ĠØ§ÙĦÙħØ¹ Ø¬Ùħ
ĠØ¨ÙħØ¬ ÙĦØ³
ĠØ±Ø¤ ÙĪØ³
ĠØ¬ Ø§Ø±
ĠØ§ÙĦÙĪØ§Ø¬ Ø¨
2 2
ĠØŃ Ø§ÙĪÙĦØª
ĠØ£Øµ ÙĦØ§
Ġ9 8
ĠØ¥ Ø³Ø¨Ø§ÙĨÙĬØ§
ĠØ§ÙĦØªØ¹ Ø§Ø¯ÙĦ
ĠØ§ÙĦØ¥ Ø³ÙħØ§Ø¹ÙĬ
ĠØŃÙħØ¯ Ø§ÙĨ
ĠØ¨Ùĥ Ø§ÙģØ©
ĠØ§ÙĦØ§ ÙĨØ³Ø§ÙĨÙĬØ©
ĠÙĬÙĨ Ø´Ø±
Ø§Ø· Ø¨
ĠØ§ÙĦØ£Ø´ ÙĥØ§ÙĦ
ÙĦÙħ Ø¨ÙĬØ©
ĠÙħÙĨ ÙĤ
ĠØ£Ø¨ ÙĦØº
ĠØ§ÙĦÙģØ±ÙĬÙĤ ÙĬÙĨ
ĠØ¹ Ø§Ø¨
ĠØªÙĤ Øª
ÙĩØ±Ø¬ Ø§ÙĨØ§Øª
ĠÙĨÙĪØ¹ Ø§
ØªØ¨ Ø¹
ĠÙĪØ§ÙĦØ§Øª ØŃØ§Ø¯
ĠSt ar
ĠØ£Ø³ Ø§Ø³ÙĬ
Ø§Øµ ÙĦØ§Øª
ĠØ¹ÙĤØ¯ Ùĩ
ÙĪ ÙĩØ±Ø§Øª
ĠØ§ÙĦÙħØ³ Ø§ÙĩÙħØ©
ĠØ§ÙĦØ§ ÙĩÙĦÙĬ
ĠÙĪÙĬ Ø¨Ø¯ÙĪ
ĠÙĪØ¥ Ø¹
ÙĤÙ ħØ§Ø±
ÙĪ Ø¹ÙĬ
ĠØ§ÙĦÙħÙģØª ÙĪØŃ
ĠØ§ÙĦÙħØŃ Ø§Ø³Ø¨Ø©
ĠØ§ÙĦØ° Ø§ØªÙĬ
ĠØ§ÙĦØº Ø¶Ø¨
ĠØ· Ø§ÙĤØ©
ĠÙģØ± ÙĨ
ĠØ§ÙĦÙħØ· Ø§ÙĦØ¨
ĠØ± Ø¦ÙĬØ³ÙĬ
g e
ĠØ§ÙĦØ¹ ÙĤÙĬØ¯Ø©
ĠØŃ Ø¨ÙĬ
ĠÙĤØ¯Ø± Ø§Øª
Ø¯Ø¯ Øª
ĠÙħØ± ÙĪØ§ÙĨ
ÙĪØ± Ø§ÙĤ
ĠÙĦØ± ÙģØ¹
ĠÙĦÙĪ ÙĤÙģ
ĠØŃ ØµØ±
ĠØ§ÙĦÙħÙ ħØ«ÙĦ
ĠÙĪØ® Ø§Ø±Ø¬
ĠÙĬØŃ Ø¶Ø±
ĠØ§ÙĦÙħÙĨ ØŃ
ĠÙĦÙĦØ§Ø· ÙģØ§ÙĦ
ĠÙĨ Ø§Ø¯Ø±
ĠÙĦÙĦÙĤ Ø¶Ø§Ø¡
ĠØŃ Ø§Ø³
ĠÙĪØŃØ¯ ÙĩØ§
ĠØ§ÙĦØ¹ ÙĤÙĬØ¯
ĠØ§ÙĦØ£ ÙĦÙħ
ĠÙħØª ÙĪØ³Ø·Ø©
ĠÙĪØª Ùĩ
ĠÙĦÙĦØ¹ Ø§ÙĦÙħ
ĠÙĤÙĦØ¨ Ùĩ
ĠÙħØ¤ Ø³Ø³
ĠÙħØŃ Ø¯Ø¯
ĠØ¨Ø± ØµÙĬØ¯
ĠØ§ÙĦØ³Ù ħÙĥ
ĠØ§Øª ÙĩØ§Ùħ
ĠØ§ÙĦØ¨ÙĬ Ø¦ÙĬØ©
ĠØ§ÙĨØª ØµØ§Ø±
ĠØ§ÙĦÙħØ³ÙĬ ØŃÙĬÙĬÙĨ
ĠÙĬÙħÙĥÙĨ Ùĩ
ĠÙĪØ§ÙĦØ¬ Ø±Ø§Ùģ
ÙĦÙĥÙ Ĭ
ĠØ§ÙĦÙħØµ Ø§Ø±Ùģ
ĠÙĪ Ø¹ÙħØ±
ĠØ§ÙĦØ¶ ØºÙĪØ·
ĠÙĪØ§ÙĨ Ùĩ
ĠØ§ÙĦØªÙĪ ØŃÙĬØ¯
ĠØ¨ Ø±ÙħÙĬÙĦ
l y
ĠÙĦØ²Ù ĬØ§Ø¯Ø©
ĠØ§Ø³Øª ÙĥÙħØ§ÙĦ
ĠÙĦÙĦØ³ ÙĬØ¯
ĠØ¨ ÙĪÙĦ
ĠØ§ÙĦØ²ÙĪØ¬ Ø©
ĠØ¨Ø£ÙĨ ÙĩÙħ
ĠØ¨Øª Ø®
ĠØ³ ØŃ
ĠØª ÙĪÙħ
ĠÙħØ± Ø§Ø¯
ĠÙĪ Ø§ØŃØ©
ĠÙĪØª Ø¹Ø¯
ĠØ¯ Ø§Ùģ
ĠØªØ§ÙĬÙħ Ø²
Ø§Øª ÙĬØŃ
ĠÙĬÙĨ Ø¸Ùħ
ÙĪØª ÙĬÙĨ
ĠØªÙģ Ø±Ø¶
ĠÙĬÙĤ Ø§Ø±Ø¨
ĠÙĬÙĥ Øª
ĠØ§ÙĦØ¥Ø® Ø¨Ø§Ø±ÙĬØ©
Ø§Ùĩ ÙĨ
ĠÙĪØ§ÙĦØ³ ÙĨØ©
ĠØ§ÙĦÙĤ ØŃØ·
ĠÙĪÙħØª Ø§Ø¨Ø¹Ø©
ÙģÙ ĬÙĥ
ĠØ§ÙĦØ³ÙĬ Ø§ØŃ
ĠÙħÙĨØ¯ ÙĪØ¨
ĠÙĪØ¶Ø¹ ÙĩØ§
ĠØ¹Ùħ ÙĦØª
ĠØ§ÙĦÙĤØ§Ø¨ Ø¶Ø©
ĠØ£Ùģ Ø§Ø¯
ĠØ§ÙĦØ± Ø§Ø¦Ø¹
ĠØ§ÙĦØ¬ Ø¨ÙĦ
Ø±ÙĬ Ø¶Ø©
ØŃ ÙĨØ§
Ø§ØºÙ Ĭ
ĠØªÙĨ Ø²ÙĬÙĦ
ĠÙĪ Ø³Ø¨
ÙĦØ ¢
ĠÙĨÙĩÙĬ Ø§ÙĨ
ĠÙĪØ§Ù ĬØ¶Ø§
ĠØ§ÙĦØ±Ø§Ùĩ ÙĨ
ĠØ¶ Ø¨Ø§Ø·
ĠØ³ÙĬØ§Ø³ Ø§Øª
ĠØ· ÙĦØ§ÙĦ
i y
ĦÙĪ Ø³
ĠÙĨ Ø§Øª
ĠÙĨ Ø¹ÙĬØ´
ĠØ§ÙĦØ¹ Ø§Ø¬
ĠØªØ¹ ÙĤØ¯
Ġ ÙĦÙĪØ±
ĠØªÙĥ Ø§ÙĦÙĬÙģ
ĠÙĦØ§Ø³Øª Ø®Ø¯Ø§Ùħ
ĠØ§ÙĦØ¨Ø´ ÙĬØ±
ĠØ§ ÙĩØ¯Ø§Ùģ
ĠØ¹ÙĨØ¯ ÙĨØ§
ĠÙĬÙĤ Ø¶ÙĬ
ĠØ±ÙĪ Ø§Ø¯
ĠØ§ÙĦÙħØ± Ø¡
ĠÙĪ Ø§ÙĬ
ĠÙħØ³ Ø±
ĠÙħØµ Ø·ÙĦØŃ
ĠØµØŃ Ø±Ø§Ø¡
ĠÙĪØ§ÙĦØ§ ÙĤ
ĠØªÙģ Ø¹ÙĦ
la m
Ø¨ Ø§ÙĦ
ĠÙĪØ§ÙĦÙħ Øº
ĠØ§ÙĦØ¬Ø§ÙĨØ¨ ÙĬÙĨ
ĠØ¹Ø§Ø¦ ÙĦØªÙĩ
ØªÙģ Ø¸
ĠØ± Ø¨ØŃ
ĠÙħØªØ± Ø§
ĠØ± Ø¦
ĠØ±ÙģØ¹ Øª
Ùĥ ÙĪÙĥ
ĠÙĪØ£ Ø¹Ø¶Ø§Ø¡
ĠÙĦØª ÙĪÙģÙĬØ±
ĠÙĦØ§Ø¹ Ø¨ÙĬÙĨ
ĠØ§ÙĦØ¨Ø· ÙĪÙĦØ§Øª
ĠÙĦÙĨ Ø¸Ø§Ùħ
ĠÙĬØ§Ø³ ÙĬÙĨ
ØŃÙĤ Ø§ÙĤ
ĠØ³ Ø¨ÙĬ
la y
Ø±ÙĪ Ø²
ĠØ¨Øª Ùģ
ĠØ§Øµ ÙĦØ§ØŃ
ĠÙĪØ¬Ùĩ Ø§Øª
ĠØ§ÙĦÙĨÙģØ· ÙĬØ©
ĠÙĤØ± Ø£
ĠØ§ÙĦØ¯ÙĪ Ø§Ø¡
ĠØ¨Ø§ÙĦØ£ Ø³
ĠÙħØµ ÙĨ
ĠØº Ø§Ø¯Ø±
ĠÙĬØ® Ø¯Ùħ
ĠÙĪ ÙģØªØŃ
ħ Ø±ÙħÙī
ĠØ§ÙĦ ÙĪÙĬØ¨
ĠØ§ÙĦÙħ ÙĪÙĨ
Ù ħØ±ÙħÙī
Ġ ÙħØ±ÙħÙī
ĠÙĨ ÙħØ·
Ġ ÙĬØ§ÙĨ
ĠÙĪØ§ÙĦÙ ĦÙĬØ²Ùĥ
Ĭ Ø§ÙģØ©
ĠÙĥ Ø§ÙĦØª
ĠÙħØ± Ùĩ
ĠÙĬØ¯ ÙĪØ±
ĠØ§ÙĦÙĤ Ø¯Ø±Ø§Øª
ĠØ§ÙĦÙĨ Ø¬ÙħØ©
ĠØ§ÙĨØ·ÙĦØ§ÙĤ Ø§
Ø®Ø± ÙĬØ©
ĠØ§ÙĦÙħØ¨ ÙĨÙī
ĠÙħÙĪØ³ ÙĪØ¹Ø©
ĠÙĪØ£ Ø¨ÙĪ
ĠÙģ Ø§Ø¦Ø¯Ø©
ac h
ĠØ¨ØŃ Ø±ÙĬØ©
ĠØ§ÙĦØ£Ø¯ ÙĪØ§Øª
ĠØ¨Ø¯ ÙĤØ©
Ø¨ Ø§ÙĤ
Ġ Ù£
ĠÙĨÙĤ ÙĦØª
Ġwh at
ĠØ§ÙĦÙĤ Ø§Ø¯Ø©
ĠØ³ ÙĬØ±Ø©
ĠØ§ÙĦØ¹ Ø§Ø¯Ø©
ĠØªÙħÙĨ Ø¹
ĠØ¨Ø§ÙĦØª Ø§ÙĦÙĬ
ĠÙģ Ø³Ø§Ø¯
ĠØ§ÙĦØ® ÙĦÙĬÙĦ
ĠØ§ÙĦØªÙħØ« ÙĬÙĦ
ĠØ§ÙĦØº Ø±Ùģ
ĠØµÙĦØ§ØŃ ÙĬØ§Øª
ĠÙĤ Ø§Ø¨ÙĦØ©
Ø±Ùħ Ø¬ÙĬØ§Øª
ĠØ¨Ø§ÙĦÙĦÙĬØ² Ùĥ
Ø² Ø¹Ø©
ÙĪØ§Øª Ø±
Ø§Ø¸ Ù
Ø§ÙĬØ¬ Ø±
ĠÙĤ Ø¯ÙĬÙħ
ĠØ´ Ø§Ø¹Ø±
ĠØ£Ø³ ÙģÙĦ
Ø¬ ÙĪÙĨ
ĠÙħÙĤ Ø¨
ĠÙĪØ§ÙĦÙħ Ùģ
ĠØ§ÙĨ Ø¯Ø±ÙĪÙĬØ¯
ĠÙĬÙ ħÙĪ
ÙĪ Ø§Ø©
ĠÙĪØ£Ø® Ø±Ùī
ÙĥØ§ ÙĬØ©
Ø¨ Ø§Ø¯
ĠÙĪØ§ÙĦÙĬ ÙĪÙħ
ÙħÙĥ Ø§ÙĨÙĬØ§Øª
ĠØ§ÙĦØªØŃ ÙĪÙĦ
Ġ Ø±ÙĬÙħ
ĠØ§ÙĦÙĬ ÙĪÙħÙĬ
ĠØ¨ÙħÙĥ Ø©
ĠØ§ÙĦØªÙĪ Ø¬ÙĬÙĩ
ĠÙĬØŃ ÙĥÙħ
ĠØ³ Ø±ÙĬØ©
Ø« Ø¨ÙĬØª
ĠÙĪØ´ Ø§Ø±Ùĥ
Ø¶Ù ħØ§ÙĨ
ĠØ¹ÙħØ± Ø§ÙĨ
Ø§Ø³ Ø±
ĠØ² Ø¹Ùħ
ĠØ§ÙĦØ±Ø§Ùĩ ÙĨØ©
ĠØ¨ÙĬÙĪ Øª
ÙĪØ§Ø± Ø«
ĠÙĥÙ ĬØ§ÙĨ
ĠØ§ÙĦØ£ ØµØ¯ÙĤØ§Ø¡
ĠØ§ÙĦØ³ ÙĪÙĬ
ĠØ´ Ø±Ø¨
ĠØ§ÙĦØ· Ø§Ø¦ÙģÙĬ
ĠÙĪØ§ÙĦÙħ Ø·
ĠØ·Ù ĬÙĦØ©
ĠØ§ÙĦØ§ØŃ ÙħØ±
ĠØ£ØŃ ÙĦØ§Ùħ
ĠØªØ³ ÙĪÙĬØ©
Ø¨ÙĬ ØŃ
Ø§ÙĪ ÙĬÙĨ
ĠÙĪ Ø¹ÙĬ
ĠÙĪØ§ÙĦØ¥ Ø¹ÙĦØ§Ùħ
ĠØ¬ÙĪ ÙĩØ±
ĠØ§ÙĦÙĤ Ø±ÙĬØ¨Ø©
ĠØŃÙħ Ø²Ø©
ĠÙĪØªÙĤ Ø¯ÙĬØ±
ĠØ§ÙĦØµÙĪ Ø§Ø±ÙĬØ®
ĠÙĬÙĤÙĪÙħ ÙĪÙĨ
l us
ĠØªØª Ø®Ø°
ĠØ§ÙĦØªÙĪ ÙģÙĬÙĤ
ĠØªØª ÙĪ
ĠØº Ø±ÙĬØ¨Ø©
ĠØ¨Ùĥ Ø§ÙĦ
ĠØ¨Ø§Ø¹ØªØ¨Ø§Ø± ÙĩØ§
ĠÙĩ ÙĦØ§ÙĦ
ĠØªÙĨØª Ø¸Ø±
ĠØ§ÙĦÙħØª Ø§Ø¨Ø¹Ø©
ĠØ¹Ø¨Ø¯ Ùĩ
Ġ7 9
ĠØ§ÙĦØ£Ø³ ÙħØ§Ùĥ
ØµØ§Ø± Ùī
ÙĨ Øº
ĠØ§ÙĦØµ Ø¯Ø¯
ĠÙħÙĨ ÙĪØ¹Ø©
ĠØ³ ÙĩÙĪÙĦØ©
ĠØ§Ø³ØªÙĩ Ø¯Ø§Ùģ
ĠØªØ´ Ù
ĠØ§ÙĦØ± Ø¨Ø§Ø·
ĠØ§ÙĦÙĨÙĤØ¯ ÙĬØ©
ĠØ§Ø³ ÙĦØ§ÙħÙĬØ©
ĠØ§ÙĦÙģÙ ħ
ĠØ§ÙĦÙħÙĨ Ø¹
ĠØ³Øª Øª
ĠØ£Ø¯ Ø§Ø©
ĠØ¹ÙĦÙħ Ù
ĠÙĤ Ø±Ùī
ĠØ§ÙĦÙĩÙĨØ¯ Ø³ÙĬØ©
ĠØ§ÙĦØ¨ ÙĪÙĦÙĬ
ĠØ¹ÙĦÙħÙ Ĭ
ĠÙĬØ¯ Ø¹Ùī
Ø±ÙĬØ± Ùĥ
ĠØ§ÙĦØ¯Ø¹ ÙĪÙī
ĠØ¨ÙĦØ§Ø¯ ÙĨØ§
ĠØ¨ÙĬØª Ùĩ
ĠÙĪ Ø§Ùĩ
ĠØ´ÙĩØ± Ø§
ĠÙĥ ÙĨÙĬØ³Ø©
ĠÙħØ¯ ÙĨÙĬ
ĠØ§ÙĨ Ø¬Ø§Ø²
ĠØ² Ø§ÙĪÙĬØ©
Ø® Ø§Ø±
Ø§Ø¯Ù ĬÙĪ
ĠÙħÙĪØ¶ÙĪØ¹ Ø§Øª
Ù ħØ§ÙĦØ§
ĠØ§ÙĦØ¬ Ø±ÙĬØ¯Ø©
ĠÙģØ¹ ÙĦÙĩ
ĠØ§ÙĦØªØ¹ Ø¯ÙĬÙĦ
Ø° ÙĪØ±
ĠÙĪ ØªÙħØª
Ø¦Ù Ħ
ĠØª ÙĦÙħÙĬ
ĠØ¥ÙĤ Ø±Ø§Ø±
ĠØ§ÙĦØ³Ø¹ÙĪØ¯ÙĬ ÙĬÙĨ
ĠØ¹ Øª
ĠØ³Ø± Ø§ØŃ
ĠØ§ÙĦØ§Ø³ Ø¹Ø§Ø±
o ve
Ġ8 7
ĠØ¨Ø£ Ø¹ÙħØ§ÙĦ
ĠØ§ÙĦÙģ ÙĪØ¶Ùī
ĠÙĥØ± Ø³ÙĬ
Ġt h
ĠØ£ ÙħÙĬ
ĠØ·Ø¨ Ø®
ĠØ§ÙĦØ² ÙĪØ±
ĠØ§ÙĦØ£Ùģ Ø±ÙĬÙĤÙĬØ©
ĠÙĨ Ø²ÙĦ
ĠÙħÙĨ Ø§Ø²
ĠØ¨ÙĤ Ø±Ø§Ø±
ĠÙĬØª ÙĤØ¯Ùħ
ĠØ®Øµ Ø§Ø¦Øµ
ĠØ´Ø¹Ø¨ ÙĨØ§
ĠØ§ÙĦØ®ÙĦØ§Ùģ Ø§Øª
Ø³Ø± Ø¹
ĠÙĨÙĪØ¹ ÙĩØ§
ĠÙĦØ£ÙĨ ÙĨØ§
ĠØ¨Ø¹ Ø«Ø©
ĠØ§ÙĦÙĤÙĬ Ø§Ø¯Ø§Øª
ĠØ§ÙĦÙĨ Ø¹
ĠØ§ÙĨ Ø®ÙģØ¶
ÙĤÙ ĬØ§Ø³
Ø§ÙĬÙĪ Ø§ÙĨ
ĠØ§ÙĦÙĥ ÙĪÙħ
ĠÙĬÙģ ØªØ±Ø¶
ĠØ§ÙĦÙĥÙĬÙħÙĬ Ø§Ø¦ÙĬØ©
Ø· Ø§Ùģ
ÙģÙĬ Ø§ÙĨ
ĠØ§ÙĦØ´ Ø±ÙĪÙĤ
ĠØ£ÙĤ ÙĬÙħØª
ĠØªØ¨ ÙĪÙĥ
om p
ĠØªØ± Ø§Ø«
ĠØ§ÙĦØŃØ¬ Ø§Ø¬
ĠØ§ÙĪØ± ÙĪØ¨Ø§
ĠØ¨ÙħØ¹ Ø¯ÙĦ
ĠÙĪØªØŃ Ø³ÙĬÙĨ
ĠÙĪÙĦØ£ ÙĨ
ĠÙĪØª Ø²
ĠÙĪÙĬ Ø±Ùī
ĠÙħØ¨ ÙĬÙĨØ§
ĠØ§ÙĦÙħØª Ø³
ĠØ¬ÙĪ Ø§ÙĦ
Ø±ÙĬ Ø§Ø¡
ĠÙĪØ® Ø·
ÙĪÙĬ Ø¬ÙĬØ©
ĠÙĦØ¨ ØŃØ«
ĠÙħØ¹ Ø§ÙĨØ§Ø©
ĠØ¹Ùħ ÙĦØ§
ĠØ§ÙĦØ¹ Ø´
ĠØ§ÙĦÙĤ Ø§Ø±Ø©
ĠØ¨Ø§Ø³Øª Ø«ÙĨØ§Ø¡
q u
ĠØ§ÙĦÙĤØ¶ Ø§Ø©
ĠÙĨ Ø§ÙĤ
ĠØ¹Ø²ÙĬØ² Ù
Ø§Ø¯ ØªÙĩØ§
ĠØ¹Ø²ÙĬØ²Ù Ĭ
ĠÙĦØ¯Ø± Ø¬Ø©
ĠÙĦØ´ Ø±Ø§Ø¡
ĠØ· Ø§Ø¦Ø±
ĠØ§Ø´ Øª
ĠÙħØ¹ Ø±Ùģ
Ø² Ùī
ĠØ´ Ø§Ùħ
ÙĦØ³Ø· ÙĬÙĨ
ĠÙħØ¹ ÙĨ
ĠØªÙħ Ø§Ø±Ø³
ĠØ¯Ø§Ø¹ ÙĬØ§
ĠØ£ Ø³Ùħ
ĠØ¨Øª ÙĦÙĥ
ĠØªØ¹ ÙĪÙĬØ¶
ĠØ§ÙĦÙħØŃ Ø¨Ø©
ĠØ¨ ØªÙħ
Ø· Ø§ÙĤ
ĠÙħØ± Ø§Ø¹Ø§Ø©
ĠØ§ÙĦÙĨ ØŃ
ÙĪÙħØ§ÙĨ Ø³ÙĬØ©
ĠL e
ĠÙĪØ§ÙĦØª Ùĥ
ĠØ§ÙĦÙħ Ø¯Ø©
ħ ØŃÙħ
ĠØ§ÙĦØµ ÙĬØ§Ùħ
ĠØ³ ÙĬÙħ
Ĭ ÙĩØ¯Ø¯
ĠÙħØ¯ Ø¨
Ø¹Ùħ ÙĦØ©
ĠØ§ÙĦÙħØ³ ÙĦØ³ÙĦØ§Øª
Ù ĬÙĩØ¯Ø¯
Ġ ÙĬÙĩØ¯Ø¯
ĠØ´ ÙĤ
ĠØ³ Ø§Ø¦Ø±
Ø³ÙĬ ÙĦØ©
ĠØ¬Ø§Ø² Ø§ÙĨ
ĠØ§ÙĦØ£ Ø³Ø¨
ĠØªØŃ Ø¨
ĠØ§ÙĦØ¨Ø§ØŃØ« ÙĪÙĨ
ĠÙħÙĥ ÙĪÙĨØ§Øª
ĠÙħØªØ± Ø¬ÙħØ©
ĠÙĦÙĥ Ø§ÙģØ©
ĠÙĪØ§ÙĦØª Ø·ÙĪÙĬØ±
ĠØ£ÙħØ±ÙĬ ÙĥÙĬØ©
ĠØ£Ø¨ ØŃØ§Ø«
Ù ħØŃÙħ
Ø§ÙĤ Ø·
ĠÙħÙĪÙĤØ¹ ÙĩØ§
Ġ ÙħØŃÙħ
Ġ ÙĬØ§Ùħ
ĠÙĦÙħØµ ÙĦØŃØ©
ĠØ§ÙĦÙħØ± Ø§Ø¯
ĠØ§ÙĦÙħÙĨ ÙĩØ¬
Ø±ÙĬ Ø¨ÙĬ
ĠØ§ÙĦØŃÙĪ Ø«ÙĬÙĬÙĨ
Ø¶ Ø§Ø¦Ø¹
ĠØ§ÙĦØº Ø±Ø¶
ĠØ§ÙĦÙħØ¯ÙĬØ± ÙĬØ©
Ø§ØŃ ÙĨØ©
ĠÙĦÙĪ ØŃØ§Øª
ÙĪØµ Ø§Øª
ĠØ§ÙĦØ¨Ø¯ ÙĨÙĬØ©
R E
ĠØ¨Ø¥ ØŃ
ĠØª Ø§Ùħ
ĠÙĨØ¨ Ø¶
ÙĤ ÙĪÙĨ
ÙģØ§ ÙĪØª
ØµØ± Ø§Ø±
ĠÙĪØ§ÙĦØ§Ø³Øª ÙĤØ±Ø§Ø±
ĠØª ÙĨØ³
ĠØ³ ÙĥÙĨ
Ø±Ø§Ø· ÙĬØ©
ĠØ§ÙĦØ±ÙĪ Ø§ÙĬØ§Øª
ĠØ§ÙĨ ÙĩÙĬØ§Ø±
ĠØ¨ÙĪ Ø³Øª
ĠÙĪÙĨ Ø´
ÙģÙĬ Ø¸
ĠØ§ÙĦØ² Ø¨
ĠØ£Ø¹ Ø±Ø¨
ĠØ§ ÙĬÙĨ
ĠÙħØµ Ø±Ùģ
ĠØ´Ø¹ ÙĪØ¨
ĠØ§ÙĦØ£Ø· Ø¹ÙħØ©
ĠØµØŃ ÙģÙĬØ©
ĠØ³ ÙĨØªÙĬÙĨ
ĠØ¥Ø± ÙĩØ§Ø¨ÙĬØ©
ĠÙĦØ£ Ø³
ÙĦÙħ Ùĩ
ĠÙĦÙĤ Ø§Ø¡Ø§Øª
ØªØ± ÙĪÙĦ
ĠÙħÙĤ Ø¯Ùħ
ĠÙĦÙĪ ÙĦØ§
ĠØ§ÙĦØŃÙĥ Ø§Ùħ
ĠØ¨ÙĬØ§ÙĨ Ø§
ÙĥÙĪ ÙĦØ§Øª
ÙĩØ¯ Ø¦Ø©
ĠØ§ÙĦØŃ Ø²
ĠØª ÙĦÙģ
ĠØ¨Ø¹ Ø±Ø¶
Ø§Ø³ Ùī
ĠØ§ÙĦØ§ ÙĦÙħØ§ÙĨÙĬ
an t
ĠØ§ÙĦØ¹Ù ĦÙĪÙĬ
ĠÙħØ³Øª Ø¹Ø¯
ĠØ¹Ùħ ÙĦØ§Ø¦
Ù ¦
ĠØ§ÙĦÙĦÙ ĬØ±Ø©
ĠØ¨Ø¯ ÙĪØ±ÙĩØ§
ÙĩÙ ĬÙ
ĠÙĪÙĬ Ø¤ÙĥØ¯
ĠØª ÙĦØ¹Ø¨
ĠÙĪØ¬ Ø¹ÙĦ
ĠØ§ÙĦØ´ ÙĪ
ĠÙĪØ§ÙĦØ· ÙģÙĦ
ÙĦØ§ ÙĦÙĩ
ĠÙĪØ¨Ø¯Ø£ Øª
i en
ÙĬØ¬ Ø§Ø¯
ÙĬÙĨÙ ĬÙĪÙĨ
ĠÙĬØµ Ø¹Ø¨
ĠÙģØ¥ÙĨ ÙĨØ§
ĦÙĪ Ø¨
ĠØ§ÙĦÙĥ ÙĦÙĬ
o ft
ĠØ§ÙĦØµ ØŃØ±
ĠA r
ĠÙħØ´ ÙĩØ¯
ĠØ¥ÙĨØ³ Ø§ÙĨÙĬØ©
ĠØª ØªÙĬØŃ
ĠØ§ÙĦØ§ ÙĨØ¯
ĠØ£ Ø®Ø±Ø¬
ĠØ§ÙĦÙħÙĩ Ø§Ø±Ø§Øª
ĠÙĪØ´ Ø¹Ø¨
ĠØ´ ØªÙī
Ø±Ø¯ ÙĨ
ĠØ§ÙĦÙħÙĩ Ø§Ùħ
ĠØª Ø¯ÙĦ
Ùĥ Ø§ØªÙĩ
ĠÙģ Ø¶Ø§Ø¡
ĠÙĥ ÙģØ§Ø¡Ø©
Ġ199 8
Ø· ÙĬØ©
Ø° Ø§Ø¡
ĠØ¨ØŃ Ø¬Ùħ
ĠØªÙħ ÙĥÙĬÙĨ
ĠØ§ÙĦØ£Ø¯ ÙĨÙī
ĠØ§ÙĦÙĨØ¸ Ø§ÙģØ©
ĠØ¬Ø§Ùħ Ø¹
Ø§Ø³ Ø§
ĠØ¨Ùģ Ø§Ø±ÙĤ
ĠØ§ÙĦØ± ÙĥÙĨ
ĠØªØ¬ ÙħÙĬÙĦ
ĠØ§Ø³Øª Ø·ÙĦØ§Ø¹
ĠØ§ÙĦØ³ ÙĦØ©
ĠØ£Ø¯ Ø±Ùĥ
ĠÙĤ Ø¯ÙħØ§
ØªØµ Ø§ÙĦØ§Øª
ĠØ§ÙĦØª ÙģØ§ÙĪØ¶
ØªÙģ Ø§Ø¡
ĠÙĤ Ø§Ø±
ĠØ§ÙĦØ® ÙĪØ§Ø·Ø±
ĠØ¢ ÙħÙĨØ©
Ùĩ ÙĦÙĩ
ÙĪÙĤ ÙģØª
Øµ Ø§Ø¡
Ø¹ ÙĥØ³
ĠÙħØ¹ Ø±ÙĪÙģØ©
ĠÙĪ Ø¯ÙĬ
ĠØ¹Ø¶ ÙĪÙĬØ©
Ø¸ Ø§ÙĩØ±Ø©
ĠØ§ÙĦÙĨØ§Ø® Ø¨ÙĬÙĨ
ĠØŃÙĪ ÙĦÙĩØ§
ĠØª ÙĦØ¨
ĠÙĨ Ø¬Ø±Ø§ÙĨ
ħ ØªÙħÙĬØ²Ø©
Ù ħØªÙħÙĬØ²Ø©
ØŃ ÙĨØ©
H P
ĠØ§ÙĦØ³Ø¨ Ø§ÙĤ
ĠØ§ÙĦØ§Ø¬ Ø±Ø§Ø¡Ø§Øª
ĠØ§ÙĦØŃ Ø±ÙĥØ§Øª
ĠØŃÙĬØ§Øª ÙĨØ§
ĠØ§ÙĦØ±ÙĪ Ø§Ø¨Ø·
ØªØ¨ Ø§Ø¹
Ø§Ø¬ Ø¹Ø§Øª
ĠØ§ÙĦØµ ÙģØ±
ĠÙĬÙĨØª ÙĩÙĬ
ĠØ§ÙĦÙħØ¹ ØªÙĤÙĦÙĬÙĨ
ÙĪØ±ÙĬ ÙĪØ³
Ĭ ØµÙģ
ĠÙĬØ« ÙĬØ±
Øª ÙĩÙħØ§
ĠØ§ÙĦÙģØ± Ø¹ÙĬØ©
Ù ĬØµÙģ
Ġ ÙĬØµÙģ
Ġ ÙħØªÙħÙĬØ²Ø©
ĠØ§ÙĦÙĬÙĩ ÙĪØ¯ÙĬØ©
ĠÙĪØ§ÙĦØ¹ Ø¯Ø§ÙĦØ©
ĠØµØ§ØŃ Ø¨Ø©
Ø´Ø± ØŃ
ĠØ§ÙĦØ§Øµ ÙĦØ§ØŃ
ĠØŃÙĤ Ùĩ
ĠØªÙĪ ØµÙĬØ§Øª
ĠÙĥ Ø¹
ĠØ§ÙĦÙħÙĨØ² ÙĦÙĬ
ĠØ§ÙĦÙĨ Ø§ÙĤ
Ø³ÙĬ Ø·Ø©
ĠØ§ÙĦØ³ Ø±ÙĬØ¹Ø©
ĠØ¨ÙĨ Ùī
ĠØªØ£ ÙĬÙĬØ¯
Ø§Ùĥ Ø´
ĠÙħØ« Ø§ÙĦ
ĠØ§ÙĦØ§Ù ħÙĬÙĨ
ĠØ§ÙĦØ¹ ØªÙĬ
ĠÙĦØ£ Ø¬ÙĩØ²Ø©
ĠØªØŃØ¯ÙĬØ¯ Ø§
ĠØ£ÙĪÙĥØ± Ø§ÙĨÙĬØ§
ĠØ¥ÙĦÙĥØªØ± ÙĪÙĨÙĬØ©
ĠÙĦÙħØ´ Ø±ÙĪØ¹
ĠØ§ÙĦÙħ ÙĨØ§ÙĤ
ÙĦÙĬÙĨ Ù
ĠØ¨Ø¬ Ø±ÙĪØŃ
ĠÙħØª Ø§ØŃ
ĠØ·ÙĦØ¨ Øª
ĠÙħØ¸ ÙĦØ§Øª
ĠØ§ÙĦØ³ Ø±ÙĬØ©
ĠØ± Ø§Ø¬Ø¹
ÙĬØ± ÙĬØ©
ĠÙĪØ¯ ÙĪØ±
Ø±ÙĪ ÙĬØ©
ĠÙħØ« Ø¨Øª
ÙĥØ± Ø§Ø¯
ĠØ£Ùģ Ø§Ø¯Øª
ĠÙħÙģÙĬØ¯ Ø©
ĠØ§ÙĦØ¥ Øº
ØªÙĬ Ø±ÙĬØ§
Ø¬ ÙĦÙĬÙĨ
ĠØ§ÙĦØ¬ ÙĬØ¯
ĠØ§ÙĦÙĨ Ø³Ø¨Ø©
ĠØªÙĥ ÙĦÙģ
ĠØ§Ø³ Ø¨ÙĪØ¹
ĠÙĥ Ø§ÙĦÙħ
Ø¦ ÙĬØ§
ĠØŃ Ø§ÙħÙĦ
ĠØ§Ø¨ ØŃØ«
ĠØ§ÙĦÙħØª Ø´
Ø³ Ø®
ĠØ§ÙĦÙħØ³ØªÙĤØ¨ ÙĦÙĬØ©
Ø§Ø¨ ÙĬØ¨
ĠØŃØ¯Ø« Øª
ĠØ§ÙĦØªØ¹ Ø¯ÙĬÙĦØ§Øª
ĠØ§ÙĦØ¨Ø¹ Ø«
ou s
ĠØ§ÙĦÙĥ ÙĪØ±ÙĬØ©
Ø®Ùģ Ø¶Ø©
ØªÙħ Ø§ÙĨ
ĠØ§ÙĦÙħØµ Ø§Ø¨
ĠÙĨØ¬ ØŃØª
ĠØ·Ø±ÙĬÙĤ Ùĩ
ĠÙĪØ¯ ÙĪÙĨ
eb ook
ĠØ¹ÙĦÙĬ ÙĩÙħØ§
ħ ÙĩØ¯
ĠØ§ÙĦÙħ ÙģØ¶
ĠØ± Ø²ÙĤ
ĠØªØµÙģ ØŃ
ĠÙĪØ¯ ÙģØ¹
ĠØ§ÙĦØ¨ ÙĥØ§ÙĦ
ĠÙĪ ØŃÙĦÙĪÙĦ
ĠÙħØª Ø·
ĠØ§ÙĦÙĤ Ø§Ø¯
Ø¹Ù ĦÙĪØ§
ĠØ¨ÙĨ ÙĬØ©
ĠÙħÙĥ Ø§ÙĨØ©
ÙĦØª Ùĥ
ĠØ§ÙĦØ¬ Ø§Ø±ÙĬØ©
ÙĦÙĬ ÙģØ©
ĠØ§ÙĦÙħÙĨ Ø³
ĠØ¨ÙĤ Ø§Ø¡
ĠÙĪØ§Ø³ ØªÙħØ±
ĠØ§ÙĦØ¯ ÙĬÙĪØ§ÙĨ
ĠØ§ÙĦÙĥ Ø±Ø¯ÙĬØ©
ĠÙĬØ¹ÙĬØ´ ÙĪÙĨ
ÙĥÙ ħØª
ĠØ§ÙĦÙħÙĦØ§Ø¦ ÙĥØ©
ĠØ¨Ø´ ÙĬØ±
ĠÙĪØ¬ ÙħØ¹
ĠØ§ÙĦÙħÙĨØª Ø¯ÙĬ
ĠØ§ÙĦÙħØŃ Ø§ÙħÙĬÙĨ
ĠØºØ° Ø§Ø¦ÙĬØ©
ĠÙħØŃ Ø§Ø¶Ø±Ø©
ĠÙĬØ¹ Øª
ĠØ§ÙĦÙĥ ÙĦÙĬØ§Øª
ĠØµÙĪ Ø§Ø±ÙĬØ®
ĠØ§ÙĦØ± ØŃÙĦØ©
ĠØ§Øµ Ø·
ÙĦØ§ ÙĦÙĬ
ĠØ§ÙĦØ¬Ùħ Ø§Ø¹ÙĬØ©
ĠØ¨Ø§ÙĨ ÙĪØ±
ÙĪ ÙĦÙĥ
ĠØ§ÙĤØªØ± Ø§ØŃ
ÙĪØ¯ ÙĪ
ĠØ§ÙĦØªØŃ Ø±Ùĥ
ĠØ§ÙĦØ¥ÙħØ§Ø±Ø§Øª Ù
ĠØ§ÙĦØ¥ÙħØ§Ø±Ø§ØªÙ Ĭ
ĠÙĨ Ø¸ÙĬÙģ
ÙĪÙĥ ÙĪÙĦ
Ġ Ø§Ø²ÙĬ
ĠÙĪØ² ÙĨ
ØªÙĩ Ø±
a w
ĠÙĤØ·Ø§Ø¹ Ø§Øª
ĠÙĬÙĨ ØªØ¬
ĠÙĤØ¯Ø± Ùĩ
ÙĪØ§Ùħ Ø±
ĠØ§ÙĦØ¬ ÙħØ±
Ø¨Ø± Ø§Øª
ÙĪØ¨ Ùĩ
Ø±ÙħÙ Ħ
Ø§ÙĦÙģ Ø©
ĠØ§ÙĦØŃ Ùģ
ĠØ§ÙĦØ¨ Ø±ÙħØ¬Ø©
ĠØ£ Ø¶Ø¹
ĠØ§ÙĦØ¬ Ø³Ø¯
ĠÙĪØ§ ÙĪØ¶ØŃ
ĠÙħØŃ Ø§Ø±Ø¨Ø©
ĠØª Ø®Øµ
ĠØ§ÙĦØªØ®ØµØµ Ø§Øª
ÙĪØ¨ ÙĬÙĨ
ĠØ§ÙĦØŃ ÙĬÙĨ
ÙĨ Ø§Ø¹Ø§Øª
ĠØªØ³ Ø¹Ø©
ĠØ§ÙĦØªÙĪ Ø§Ø²ÙĨ
ĠÙħØºØ± Ø¨ÙĬ
ĠÙĬØ³ ÙĪØ¹
ĠÙĪØ§ÙĦØµ ØŃ
ĠØ³Ø¨ØŃ Ø§ÙĨ
ÙĨÙĬ Ùĥ
ĠØ¨Ø§ÙĦØ¹ Ø§ØµÙħØ©
ĠØ§Ø® Ø°
ĠØ§ÙĦØµ Ø¨
ĠØª ÙģØªØŃ
Ø¯ ÙģØª
ĠØ§ÙĦØ¹ Ø´Ø±
ĠØ£ÙĩÙħ ÙĩØ§
ĠØ¹Ø¯ ÙĨØ§ÙĨ
ĠØ§ÙĦØ£ Ø±ÙĤØ§Ùħ
ĠØ§Ø® ØªÙĦÙģ
ĠØ³ÙĬ Ø¦Ø©
ĠÙĪØ§ÙĦØ´ Ø¹Ø¨
ĠØ§ÙĦØ¬ÙĨ Ø±Ø§ÙĦ
Ø± Ø¬Ø©
ĠÙĦÙĬÙ Ħ
ØªÙĬ Ùĩ
ĠØ£ Ø¬ÙĨØ¨ÙĬØ©
ØªÙĬ Ø§ÙĨ
ÙĬØ§Ø³ Ø©
Ø¨Ø§Ø± Ù
ĠÙĪØª ÙĪØ²ÙĬØ¹
ÙħÙĪ Ø¶
ĠÙĪØ± Ø£Ùī
Ø§Ùģ Ø°
ĠØ§ÙĦØ¯ÙĪ Ø§Ø¦Ø±
ĠØªØ´ ØªÙħÙĦ
ĠÙĤ Ø±ÙĬØ¨Ø©
ĠÙħØ¹Ø§ÙĦÙĬ Ùĩ
ĠØ¨ÙĨÙĬ Ø§ÙħÙĬÙĨ
2 1
ĠÙĪÙĬØ¹ ÙħÙĦ
ĠØ§ÙĦØ²Ø± Ø§Ø¹ÙĬ
ĠØ§ÙĦØªÙĤ ÙĨÙĬ
Ġ6 1
ÙĪÙĥ Ø§ÙĦØ©
Ġ ÙĬÙĪÙĦ
ĠØ± ØºØ¨
Ø± Ø³Ø©
ĠÙĪØ¬Ø§Ø¡ Øª
ĠÙĦÙĬ Ùĥ
Ø¨Ø§Ø±Ù Ĭ
ĠÙģ Ø¦Ø§Øª
ĠØ§ÙĦÙģ ØŃØµ
ĠØ§ÙĦØ¹ ÙħÙĬÙĤ
ĠØ§ÙĦØ£Øµ ÙĦÙĬØ©
ĠØ§ÙĦØ³ÙĬØ¯ Ø§Øª
ĠØ§ÙĦØ¥Ø³ Ø§Ø¡Ø©
ĠØ§ÙĦØ¸ ÙĦÙħ
ĠØ§ÙĦØ³ÙĪÙĬØ³ Ø±ÙĬ
ĠÙĨ Ø¹ÙħØ©
ĠØ§ÙĦØ§Ø³Øª ÙģØªØ§Ø¡
ĠØ§ÙĦÙħØ³ØªÙħØ± Ø©
ĠÙĪ ÙĩØ§
ĠÙĤ Ø³
d f
it e
ĠØ§ÙĦÙħÙĨ Ø·
ĠØ¨Ø§ÙĦØ¥ ÙĨ
Ùĩ ÙĪØ±Ø©
ĠØ¹ÙĤ ÙĪØ¨Ø©
Øº Ø§ÙĨÙĬ
ĠÙĦÙħØ¬ ÙħÙĪØ¹Ø©
ĠÙĪØ§ÙĨ ÙħØ§
ĠØªÙĪ ÙĤÙĬÙģ
Ġ19 0
ĠØ³ÙĦØ· ÙĨØ©
ĠØ¨Ø§Ø¹ØªØ¨Ø§Ø± Ùĩ
ĠØª Ø§ÙĬ
ĠØ¨Ø¬ ÙĪØ§Ø±
ĠØ§ÙĦÙħØ¨ Ø§ÙĦØº
ĠÙĪØ§ÙĦØ¥ ÙĤ
ĠØ¨ Ø¯Ùħ
Ø¤ ÙĪÙĦ
Ù ĬØ§ÙĦ
Ø§Ø³ ÙĬØ±
ĠØ³ ÙĪØ¨Ø±
ĠÙĥ Ø±ÙĪØª
Ø³ÙĬÙĪ Ø·
ĠØ¥Ø³Ø±Ø§Ø¦ÙĬ ÙĦÙĬØ©
ĠØ¨Ø¹Ùħ ÙĦÙĬØ©
ĠØº Ø±Ø§Ø±
ĠØ¨Øº Ø¶
ĠØ§Øª ÙģÙĤ
ÙĦÙĤ Ùĩ
ĠØ§ÙĦÙĨÙģ Ø§ÙĬØ§Øª
ĠÙĦØ¹ ÙħÙĦ
Ø§Øª Ø§
ĠÙĪÙĤ ØªÙĦ
ĠÙĦØŃ Ø¶ÙĪØ±
Ø§Ùģ Øª
Ùģ ÙĥØ§Ø±
ĠØ¥ÙĨ ÙĤØ§Ø°
ĠØ§ÙĦÙħØ³ ÙĬØ±Ø©
ħ Ø§Ø´
ĠØ¥Ø³ ÙĤØ§Ø·
ĠØ§ÙĦØ¥Ø¬ Ø§Ø¨Ø©
Ø±ÙĪ Ø¹Ø©
ĠØªÙĪ ÙĦÙī
ĠØ¨ÙħØ¨ ÙĦØº
Ø¨ Ø§Ø³
ĠØ§ÙĦØ§Ø¨ØªØ¯ Ø§Ø¦ÙĬ
ĠØªØ£ ÙĩÙĬÙĦ
ĠØ´Ø¹Ø¨ Ø§ÙĨ
ĠØ±Ø¨ ÙĨØ§
ĠØ£ÙĬ ÙħÙĨ
ĠØ§ÙĦØ§ÙĤØªØ± Ø§Ø¹
ÙĩÙħ Ø§ÙĦ
ĠØ§ÙĦØµ Ø¨Ø±
ħ ÙĥÙĬØ§Ø¬
Ø§ÙĨ ÙĩØ§
ĠÙĪØªÙĨ ÙģÙĬØ°
ÙĨØ§ ÙĤØ©
ĠÙĪØŃ ÙĤ
ĠÙĪØ¨ Ø§ÙĦ
Øµ Ø§Ø±Ø§Øª
ĠØ§ÙĦØ§Ø· ÙĦØ§Ø¹
ĠØ¨ ÙģØ±
ĠÙħÙĬØ² Ø§ÙĨÙĬØ©
ĠÙĪØ§ÙĦØ¹ ÙĨ
ĠØ´ ÙĬÙĥ
ĠØ¹Ø±Ùģ Ø§Øª
ĠØ§ÙĦØ£Ùħ Ø§ÙĨ
ÙĦØ§Ø¨ Ø©
ÙĥÙħ Ø§ÙĨ
ĠØ§ÙĦÙħÙģ ØªØ±Ø¶
ĠØ¹Ø¯Ø¯ ÙĩÙħ
ĠØª Ø³Ø¨
O X
ĠØ§ÙĦØ£ØŃ Ø§Ø¯ÙĬØ«
ĠÙĪØªØ´ ÙħÙĦ
ĠØ§ÙĦØªÙĤÙĦÙĬ Ø¯ÙĬ
ĠÙħØª ØŃÙģ
ĠØ¬ ÙĦØ§ÙĦ
Ù ħÙĥÙĬØ§Ø¬
ĠØ¨Ø± ÙĦÙĬÙĨ
ĠÙĬÙĪ Ø§ØµÙĦ
ĠØ£Ø® Ø·Ø§Ø¡
ĠØ¨ ÙĦØ§Ùĥ
ĠØ§ÙĦÙĩÙĬ Ø¦Ø§Øª
Ħ ÙĦØ§Ø¬
Ø¶ Øª
ĠØ§ÙĦØ¹ Ø¬Ø²
ĠÙħØ± Ø¶Ùī
ĠØªØ² ÙĪØ¬
ĠÙĬØ´ Ø§Ø±
ĠÙĦÙĬÙģ Ø±Ø¨ÙĪÙĦ
ĠØ§ÙĦØ£Ø¨ ÙĪØ§Ø¨
ĠØ§ÙĦØªØ±ÙģÙĬÙĩ ÙĬØ©
ĠÙĨØª ÙħÙĨÙī
ĠØ§ÙĦÙħ ØµØ±
ĠÙħØŃ Ø¯ÙĪØ¯
ĠØ§ÙĦØ¶ Ø±ÙĪØ±ÙĬ
ØªÙ ħÙĪ
ÙĬØª ÙĩÙħ
ĠØ§ÙĦØ§ ÙħØ©
ĠØ¨Ø¥ Ø¹Ø§Ø¯Ø©
ĠØ§ÙĦÙģ ÙĥØ±ÙĬ
ÙĪØ§Ø± Ø¯
ĠØ¨Ø§ÙĦØ³ Ø¬ÙĨ
Ù ħÙĩØ¯
ĠØ£Ø´ Ø§Ø±Øª
ĠØªØµ ÙĪØ±
ØªØ¨ Ø§Ùĩ
ĠØªØ² Ø§ÙĬØ¯
ĠÙĪÙģÙĬ Ùĩ
ĠÙĦÙĦØ· Ø§ÙĤØ©
ĠÙĬØ¹ ÙĥØ³
p en
ac ebook
ħ Ø¦Ø©
Ġb e
ĠÙĪØ± Ø¤
ĠØ¨ ÙģØªØŃ
ĠÙĬØ¹Ø±Ùģ ÙĪÙĨ
ÙĪ Ø§Ø¯
ĠØ§ÙĦØ¶ Ø¹Ùģ
ĠØµÙĪ ØªÙĬØ§Øª
ĠÙĥÙĦÙħ ØªÙĩ
ĠÙĪØ± Ø´
ÙħÙĦÙĬ Ø§Øª
ĠØ³Ø¨ ÙĪØ±Øª
ĠØ¬ ÙĨÙĬÙĩØ§
Ø¸ Ùģ
i b
m an
Ù ħØ¦Ø©
ĠØªÙĤ ÙĬÙħ
ĠÙĪØ§ØŃ ØªØ±Ø§Ùħ
ĠØ® ÙĦØ§ÙĬØ§
ĠÙĬØ³ ÙĬØ±
ĠØ¨ Ø¬Ùĩ
ĠÙĥ Ø«Ø±
ÙĩÙ ħÙĬ
ĠØ´ Ø¬Ø±Ø©
ĠØ¥ÙĨ Ùĥ
ĠØ§ÙĦÙĪ ØŃ
ÙĦÙĬÙĨÙ Ĭ
ĠÙĪØ§ÙĦØ¯ Ù
Ĭ Ø§Ø¹
Ġ ÙħÙĥÙĬØ§Ø¬
ĠØªØ¬ Ø§Ø±ÙĬ
ĠØ¨ÙĨ ØªÙĬØ¬Ø©
ĠÙĦÙĦØ´ Ø¤ÙĪÙĨ
ĠØ£Ù ħØ©
ĠØªØ± ØªÙĬ
ĠØ§ÙĦØ¬ ÙĦÙĪÙĥ
ĠØ§ÙĦÙĨÙĤ Ø·Ø©
ĠØ³Ø¨ Ø¨Ø§
ĠØ§ØŃØªØ¬ Ø§Ø¬Ø§
ĠÙģÙĪØ² Ùĩ
ĠÙĦÙĤ Ø³Ùħ
ĠØ§ÙĦØµÙĩÙĬ ÙĪÙĨÙĬØ©
ĠØ§ÙĨÙĤ ÙĦØ§Ø¨
ØªÙĤ Ø§Ø¯
ĠØŃÙĬØ§Øª Ù
ĠØŃÙĬØ§ØªÙ Ĭ
ĠÙĨ ÙĤÙĬØ¨
ĠØ§ÙĦØ¬ Ø§ÙĨ
Ġ ^
ĠØ§ÙĦÙĨØ¨Ø§Øª Ø§Øª
ĠØ³ Ø§Ø¹
ĠÙĪ ÙĦØ§Ù
Ġ ÙħÙĩØ¯
Ĭ ØŃÙĦ
ĠØ§ÙĦÙħØ¹ Ø§ØµØ±Ø©
ÙĬÙħÙĤØ±Ø§Ø· ÙĬØ©
ĠÙĥÙ ħØ¨
ĠØ§ÙĦÙħØŃØ¯ Ø¯Ø©
ĠØ³ Ø¤
Øµ Ø§Ø¯
ØªØµ Ø§Ø¨
ĠØŃ Ø±ÙĪÙģ
Ø® ÙĦØª
ØªÙĬØ¹ Ø§Ø¨
ĠØ§ÙĦÙħØ¹ Ø§Ø±Ùĥ
ĠÙĨ Ø¨Ø§Øª
ĠÙĪØ§ ÙĥØª
ĠÙĪØ® Ø¯ÙħØ§Øª
ĠØ§ÙĦØŃ Ø§Ø³ÙĪØ¨
ĠÙħÙĨ Ø·ÙĤ
ĠØªÙĨ Ø·ÙĦÙĤ
ÙĪ Ø¯Ùī
Ù ĦÙĦØ§Ø¬
ĠØ¨Ø§ÙĦÙħ ØºØ±Ø¨
ĠÙĪ ÙĥØ±
ĠÙĦØ¥ Ø¬Ø±Ø§Ø¡
ĠØ£ØŃØ¯ ÙĩÙħØ§
Ġ ÙĦÙĦØ§Ø¬
ĠÙĩ Ø±ÙĬØ±Ø©
ĠÙĬÙħÙĨ ØŃ
ĠØ¨Ø® Ø·
ĠÙħÙĦØ¹ ÙĤØ©
ĠÙħÙĨØµ Ø¨Ùĩ
ĠÙĨØ³ Ø¨ÙĬØ§
ØªØ± Ø§ÙĤ
ĠØ§ÙĦÙħØ¨ Ø§ØŃØ«
ĠØ® ÙĦØ§Øµ
ĠÙħÙĥ ÙĪÙĨ
ĠØ§ÙĦØ¹Ø¯ Ø³Ø§Øª
ÙĦØ§Ø¨ Ø¯
ĠÙħØŃØª ÙĪÙĬØ§Øª
ĠÙĪØ§ÙĦÙħÙĤ Ø§ÙĦØ§Øª
Ġ9 4
ĠÙĪØ§ÙĦØ´ Ø±ÙĥØ§Øª
ĠØªØ² ÙĪÙĬØ¯
ÙĪØ§ ÙĥÙĩ
ĠØ£Ù ħØª
ĠÙĪØªÙĨ Ø¸ÙĬÙħ
ĠØ§Ø³ØªÙĩ ÙĦØ§Ùĥ
Øª ÙĬØ±
Ø²Ù ĬØ¬
ĠØ§ÙĦÙĨ Ø§Ø²
ÙĦÙĥ Ø§Øª
ĠÙĪØªØŃØ¯ÙĬØ¯ Ø§
ĠØ¹ÙĦÙĬ Ø§
ĠØ§ÙĦØ® Ø¨Ø²
Ġ ÙħÙĥÙĨ
ĠØ³ ÙĦØ¹
ĠØ§Ø®ØªØµ Ø§Øµ
Ø§Ùħ Ø¹
ĠÙĪØ§ÙĦØµ ÙĨØ§Ø¹Ø©
ĠÙĦØª Ù
ĠØ§ÙĦÙģØ± Ø¹
ĠÙĪ Ø§Ø²
Ù ĬØŃÙĦ
ĠØªØŃ ÙĪÙĦØª
ĠØ§ÙĦÙĤØŃØ· Ø§ÙĨÙĬ
ĠØ³ ÙħØ§
ĠÙħØªÙĥ Ø§ÙħÙĦØ©
ĠÙĪØ§ÙĦØ´ ÙĬØ®
ĠÙĦØŃ Ø±ÙĥØ©
Ġ ÙĬØŃÙĦ
ĠØ§ÙĦÙģ ÙĬØ²ÙĬ
ĠØŃÙ ħØµ
ØªØ± ØŃØ§Øª
ĠØ§ÙĦØ§Ø³Ø¨ Ø§ÙĨÙĬ
ĠØ§ÙĦØ£ Ø²ÙħØ§Øª
Ø§Ùħ ØŃ
ĠØ§ÙĦØ£Ø³ Ø±Ùī
ĠÙĪØ§ÙĦÙ ĦÙĪ
ĠØ§Ø³ Ø¨
ĠØ§ÙĦØªØ¬ Ø§Ø±
Ġf em
ĠØ§ÙĦÙħÙĥÙĪÙĨ Ø§Øª
ĠØªØ± Ø¯
ÙĪÙĬØª Ùĩ
ĠØŃÙĥ ÙĪÙħ
ĠØ§ÙĦØ§Ø¬ ÙĩØ²Ùĩ
ĠÙĪØ§ÙĦØ´ Ø¨Ø§Ø¨
ĠØ§ÙĦØªÙ ħØªØ¹
Ø³ÙĬ ÙĤÙĬ
ĠÙĤØµ ÙĬØ±
Ø±ÙĪØ§Øª ÙĬØ§
ĠØ£Ø¹ÙħØ§ ÙĦÙĩ
ĠÙĪØ£ Øµ
ĠØ§ÙĦØºØ° Ø§Ø¦ÙĬ
ĠÙĪØ§ÙĦØ§Øª ØµØ§ÙĦØ§Øª
ĠØ¨ØªÙĨ Ø¸ÙĬÙħ
ħÙ ĬÙĦ
ĠÙĪØ§ÙĦÙħÙĨ Ø§Ø³Ø¨Ø§Øª
ÙħÙĨ ÙĬÙĨ
ig ht
ĠÙħØ§Ø² Ø§ÙĦ
ÙĦÙĩÙ Ĭ
ĠÙĤ Ø±ÙĬØ´
ĠÙĩ Øª
ĠÙĪØ§ÙĦÙħ Ùĥ
ĠØ§Ø¹ ØªØ±Ùģ
ĠØ§ÙĦØ¶ Ø±ÙĪØ±ÙĬØ©
ĠÙĪØ§ÙĦØ¨ ØŃØ±
Ø² Ø§ÙĦ
ĠÙĦØ¯ ÙĪÙĦ
ĠØ¨Ù ħÙĩ
ĠØ§Ø³Ùħ ÙĩØ§
ĠØ± Ø¨ÙĬ
or e
Ġ199 6
ĠÙħÙĪ Ø§Ø¹ÙĬØ¯
T V
ĠØ§ÙĦØ®ÙħØ³ Ø©
ÙĪ Ø§ÙĬ
ĠØ¨Ø§ÙĦØªÙĨ Ø³ÙĬÙĤ
Ùĩ Ø§Ø¯Ø©
Ġ9 3
ĠØ¯ ÙĪØª
ĠÙĪØ§ÙĦØ§ÙĨ ØªØ±ÙĨØª
ĠØ§ÙĦÙĨØ¸Ø± ÙĬØ©
D R
ĠØ§ÙĦØ¹ Ø´Ø±Ø§Øª
ĠØ£ÙĤ ÙĬÙħ
ĠØ§ÙĦÙħØ¬ ÙĦØ©
ĠØ§ÙĦØŃ Ø±ÙĬØ§Øª
ĠØ§ÙĦÙħØ¯ Ø§ÙģØ¹
ĠØªÙħ ÙĩÙĬØ¯Ø§
ĠØ§Ø³Øª Ø¶Ø§ÙģØ©
ĠØ§ÙĦØ±ÙĬ Ø§ØŃ
ĠØ°Ùĩ Ø¨Øª
ĠØªØ¹ Øª
ĠØ£Ø³ ÙĪØ£
Ġ Ø§Ø¦
ĠØ³ ÙĨØ¯
ĠØ§ÙĦÙħ Ø§ÙĨ
Ø§Ø± ØªÙĩØ§
ĠØ´ Ø§Ø´Ø§Øª
ØªØµ Ø§Ø±
ĠØ§ÙĦØ¨ Ø§ÙĤ
ĠÙħÙĤ Ø§Ø¹Ø¯
ĠÙĪØŃ Ø³ÙĨ
ÙĦØº Ù
ĠÙĦÙĬ Ø´
ĠÙĬØ¹ ÙĨÙī
ĠÙĦÙĦÙĤ Ø§ÙĨÙĪÙĨ
ĠØ¥ ÙĥØ³
ĠÙĨÙħÙĪ Ø°
ĠØ³ Ø§Ø±Ø©
Ø§Ùĥ Ø¨
ĠÙģØ£ ÙĨØ§
ĠØ¨ Ø±Ø¨
ĠÙĪØ§ÙĦØªØ¬ Ø§Ø±Ø©
ĠØªØ¹ ÙĥØ³
ĠØ§ÙĦØ¥ Ø¨
ĠØ¯ÙĪØ± Ùĩ
ĠØ§ÙĨØ³ ØŃØ§Ø¨
ĠÙħÙĦØŃ ÙĪØ¸
ĠÙħÙĨ ÙĪØ¹Ø§Øª
Ġ14 0
ĠØ§ÙĦØ¯ ÙĤÙĬÙĤ
ĠØŃ ÙĦØ§
ĠÙĦØ· Ø¨
ÙħØ§ÙĨ Ø©
ĠØªÙĤ ÙĦÙĬ
ĠØ§ÙĦØª ÙĥÙĪÙĬÙĨ
ĠD V
ĠØµÙģ ØŃ
ĠØ§Ø¹ ØªØ±Ø§Ùģ
ĠØ§ÙĦØ§ÙĨØª Ø§Ø¬
ĠØ§ÙĨØª ÙĤØ§ÙĦ
ĠØ¨ÙĨ Ø¬Ø§ØŃ
ĠØ® ÙĪÙģØ§
Ġ8 9
ĠØ¨ÙĦØ¬ ÙĬÙĥØ§
ĠØª ØªØ±Ùĥ
ĠØ¹ÙĨ Ùĥ
ĠØ§ÙĦÙħÙĤØ± Ø±Ø©
ĠØº Ø±Ø¨ÙĬ
ÙĬØ§ÙĨ Ø§
n e
ĦÙĪ Ø«
ÙĦÙĬ Øº
Ø¨Ø· ÙĬØ©
ĠÙĦÙĨÙģØ³ Ùĩ
ĠØ§ÙĦØ±ÙĬ Ø³ÙĬÙģØ±Ø§Øª
ĠØ£Ø³Ø§Ø³ Ø§
ĠØ§ÙĦÙģ Ø§Ø¹
ĠØ§ÙĦØ¨ ÙĦÙĪ
Ø±Ø³ Ùĥ
Ø² ÙĪÙĬ
ĠØ¹ Ø§Ø·
ĠÙĤØ§ÙĨÙĪÙĨ Ù
ĠÙĤ ØªÙĬ
ĠØªØŃ Ø³ÙĨ
ĠÙĤØ§ÙĨÙĪÙĨÙ Ĭ
ĠØ§ÙĦØ· ÙĦØ§ÙĤ
ĠØ¹ Ø§Ø¯Øª
ĠØ§ÙĦÙħØ³Øª ÙģÙĬØ¯
Ø° Ø§ÙĨ
ĠÙĪØ§ÙĦÙģ ÙĨ
ĠØ§ÙĦÙĦÙ ģ
ĠØ¨ ØµØ±
ĠØ§ÙĦØ¹ Ø´Ø§Ø¡
ĠØ«Ø§ÙĦØ« Ø§
ĠÙĬØ¯ Ø±Ø³
ĠØ¨ÙĪ Ø§ÙĤØ¹
ĠÙĪØª ÙĨÙħÙĬØ©
ĠØ§ÙĦÙħ Ø³Ø¨
Ø¬Ù ĬØª
ĠØ³ Ø§ØŃ
Ø· ÙĬÙģ
ĠÙĪØ· Ø¨
ĠÙĪØ¨Ø± ÙĥØ§ØªÙĩ
ĬØ« Ø§ÙĤ
ĠÙĪØµ ÙĪØ±
ĠÙĪØ§ÙĦØª Ø¯Ø±ÙĬØ¨
Ġ199 4
ĠØ¹Ø¯Ø¯ ÙĩØ§
ĠÙĨØ¸ ÙħØª
ĠØ§ÙĦØ§Ø´ ØªØ±Ø§ÙĥÙĬ
Ø³ÙĬ Ø®
Ġb y
ĠØª Ø¶Ø±
ĠÙĦÙĦØ£ Ø´Ø®Ø§Øµ
ĠÙĦØ£ Ø¬ÙĦ
ĠØª Ø±ÙģØ¶
ĠÙĩ Ø§ÙĨÙĬ
ÙģÙĬ ÙĩÙĬ
ĠØ¥ Ø´Ø±Ø§Ùģ
ĠØ§ÙĦÙĥ Ø§Øª
ĠØªÙĨÙģÙĬØ° ÙĩØ§
ĠØªØ· ÙĦØ¹
ĠØ¬ ÙĪØ§ÙĨØ¨
ĠØ§ÙĦØ¨ ÙĪØ³ÙĨØ©
ri p
ĠØªÙĪ ÙĥÙĬÙĦ
ĠÙĪØ§ÙĦØ« Ø§ÙĨÙĬØ©
ĠÙĪ Ø±ÙĬ
ĠØ§ÙĦÙģØª ÙĨØ©
ĠØ§ÙĦÙĤ ÙĩÙĪØ©
ÙĪØ¯ ÙĩØ§
ĠÙħØº ÙĦÙĤØ©
ÙĪ Ø·Ø©
ĠØ£Ùħ Ø§ÙĨØ©
ĠØ± ØŃÙħ
ĠÙĪØ£ ØµØŃØ§Ø¨
Ùĩ Ø±ÙĬ
ĠØªØ± ÙĥÙĬØ²
ĠÙĪ ÙĨÙĩ
ĠØ§Ø²ÙĬ Ø§Ø¡
ØªØ± ÙĤ
Ø±ÙĬ Ø¨Ø§Øª
ĠÙħØ¹ Ø§Ø±Ùĥ
ĠÙĪØ§ÙĦØµ ÙĪØ±
Ø³ÙĬ Ùĩ
ĠØ® ÙħÙĬØ³
ĠÙĪØ¨ Ø®
ÙĦØ§Ø¦Ù ħ
Ø¯ Ø³Ø§Øª
ĠÙĦÙĦØ§ ÙĨØª
ĠØ§ÙĦØª Ø§Ùħ
ĠØ£Ø¨ÙĬ Ùĩ
ĠÙĬÙħÙĥÙĨ ÙĩØ§
ÙĪÙģ Ø§Øª
ĦÙĪ Ùĥ
ĠÙĪÙĦÙħ Ø§Ø°Ø§
ĠÙĪÙĨ Ø¸Ø±
ĠØ§ÙĦØ¶ Ø¨Ø§Ø·
Øµ Ø§Ùģ
ĠÙĦÙĬ ØµØ¨ØŃ
ĠØ§Ø³Ùħ Ø§Ø¹ÙĬÙĦ
ĠØµ ØŃÙĬ
ĠØ§ÙĦØ¬Ùħ Ø§Ø¹ÙĬ
ĠÙĨÙģ ÙĪØ³
ĠØ± Ùĩ
ĠØªØ³ Ø§ÙĩÙħ
ĠØªØŃ ÙĪÙĬ
ĠØ§ÙĦÙħÙĥ Ø³ÙĬÙĥ
ĠØ§ÙĦÙģ ØŃÙħ
ĠØ¨Ø¬ Ø§Ø¦Ø²Ø©
ĠÙĪØ³Ù ĬÙĥÙĪÙĨ
ĠØ§ÙĦÙħØŃ Ø°
a st
ĠØ§ÙĦØµÙ Ĭ
ĠÙĪØ§ÙĦØª Ø§Ø±ÙĬØ®
ÙĦØ§Øª Ùĩ
ĠÙĪ ØŃÙĦ
ĠØ£Ùħ Ùĩ
ĠÙĪ ÙĦØ¬
ĠØ§ÙĦÙĥ Ùĩ
ĠØŃ Ø±ÙĬÙĤ
ĠØªÙĨ Ø²
ĠØ³ ÙĤÙģ
ĠØ¨Ø± ÙĪÙĨ
ĠØ§ÙĦØŃ ØµØ±ÙĬØ©
Ø§Ùħ ÙĦÙĬÙĨ
ĠÙĦØ§Ø ²
ÙĦØ§ ÙĦÙĩØ§
Ø§Ø³Ù ĬÙĬÙĨ
ĠØ¨ØŃ Ø¬Ø©
ĠÙĪ Ø±Ùģ
ĠØªØª ÙĪÙģØ±
ĠÙĥ ÙĤ
ĠØ° Ø§ÙĥØ±Ø©
ĠØ§ÙĦÙħ Ø·Ø§Ø¹Ùħ
ĠØ¨ Ø§ÙĨÙĬØª
ĠØ§ÙĦØ³ Ø±ÙĬ
ĠØ§ÙĦØ¹ÙĦÙħ Ø§ÙĨÙĬØ©
ĠØ§ÙĦØŃ Ø±Ùħ
Ø¨Ø± Ùĩ
Ø§Ø±ÙĬ ÙĬÙĨ
ĠØ§ÙĦÙĨ Ø§Ø¯Ùī
ĠI s
ĠØ£ Ø¨Ø¯
ĠÙĪØ§ÙĦØ® Ø§Ø±Ø¬
ĠØªÙĨ Ø´Ø±
ĠØ£Ùĩ ÙĦÙĩ
ĠÙĬÙĤ ØªÙĦ
ĠØ¨ Ø±ÙģØ¹
ĠØ¥Ø² Ø§Ø¡
ØªÙĥ Ø²
ĠØ§ÙĦÙģ Ø¶ÙĦ
ĠÙħØ³Ø¤ ÙĪÙĦÙĬÙĨ
Ġ11 0
ĠØ§ÙĦÙħØ³Ø±ØŃ ÙĬØ©
ĠÙĥ ÙĦÙĬØ§
ĠØ§ÙĦØ§ÙħØ±ÙĬ ÙĥÙĬ
Ġ199 5
ĠØ® ÙĪÙģ
ĠÙħØµ Ø¯
ĠØŃØ³Ø§Ø¨ Ùĥ
ĠÙĤØ¶ Ø§Ø¦ÙĬØ©
ĠÙĬØª Ø®Ø°
Ø´ ÙĪÙĨ
ĠÙħÙĤ Ø¯Ø§Ø±
Ġey es
Ø¬ÙĦØª Ø±Ø§
ĠØ§ÙĦØ¹Ø±Ø¨ÙĬ Ùĩ
ĠØ£Ù ĬØ§
ĠØ£Øµ Ø§Ø¨
Ġ ÙħØ§ÙĦØ§
ĠØ§ÙĦØ¹ Ø¸Ø§Ùħ
ĠØ¨Ø¥ Ø·ÙĦØ§ÙĤ
ĠØ·Ø¨ÙĬØ¹ ÙĬØ§
ĠØ§ÙĦØ¥Ø± ÙĩØ§Ø¨ÙĬ
ĠØ§ÙĦÙĨ Ø³Ø¨
ĠØ§ÙĦÙģ Ø±Ø¯ÙĬØ©
ĠØ§Ø® ØªÙĬ
ĠÙĪØµÙĬØ§ÙĨ Ø©
ĠØ§Øº Ø§ÙĨÙĬ
ĠØµ ÙĬÙģ
ĠØªÙĪ ØŃÙĬØ¯
ØŃ ÙĪÙĦ
ĠA pp
ĠÙĪØ§ÙĦØ£ Ø±Ø¶
ØŃÙħ ÙĦÙĩ
ĠØ¬ÙĪ Ø§Ø¨
Ù §
ĠÙĬÙĤ Ø±Ø¨
ĠÙĬÙģ Ø±Ø¶
ĠØ§Ø®ØªØ± Ø§ÙĤ
ĠÙĪÙħØ¤ Ø³Ø³Ø§Øª
Ø§ÙĦØ °
ĠÙĬØŃ ÙģØ¸
ĠÙĪÙĦØ¨ ÙĨØ§ÙĨ
ĠÙĪØ§ÙĦØ±ÙĪ Ø§ÙĬØ§Øª
ĠÙħÙĤ Ø¯ÙħØª
ĠØ£ Ø±ÙħÙĬÙĨ
ĠÙħÙĦØŃ ÙĤØ§Øª
ĠÙħØª Ùģ
ĠØ§ÙĦØ£ Ùĥ
ĠØ¶Ø¹Ù ĬÙģØ©
ĠØ§ÙĦØ³ ØŃØ¨
ÙĨØª ÙĬÙĨÙĬ
ĠÙĬØª Ø¨
ĠØ§ÙĦØ¨ Ø¹Ø¯
ØªÙħ ÙĬÙĨ
ĠØ¨Ø§ÙĨÙĪØ± Ø§ÙħØ§
ĠØ¥ Ø¶
ÙģØ§Øª Ø±
ĠØ³Øª Ø§ÙĬÙĦ
ĠØ¬ÙĪ Ø§Ø²
ĠÙĦÙĦØª ÙĪØ§ØµÙĦ
ĠØ§ÙĦÙħØ¯ ÙĪÙĨØ©
ĦÙĨ Ø¯ÙĬ
Ø§Ø¸Ù ħ
ĠÙĦÙĦØ· ÙĦØ§Ø¨
ĠØŃØ§Ø¯Ø« Ø©
ĠØ§ØŃ Ø³ÙĨ
ĠØª ÙĩØ¯Ø¯
ĠØ¹ Ø§Øª
ĠØ§ÙĦØ´ ÙħØ±ÙĬ
ØŃ ÙĥØ§Ùħ
ĠØ§ÙĦØ¹ Ø±ÙĪ
ĠØ§ÙĦÙĤ ÙħØŃ
Ø³Øª ÙĪØ±
ĠØ§ÙĦØ´ÙĬØ± ÙĨØ¬
ĠÙħØ± ØªØ¨Ø·
ĠÙģÙĦØ³Ø· ÙĬÙĨÙĬ
ĠØ§ÙĦØ¨ Ø«
ĠØ³ ØªÙĬÙģ
Ġfem t
Ĭ Ø§ÙģØ§
ĠÙĪØ§ÙĤ ØªØµ
ĠØ§ÙĦØ§Ø³Øª ÙĤØ¨Ø§ÙĦ
Ù ĬØ§ÙģØ§
ĠÙĦÙĦØ§Ø ®
ĠØ¨Ø§ÙĦØ ¢
Ø¯ÙĬÙ ħØ§
ĠØ§ÙĦØ§Ø± ØªÙģØ§Ø¹
ĠÙĪØ§ÙĦÙħÙĨ Ø·ÙĤØ©
ĠØ§ÙģØª ØªØŃ
il l
ĠØ§ÙĦÙħÙĬØ² Ø§ÙĨÙĬØ©
ÙĪÙĦ ÙĨØ¯ÙĬØ©
ĠØ§ÙĦÙħØŃ Ø·Ø©
ĠØ¨ÙĨ Ø¯
Ø®Ø¯Ùħ ÙĬÙĨ
ĠA d
ĠÙĦÙĦØª Ø¬Ø§Ø±Ø©
ĠÙħØ± Ø§Ø³ÙĦ
ĠØ§ÙĦØ¬Ø² Ø±
ĠØ§ÙĦØ§Ø ²ÙħØ©
ĠÙĦÙĪ Ø¬ÙĪØ¯
ĠÙģÙĤ ÙĦØª
ĠØ¨ ÙħÙ
ĠÙħØ¤ Ø´Ø±Ø§Øª
ĠÙħÙĬØ² Ø©
ĠØ¹ÙĨ Ø§
ĠØ§ÙĦØªÙĪ Ø§ÙģÙĤ
Ø±ÙĬ Øº
ĠØ§ÙĦØª ÙĪØ¹ÙĬØ©
ØµÙ ħØ©
Ø·Ø± Ø¯
ĠÙĨ Ø§Ø±ÙĬØ©
ĠÙħÙ ĬÙĦ
o st
Ġ ÙĬØ§ÙģØ§
ĠØ£Ø¨ Ø¹Ø¯
ĠÙģ Ø¶ÙĬÙĦØ©
ĠØ£ Ø·Ùģ
ĠØ§ÙĦØªÙĪ ÙĤÙĬØª
ĠØªØ® Ø¶Ø¹
ĠØ§ÙĦØªØŃ Ø±ÙĬØ¶
ĠØ§ÙĦØ±Ø¦ Ø§Ø³ÙĬ
ÙĪÙ ĬÙĥ
is ion
Ø§Ø¨ ÙĩØ©
ĠØ§ÙĦØ³ ÙĬÙĨ
ÙħØ§ ÙĩÙĬ
ĠØ±Ùħ Ø¶
ĠØ§ÙĦØªØ¹ Ø±Ø¶
Ġ Ø¯Ùī
ĠØ£ Ø³ØªØ±Ø§ÙĦÙĬØ§
ĠÙĬÙĨ Ø¨Ø¹
Ø§ÙĦÙħ Ø©
ĠØ·Ø± Ø§Ø²
ĠÙħØ± ØªØ¨Ø·Ø©
ĠÙĪØªØ£ ØªÙĬ
ĠØ§Ø¹ ÙĦÙĨØª
ĠØ§ÙĦÙħ Ø§Ø±Ùĥ
ĠØ§ÙĦØ§Ø¬ ÙĨØ¨ÙĬØ©
ĠØ§ÙĦØ¥Ø± ÙĩØ§Ø¨ÙĬÙĬÙĨ
ĠØªÙħÙĨ ØŃ
ĠÙĬÙĪ Ø¶ØŃ
ĠØ« ÙĨØ§Ø¦ÙĬ
ĠØ§ÙĦØ¬ ÙĪØ§ÙĨØ¨
ĠÙħÙ ĬÙĪÙĨ
ÙģØ³ Ø§Ø±
ĠÙĪØ´Ø± Ø§Ø¡
ĠØªØª Ø®
ĠØ¨ Ø§Ø¯
ĠÙĪØ· Ø±ÙĤ
ĠÙĪØ§ÙĦÙĨ ØµÙģ
ĠÙĥÙĪÙĥ Ø¨
ĠÙĩ Ø¬Ø±
Ø¨ØªØ¯ Ø§Ø¦ÙĬ
ĠÙĦÙĦØ¨ Ø±
ĠG X
ĠØ§ÙĦØ³ Ø§Ø¯Ø©
ĠØ§ÙĦØª ÙĪØ±
Ø« Ø¨Øª
ħ ÙĪÙĬÙĦ
ĠØ¥ÙĨ Ùģ
ĠÙĦØª ØµØ¨ØŃ
ĠØ£ÙĪ Ø§Ø¦ÙĦ
ĠÙħÙĬ Ø³ÙĬ
ĠØ¨ØŃØ« Ø§
ÙĪØª Ùĥ
ĠØ§ÙĦØµ Ø§Ø±
ĠÙĪØ§ÙĦÙħØŃ Ø·Ø§Øª
ĠÙħØ§ÙĬ ÙĥÙĦ
ĠÙĦÙĦØ¯ Ø±Ø§Ø³Ø§Øª
ĠØ§ÙĦØ¹ÙĨ Ø²ÙĬ
ĠÙĥ Ø±Ø¨
ĠÙĪØ§ÙĦØª Ø¯
ħ Ø°Ùĩ
ĠÙĪØ§ÙĦØ³Ù ĬØ§ØŃØ©
E S
ĠØ§ÙĦÙĨ ÙĩØ±
ĠØ¬ Ø«Ø©
ÙĪØªÙĪ ØºØ±
ĠØ§ÙĦØŃ ÙĦÙĪ
ĠÙħØ² Ø§Ø¯
ĠØ§ÙĦØ¨ÙĪ Ø§Ø¨Ø©
ĠÙĪØ§ÙĦÙĪ ÙĦØ§ÙĬØ§Øª
Ù ħØ°Ùĩ
ĠØªÙĦÙĤ Ø§Ø¦ÙĬØ§
Ġ ÙħØ°Ùĩ
ĠØ§ÙĦØ¯Ø± Ø³
ĠØ§ÙĦØ§ Ùĩ
Ġ196 7
Ø³ ÙĪÙĦ
ÙĥÙ ĬÙĪÙĨ
ĠØ§ÙĦÙĤØ± Ø¢
ĠÙĤ ØªÙĦÙĪØ§
ĠØ´ ÙħÙĪ
ĠØ§ÙĦÙħØª Ùĥ
ĠØªØ« Ø¨Øª
ÙĦØª ÙĪÙĨ
ĠØ´Ø± ÙĤÙĬ
ĠÙħØ¹Ù Ħ
ĠØ§ÙĦÙĩ Ø±Ùħ
ĠØ§ÙĦØ¥Ø¬ ØªÙħØ§Ø¹ÙĬ
ĠØ§ÙĦØ¬ ÙĦÙĪØ³
Ġ ÙĬØ§Ø¨
ĠØ¥Ø³ ØŃØ§ÙĤ
ĠØ¹ÙĨ ÙĩÙħØ§
ĠÙĪØªÙĤ ÙĪÙħ
ĠØ§ÙĦØ£ Ø·Ø¨Ø§ÙĤ
ĠÙĦÙĦØ¹ ÙĦÙĪÙħ
ĠØ¯Ø¹ Ø§Ø¡
ĠØ¹ÙħØ± ÙĩØ§
ĠØ¨ÙĪ ØµÙģ
ÙĪ ÙĩÙħ
ĠÙĪ ÙĦØŃ
ĠØ§ÙĦÙħØµ Ø±ÙģÙĬØ©
ĠØ« ÙĦØ«
ĠØ§ÙĦØŃ ÙĬØ©
h one
ĠØ´Ø¹ ÙĪØ±
ĠØ¯Ø® ÙĦÙĬ
Ø± Ø§Ø±Ø§Øª
Ø§Ø« ÙĪÙĦÙĬ
ĠØ§ÙĦØ¨ ØµØ±ÙĬ
ØŃØ¯ Ø¯
ĠØ§ÙĦÙĪ Ø§Ùģ
ħØ¬ Ø±Ø¯
ĠØ§Ø³Øª Ø¹Ø±Ø§Ø¶
ĠØ±Ùħ Ø§Øª
ĠÙĪÙĬ Ø¶ÙĬÙģ
ĠÙĦÙĦØŃ ÙĪØ§Ø±
ĠØ§ÙĦØ« ÙħÙĨ
ĠØ§ÙĦØ± Ø²
ĠØ¨Ø§ÙĦÙħØŃ Ø§ÙģØ¸Ø©
ĠÙĪØ§ÙĦÙħ Ø§ÙĦÙĬØ©
ĠØ° ÙĩØ§Ø¨
ĠØ¬ Ø¯Ø¯
Ø±ÙĪØ³ ÙĪÙģØª
ĠÙĪØ§ÙĦØ± Ø¦ÙĬØ³
Ø¨ÙĬ Ø§Øª
ĠÙĦØ§ØŃ ÙĤ
ĠÙħØ³Ø¨ ÙĤØ§
Ġ ÙĦØ§Ùħ
ĠØ£ ØªÙī
ĠØ§ÙĦØµ ÙĦØ©
ĠÙĦÙĦØ® Ø¯ÙħØ§Øª
ĠÙģ Ø§ÙĤ
ØªÙ ħØ©
ĠØ§ÙĦÙĥ ÙĦÙī
ĠÙħÙģØª Ø§ØŃ
Ø§Ø±ÙĬÙĥ Ø§ØªÙĬØ±
ĠØ¥Ø³Øª Ø¶Ø§ÙģØ©
ĠÙĬØ³ Ø§ÙĩÙħ
ĠØ¬ Ø«
ĠØ± ÙĪØ§ÙĨ
Ø¶ØŃ Ùī
ĠØ§ÙĦØ³ÙĬÙĨÙħ Ø§Ø¦ÙĬ
ĠØ¹Ø±Ø¶ Ø©
ĠØ¨ÙĬØ¶ Ø§Ø¡
Ø§ÙĨ ÙĬÙĨ
ĠØ§ÙĦØ£ ÙĩÙħÙĬØ©
ÙĦÙĬ Ø§Ùģ
Ø¨ ÙĨØ§Ø¡
ĠØ§Ø¨ØªØ¯ Ø§Ø¦ÙĬ
ĠÙĥØª Ø§Ø¨Ø§Øª
ĠÙħØª Øª
ĠØ§ÙĦØ¥ ØªØŃØ§Ø¯
ĠØ§ÙĦÙħØ³ Ø§Ø¦ÙĦ
Ġ ÙĦÙī
ĠØ¨Ø® ÙĬØ±
ĠDream box
ĠØ£Øµ Ø¯ÙĤØ§Ø¡
ĠØ² Ø§Ø¯Øª
ĠÙĪØ± Ø¬Ø§ÙĦ
4 5
ĠØ§ÙĦÙĨØ³ Ø®
Ø¶Ù ĬÙģØ©
ĠØ§ÙĦÙħØ³ Ø§Ø¡
ĠÙĦØ¥ Ø³Ø±Ø§Ø¦ÙĬÙĦ
ĠÙħÙĩ Ø§Ø¬Ùħ
ĠØ§ÙĦÙħØ´ Øª
ĠØ§ÙĦØ« ÙĪØ±ÙĬ
ĠÙĬØ¹ Ø·
ĠÙħØ² Ø¯
ĠØªØ® ÙģÙĬÙģ
ĠÙħÙĪ Ø«
ĠÙĥ Ø§Ø±Ù
ĠØ£Ø®Ø° Øª
ĠÙĤØ¯Ø± ÙĩØ§
ĠÙĦÙĦØª Ø®
ħ ØªÙħ
Ĭ ÙĦØ²Ùħ
ĠØ§ÙĦØ³Ø¬ Ø§Ø¯
ĠÙĥ ÙĬØ±
ĠØ± Ø§ØŃØ©
ĠÙĦÙĦÙĪ Ø²
ĠØ§ÙĦØ¨Ø¯Ø± Ø§ÙĨÙĬ
ĠØ²ÙĬØ§Ø± ØªÙĥ
ĠØ¨Ø¥ÙĨ Ø´Ø§Ø¡
ĠØºØ³ Ø§ÙĦØ§Øª
ĠØ§ÙĦÙħ ØªÙħØ±
ĠØ§ÙĦØ§Ø³Øª ÙģØ³Ø§Ø±Ø§Øª
Ĭ ØµØ±
ĠÙĪØ§ÙĦØ¥ Ø¯
ĠØ¹ Ø±ÙĤ
ĠØ§ÙĦÙħØµ ÙĨØ¹
ĠØ¯Ø§Ø® ÙĦÙĬ
ĠØ§ÙĪÙĨ ÙĦØ§ÙĬÙĨ
ĠÙĬÙĪ Ùģ
Ù ĬØµØ±
ĠØ§ÙĦÙĥ Ø±Ø¯
ÙģØ§Ø¡ Ø§Øª
Ġ ÙħØ¦Ø©
ĠØ£ÙĨ ØªÙħ
ĠØ§ÙĦÙħÙĤ Ø§Øª
ĠÙĪØ±Ø³ ÙĪÙĦÙĩ
Ø§Ø¤ ÙĦØ§Øª
Ġ ÙĬÙĪØ±
ĠÙĪÙĬÙħÙĥÙĨ Ùĥ
ĠØ³Ø¹ ÙĪØ¯ÙĬØ©
ĠØ§ÙĦØ§Ø °
ĠØ§ÙĦØ± Ø§Ø¦Ø¯
ĠØ£ ÙģØ±
ĠØ§ÙĦÙ ĬÙĥ
ĠÙĪØ§ÙĦÙħ Ø¹ÙĦÙĪÙħØ§Øª
ĠM P
ĠØ§ÙĦØ« ÙĤÙĬÙĦØ©
Ħ ÙĪÙĬØ³
ĠÙĦØ§Ø µ
ĠØª ÙĦØ¨ÙĬØ©
Ø¯ Ø¯Ø©
ĠØ§ÙĦØªØŃ Ø¯ÙĬ
Ĭ Ø§Ø¯Ø§Øª
ĠØ§ÙĦØ® Ø¨ÙĬØ±
ĠÙĩ Ø§Ø¦ÙĦØ©
Ù ĬÙĦØ²Ùħ
ĠØ¬Ø¨ Ø§ÙĦ
Ġ ÙĬÙĦØ²Ùħ
Ø§Ø³ Øª
ĠØ¨Ø§ÙĦÙħ Ø±
ĠÙĪ ÙĪØµ
ĠØ¨Ø§ÙĦÙĤ Ø§ÙĨÙĪÙĨ
ĠÙĦÙĬ ÙĪÙħ
ĠØ§ÙĦÙĪ ÙĦÙĬØ¯
ĠÙĨ Ø§ÙĤØ´
ĠØŃÙĬØ§Øª ÙĩØ§
ĠØªÙħØª Ø¯
ĠÙĬÙĤ ØµØ¯
ĠÙĩ Ø¯ÙĬØ©
ĠÙĤØ¯Ùħ Ùĩ
ĠØ¨ Ø§ÙĬØ±
ĠÙĪØ§ÙĦØ£ Ø¹ÙħØ§ÙĦ
ĠØ¬ Ø±ÙĬ
ÙĦØª Ø§
ĠØ·Ø§ÙĦØ¨ Ø§
ÙĩØ§ ÙĦÙī
ĠÙĪØ£ Øª
Ø§Ø¬ ÙĬÙĨ
ĠÙģØ§Ø± ÙĪÙĤ
ĠÙĪÙĤ ÙģØ©
ĠÙģÙĬ Ùĥ
ĠØ§ÙĦÙħØ³ Ø§ÙĪØ§Ø©
Ù ħØªÙħ
Ġp df
ĠÙħØ³ Ø§ÙĩÙħØ©
ĠØ§ÙĦØ£ ÙĩÙħ
ĠÙĦÙĦÙħÙĪ ÙĤØ¹
Ø§Ùģ Ø¹ÙĬ
Ø·Ø± Ø§Ø¨Ø§Øª
ĠØ¨Ø¹Ø¶ Ø§
Ø§Ø± Ø¹Ø©
ĠØ§ÙĦØ¹ Ø´ÙĪ
ĠØ¹Ø§ÙħÙ Ĭ
ĠØ¨ ÙĪØ¹
ĠØ§ÙĦÙħ Ø§ÙĨÙĬØ§
ĠØ¹ ÙĦÙĤ
ĠØ§ÙĦØŃØ¯ÙĬØ¯ ÙĬØ©
ÙĬÙĪÙħØ§ ÙĥØ³
ĠØ§ÙĦÙĪ Ø§Ø¯ÙĬ
ĠÙĨÙģØ³ ÙĬØ©
ĠØ§ÙĦØ®ÙĦÙĬ ÙģØ©
ĠØ§ÙĦØ¹Ø¸ ÙħÙī
ĠØ§ÙĦØ¥Ø³Ø¨ Ø§ÙĨÙĬØ©
ĠÙĨØ¸ Ø§ÙģØ©
Ĭ Ø£Øª
ĠØ¨ÙĨ ÙĤÙĦ
ĠØªÙĪØ± Ø³
ÙĦØ§ØŃ ÙĤØ©
ĠÙħØ³Ø±ØŃ ÙĬØ©
ĠØ§ÙĦÙħØ®Ø§ÙĦÙģ Ø©
ĠØ§ÙĦØ§ÙĨØ³ ØŃØ§Ø¨
ĠØ£Ø³ Ø§ÙĦÙĬØ¨
ĠØ§ÙĨÙĤ Ø·Ø§Ø¹
ĠÙĦØ¹ Ø¯Ø©
l d
ĠÙĦÙĦØ¨ ÙĨØ§Øª
Ù ĬØ£Øª
ÙĦØ§Ø¯ ÙĬØ´
ĠØ³ÙĬ Ø§Ø¯Ø©
ĠØ£Ø³Ø± Ø§Ø±
Ø§Ùħ ØªÙĩ
ĠØ±Ø§Ø¦ ØŃØ©
Ġ ÙĬØ£Øª
ĠØ«Ø§Ø¨Øª Ø©
ĠØ« Ø§ÙĨ
ĠØ´ Ø§Ø·Ø¦
ĠÙĪØ¯ ÙĪÙĦ
ĠÙħÙĬ ÙĦÙĬ
ĠØ§ÙĦÙħØ¹Ø¯ ÙĨÙĬØ©
ĠÙħØ± Øº
ĠÙħØªÙģØ± ÙĤØ©
ÙĦØ¯ ÙĬØ©
ĠÙĦØ§ÙĨ ÙĩØ§
Ġd oc
ĠØ§ÙĦÙħÙĤØµ ÙĪØ¯
ĠÙĥ Ø³Ø§Ø±Ø©
ÙĬØ³ Ø±
ĠØ§ÙĦØ£ ÙĥØ§Ø¯
ĠØŃ Ø±ÙĥØ§Øª
ĠØ§ÙĦÙĪ ÙģØ§Ø¡
ĠÙĪ Ø§Øº
ĠØ³ÙĬ Ø§ØŃØ©
9 9
ĠØŃ Ø¬Ø©
ĠÙĪØ§ÙĦØ· Ø¨
ĠÙĦÙħØ³ Ø§Ø¹Ø¯Ø©
Ĭ ØµÙĬØ¨
ĠØ§ÙĦØŃ Ø¬Ø©
ÙĨØ¨ ÙĦØ©
Ùģ Ø³ÙĬ
ÙģÙĬØª Ø´
ĠØ§ÙĦØ¹ÙĬÙĨ ÙĬÙĨ
ĠÙģØ¬ Ø£Ø©
ĠÙħÙħ Ø§Ø«ÙĦØ©
ĠØ§ÙĦØ³ ÙĩÙĦ
ĠØ§ÙĦØ§Ø® ØªØ¨Ø§Ø±Ø§Øª
ĠØ¬Ø¯ ÙĪÙī
Ù ĬØ¨Ø±
ĠØ§Ø³ØªÙĩ Ø¯ÙģØª
ĠØ¨ ÙĪØ¶ÙĪØŃ
ĠÙĥ ÙĪÙĦÙĪÙĨ
Ø¶ Ø§ÙħÙĨ
ĠØ¥Ø¹ ÙĦØ§
ÙĤØ¨ Ø§Ø·
Øµ ÙĬÙĨ
ĠÙĦÙĦØ´ Ø±ÙĥØ§Øª
ĠÙĥØ§Ùħ ÙĬØ±Ø§Øª
Ù ĬØµÙĬØ¨
ħ Ø¸ÙĩØ±
ØªÙħ Ø§ÙĦØ§Øª
Ġ ÙĬØµÙĬØ¨
Ø§Ùĥ ÙĬØ©
ĠÙĪØ¨ Ø£
ĠØ¨Ø´Ø± ÙĬØ©
ĠØ§ÙĦØ¬ ÙĪÙģ
ĠØ§ÙĦØŃ Ø§Ø¯ÙĬ
ĠØ§ÙĦÙħÙģ ÙĪØ¶ÙĬØ©
ĠÙħØµØ± Ø¹
ĠØ§ÙĦÙĨ Ø³ÙĬ
ĠÙĪØ§ÙĦØ´ Ø¹Ø±
Ø§Ùģ Ø²
Ø§ÙĤ Ø¨ÙĬÙĨ
ØªÙĬ Ø§Ø¬
ĠØ¨ÙĨ Øº
ĠØ§ÙĦØªÙĤ ÙĬÙĬÙħ
Ġ ÙħØªÙħ
ĠÙĦÙĦØ· ÙĬØ±Ø§ÙĨ
ĠØ§ÙĦØ±Ø¬ ÙĪØ¹
ĠÙĪØ§ÙĦÙģ Ø±
ĠØªØ±Ø¨ Ø·
or d
ĠØ³Ø± Ø·Ø§ÙĨ
ĠØ§ÙĦØº Ø³
ĠØªØŃØ¯Ø« Øª
ĠØªØª ÙĥÙĪÙĨ
ĠØŃÙ ĬØ§
ĠØ¯Ø³Øª ÙĪØ±
ĠØ§ÙĦØ¢ Ø®Ø±Ø©
ĠØªØªØŃ ÙĪÙĦ
Ø±Ø¨ÙĬ Ø¬Ø§ÙĨ
§ÙĦØª Ø²Ø§Ùħ
ĠÙħØ³ØªÙĤØ¨ ÙĦØ§
Ø§ÙĦØ¨ Ø§Øª
ĠØ§ÙĦÙħÙĤØªØ± ØŃØ©
ĠØ§Ø· Ø¨Ø§Ø¡
ĠØ§ÙĦØ¥Ø° Ø§Ø¹Ø©
ĠÙĥ Ø±Ùĥ
ĠÙģ Ø§ÙĦØ¹
ĠØ§ÙĦØ¥Ø¹ Ø§ÙĤØ©
ĠØ£Ø· Ø¨Ø§Ø¡
ĠØ¨Ø£Ø³ Ø¹Ø§Ø±
ĠØ·ÙĦØ¨ Ùĥ
ĠØ§ÙĦØ£ Ø¹Ø±
E T
ĠØ£Ùĥ ÙĪÙĨ
ĠØ§ÙĦØ¹ Ø§Ø¦Ø¯
ĠØ§ÙĦØ¹ØªÙĬ Ø¨ÙĬ
ĠØ§ÙĦØ¬Ø§Ùħ Ø¹
ĠØªÙĥ ÙĬÙĬÙģ
ĠØ§ÙĦØª ÙĪÙĤÙģ
ĠØ§ÙĦÙģØµ Ø§Ø¦ÙĦ
ĠÙĪ ÙĪØ±
ĠØªÙĨ ÙĤÙĦ
N D
ĠÙĨ ÙĨØª
ĠØ§ÙĦÙħØ³ Ø§ÙĩÙħ
Ø¯Ø¯ ÙĬÙĨ
Ù ħØ¸ÙĩØ±
ÙĪØ³ Ø§Øª
Ġ13 0
ĠÙĨØ´Ø± ÙĩØ§
ĠØ± ÙĪØª
ĠØ³ ÙĦØ¨ÙĬØ©
ĠØ§ÙĦÙħÙ ħØ§Ø±Ø³Ø§Øª
Ø§Øª Ùĥ
Ø§ÙĬØ¯ Ø©
ĠÙĥÙĪÙĨ Ø§
ĠÙĦØª Ùĥ
ĠØ§ÙĦÙĥ ÙĨØ¯ÙĬ
ĠØ§ÙĦÙħØ±Ùĥ Ø¨Ø§Øª
ĠØ£ Ø±ÙĥØ§ÙĨ
ĠØ§ÙĦØ³ ÙĬÙĪ
ĠÙĬØ¹ Ø§Ø¯ÙĦ
ĠØ§ÙĨ Ø·
k y
ĠÙĬÙĪÙħ ÙĬØ©
ÙĨÙĬ Ø³Øª
ĠØ§ÙĦÙģ Ø§Ø³
ĠØ§ÙĦØ² Ø¬Ø§Ø¬
Ġ ÙħØ¸ÙĩØ±
ĠØ§ÙĦÙĤ Ø³
ĠØ§ÙĦØ¥ ÙĤØªØµ
ĠØ§Ø³Øª Ø¦ÙĨØ§Ùģ
ĠÙħØª ØŃØ¯Ø«
in t
ĠØ¥Ø« Ø¨Ø§Øª
ĠØ§ÙĦØ³Øª ÙĦØ§ÙĬØª
R O
Ø¯ Ø¹ÙĬ
ĠØ§Ø³ ØªÙĬ
ĠÙĪØµ Ø§ØŃØ¨
ĠÙĪ ÙĥÙĨ
ĠÙħØ® ØªØµ
ÙĪØ§Ø¬ Ø²
ĠØ¬ ÙĪÙĬ
Ø· Ø¨Ø©
ĠØ§ÙĦØ¯ÙĬÙħÙĪÙĤØ±Ø§Ø· Ù
ĠØ§ÙĦØ¯ÙĬÙħÙĪÙĤØ±Ø§Ø·Ù Ĭ
ĠØ§ÙĦÙģØ± Ø§Øº
Ø¨Ù ĬÙ
ĠØªÙĪ Ø¶ÙĬØŃ
ĠØ§ÙĦØ± Ø¶
ĠØ¨Ø® Ø¯ÙħØ©
ar k
ĠØ§ÙĦØ¨Ø±Øª ØºØ§ÙĦÙĬ
ĠØŃ Ø³Ùħ
Øª Ø±Ø¨ÙĬÙĨ
3 5
ĠØ¨Ø£ ÙĥÙħ
ĠØ§ÙĦØ§ÙģØªØ± Ø§Ø¶ÙĬ
Ġ ÙħÙĦ
Ĭ Ø±Ù
ĠØ· Ø§ÙĤÙħ
an a
ÙĪ Ø§Øµ
Ø§Ø±Ù ħØ©
ĠÙĨØ® Ø¨Ø©
ĠÙĪØ¹ Ø§Ø¦
Ø¨Ø± Ø§Ø¡
ĠÙĪØ¬ Ø¨Ø©
ĠØ§ÙĦØ¨ ÙĨØ¯
ĠØº Ø³ÙĦ
ĠØ§ÙĦØ£ ÙĪÙĤØ§Ùģ
T L
ĠÙĪØ§ÙĦØ¢ ÙĨ
ĠØ§ÙĦÙĥØªØ± ÙĪÙĨÙĬØ©
ĠØ§ÙĦØŃ Ø±ÙĬÙĤ
ĠØ§ÙĦÙĤ ÙĦÙĬÙĦ
ĠØ§ÙĦØ·Ùģ ÙĪÙĦØ©
ÙĩØ± Ø§Ø¡
ĠÙĦÙĦØª ÙĨØ³
ĠØ¯Ø¹ ÙĪÙī
ĠØ® ØµÙħ
ĠØ§ÙĦØµÙģ ÙĤØ©
ĠØªÙĤØ¯Ùħ Ùĩ
ĠØ¥ ÙĬÙħ
ĠØ® Ø±ÙĬ
ĠØ§ÙĦØ£Ø¬ÙĨ Ø¨ÙĬ
ĠØµÙĬ Ø§ØºØ©
ĠØº ÙĨ
ĠØ§ÙĤ Ø§ÙħØ©
Ġ199 0
ĠØ§ÙĦÙĥØ« ÙĬØ±Ø©
ĠÙĦÙĦÙ ħØ®
ĠÙĨ Ø¨ÙĬÙĩ
ĠÙĬØ¯ÙĬ Ùĩ
u g
ĠÙħØŃ Ø¨
ĠØª Ø°ÙĩØ¨
ĠØªØª ÙĪÙĤÙģ
ĠÙħÙĨØ³ ÙĤ
ĠÙĬØªØŃ ÙĤÙĤ
ĠØ´Ùĩ Ø±ÙĬØ§
Ø¯Ùħ Ùĩ
ĠØ§ÙĦÙĤ Ø±ÙĪØ¶
ĠÙĦÙĦÙ ħÙĩ
Ø§Ø´ ÙĬØ©
ĠØ§ÙĦØ§ÙĬØ± Ø§ÙĨÙĬØ©
ĠØ§ÙĦØ´ ÙģØ§Ø¡
ĠÙĥÙĦÙĬÙĨ ØªÙĪÙĨ
ØªÙĬ Ø§Ø·ÙĬ
ĠÙģØ¹ ÙĨ
Ġ7 1
ĠØ§ÙĦØ§Ø¬ØªÙħØ§Ø¹ Ùī
ĠØ¥ ÙĦÙĬÙĨØ§
ĠØ£Ø¨Ø±Ø² ÙĩØ§
ÙĪØ¯ÙĬ ÙĪÙĩØ§Øª
ĠÙĬØ® Ø¶Ø¹
ØªÙĬ Ø§ØŃ
ĠØªØ¨ ÙĨÙĬ
ĠØ§Ù ĬÙĩ
ĠØ§ÙĦÙĩ Ø§Ùħ
ĠØ§ÙĦØ² ÙĪ
ĠØªÙĪ ØµÙĦ
ĠÙĪ Ø³Ùħ
ĠØµÙĨ Ø§Ø¯ÙĬÙĤ
ĠØªÙĨ Ø¸Ø±
ØµÙĬØŃ Ø©
ĠØ§ÙĦÙĥ ÙĪØ±ÙĬ
ÙģÙĦÙĪÙĨ Ø²Ø§
ĠØ§ÙĦÙĪ ÙĩØ§Ø¨
ĠØ¨ÙĪØ± Øª
ĠÙħØ¯ Ø§Ø®
Ġ Ø±ÙħÙĪØ²
ĠÙĪÙĨ Ø¸
ĠØªØ¹ ÙĦÙĬÙĤØ§Øª
ÙĦÙħ ÙĪØ§
ĠÙĬØªØŃ ÙĪÙĦ
ĠÙĪØ« ÙĦØ§Ø«
ĠÙĨ Ø¨Ø±
Ġ ÙĬØµØ±
ĠØªØ´Ù Ĭ
ĠØ¥ ØŃÙĬØ§Ø¡
ĠÙĪÙĬÙĨ Øª
ĠØ§ÙĦØ£ Ø³ØªØ±
Ø§Ø¦ ÙĨØ§Øª
ĠØ§ÙĦØ¬ÙĪ ÙĦØ§ÙĨ
ĠÙĦØ¥ Ø·ÙĦØ§ÙĤ
ĠØ£ ÙĪØ¯
Ø§ÙģØ¸ Ø§Øª
ĠØ§ÙĦØ§ÙħØ± Ø§Ø¶
ĠØ¨ Ø±ÙħØ¬Ø©
ÙĨØª ÙĪØ³
ĠÙħØ§ ÙĩØ±
ĠØ§ÙĦÙħ Ø¨Øª
ĠØ§ÙĦØ¯ ÙĦÙĬÙĦ
ĠØ§ÙĦØ¯ Ø§Ø¦ÙħØ©
ĠØ¨Ø§ÙĨ Ùĩ
ĠØ§Ø¹ ØªØ±Ø§Ø¶
ĠØª Ø±ÙģØ¹
ĠØ¶ Ø±ÙĬØ¨Ø©
ĠØ§ÙĦÙĥ Ø¨Ø¯
ĠÙĨÙĪ ÙĥÙĬØ§
ĠØ§ÙĦØµÙĪÙħ Ø§ÙĦ
Ù ¨
ĠØ§ÙĦÙħÙĨ Ø¨Ø±
ĠØ£Ùĥ ÙħÙĦ
ĠØ§ÙĦÙģÙĤ Ø±Ø§Ø¡
ĠØ§ÙĦÙħ Ø§Ø¬Ø³ØªÙĬØ±
ĠØ§ÙĦØ¬ ÙĪØ§Ø¨
ĠØ³ ÙĨÙĬÙĨ
ĠÙĦØ¨ ÙĬØ¹
ĠÙĪ Ø§ÙĬØª
ĠÙĦÙĥÙĨ ÙĨØ§
ĠØ¥Ø± ÙĩØ§Ø¨
ĠØ¬ Ø§Ø³Ùħ
ĠÙĬØª Ø§Ø¨Ø¹
ĠØ§Ù ĬÙħ
Ø§Ø²ÙĬ Øº
ĠØ§ÙĦØ± ÙĬØŃ
ĠØ§ÙĦØ§ÙĨ Ø¯Ø±ÙĪÙĬØ¯
ĠØµ Ø§ÙĦØ©
ĠÙĪÙĥ Ø£ÙĨÙĩ
ĠØ§ÙĦÙħØº Ø§Ø±Ø¨Ø©
ÙĤØª ÙĬÙĨ
ĠÙħØ¹ Ø§Ø±Ø¶Ø©
ĠÙĦÙĬ ØŃ
ĠÙĪ Ø®Ø±Ø¬
ĠÙģØ£ ÙĨØª
ĠÙħØ¨ ÙĥØ±
ĠÙĤÙ ĬØ§Ø¯
ĠØºÙĬØ± ÙĩÙħ
Ø¬ ÙĦØ§
ĠØ§ÙĦÙĪ ÙĥÙĬÙĦ
ĠØ§ÙĦØ´ÙĬØ¹ Ù
ĠØ§ÙĦØ´ÙĬØ¹Ù Ĭ
ĠØªØ±Ø¨ ÙĪÙĬØ©
ĠØµ Ø¹ÙĪØ¯
ĠÙĥ ÙĥÙĦ
I M
ĠØ¨ Ø§Ø·
ĠØ§ÙĦØ® Ø³Ø§Ø¦Ø±
ĠØªÙĨØª Ø¬
ĠØ§ÙĦØ´ ÙĥØ§ÙĪÙī
ĠÙħÙĪÙĨ ØªØ§Ø¬
Ø± Ø§Ùħ
ĠØ§ÙĦØ£ ÙĩØ§ÙĦÙĬ
ĠØ¹Ù Ħ
ĠÙĬÙĪ Ø¬Ùĩ
ĠØ§Ù ĬØ·
ĠØ§ÙĦØ£Ø±Ø¶ ÙĬØ©
ĠØ§ÙĦÙħØ· Ø§ÙĦØ¨Ø©
ÙĦØª ÙĨØ§
Ø³ÙĬ ÙĪÙĬ
ĠÙħÙĤ Ø·Ø¹
ĠØ§ÙĦØ¹ ÙĦØ§ÙħØ§Øª
ĠØ¨ØªÙĪ ÙĤÙĬØª
Ø±Ø§Ø± ÙĬØ©
ĠØ§ÙĨ Ø¸Ø±
Ùģ ÙĪÙģ
ĠØ§Ø¹ ÙĦÙī
ĠØ§ÙĦÙħ ÙĦØ§ÙĬÙĬÙĨ
Ø§Ùģ ÙĬÙĩ
ĠØ£ Ø²ÙĬØ§Ø¡
ĬÙħ ÙĪÙĨ
ÙĬÙĨ Ø§Ø¡
Ø±Ù ħÙĩ
Ø§Ø¨Ø¹ ÙĬÙĨ
Ø§Ø· Ø§
ĠÙĬÙģ ÙĥØ±
ĠØ¬ÙĨØ¨ ÙĦØ§Ø·
ĠÙĥÙĪ Ø³Øª
ĠØ§ÙĦÙħ ÙģÙĬØ¯
ĠØ¨ Ø¯ÙĬÙĦ
ÙĪØ² Ø©
ow n
ĠØ¨ ÙĪØ³
ĠØ§ÙĦÙħØ³ Ø±
ħ ÙĦØ§
ĠÙĤ Ø§Ø¦ÙĦØ©
ĠØŃ Ø±Ùĥ
ĠÙĪÙĥ Ø§ÙĦØ§Øª
ĠÙħØŃ Ø±ÙĥØ§Øª
ĠÙģÙĨ ÙĪÙĨ
ĠÙĪØ£ ÙĩÙħ
ĠØ¨ØŃ ÙĤÙĪÙĤ
ĠÙĪØ§ÙĨ ØªÙĩ
ĠØªØ´ Ø¨Ùĩ
Ùģ Ø¯
ĠØ§ÙĨ ÙĤØ±
ĠÙĩ ÙĨØ¯ÙĬØ©
ÙĦØ§Ø± ÙĪØ³ÙĬ
Ùĩ Ø§Ø¯
Ø¬Ù ħØ¯
ÙĩÙ ĬÙĥ
Ø± ÙĨ
ĠÙĤÙĬØ§Ùħ Ùĥ
ĠØ¹ ÙĦØ§ÙĪØ©
ĠØ¹ÙĨØ¯ ÙĩÙħ
ĠØ§ÙĦØ³ÙĬØ§Ø³ Ùī
ĠÙĪØ´ Ø±ÙĥØ©
ĠÙĦÙĥÙĨ ÙĩÙħ
ĠÙģØ¹ Ø§ÙĦ
ĠÙĦÙĦØŃ ÙĬØ§Ø©
ĠØªÙĥ ÙħÙĨ
ÙĩØ± Ø§Ùħ
ĠØ¨Ø§ÙĦÙħ Ø§Ø¡
ĠÙĪØ¶Ø¹ Ùĩ
ĠØ¥Ø± Ø§Ø¯Ø©
ĠÙħØ³ Ø§ØŃ
ĠÙĪØµÙģ Ùĩ
ĠØ§ÙĦÙĦØ§Ø¦ ØŃØ©
ĠØ§ÙĦØŃ Ø²ÙĨ
ĠØ§ÙĦÙħØŃ Ø§Ø¯Ø«Ø§Øª
ĠÙĪØ§Ø±Øª ÙģØ¹
ĬØ¬ Ø§
ĠÙĦØª Ø¯
ĠØ§ÙĦÙĤØª ÙĦÙī
ĠØ§ÙĦÙĨ Ø±
ĠØ± ÙĪÙī
Ħ ÙĦØ§Ø±
ĠØ§ÙĦØµØŃ ÙģÙĬØ©
B D
ĠØªØµ Ø¯ÙĬØ±
ĠÙħÙĥØ§ÙĨ Ùĩ
ĠØ§Ø³ØªØ± Ø§ØŃØ©
ĠØ¯ Ø§ÙĨ
ĠØ§ÙĦØ£ ÙĪÙĤØ§Øª
ĠÙģØ¥ÙĨ Ùĥ
im e
ĠÙĪØ§Øª Ø³
ĠØ² Ø¨
ĠÙĦÙħ Ø¯ÙĬÙĨØ©
ÙĩÙĬ ÙĦØ§Øª
ħ Ø§Ø±ÙĬ
Ø§Ø«Ù Ħ
ĠÙĤ ÙĪÙĬØ§
ĠÙĬØ® ØªØ§Ø±
ĠØ¬ÙĨ Ø¯ÙĬ
ĠØ§ÙĦÙħØ¬ Ø¯
ĠØ§ÙĦØ® Ø´
ĠÙħØ¸ Ø§ÙĩØ±
ĠØ§ÙĦÙħØ¹ Ø§ÙħÙĦØ§Øª
ĠØ£Ø³ ÙĪØ¯
ĠØ§Ø± Ø¨Ø¹
ĠÙħØ« ÙĦÙĩ
ĠØŃÙĦ ÙĪÙĬØ§Øª
ĠØ¹Ø· ÙĦØ©
ĠØªØ³Øª ØŃÙĤ
ÙĬÙĨ Ùī
ĠÙĪ ÙĦØ³
ĠØ§ÙĦÙħØŃ ØªØ±ÙģÙĬÙĨ
ĠÙĦÙĦÙħØ¬ ØªÙħØ¹
ĠØ®Ø§Øµ Ø§
ĠØ§ÙĦØ³ Ø¹ÙĬ
ħ Ø§Ø¬
ĠÙĩ Ø§Ø¬
D F
ĠØ·Ø¨ ÙĤ
ĠØ§ÙĦÙħÙĨ ÙĤ
ĠØ§ÙħØ±ÙĬ ÙĥØ§
ÙħÙĬ Øµ
ÙĪ ÙĤØ©
ĠØ§ÙĦØªØŃ Ø¯ÙĬØ«
ÙĪØ§ÙĨ Ùĩ
ĠØ¹ÙĨ ÙĬØ²Ø©
ĠØ¨Ø§Ø¨ Ø§
ĠØ§ÙĦØ³Ùģ ÙĬÙĨØ©
a il
Ùĩ Ø¨Ø©
ĠÙĪØ±Ø¯ Øª
ĠØ§ÙĦÙħØ¹ ÙĨ
Ø± ÙĩØ§
ĠØ§ÙĦÙĤ ÙĪÙħÙī
ĠØ§ÙĦÙģÙĪ Ø§Ø¦Ø¯
ĠØ§ÙĦØ¯Ù Ĭ
ĠÙħÙĨ Ø§Ø³Ø¨Ø§Øª
ĠØ§ÙĦÙģ Ø´ÙĦ
a z
ĠV U
ĠØ§ÙĦØ§Ø³ Ø§Ø³ÙĬØ©
ĠÙĪØ£ ÙħØ±
ĠØµ Ø¯Ùī
ĠØ§ÙĦØŃ Ø´Ø¯
ĠØ¨ Ø§Ø´Ø§
ĠØ§ÙħÙĥ Ø§ÙĨÙĬØ©
ĠØ§ÙĦÙĥØ«ÙĬØ± ÙĬÙĨ
ÙĪØ§Øª Ù
ĠÙĥØ±Ø¯ Ø³ØªØ§ÙĨ
ĠØ§ÙĦØŃÙĬÙĪ Ø§ÙĨ
ĠØ§ÙĦÙħÙĪ Ø¶Ø©
ĠÙħØ® Ø§ÙĪÙģ
ĠØ£ÙĨ Ø¯ÙĬØ©
l ic
ĠØ¨Ø£ ØŃØ¯
ĠØ¥Ø³ ÙĦØ§Ùħ
ĠÙģØ± Ø¬
ĠÙĪØ¯ Ø¹
ÙĬØ¯ Ø±Ø§
ĠØ§ÙĦÙĤØ§Ø¯ Ø³ÙĬØ©
ĠØªÙģ Ø¬ÙĬØ±
ÙĦØª ÙĤÙĬ
ĠØ§ÙĦØ¯ ÙĤØ©
ĠÙĬÙĤ Ø±Ø±
ĠÙħÙĩ Ø¯ÙĬ
ĠØ§ÙĦØ¬Ø¨ Ø§ÙĦ
ĠÙĪØ¹ ÙĤ
ĠØ§ÙĦÙħØ³ÙĬ ØŃÙĬ
ĠØ¥ Øª
ĠÙĦÙĦØª Ø´
Ø¸ÙĩØ± Øª
ĠØ£Ø¬ Ø±ÙĬØª
ĠØ§ÙĦÙģ Ø§Ø¦Ø²
ĠØ§ÙĦØ³Ø¨ Ø§ØŃØ©
ĠÙħØ¯ Ùģ
ĠØ§ÙĦØ¨Ø±Øª ØºØ§ÙĦ
ĠØ§ÙĦÙħ Ø±ÙħÙī
ĠÙĪØ§ÙĦØª ÙĥÙĨÙĪÙĦÙĪØ¬ÙĬØ§
ĠØ§Ø³Øª Ø«ÙħØ§Ø±Ø§Øª
ĠØ§ÙĦØ¹ ØµÙĪØ±
Ġpr ice
ĠØ¹ Ø§Ø¦Ø¯
a x
ĠØ®Ø§Ø¶ Ø¹Ø©
Ø¹Ø¯ Øª
Ù ĦÙĦØ§Ø±
ĠØ§Ø³ØªØ®Ø¯Ø§Ùħ Ùĩ
ĠØ§Ø³Øª Ø¶Ø§Ùģ
Ġ ÙĦÙĦØ§Ø±
ĠØ§ÙĦØ¬Ùħ ÙĦØ©
ĠÙĦÙĦÙħÙĨ ØªØ®Ø¨
ĠØ¯Ùģ Ø¹Ø©
ĠØ¨Ø±ÙĬØ¯ Ùĥ
ĠØ¨Øª ÙĪÙģÙĬØ±
ĠÙĬØ¬ ØªÙħØ¹
ĠØ§ÙĦØª ÙĦØ§ÙħÙĬØ°
ÙĪ Øº
ĠØ§ÙĦØµ ÙħØª
Ø§Ø¶Ù ĬÙĬÙĨ
Ù ©
Ø§Ùĥ ÙĩØ©
ĠÙģ ØªØ±Ø§Øª
ĠØ§ÙĦØ¥ Ø·
ĠØ§ÙĦÙħ Ø§Ø¯ÙĬ
ĠÙĪØ§Ø±Øª ÙģØ§Ø¹
ĠØ£ÙĥØ§Ø¯ ÙĬÙħÙĬØ©
ÙĦØ§Ø ²
ĠÙĦØ· ÙĦØ¨
ĠØ§ÙĦØ¨ Ø·ÙĦ
ĠÙĨ Ø§Ø¯
ĠØ¹ÙĦÙħ Øª
ĠØ³Øª Ø¬Ø¯
ĠØ§ÙĦØ§Ø´ Ø®Ø§Øµ
Ġ ult
ĠØ§ÙĦØ¨Ø¹ Ø«Ø©
Ø¹Ø¯ Ø§Ø¡
ĠØŃ Ø§ØªÙħ
ĠÙĩ Ø¯Ùī
ĠÙĪØª ÙĨØª
ĠØ´Ø±Ùĥ ØªÙĨØ§
ħ ÙĦÙĬØ©
ĠÙĬØªØ¹ ÙĬÙĨ
Ø§Ù ĬØ®
ĠÙĦØ¬ ÙĩØ©
ĠØº Ù
Ùĥ ÙĦÙĩ
ĠØ§ÙĦÙħØ± Ø§Ø©
Ù ħØ§Ø¬
ĠÙħØ§ ÙĩÙĪ
ĠØ§Ø¹ Ø±Ùģ
ĠÙĪØ¶ ÙĪØŃ
as h
Ĭ ÙĩØ§
ĠØª ÙĦØ§
ĠI P
ĠØ§ÙĦÙģØ¶ Ø§Ø¦ÙĬ
ĠÙħÙĩØ§Ø¬ ÙħØ©
Ø¯ÙĬ Ø±ÙĬ
ĠÙĦÙĦÙģ ÙĨØ§ÙĨ
Ø§ÙĦØª Ù
ĠÙĥÙĨ ØªÙħ
ĠÙĪØ§ÙĦØ§Ø¨ ØªØ¹Ø§Ø¯
ĠÙħÙĥØª Ø¨Ùĩ
ĠÙĨÙĤ ÙĦÙĩ
Ø§Ø¦Ù ĬÙĩ
ĠQ u
ĠØ²ÙĬÙĨ Ø¨
ĠØ£Ùĩ ÙĦÙĩØ§
Ĭ Ø§ØŃ
ĠØ§Ø³ Ø¦ÙĦØ©
ĠØ§ÙĦÙħØŃØ¯ Ø¯
ĠÙĪØ¹ÙĦ ÙĪÙħ
Ø§ÙĨÙ ħØ§Ø±
ĠÙħØŃÙģÙĪ Ø¸Ø©
ĠØ£ Ø±Ø¨
Ø§Ø¯ ÙģØ©
ĠØ§ÙĦØªØŃ ÙĤÙĤ
ĠÙĦÙħØ¹ Ø§ÙĦØ¬Ø©
ĠÙħØ´Ø§Ø±Ùĥ ØªÙĩ
ĠØ³ ÙĦØ¹Ø©
ĠÙĦØ£ ØµØŃØ§Ø¨
ĠØ²Ù ħÙĦØ§Ø¦
ĠØ§ØµØ¨ØŃ Øª
ĠØ§ÙĦÙĤ ÙĪÙħ
ØªÙĩ Ø§Ø¯
ĠØª Ø·Ø±ØŃ
Ø¯Ùħ Ø§ÙĨ
ĠØ£ÙħÙĨ Ù
ÙĥÙ ĬÙĪ
ĠØ£ÙħÙĨÙ Ĭ
ĠØ§ÙĦÙĤ ØµÙģ
ÙĥØ³ Ø³ÙĪØ§Ø±Ø§Øª
ĠØ¶ ÙĬÙĤ
Ù ĦÙĪÙĬØ³
ĠÙĦØ¥ ÙĤØ§ÙħØ©
ĠØªÙĪ ÙĤÙĬØª
ĠÙĪØ§ÙĦØ´ Ø±Ø§Ø¡
ĠØ§ÙĦØ³Ùģ ÙĨ
ĠÙĪÙĤ Ø§ÙħØª
ĠØ§ØŃØ¯ Ø§Ø«
Ġ ÙĦÙĪÙĬØ³
om e
ħ Ø§ÙħØ©
ĠØ§Ø¬ ÙĩØ²Ùĩ
ĠØ§ÙĦÙħØ¯Ø± Ø³ÙĬ
ĠC L
ĠØ´ ÙħØ§ÙĦÙĬ
ÙģÙĪØ± ÙĨÙĬØ§
ĠÙħØ¹ Ø§ÙĨÙĬ
ĠØª Ø§Ø¨
Ø§Ùĥ Ø³ØªØ§ÙĨ
an c
ĠØ§ÙĦÙĤÙĬ Ø§Ø¯ÙĬ
ĠØ¥ ÙĬØ§
ĠÙĪØ¨Ø¯ ÙĪÙĨ
ĠØ§ÙĦØ´ Ø§ÙĬ
ĠÙĨÙĩ Ø¬
ĠØ¨ Ø§ÙĬ
ÙĨÙħ Ø§Ø±Ùĥ
ĠÙħÙħØª Ø§Ø²
ĠÙĪØ§ÙĦØ£ Ø¬ÙĩØ²Ø©
ĠØ¢ ÙĦÙĩ
ĠØ§ÙĦØ¶ Ø¹Ù
ĠØ§ÙĦØ§ÙĬØ· Ø§ÙĦÙĬ
G N
ĠB e
ĠØ« Ø§ÙĨÙĪÙĬØ©
ĠÙĪØ¥ Ø®
ĠØ§ÙĦÙĥÙĬÙħÙĬ Ø§Ø¡
ĠØŃ Ø§ÙģÙĦØ©
ĠØ§ÙĦØ³ Ø·ØŃ
ĠØ§ÙĦÙħÙģØ¶ ÙĦØ©
ĠÙĪÙħ Ø¯Ùī
ĠØª Ø§ÙĬÙĪØ§ÙĨ
ĠØ§ÙĦØª Ø¹Ø¯
ĠØ¶ÙĬÙģ Ùĩ
ĠØ®Ø· ÙĬØ±
ĠÙħØ³Øª ÙĤÙĦ
ĠÙħØ³Ø¦ ÙĪÙĦÙĬØ©
ĠÙħØ¹ Ø§ÙĪÙĬØ©
Ø¸ÙĬÙģ ÙĬØ©
ĠØ¨Ø§ÙĦØª Øµ
ĠÙĪÙħØ± ÙĥØ²
ĠØ§ÙĦÙħ ÙĨØ§
ĠÙĪ Ø§ØµÙĦ
ĠØ§ÙĦØ« Ø±ÙĪØ©
ĠØ§ÙĦÙģ ÙĦÙĥ
Ø¹ÙĬ Ø§Ø¯
ĠÙĬÙħÙĥÙĨ ÙĥÙħ
ÙĤØª ÙĩÙħ
ĠÙĪØ¨ Ø¥
ĠÙģ Ø±ÙĬØ¯Ø©
ÙĦØ§ÙħÙĬ ÙĬÙĨ
ĠØ¸ ÙĦØª
ĠØ¹Ø´ Ø§ÙĨ
ĠÙħØ¯ Ø¹
ĠØ§Ø´ ØªØ±Ø§Ùĥ
ĠØ¹Ø¨Ø¯ Ø§ÙĦØŃ
Ġ8 2
ĠØ§ÙĦØ§Ø¦ ØªÙĦØ§Ùģ
ĠÙģØª ØŃØª
Ø§ÙĤ ÙĬÙĨ
ĠØ§ÙĦÙħÙĨØ§Ùĩ Ø¬
ĠÙĤØ¶ Ùī
ĠØ§ÙĦÙħØ¯ Ùģ
ĠØ§ÙĦØ¢ ÙĬØ§Øª
ĠØ§ÙĦØ§Ø³ ÙĩÙħ
ĠØ§ÙĦÙħØ± Ø¬Ø¹
ĠØ§ÙĦØ¥ Ø¨Ø¯
ĠØ¨ÙĪØ± Ø³Ø¹ÙĬØ¯
ĠÙĦÙĬ ØµÙĦ
Ø´ Ùĥ
ĠÙĪØ§ÙĦ ÙĨØ³Ø§Ø¡
ĠØ§ØŃ ÙħØ±
ĠØ§ÙĦÙĪ Ø«ÙĬÙĤØ©
Ø¯Ùĩ Ø§Ø±
ĠØ§Ù ĬØ§Ø±
ĠÙĦØ¨ÙĨ Ø§ÙĨÙĬØ©
ĠÙĤØ± ÙĨ
ĠØ§ÙĦØ£ØŃ Ø³Ø§Ø¡
ĠØ¨Ø£ ÙħØ±
echn ology
ĠØ§ÙĦÙĥ Ø§Ø±
ĠØ§ÙĦØ§ÙĨ Ø¶ÙħØ§Ùħ
ĠØ¹ÙĨ Ù
ĠØº Ø§Ø²ÙĬ
ĠØ£ØŃ ÙħØ±
3 6
ĠØ¨Ø¥ Ø¶Ø§ÙģØ©
ter n
ĠÙĦÙĦØ³Ù ĬØ§ØŃØ©
ĠØ¨Ø§ÙĦØº Ø©
ĠØ§ÙĦÙĥ ÙĪÙĥ
ĠÙģ ØªØ±
Ø±ØŃ ÙĦØ©
ĠS y
ĠÙĬÙĨ Ø§ÙĤØ´
ĠØ¥ Øº
ĠÙĪØ±ÙĪ Ø³ÙĬØ§
Ø¯Ùħ ÙĬØ©
ĠØ§ÙĦØŃØ³ ÙĬÙĨÙĬ
ĠØ§ÙĦØ¹Ø° Ø±Ø§Ø¡
ĠÙĦØ²Ù ĬØ§Ø±Ø©
ĠÙĨØ´Ø± Ùĩ
E L
ĠÙĪÙħ ÙĦØŃ
ĠØ£ÙĨ ÙĤØ±Ø©
ÙĦØ§ÙĦØ ª
ĠØ§ÙĦØ¬ÙĦÙĪÙĥ ÙĪÙħØ§
ĠØ¹ Ø«Ø±
ĠØ§ÙĦØ± ØŃÙħ
Ø¯ÙħÙĬ Ø§Ø·
Ø¶ÙĬØŃ Ø©
ĠØ§ÙĦÙħØ´ Ø±ÙģÙĬÙĨ
ĠØªÙĨ Ø¸
r on
ĠÙħØª ØµÙĦ
Ø§ÙĦØªÙ Ĭ
ĠØªØ³Øª Ø¶ÙĬÙģ
ĠÙĦÙĦØªØŃ ÙĤÙĬÙĤ
ĠÙĪØ´ Ø¹
ĠØ§ÙĦÙħ Ø¨ÙĬØ¹Ø§Øª
ĠØ§ÙĦÙĪØ² Ø§Ø±Ø§Øª
ĠÙħÙĨ Ø§ÙĤØ´
ÙģØ§ ÙĤÙħ
ĠØ§ÙĦØ³ Ø§Ø¯Ø§Øª
ĠÙĪØ§ÙĦØ¯ Ø±Ø§Ø³Ø§Øª
ĠØ§ÙĦØ¥ÙħØ§Ø±Ø§Øª ÙĬØ©
ĠØ£Ø«Ø¨Øª Øª
Ø·ÙĪØ· Ø§Øª
ĠØ£Ø· ÙĪÙĦ
ĠÙĦÙĤ Ø§Ø¦Ùĩ
ĠØµÙĬØº Ø©
ĠØ§ÙĦØ§ ÙĬØ¬
ĠØ§ÙĦÙħØ³Øª Ø¯Ø§ÙħØ©
ĠØ§ÙĦÙħØ±Ø¬ Ø¹ÙĬØ©
ĠÙĤ Ø§Ø¨ÙĦ
ĠØªÙĨ ÙģØ°
ÙĦÙĬ ÙĦØ§
ĠØ§ÙĦØ¢ Ø¨Ø§Ø¡
ĠÙĪØ¨Ùĩ Ø°Ø§
ĠØ¹ÙĨÙ Ĭ
ÙĬÙ ħØ³
ĠØ¥ ÙĦÙĤØ§Ø¡
ĠØµ Ø§Ø±Øª
ĠØŃØ³Ø¨ ÙħØ§
Ø¶ ÙĨ
ĠØªØ¹ Ø§Ø¯ÙĦ
ĠØ§ÙĦØµÙĬÙģ ÙĬØ©
ĠØ§ÙĦØ¹ ÙģÙĪ
ĠØŃ Ø±ÙĤ
ĠØ§ÙĦØµ ÙĦØ¨Ø©
ĠÙĦØ¢ Ø®Ø±
ĠØ§ÙĦÙĤ Ø§Ø³Ùħ
ĠØ§ÙĦØªÙĨ ÙħÙĪÙĬØ©
ĠØªØ¯ ÙĩÙĪØ±
Ø±ÙĪ Ùĩ
ĠØ§Ø³Øª Ø«ÙĨØ§Ø¡
ĠØªÙĨ Ø§Ø³Ø¨
ĠÙĥ Ø¯
ĠØ§ÙĦØ¬ Ø¯ÙĦ
Ġult ra
ĠØ¹Ùħ ÙĦÙĬ
ĠØªØ§Ø±ÙĬØ® Ùĩ
ĠÙĪØ§ÙĦØªØ± ÙģÙĬÙĩ
ĠØ¨ Ø§ÙĤØ©
ĠÙĪØ§ÙĦÙħØ³ ÙĦÙħÙĬÙĨ
ĠØ§ÙĦØ§ÙĪØ± ÙĪØ¨ÙĬØ©
ĠØ¹ÙĨ Ø§ÙĪÙĬÙĨ
ĠØŃÙħ Ø§Ø©
Ġ ÙĬØ¨Ø±
ÙĪØ³ Ø§Ø·
ĠÙħØ¤ ÙĦÙģ
ĠÙħØ³ØªØ® Ø¯ÙħÙĬ
ĠÙĪÙģ Ø§ØªÙĩ
ĠØª ØŃÙĬØ§Øª
ĠØ§ÙĦÙĬØ¯ ÙĪÙĬØ©
ĠØ³ Ø§ÙĪ
ĠÙĪØ¬ÙĪØ¯ Ùĩ
ĠØ¨ ÙĤÙĬØª
Ø³ ÙģÙĬ
ĠØ§ÙĦÙĨÙħØ³ Ø§
ĠØ§ÙĦÙħØ± ÙĪØ±ÙĬØ©
ĠØ¹ Ø§Ø¯ÙĬ
ĠØ¹Ø§ÙĦÙħ Ù
ĠÙĪØ¬Ùĩ ÙĩØ§
ĠÙĪØ¥ ØŃ
ĠÙĪØªØ¹ ÙħÙĦ
Ø§Ø¨ Ø®
Ġdoc tor
ĠØ¥ ØŃØ¯Ø§Ø«
ĠØ¹Ø§ÙĦÙħÙ Ĭ
ĠØ¬Ø§Ùĩ Ø²Ø©
ĠØ§ÙĦØ¯ ÙĪØ³
ĠÙĪØ® ÙħØ³
ĠØ§Ø° Ø§Ø±
ĠÙĥ ÙĦÙĬØ§Øª
Ø¨ÙĪØ± Øº
ĠØªØ´ Ø®ÙĬØµ
ĠØ¥ Ø¨Ø¯
ĠØ§ÙĦØ§Ø³Øª Ø´Ø§Ø±Ø§Øª
ĠØ§ÙĦØ¹ Ø·Ø§Ø¡
ĠØºØ³ ÙĬÙĦ
Ø¬ Ø²Ø©
ĠÙĪØ§ÙĦØ§Ø³Øª Ø«ÙħØ§Ø±
ĠØ¹Ø±Ø¶ Ø§
ĠØ§ÙĦÙħ Ø§Ø±
ÙĪÙĨ ÙĬÙĥ
ĠØ® ÙģÙĬÙģØ©
ĠÙħØ³ ÙĤØ·
ĠØ¨ Ø¬Ø±
ĠØ± ÙĪØ§ØªØ¨
Ø§Øª ÙĬÙĨ
ĠØ«ÙĦØ§Ø« ÙĬÙĨ
Ġ ÙħØ§Ø¬
Ø±Ø¶ Ùī
ĠØ¯ ÙĪØ±ÙĬØ©
ĠØ´ ÙīØ¡
ĠØ¨Ø·Ø± Ø³
ĠØ§ÙĦØªØ¹ ÙĪÙĬØ¶
ĠØ¨Ø´ ÙĬØ¡
ĠØ§ÙĦØ¯ Ø¨
ĠØ¨Ø§ÙĦØ® Ø§Ø±Ø¬
Ø§ÙĦÙĬÙ Ħ
ĠØ§ÙĦØ³Ø§Ø¨ÙĤ ÙĬÙĨ
ĠØ· Ø§Ø¨Ø¹
Ø¨Ø± Ø¹
ĠØ§ÙĦØ§Ø³Øª Ø´
ĠØ§ÙĦ ÙĦØ·ÙĬÙģ
ĠØ®Ø§Ø· Ø¦Ø©
ĠØ§ÙĦØ´ ÙĤÙĬÙĤ
ÙĪ Ø®Ø©
ĠC F
ÙĦÙĬ Ø·
ĠØ§ÙĦØ¹ Ø±ÙĪØ³
ĠØ¨Ø¯ Ø§Ø®
ĠØ¨Ø§ÙĦØª Ùģ
ĠØ§ÙĦØ± ØŃÙħØ©
ĠØ¨ ÙĪØ¬Ùĩ
ÙĦÙħ Ø§ÙĨÙĬØ§
ĠÙĬÙĪ Ø§ÙģÙĤ
ĠØ¨Ø±ÙĪ Øª
ĠØ§ÙĦØŃ ÙĦÙĬØ¨
ĠÙģÙĬØª Ø§ÙħÙĬÙĨ
ĠÙĬØª Ùģ
ÙĪØ§ ÙĩØ¨
Ù ħØ§ØŃ
ĠØ§ÙĦØ´ Ø±Ø¨
ĠÙĪ ÙĨØ³Ø¨Ø©
ĠÙĪØ£Ø¹ Ø±Ø¨
ĠØ§Ø³ØªØ® Ø¯ÙħØª
Ø§Ø«Ù Ĭ
ĠØ¬ Ø¯Ø§Ø±
Ùģ ÙĦØ©
ĠÙĦØº ÙĬØ±
ĠÙģÙĬ ÙĦØ§
ĠÙĪØª ÙĪØ¬Ùĩ
Ø§Øµ Ø¯
ĠÙĪØ§ÙĦØ´ Ø±
ĦÙĪ Ùĩ
ĠÙĪ ÙģØª
ĠÙĬØª Ø³Ø¨Ø¨
ÙĪØª Ø´
Øµ Ø§Ø±ÙĬ
ĠÙħØ³Øª Ø´ÙģÙĬØ§Øª
ĠØ§Ø± Ø¨Ø¹Ø©
ĠÙĥ ØŃ
ĠØ£Ø¹ ÙĤØ§Ø¨
ĠiP hone
ĠÙĦÙĦØ« ÙĤØ§ÙģØ©
ĠÙĨÙĬØ¬ÙĬ Ø±ÙĬØ§
f f
Ø§Ø¨ ÙĬØ§
ĠØª ÙģØ§ÙĩÙħ
ĠØ§ÙĦØ¬ Ø¯ÙĬØ±
ĠØª ÙĦÙħ
ĠØ£Ø® ÙĦØ§ÙĤ
ÙĤØª Ùĥ
ĠÙĪØ§ÙĦÙģ ÙĨÙĪÙĨ
ĠØ£ÙĦÙĪ Ø§ÙĨ
ĠØ§ÙĦØº ÙĨØ§Ø¡
ĠØ§ÙĦÙħÙĤ Ø§ÙĦØ©
Ĭ ØºÙĬØ±
ÙĪÙĨ Ø¯ÙĬ
ĠØ§ÙĦØ£Øº Ø§ÙĨÙĬ
Ġ7 00
ĠØ§ÙĦÙĦØŃ ÙĪÙħ
ĠØ§ÙĦØ§Ø³Øª Ø¹Ø¯Ø§Ø¯
ĠØ´ ØºÙĦ
ĠØ´ Ø¯Ø¯
ĠØ§ÙĦØŃ Ø§ÙĦÙī
ĠØ§ÙĦÙĥÙĩØ±Ø¨ Ø§Ø¦ÙĬ
ĠØ§Ø³Øª ÙģØ³Ø§Ø±Ø§Øª
ĠÙĬÙ ħÙĬØ²
ĠØ§ÙĦÙĩÙ ħ
ÙĬØ§Ø¶ Ø©
ĠØ§ÙĦØ§Ø¹ Ø¯
ĠØ§ÙĦØ³Øª Ø©
ĠØ§ÙĦØ® Ø³Ø§Ø±Ø©
ĠO pen
ĠØªÙĪ Ø§ÙģØ±
ĠÙħØª Ø¨
ĠØ§ÙĦØ¹Ø¨ Ø§Ø¯ÙĬ
ĠØªÙĤ Ø¯ÙħØª
ĠÙħØ³ Ø§ÙĩÙħ
ĠØª Ø§ÙĬØ¬Ø±
ĠÙĪØ§ÙĦÙħ ÙĤØ§
ĠØ§ÙĦØ§Ø® Ø±
ĠÙĪØ¥ Ø¯
ĠÙĦÙħÙĨ Ø¸ÙħØ©
Ġ Ø¯ÙħÙĪ
ĠÙĦÙĦØª Ø¹Ø§ÙĪÙĨ
ĠÙĬØª ÙĪÙĦÙī
3 7
w it
Ġh d
ĠØ§ÙĦØ³ ØŃ
ĠØ§ÙĦØ¨ ÙĦØ§Ø³ØªÙĬÙĥ
ĠÙĪ ÙĪÙĨ
ĠØ¹Ø¸ ÙĬÙħØ©
ĠØ§ÙĦØ¬ ÙĬØ¯Ø©
ĠØ§ÙĦØ§ØŃ ÙĦØ§Ùħ
A C
ĠÙģ ÙĦØ³
ĠÙĪØ§ÙĦØŃ Ø¯ÙĬØ«
ÙĪÙĬ ØŃ
ĠØ¨ÙĨ ÙĬÙĨ
ĠØ§ÙĦØªØŃ ÙħÙĬÙĦ
ĠØ¨ÙħÙĤ Ø¯Ø§Ø±
ĠÙĪØŃ Ø¶Ø±
ĠØ§ÙĦØ£ Ø±Ø¨Ø§ØŃ
ĠÙĪÙħØ¬ ÙĦØ³
ĠØ¨Ø§ÙĦØ° Ø§Øª
Øº Ø±Ø©
ĠØ£Ùģ Ø±ÙĬ
ĠØ§ÙĦØ¶ Ø±Ø±
ĠØ§ÙĦÙħØ± Øª
ĠØ§ÙĦØ£ ÙĨØ¯
Ġ199 7
ĠØ¨ ÙĦØ¨
ĠØ§ÙĦÙħØ¤ ÙĥØ¯
ĠÙĪÙ ĬØ¶
ĠØ§ÙĦÙĥ ÙģØ§Ø¡Ø©
Ø´Ø§Ø± ÙĬØ¹
ĠÙĪØ§ÙĦ ÙĦØ¬
ĠÙĪØ£Ù Ĭ
ĠØ¶ ØºÙĪØ·
ĠØªØŃ Ø¯ÙĬØ§Øª
ĠØ§ÙĦØŃØ¨ ÙĪØ¨
ĠØ§ÙĦØ¯Ø³Øª ÙĪØ±ÙĬ
ĠØªØ¹ Ø·ÙĬÙĦ
Ø´ Ø§Ø¯Ø§Øª
ĠØ§Ù ĬÙĦ
ĠÙħÙħØ« ÙĦÙĬ
ĠØ§ÙĦØ§Øª ÙĩØ§ÙħØ§Øª
ĠØ§ÙĦØ¹ Ø§Øµ
Øª Ø±Ø©
Ø¬ ÙĪØ±
ĠÙħØ´ ÙĪØ§Ø±
ĠØµØŃ Ø§ÙģÙĬ
ĠØ¥ Ø¨Ø¯Ø§Ø¹
Ġ18 0
ħ ÙĦØ§Øª
ĠÙĪÙħÙĨ Ùĩ
ĠØ´Ø§Ø± ÙĪÙĨ
ĠØ§ÙĦÙħØª Ø¯
ĠØ§ÙĦØ§Ø³ØªØ±Ø§ØªÙĬ Ø¬ÙĬ
ĠÙĪØªØ¨ Ø§Ø¯ÙĦ
ĠØ¨ÙħØ³Øª ÙĪÙī
ĠÙĨØµ Ø¨
ÙĦØ§Ø ²ÙħØ©
ĠØ§ÙĦØªÙĤ ÙĪÙĬÙħ
ĠØ£ÙĪÙĨ ÙĦØ§ÙĬÙĨ
Ù ĬØºÙĬØ±
ĠÙĨØ³ ÙħØ¹
ĠØªØ¯Ø±ÙĬ Ø¨Ø§Øª
ĠØ§ÙĦÙĨ ÙħÙĦ
ĠØ§ÙĦÙħØ® ÙĬÙħ
Øº ÙĨÙĬ
ĠØ§Ø´ ØªØ±
ĠØ§Ø¬ Ø±Ø§Ø¡Ø§Øª
ĠØ§ÙĦØ§ Ùĥ
ĠÙĤ ÙħÙĨØ§
ÙĨ ÙĪØ¯
ĠØ§ÙĦØ£ÙĨ ÙĪØ§Ø¹
Ġ ÙĬØºÙĬØ±
ĠØ¬ÙħÙĬØ¹ ÙĩØ§
ĠÙĪÙħ Ùģ
ĠÙĦÙĦØª Ø£ÙĥØ¯
ĠØ§ÙĦÙħØª Ø¶Ø±
ÙģØª ÙĩØ§
ĠØªÙĦÙĤ Øª
ÙģØ§ÙĤ ÙĬØ©
ĠÙĦÙĦØ¯ ÙĪÙĦ
ĠØªØ± Ø®ÙĬØµ
ĠÙģ Ø§Ø¬
ĠØ¹Ø±Ø¶ Ùĩ
ĠÙĨ ÙĬØ©
ĠØŃ ÙĤÙĦ
ĠØ§ÙĦØ¨Ø· ÙĨ
ĠØ§ÙĦØ§Ø± Ø§Ø¶ÙĬ
ĠØ® Ø§ÙĦØµ
ĠØ£ÙĨÙģØ³ ÙĨØ§
ĠØ§ÙĦØ³ ÙħØ¹
ĠØ³ÙĦØ¨ Ø§
ĠÙĪØ¨Ø§ÙĦ ÙĨØ³Ø¨Ø©
ĠÙĦÙĨ Ø´Ø±
ĠÙģ Ø§ÙĦÙĨ
ĠØ§ÙĦØ´Ùĩ Ø§Ø¯Ø§Øª
ĠØ§ÙĦÙ ĬÙĤ
ĠÙĬÙħÙĪ Øª
ĠÙħØ± Ø´
ĠØ¹ÙĨØ¯ Ùĥ
ĠØ§ÙĦØ·Ø¨ Ø§Ø¹Ø©
ĠÙĦØ§Ø¨ ÙĨ
ĠÙģ ÙĪÙĨ
ĠØ£ ÙĦÙĤÙī
ĠÙĬÙĨ ØµØŃ
ĠØ¬ ÙĪÙĬØ©
ĠØ§ÙĦÙħØŃ Ø±
9 7
ĠØªØ¯ Ø§Ø¹ÙĬØ§Øª
ĠÙģ Ø³Øª
ĠØ§ÙĦÙħØª Ø¬Ø¯Ø¯Ø©
Ø¡ Ø©
ØªÙĤ Ø§ÙĨ
ĠØ§ÙĦØµ Ø§Ø¯Ø±Ø§Øª
ĠØ§ØŃØª ÙģØ§ÙĦ
ĠÙģØ§ÙĨ Ùĩ
ĠØ§Ù ĬÙĤ
ĠT rip
ĠØ§ÙĦÙĨ Ùĥ
ĠØ§ÙĦÙĨ Ø·Ø§ÙĤ
ÙĤ ÙĪÙģ
ĠÙĪØ£ØµØ¨ØŃ Øª
ĠØ§ÙĦÙĨØµ Ø±Ø©
ĠÙħØ« ÙĬØ±Ø©
ĠØ§ÙĨ ÙĨÙĬ
ĠÙĨ Ø¸ÙĬÙģØ©
ĠØ³ ÙģÙĬØ§ÙĨ
ĠÙĪ Ø§Ø¦ÙĦ
ĠÙĪØªØ± ÙĥÙĬØ§
ĠY ou
ĠØ§ÙĦÙĪØ± Ø¯ÙĬØ©
ĠÙĪÙĬ Øµ
ĠØ¹Ø±Ø¶ ÙĩØ§
ĠÙģÙĬ Ø¬Ø¨
ĠØ§Ø³ØªÙĩ Ø¯Ùģ
ĠØ§ÙĦØ£ Ø¬ÙĬØ§ÙĦ
Ø§Øº Ø±Ø©
ĠØ§Ø´ ØªØ¨Ø§ÙĥØ§Øª
ĠÙĪØ§ÙĦÙĩ ÙĨØ¯
ĠØ¨ ÙĪØ²
ĠÙĦØ§Ø³Øª ÙĤØ¨Ø§ÙĦ
ÙĪÙ ĬØ²
ĠÙĪØ§ÙĦØ¯ ÙģØ§Ø¹
ĠØ§ÙĦØ§ ÙĦÙĩ
ĠØ³Ù ĬØ®
ĠØ¨ÙĤ ØªÙĦ
Ø¬Ù ĬØ¬
ĠØ£ Ø±ÙĪ
ĠØ§ÙĦØªØµ Ø¯ÙĬ
Ø¯Ø± Ø³Ø©
ĠØ§ÙĦÙĪ Ø§Ø±Ø¯
ĠØ§ÙĦØªØµ Ø±ÙĬØŃØ§Øª
ĠØ§ÙĦØªÙĩ Ø§ÙĨÙĬ
ĠÙĪØ§ÙĦØ« ÙĦØ§Ø«
ĠØ¯ ÙĤØ©
ĠÙĦØ§Ø ´
ÙĬÙ ħØ±
I P
ÙĥÙĦÙĬ Ø²ÙĬ
ĠÙħØŃ Ø¬
ĠØ§ÙĦØª ÙģØ§Ø¹ÙĦ
ĠØ§ÙĦØ§ ÙĤØª
ĠÙĨØ§Ø¦Ø¨ Ø§
ĠØ§ÙĦØŃ Ø§Ø¯ÙĬØ©
Ø§Ø¨ ØªÙĩ
Ġpr k
ÙĤ ÙĩØ§
ĠÙĪØ¬Ùĩ Øª
ĠØ³ ØªØ¨
ĠÙģØ¹ ÙĦØª
ĠÙĦØªØŃ Ø±ÙĬØ±
ĠØ£Ø¯ Ø¨
ĠØ¨ Ø±ÙĥØ§Øª
ĠØ¨Ø§ÙĦØ£ ØŃ
Ġ20 20
ħ Ø®ØµØµØ©
en s
ĠØ¨Øµ Ø¯Ø¯
Ø¤ ÙĪÙĦÙĬØ©
ĠÙĦÙģ Ø¸
ĠØ§ÙĦØªÙĤ Ø¯ÙĬÙħ
Ù ħØ®ØµØµØ©
ĠØ³Ùģ ÙĬÙĨØ©
ĠØªÙħ Ø¯ÙĬØ¯
ÙħØ§ ÙĦÙī
Ġ ÙħØ®ØµØµØ©
ĠÙħØ® ØªØ§Ø±
ĠØ§ÙĦØªÙħÙĪ ÙĬÙĨ
ÙĨ Ø§Ø¯
ĠÙĪ ÙĦÙĩØ§
ĠÙĨ Ø¶Ø¹
ĠÙĪØ§ÙĦØŃ ÙĥÙĪÙħØ©
ĠØ¢ÙħÙĨ ÙĪØ§
ĠA R
ĠØ§Ù ħÙĬÙĨ
ĠØ·Ø§ÙĦØ¨ Ø§ÙĨ
ĠÙħØªÙĤ Ø¯ÙħØ©
ĠØ§ÙĦØ¹ÙĨ ØµØ±ÙĬØ©
ØµØ¯ Ø§Ø±Ø§Øª
ĠØ§Øµ Ø§Ø¨Ø©
ĠØ§Ø¨ Ø±Ø²
ĠØ§ÙĨØ¹ ÙĤØ§Ø¯
dv an
ĠØ§ÙĦØŃ ÙĦÙģ
ĠÙĦÙħØ´ Ø§ÙĩØ¯Ø©
ĠØŃ ØµÙĬÙĦØ©
ÙĪØ§ ÙĪÙĬÙĨ
ĠÙĪØ¨Ù ħØ¬Ø±Ø¯
ħØ±ÙĬ Ø¶
ĠØ£ØŃ ÙĦÙī
ĠØŃÙĪ Ø§Ø±Ø§Øª
ĠØ¨ ÙĩÙħØ§
ĠØ§ÙĦÙħØ® Ø·Ø·
ĠÙħÙĤ Ø§Ùħ
ĠÙĦÙĦØ± Ø¬Ø§ÙĦ
Ø¶ØŃ ÙĬØ©
ĠÙĬÙĨ Øµ
ĠØ¨ÙĤ Ø·Ø±
Ø§Ø¶ Ø¹Ø©
ĠØ§ÙĦÙħØ¤ Ø´Ø±Ø§Øª
ÙħÙĪ Ø²
ĠØ§ÙĦØµ ØºØ§Ø±
ĠØªØ· ÙĪØ±Ø§Øª
ĠØ£Ù ĬØ¯
ĠÙħÙĩ ÙĨØ©
ĠØ§ÙĦØ§Ø® ØªØµØ§Øµ
ĠÙĩØ° ÙĬÙĨ
ĠÙħØ¨Ø± ÙĪÙĥ
Ø§Ùģ ÙĬÙĥ
ĠØ® Ø±ÙĬØ·Ø©
ĠÙħØ´ Øª
Ø¬ Ø§Ø¡
ĠØ¹ Ùģ
ĠØ§ÙĦÙħØ· ÙĬØ±ÙĬ
ĠÙģ Ø§ÙĦ
ÙĪÙĩ Ø§Ø¬
ĠØ¥ ØµØ§Ø¨
ĠØ§ÙĦØªØ£ Ø³ÙĬØ³
Øµ ÙĪØ±Ø©
ĠØ³Ø§ÙĩÙħ Øª
ĠØµ ÙĩÙĬ
ĠØ£Ø±Ø¯ Øª
ĠÙĥ ÙĪØ¯
ĠØ§ ÙĤØ±
ĠÙģ ÙĦÙĦ
ĠØ§ÙĦÙĬÙĩ ÙĪØ¯ÙĬ
ĠØªØ¯Ø±ÙĬ Ø¬ÙĬØ§
ĠÙĪØ§ÙĤ Ø¹Ø©
ĠØ³Øª ØŃ
ĠØªØ® Ø¯Ùħ
Ø§Ùģ Ø³ÙĬØ©
ĠØ£ÙĨ ÙĬØ¯Ø±Ø§
ĠÙĪØ§ÙĦ ÙĨÙĩ
ĠØ§ÙĦØª ÙĪÙĤØ¹Ø§Øª
ĠØ§ÙĦÙĪ ÙģØ§ÙĤ
ĠØ§ÙĦØ£Øº Ø°ÙĬØ©
I F
ĠÙģ ÙĦØ§ÙĨ
ÙħØ±ÙĬ ÙĥØ§
U R
Ø§Ø¹ Ø¯ÙĬ
ĠÙħØ³ Ø§ØŃØ§Øª
ĠØ´ Ø±ÙĬ
ĠØªØ£ Ø´ÙĬØ±Ø©
ĠØªØªØ± Ø¯Ø¯
ĠØ¬ÙĬØ¨ ÙĪØªÙĬ
ĠÙĪØ¥ ÙĬØ±Ø§ÙĨ
ĠØ° ÙħØ©
Ĭ ÙĪØ¯
ĠÙħØ³ØªØ¹ Ø§Ø±Ø©
ĠÙĨØŃ ØªØ§Ø¬
ĠØ§ÙĦÙħÙĩ Ø§Ø¬Ùħ
ĠÙĪØ³ Ø£
ĠØ§ÙĦØ£ Ø¨Ø·Ø§ÙĦ
ĠØ¶ Ø®
ĠØ§ÙĦØ²ÙħÙĨ ÙĬØ©
ĠØ§ÙĦØ³ Ø¯
ĠÙĪØ´ ÙħØ§ÙĦ
ĠØ§ÙĦØ¨ Ø§ØŃØ©
ĠØ§ÙĦØŃÙĦ ÙĪÙĬØ§Øª
ĠÙĪÙĨ Ø¸Ø§Ùħ
ĠE x
ĠÙĪØ§ÙĦØº Ø§Ø²
Ùģ ÙĦØ§Ùħ
ĠØ§ÙĦØ¬ ÙĪØ§Ø±
ĠÙĪØ§ÙĦØ« Ø§ÙĦØ«
ĠØ§ÙĦØ¨Ø§ÙĦØº Ø©
ĠØŃ ÙĨØ§
ĠØªØ¯ ÙģÙĤ
ĠÙĦØ ¸
ÙĤØ· Ø§Ø¨
ØªØ¯ Øª
ĠÙĪØ§ÙĦØŃ ÙĪ
ĠØ§ÙĦÙħÙħØ« ÙĦØ©
ÙĬÙĪ Ø´
ĠØ¨ÙĤ Ø§ÙĨÙĪÙĨ
ĠØ§Ø³ØªÙĨ Ø§Ø¯Ø§
ĠÙĬÙĨ Ø³
Ø§ÙĨ Ø¦
ĠÙĦØ¥ÙĨ Ø´Ø§Ø¡
ĠØ§ÙĦØ® Ø¶Ø±
ĠÙĦØ¯Ø± Ø§Ø³Ø©
ĠÙĬØ³Øª ÙĩØ¯Ùģ
ĠØ§ÙĦØŃØ± Øµ
ĠØ§ÙĦÙħØ¹ Ø§Ø¯ÙĨ
ĠÙĥØ§ÙĦÙĬ ÙģÙĪØ±ÙĨÙĬØ§
ĠØ§ÙĦÙħ Ø°ÙĩØ¨
ĠÙĪÙħØŃ Ø§ÙĪÙĦØ©
ĠÙĨØ³Ø¨ ØªÙĩ
ĠØ§ÙĦØº Ø±ÙĬØ¨
ĠØ§ÙĦÙħÙĪØ¸ Ùģ
ĠÙĪ ÙĨÙĬ
ĠØ§ÙĦÙħÙĪ Ø¨Ø§ÙĬÙĦ
ĠØ¬ Ø§ÙĩØ¯ÙĬÙĨ
Ø®Øµ ÙĬØ©
Ġ8 1
ĠÙħØ³Ø§Ø¹Ø¯ Ø§Øª
ĠÙĦÙħ Ø¨Ø§Ø±
ĠØ§ÙĦÙģÙĬØ²ÙĬ Ø§Ø¦ÙĬØ©
Ø§Ø±ÙĬÙĥ Ø§
ĠØ§ÙĦØ³ Ø§ÙĦÙħ
ĠÙĨÙģ Ùī
ØŃÙħ ÙĦÙĩØ§
ĠÙĪØ¨ ÙĤ
ĠØ§ÙĦØ£ Ø¨Ø±
ĠÙĬØ³ Ø¬ÙĦ
ĠØ³ÙĨØºØ§Ùģ ÙĪØ±Ø©
ĠØ£Øª ÙħÙĨÙī
ĠØ§ÙĦØ§ÙĤØªØ± Ø§ØŃØ§Øª
ĠØ§ÙĦØ§ØŃ ØªÙĬØ§Ø·
ĠÙĪØ£ Ø³Ø±
ÙĦØ§Øª ÙĩØ§
la ck
ĠØ§ÙĦØ¥ÙĨ ÙĤØ§Ø°
ĠØ§ÙĦØ± ÙĪØ³
Ĭ Ø³ÙĬØ·Ø±
ĠØ¯ Ø§Ø¦ÙħØ©
Ù ĬØ³ÙĬØ·Ø±
ĠØ§Ø³ØªØ·Ø§Ø¹ Øª
ĠØ¨Ø§ÙĦØ´ ÙĥÙĦ
Ġ ÙĬØ³ÙĬØ·Ø±
Ø§Ø¦ ÙĤÙĬ
ĠØŃØ³Ø§Ø¨ Ùĩ
ĠØ¨ÙħØ± Ø¶
Ø§ ÙĤÙĦ
ĠØ§ÙĦÙĥ Ø±ÙĬ
ĠØ· ÙĦØ¹Øª
Ø¶Ù ĬÙĩ
ĠØ§ÙĦÙħØ¤ØªÙħØ± Ø§Øª
ĠØ§ÙĦÙħØŃ Ø§Ø¶Ø±Ø§Øª
ĠØ´Ø§Ùĩ ÙĬÙĨ
Ø§Ø¦ Ø¹Ø§Øª
ĠØ§ÙĦØ¨ Ø³ÙĬØ·Ø©
dvan ced
ĠØ§ÙĦØ±Ø´ ÙĬØ¯
ĠØ¹ Ø§Ø²
ĠÙħØŃ Ø±Ùħ
ĠØ§ÙĦØ´ÙĬÙĪ Ø¹ÙĬ
ĠØ§ÙĦÙĩ Ø§Ø¯ÙĬ
ĠÙĦÙĤ Ù
Ġ199 2
ĠØ±ÙĪØŃ Ø§ÙĨÙĬ
ĠØ§ÙĦÙħ Ø®ØµØµ
ĠÙħØŃ Ø§ÙĪØ±
ÙĤ Ø§Ø±
Ø§ÙĬÙ ĬØ³
ĠØ³Ùĥ Ø§ÙĬ
ĠÙħØ³Øª ÙĦØ²ÙħØ§Øª
ÙĦØ§Ø¯ Ùĩ
ĠÙĪØª ÙĦÙĥ
ĠÙĦÙĦØ´ ÙĬØ®
ion s
ĠÙĪ ÙĪØ²Ø§Ø±Ø©
ĠØ§Ø±Ø³ Ø§ÙĦ
ĠG MT
ĠØ§ÙĦÙħØ¨ Ø§Ø¯Ø¦
ĠØ§ÙĦØªØ¨ Ø§Ø¯ÙĦ
ĠØ§ÙĦØ± ØµØ§Øµ
ĠØ§ÙĦÙģ ÙĤØ±Ø©
ĠØ¬ ÙĨØ³ÙĬØ©
is or
ĠØ§ÙĦÙģØ§Ø¦ Ø²ÙĬÙĨ
ĠÙĦÙĦÙĥ ØªØ§Ø¨
ĠØªÙģ ÙĥÙĬØ±
ĠØ¹ Ø§Ø¯ÙĬØ©
ĠØªÙĩ Ø±ÙĬØ¨
ĠÙħØ§ÙĬÙĥ Ø±ÙĪØ³ÙĪÙģØª
ĠØ§ÙĦØ´ ÙĥØ§ÙĪÙĬ
ĠØ§ÙĦÙħØ³Øª ØŃ
Ø¹Ù ĬØ§Øª
Ĭ Ø¸
Ø¹ÙĪ Ø§Ùħ
ĠØª Ø«ÙĬØ±
ĠØ§ÙĦØªØ± Ø§
ĠÙĪØ§ÙĦØ¨ ØŃÙĪØ«
ĠÙĪØ² ÙĬØ±Ø§
ĠØ§ÙĦØªØ± Ø§Ø¨
ĠØ¥Ø« Ø§Ø±Ø©
ĠØ§ÙĦØ£ ÙĨØ³
ĠØ§ÙĦØ±Ø§Øº Ø¨ÙĬÙĨ
ĠØªÙģ ÙĩÙħ
ĠØ§ÙĦØ¬ØºØ± Ø§ÙģÙĬØ§
ĠÙĦÙĦØ£ Ø¹Ø¶Ø§Ø¡
ĠØ§ÙĦÙħØ« Ø§ÙĦÙĬØ©
ĠØ§ÙĤØªØµ Ø§Ø¯ÙĬ
on s
ĠØ¬ Ø¯ÙĬØ±
ĠØ§ÙĦÙħØŃ ÙħÙĪÙĦØ©
ÙħÙ ħØ©
ĠÙħØ± Ø§ÙģÙĤ
ĠØ§ÙĦØ¹Ø± Ø´
ĠØ§ÙĦØªØ¹ Ø°ÙĬØ¨
ĠØªØ£ Ø¬ÙĬØ±
ĠØ¨ Ø°ÙĦ
ĠÙĤ Ùģ
ĠÙĪØ£ ÙħÙĨ
ĠÙĪØ§ÙĦÙģ ÙĨÙĬØ©
ĠØ¯Ø± Ø¹Ø§
ĠØŃØ¯ Ø§Ø¦ÙĤ
ĠÙħØµ Ø§ÙĨØ¹
ĠØ§Øº ÙĦØ¨
ĠØ§ÙĦØ§Ø® ØªØ¨Ø§Ø±
ĠØ±ØŃ ÙĬÙĦ
ĠØ§ÙĦØ¯ Ø®
ĠÙĪ Ø§Ø¬ÙĩØ©
ĠÙĪØ§ÙĦØ§ÙĤØªØµ Ø§Ø¯
ħ Ø§Ø¬Ø³ØªÙĬØ±
ĠØ§ÙĦÙħÙĪØ§Ø· ÙĨØ©
Ù ħØ§Ø¬Ø³ØªÙĬØ±
ĠÙħÙĪØ±ÙĬØª Ø§ÙĨÙĬØ§
ĠØ§ÙĦÙħØ®Ø§ÙĦÙģ Ø§Øª
Ġ ÙħØ§Ø¬Ø³ØªÙĬØ±
ĠØ² ÙĥØ±ÙĬØ§
m ed
ĠØ³ ÙĦØ©
ĠØ§ÙĦÙħÙĨØµ ÙĪØ±Ø©
ĠØª Ø§ÙħØ©
ĠØ¨ÙħÙĪ ÙĤØ¹
ĠØ§ÙĦØ§Ø¹ ÙĦÙī
ÙĦÙħ Øª
Øº Ùģ
ĠØ§ÙĦØ¹Ø«Ùħ Ø§ÙĨÙĬ
ĠØ¨ÙĤ Ø±Ø§Ø¡Ø©
ĠØ§ÙĨ ØŃ
ĠÙĪ Ø±Ùħ
dv isor
ĠØ§ÙĦØ³ Ø§ÙħÙĬØ©
i re
ĠØ¨ÙĩØ¯Ùģ ÙĬÙĨ
ĠÙĬØªØ¹ Ø§ÙħÙĦ
ĠØ§ÙĦØ¬Ø± Ø§ØŃØ©
ĠØ¥ÙĨ Ø´
ĠF acebook
ve l
ĠØ§ÙĦØ¯Ù ħØ§Ø¡
ĠØªÙĪ ØµÙĬÙĦ
ĠÙĦÙĤ Ø·Ø§Ø¹
Ø§Ø³ ÙĬØ§
ĠÙħÙħØ« ÙĦØ§
ĠÙĦÙĦØ¨ ÙĦØ§Ø¯
ĠØ§ÙĦØ¹ ÙħØ§ÙĦÙĬØ©
Ø¨Ø¹ ÙĪØ«
ĠØªØ¹ Ø§ÙħÙĦ
ĠØ¶ Ø¹
ĠØ³ÙĬÙĨ ÙħØ§
ĠØ£ Ø¹Ø¶
ÙĨ Ø§Ø²
ĠØ§ÙĦØ§ÙĨØª Ø¨Ø§Ùĩ
ĠØ§ÙĨØª ÙĤØ¯
ĠÙĦÙĦØ³ ÙĦØ§Ùħ
ĠØ³ ÙĪÙĬÙģ
ĠØ·Ø¨ ÙĤØ©
ĠØ¬ ÙĪØ§ÙĨ
ĠØ® ÙĪØ¶
r act
ĠÙĪÙħÙ ħØ§
Ø¹Ù ħØª
ĠØ´Ùĥ ÙĦØª
ĠÙĪÙĬ Ø°ÙĥØ±
ĠØ§ÙĦØµØ¯ Ø§ÙĤØ©
Ù ħÙĦØ§Ø¦
ĠØ£ÙĪ Øª
ĠØ§Ø¨ ÙĨØ©
ĠØ§ÙĦØ³ ÙĦÙĪ
ĠÙĪØ§ÙĦØ¢ Ø®Ø±
ĠØ§ÙĦÙħØŃ ÙĦØ§Øª
ĠÙĪØªØ´ ÙĬØ±
ĠÙĦÙĬ ÙĦÙī
ĠØªÙĪ ÙĦÙĬ
ĠØ§ÙĦÙħØ± ØµØ¯
ÙĬØ¯ Ø§Ø¹
ĠØ¨Ø¥ Ø¬Ø±Ø§Ø¡
ØŃ ÙĪÙĨ
ĠØ§ÙĦØ´ Ø±ÙĬØ·
ĠÙĦØŃ ÙĬÙĨ
ĠØ§ÙĨ Ø¶ÙħØ§Ùħ
Ø² Ø±Ø©
ĠÙĥ ÙħÙĨ
ĠÙħÙĦÙĥ ÙĬØ©
ĠÙĥ ÙĪØ¨Ø§
ĠÙĥØ§Ø± Ø«Ø©
ĠØ¥ Ø¨Ø±
ĠÙĬØ® ÙĪØ¶
ĠÙħÙĪÙĨ Ø¯ÙĬØ§ÙĦ
ĠØŃÙĥ ÙħØ§
ĠØ§ÙĦÙĥØª ÙĦØ©
Z S
ĠØŃ Ø§Ø³Ø¨
ĠØ¬ÙĩØ§Ø² Ùĥ
ĠÙħØª ÙĩÙħ
ĠØ§ÙĦØ² Ø¹
ØªÙĬ Ø¨Ø©
Z D
ĠØ§Ø³ØªÙĤ Ø§ÙĦØ©
ĠØ£ØŃ Ø²Ø§Ø¨
ĠØ¹ ÙĤÙĦ
ĠÙħØ³Øª Ø¹ÙħÙĦ
ħÙĩ Ø§Øª
ÙĦØ§Ø ²Ùħ
ĠØ¯Ø± ÙĪÙĬØ´
ĠÙĦÙĪ Ø§Ø¡
ĠØ§ÙĦØŃ Ø§Ø±Ø©
ĠØ§ÙĦÙħØªØ¹ ÙĦÙĤ
ic al
Ø¹Ø¯ Ø§Øª
ĠØ§ÙĦØ¹ Ø²ÙĦ
ĠÙĬÙĨ ÙĤÙĦ
ĠÙĪØ§ÙĦÙĥ Ø±
ĠØ£ Ø¨ÙĦ
ĠØ³ Ø§ØŃÙĦ
ĠØ±ÙĪÙĬ Ø§ÙĦ
ÙģØ§Ø¹Ù Ĭ
ĠÙĪ ÙĨØ¯
ĠØª Ø¹ÙĬØ¯
ĠÙĦÙĥ Ø£Ø³
ĠÙĪØ£ Ø¹ÙĦÙĨØª
ĠØ§ÙĦÙħØŃ ÙĤÙĤ
ĠÙĪØ¨ Ø§Øª
ĠØ§ÙĦØ¨ Ø¶Ø§Ø¦Ø¹
ĠØ§ÙĦÙĤ Ø±Ø¶
ĠØ· Ø§ÙĪÙĦØ©
ĠÙħØ¯ ÙĪÙĨØ§Øª
ĠÙĪØ§ÙĦØ± Ø³ÙĪÙħ
ĠØ´ Ø§ÙĥØ±
ĠØ§ÙĦØ¬ÙĪ Ø§ÙĦØ§Øª
ĠØ§Øª Ø¨Ø¹
Ĭ Ø§Ø·Ø©
ÙĦÙģÙ Ĭ
Ø´ Ø¹Ø±
ĠÙĤ ÙĬØ±
ĠÙĦÙĦÙĪ ÙĦØ§ÙĬØ§Øª
ÙĪØ±ÙĪ Ø«
ĠØ§Ø¨ Ø¯
Ø±ÙĪ Ø´
Øµ ÙĨ
Ø² ÙĦØ©
ĠØ¯ÙĪ Ø§Ø¦Ø±
Ø¬ÙĬ Ø±ÙĬ
ĠØ§ÙĥØ³ Ø³ÙĪØ§Ø±Ø§Øª
ĠÙĤ Ø±ÙĬ
ĠÙĪØ§ÙĦØŃ ÙģØ§Ø¸
ĠØ§ÙĦÙħÙĪ Ø³ÙĬÙĤÙĬØ©
ĠØ§ÙĦÙĦÙ ĬØ§
ÙĬØ¯ Ø§
ĠÙĪØ§ÙĦØ³ Ø¹ÙĪØ¯ÙĬØ©
ĠØ¨Ø§ÙĦÙħ Ø±ÙĥØ²
ĠÙĥ ÙĦÙĩÙħ
ĠU S
Ø§Ùģ Ø±Ø©
ĠØ§ÙĦØ´ÙĬØ¹ ÙĬØ©
ĠÙĬØ± ØªØ¨Ø·
ĠØª Ø³ÙħÙĬØ©
Ø§ ÙĥØª
ĠØ£Ø³ ÙģØ±
Ø¨ÙĬ ÙĬÙĨ
ĠØ§ÙĦÙħØ³Ø¤ ÙĪÙĦØ©
ĠØ§ÙĦØ¢ ÙĪÙĨØ©
ĠØ§ÙĦØŃ Ø±Ùģ
ĠØ§ÙĦÙħÙĥ Ø§ØªØ¨
ĠØ¸ Ø§ÙĩØ±
ĠØ§ÙĦØ¬ÙĪ Ø§Ø¦Ø²
Ø§Ø° Ø¨Ø©
ĠÙģÙĦÙħ Ø§Ø°Ø§
ĠÙģÙĤ Ø§ÙĦØª
ĠÙħØ³Ø¤ ÙĪÙĦÙĪÙĨ
ĠÙĪØ§ÙĦØ¨ Ø·
ĠÙĪÙĬÙĤ Ø¯Ùħ
ĠÙĩØ² ÙĬÙħØ©
Ø±ÙĬ Ø®
ħ Ø§Ø·
ĠÙĥØªØ¨ Ùĩ
ĠØ§ÙĦØ¥ Ø´Ø±Ø§Ùģ
ĠØ§ÙĦÙħØ³Øª Ø«ÙħØ±
ĠÙħØ¹ Ø¨Ø±
Ø§ ÙĪØ¯
ĠØ§ÙĦØ¬ ÙħÙĦ
Øª Ø§Øª
Ø· Ø§ÙĦØ¨
ĠØ§ÙĦØªØ³ ÙĪÙĬØ©
ĠØªÙĤ ÙĦÙĬÙĦ
Ø· ÙĪØ¨Ø©
ĠØªØ³ Ø¹
ĠØ§ÙĦØµ ÙĬØ§Ø¯
ĠØ£ÙĨ Ø²ÙĦ
ĠØ§ÙĦÙģØ¶ Ø§Ø¦ÙĬØ§Øª
ĠØªØ¹ÙĦÙĬÙħ Ø§Øª
ĠÙĦÙĦÙ ĬÙĪÙħ
ĠØªØ± ÙĬÙĨ
ĠØ§ÙĦØ· ÙĬØ§Ø±
ĠÙĪØ§Ùģ ÙĤØª
ĠØµØ§ØŃØ¨ ÙĩØ§
ĠØ£ Ø¹ÙħØ§Ø±
K K
ĠØ¨Øµ ÙĪØª
Ø§Ùĥ ÙĬÙĨ
ĠØ£ÙħØ± Ùĩ
ĠØ·Ø±ÙĬÙĤ ÙĩØ§
ĠØ§ÙĦÙħØ¤ ÙĩÙĦØ©
ĠØ£ÙĨ Ø¯Ø±ÙĪÙĬØ¯
ĠØ§ÙĦØ¹Ø³ ÙĥØ±Ùī
ĠØ§ÙĦÙħÙĩ ÙĨØ©
ĠØ§ÙĦØ² ÙĥØ§Ø©
Ø§Ø¨ ØŃ
ĠØ§ÙĦØ£ÙħØ±ÙĬÙĥÙĬ ÙĬÙĨ
Ø§Ùħ ÙĩØ§
ĠØ¨Ø§ÙĦÙħ Ø®
Ġ ÙħÙĦØ§Ø¦
Ø§Ø¨ Ø§ÙĨ
ĠØªÙħØ« ÙĬÙĦ
A dvisor
ĠØ§ÙĦÙĨ ÙĬØ±Ø§ÙĨ
ĠÙĦÙĪ Ùĥ
ÙĦÙĬ ÙĦØ§Øª
ĠØ¨Ø§ÙĦØ¬ Ø§ÙħØ¹Ø©
ĠÙĪØ¬ÙĪØ¯ ÙĩØ§
ÙģØ§ ÙĬØ©
ĠÙĦÙħ Øª
Ø§Ø« Ø±
ĠØ§ÙĦÙģÙĬØ³ Ø¨ÙĪÙĥ
ĠTrip Advisor
ĠØ§ÙĦÙħÙĪ Ø¬ÙĩØ©
ĠØ§Ø³Øª Ø´ÙĩØ§Ø¯
ĠÙĪØ§ÙĦØ® Ø§ØµØ©
ĠÙħØ¯ÙĬØ± Ø©
ĠÙħØ³Ø¦ ÙĪÙĦ
ĠÙĪØ§ÙĦÙħØ´ Ø§Ø±ÙĥØ©
ĠØ§ÙĦÙħÙĪ Ø¹Ø¯
ĠØ± Ø§Ø¦Ø¯
ĠÙħØ·Ø§ÙĦØ¨ Ø©
ĠÙģ Ø§ÙĬØ±
ĠØ£ÙĨ Ùģ
ĠÙĪØ§ÙĦØ¯ ÙĪÙĦ
ĠØ§ÙĦØ¨Ø· Ø§ÙĤØ©
b er
ĠØ§ÙĦØ¨ ÙĨØª
ĠØ§ÙĦÙħ ÙĨÙĬØ§
ĠØ§ÙĦÙħØ³Ø¦ ÙĪÙĦÙĬÙĨ
Ø² ÙĬØ±Ø©
Ġb est
ĠÙĥ Ø§Ø´
ÙĪ Ø§Ø¦Ø¯
ÙĦØ¯ Ø©
ĠÙħÙĨØ² ÙĦÙĬØ©
ĠØ§ÙĦØ¶ Ø®ÙħØ©
ĠØ§ÙĦØªØ± Ø§Ø¬Ø¹
ĠÙħØª Ø§ØŃØ©
ĠÙĪØ£ Øº
ĠØ¬ Ùī
ÙĦØº Ø§Øª
ĠÙĬÙĨ ÙģØ¹
ĠÙħØ³Ø¤ ÙĪÙĦØ©
Ø¨ ÙĥØ§Øª
ĠÙĬØ± ÙĪÙĨ
ĠØ§ÙĦØŃ Ø´
ĠØªØŃ ÙģØ¸
ĠÙĪØ³ Ø§Ùħ
ĠÙĪØ´ Ùĥ
ĠÙĪØ¥ Ø°
ĠÙĦÙĦØ§Ø³Øª ÙģØ§Ø¯Ø©
ĠØ´Ùĩ ÙĪØ¯
ĠØ§ÙĦØ¨ Ø§Ø·
ĠØ§ÙĦØªÙģ ØªÙĬØ´
ĠØ§ÙĦØ® ÙĦØ§ÙģØ©
ĠI S
ĠØ§ÙĦØ§ ÙĤÙĦ
ĠÙģ Ø§ÙĦÙĥ
ĠØ§ÙĦÙħØª ØŃÙģ
ĠÙħÙĨ Ø§ÙĩØ¬
ĠØ§ÙĦØªØ· Ø±Ùģ
ĠÙĨØ§Ùģ Ø°Ø©
Ø§ÙĦØ¨ Ø§
R D
ĠÙħØ§Ø² Ø§ÙĦØª
ĠØµÙĨ Ø§Ø¹
ĠØŃ ÙĨØ§ÙĨ
ĠØ§ÙĦØ° ÙĥØ§Ø¡
ÙĬØ¬ Ø§
ĠØ§ÙĦØ¥ Ø¶Ø§Ùģ
ĠØ§ÙĦØŃÙħ ÙĦØ§Øª
ĠÙĬØ³ Ø£ÙĦ
ĠØ¨Ù ħØ·
ĠØ§Ø±ØªÙģØ§Ø¹ Ø§
ĠÙĪÙĦØ° Ø§
ĠÙĬØ³ ÙĩÙĦ
ĠØ¬ Ø±ÙĬÙĨ
ĠØ¹Ùħ Ø§Ø±Ø©
6 5
ĠØ´Ø± Ø§Ø¦ØŃ
ĠØªØ¯ Ø®
ÙħÙĨ Ø¹
ĠØ§ÙĦØª ÙĦÙĬÙģØ²ÙĬÙĪÙĨ
ĠØ§Ø³Øª ØŃ
ĠÙħØ±ÙĥØ² Ø§
Ø±ÙĬ Ø¬ÙĬÙĨ
ĠØ¨ ÙĪÙĤÙģ
ĠØ§ÙĦØ¨ÙĬ ÙĦØ§Ø±ÙĪØ³ÙĬ
Ùĥ Ùģ
ĠØ±ÙĬ Øª
le t
ĠÙħÙĨØ§Ùģ Ø³Ø©
ĠÙĬØª ØºÙĬØ±
ÙĩÙĬØ² Ø§Øª
ĠØ§ÙĦØ¹ÙĤ ÙĦÙĬØ©
ĠÙħØ¯ ÙĨÙĬØ©
ĠØ¬ÙĨ ÙĪØ¨ÙĬ
ĠÙģ ÙĪÙĥ
ĠØ§ÙĦÙħÙĨ Ùĩ
ĠØ¹Ùħ ÙĦÙĬØ§
ĠÙĪÙģØ± ÙĨØ³Ø§
ĠØ§ÙĦØ§ÙĨØªØ® Ø§Ø¨
ĠØ¨ÙĬØ¯ Ùĩ
ĠØ§Ø¬ Ø¹ÙĦ
ĠØ§ÙĦÙĥÙĪÙĨ ØºØ±Ø³
ĠÙĪØ§ÙĦØ¬Ø±Ø§Ùģ ÙĬÙĥØ³
ĠÙħØ± ØªÙģØ¹Ø©
ĠØ§ÙĦØª ØºÙĬØ±Ø§Øª
Ø£Ø³ Ø§Ø©
ĠÙħØµ ÙĪØ±Ø©
ĠØ§ÙĦØ£ÙĨ ÙħÙĬ
ÙĨ Ø¨ÙĬ
ĠØ£ Ø®Øµ
ĠØ¹ÙĨ ÙĬÙģØ©
ĠÙĬØ³ ÙĥÙĨ
ĠÙħÙĦÙĬÙĪÙĨ Ø§
Ø§Ø² ÙĬÙĤ
Ø§ÙħÙĨ Ø©
ĠØ¥Ù Ħ
Ø´ Ø§ÙĦ
ĠØ§ÙĦØ¯ ÙĬÙĪÙĨ
ÙĪ Ø³Øª
Ø¢ Ù
ĠM ic
ĠØ§ÙĦÙĥÙĪ ÙĥÙĬØ²
ĠØ£ÙĪÙĦ ÙĪÙĬØ§Øª
ĠØµØ§ØŃ Ø¨Ùĩ
ĠØ£Ø´ Ø¹Ø±
ĠØ¬ Ø°Ø¨
ĠÙĪ ÙĪØ³Ø§Ø¦ÙĦ
ĠØª ÙģØ³
ĠÙĪØ¯ ÙĬØ©
ĠÙħØº Ø§Ø¯Ø±Ø©
ĠØ§Ø¨ Ø±ÙĬÙĦ
ĠÙĪØ§ÙĦØ¹ ÙĦØ§ÙĤØ§Øª
ĠØ§ÙĦØ¥Ùģ Ø±ÙĬÙĤÙĬ
ħ ÙĦØ§Ùĥ
ĠØŃ ÙĥØ§ÙĬØ©
ĠØ§ÙĦÙħ ÙħÙĨ
ĠØ§ÙĦØ®Ø· Ø·
ĠØ§ÙĦÙħØªØŃ Ø±ÙĥØ©
ĠØ¹Ø¨ Ø§Ø¯Ø©
ĠØ§ÙĦØ¥Ù ħØ¨Ø±Ø§Ø·
es e
ĠÙĤ ÙĦØ¹Ø©
ĠØ¹ ÙĬÙĨÙĬ
ĠB l
ĠØ§ÙĦÙħØ´Ø± ÙĤ
Ø¸ÙĬ ÙģÙĬ
Y R
ĠÙħÙĤ Ø¯ÙĪÙĨ
ĠØ¨ ÙĦØ§ÙĦ
ĠÙĦØ· ÙĦØ§Ø¨
ĠØ¶Ø¯ Ùĩ
ĠÙĦØŃ Ø¸Ø§Øª
ĠØ§ÙĦØ· Ø§Ø¨Ø¹
ĠØ§ÙĦØ± Ø¶Ø§
ĠÙĪØ§Ø³ØªÙĤ Ø±Ø§Ø±
ĠÙĦÙĦÙħÙ ħÙĦÙĥØ©
ĠØ¹Ø¯ ÙĪ
ĠÙĨ Ø§Ø¨
ĠÙĥØªØ§Ø¨ Ø§
ÙģØ± Ø§ÙĨ
ĠØªØª Ø¨
Ø³ÙĬØ¯ Ø³
ĠØ§ÙħØª ÙĦØ§Ùĥ
ĠØ¹Ø¨ Ø§Ø¯
Ġ un
ĠÙħØ· ÙĦÙĤ
ĠÙģØ´ ÙĦØª
ĠÙĦØµ ØŃÙĬÙģØ©
ĠØª ÙĬÙħ
Ø§Ùħ ÙĪØ³
ĠÙĦÙĦÙħØ´ Ø±ÙĪØ¹
ĠØ³Øª ÙĨ
ĠØ§ÙĦÙħ ÙĥØ±Ø±Ø©
Ø® Ø§Ø¨
Ø§Ø¹ Ø¨
ĠÙĪÙĥ Ø«ÙĬØ±
af e
ĠØ§ÙĦÙħØ¹ ØªÙħØ¯
ĠÙĤØª ÙĦÙī
ĠÙĦÙĦØª Ø¯Ø±ÙĬØ¨
ĠØ¬ÙħØ¹ Øª
ĠØ£Ø¨ÙĬ Ø¶
ĠØ¹ Ø°Ø§Ø¨
ĠØ¨ Ø¶Ø¹
ĠØ§ÙĦÙħØ· Ø§Ùģ
ĠÙħØ¯Ø¨ ÙĦØ¬
ĠØ§ÙĦØŃ Ø§ÙģØ¸
ĠØ§ÙĦØ¬ Ø§ÙĦÙĬØ©
ĠØ§ÙĦØ´ ÙĤÙĤ
ĠØ²ÙħÙĨ ÙĬØ©
Ġ Ø¯ÙħØ±
ĠÙĪÙħ Ø²
ĠØ§ÙĦÙ Ħ
ĠÙĬØ³ Ø±
ĠÙĦÙĦÙĤ Ø·Ø§Ø¹
ĠÙĦØ¥ ÙĨØªØ§Ø¬
ĠØ§ÙĦÙħ ÙĦØ§
ĠØ§ÙĦØ· Ù
ĠØ§ÙĦØ£ÙħØ±ÙĬ ÙĥÙī
ĠÙħØ±ÙĬ Ø¶
ĠØªÙĤØ±ÙĬØ± Ø§
ĠØ³Ùĥ Ø§Ùī
ĠØ¹ÙĪØ¯ ØªÙĩ
ĠÙĩ Ø¨ÙĪØ·
ĠØ§ÙĦØªØ´ ØºÙĬ
ħ ÙģØ§ÙĩÙĬÙħ
Ø§ÙĦØ± Ø¯ÙĪØ¯
ĠÙģÙĬ ÙĥÙĪÙĨ
ĠØ±ÙĬ Ø§Ø¶ÙĬ
ĠØ§ÙĦÙħ ÙĪÙĦ
ĠÙĪØ£Ùģ Ø§Ø¯
ÙĦØ¨ Ùĩ
ĠÙħØµ ÙħÙħ
ĠØ§ÙĦÙħØ¹ Ø³ÙĥØ±
ĠØ§ÙĦÙģØ± ÙĨ
ÙħÙĥ Ø§ÙĨØ§Øª
ĠÙĬÙħÙĥÙĨ ÙĩÙħ
ĠØª ÙĥØªØ¨
ĠÙħØ· Ø§Ø¹Ùħ
ĠØ§ÙĦÙģ Ø§Ø±ÙĤ
ĠÙĦØ¯ ÙĪÙĦØ©
ĠØ£ ÙĦÙĬØ³
c ess
ĠØ§ÙĦÙħØ³ Ø§ÙģØ±
ĠÙĨ ÙĥØª
ĠÙĪØ§ÙĦØ¬ ÙĪ
ĠÙĪØ§ÙĦØ¥ Ø³Øª
ħ ÙĦØ
pt v
ĠÙģÙĬ ÙħÙĥÙĨ
ØªÙ ħØ³Ùĥ
ĠØ§Ø³Øª Ø¬Ø§Ø¨Ø©
ĠØ³Ù ĬÙĥ
ĠÙĪ Ø¶ØŃ
ĠÙĪÙĤ Ø·Ø¹
ĠØ§ÙĦØ¥Ø´ ØªØ±Ø§Ùĥ
Ġ196 8
ĠØ§ÙĦØ´ Ø§Ø¨Ø©
Ùĩ Ø²
ĠØ¨ÙĪÙĦÙĬ ÙģÙĬ
ĠØ«Ø§ÙĦØ« Ø©
M K
Ø±ÙĬØ· Ø§ÙĨÙĬØ§
ĠÙĪØ£ ØµÙĬØ¨
ĠØ¨ Ø±ÙĬÙģ
ħ ÙĩØ§
ĠØ§ÙĦØ£ ØŃÙħ
ĠÙĬØµ ÙĨØ¹
Ø® ÙĪØ±
ĠÙĪ Ø§Ø±Ø¯
ĠØ± Ø®ØµØ©
ĠØ§ÙĦØªØ¶ Ø®Ùħ
ĠÙĪ ØºØ±
ĠÙĨ ÙģØª
Ù ħÙģØ§ÙĩÙĬÙħ
ĠÙħÙĪ Ø§ÙģÙĤ
ĠØµ ÙĤØ±
Z N
ĠÙĦØŃ Ø¯
ĠÙĦÙĦØ® Ø±ÙĪØ¬
ĠØ¨ Ø§Øµ
ÙĦÙĪ ÙĬØ©
ĠØ§ÙĦØªÙĦÙģØ²ÙĬÙĪÙĨ ÙĬØ©
Ø§ÙĦÙĬ ÙĪÙĨ
Ø±Ù ĦÙĨØ¯Ø§
Ġ ÙħÙģØ§ÙĩÙĬÙħ
ØªÙ ĬØ³
er y
ĠÙĪØ¹ Ø§ÙĦÙħ
ĠØ¬ ÙĬØ±
ĠÙĥ Ø£ÙĨÙĩ
ĠØ§ÙĦØ§ÙĨØª Ø¸Ø§Ø±
ĠØ£Ø¯ Ø¨ÙĬØ©
ĠÙĦÙħ Ø±ÙĥØ²
ĠØ´ Ø¯
ĠÙħÙĪ Ø§Ø·ÙĨÙĬÙĨ
ĠØ¹Ø· ÙĬØ©
Ù ħÙĦØ
ĠØ§ÙĦØ¨ ÙĦØ¬
ĠØ±Ø¨ Ùĥ
ĠØ³ Ø¹ÙĬ
ĠØ§ÙĦÙĪØ² Ø§Ø±ÙĬ
Ø§Ø±Ù ĬÙĪÙĨ
ĠØ§ÙĦØ¥ÙĬØ¬ Ø§Ø¨ÙĬØ©
Ġ ÙħÙĦØ
ĠØŃ Ø¯Ø§Ø¯
ĠÙĪØªØ´ Ø¬ÙĬØ¹
ĠÙĥÙĪÙĨ Ø¬
ĠØ¨ØªØ´ ÙĥÙĬÙĦ
ĠØ³ ÙĪØ±
ĠØ´ Ø¯Ø©
ĠØ§ÙĦÙħØª Ø¯Ø§
ĠØ± Ø§Ø¯
ĠØ¨Ø±ÙĪ Ùĥ
ĠÙħØ· ÙĦÙĤØ§
ĠØ§ÙĦØ¥ÙĤ ÙĦÙĬÙħ
ĠÙģØ¹ Ø§ÙĦØ©
Ġc h
ĠØ§ÙĦÙħ ÙĦØ§Ø¹Ø¨
ĠØ®Ø·Ø± Ø§
ĠØ§ÙĦØªØµ Ø¹ÙĬØ¯
ĠÙĪØ£ Ø¹ÙħØ§ÙĦ
ĠÙħÙ ħÙ
ĠÙģØ¨ Ø¹Ø¯
ĠØ¨Ø® Ø§Ø±ÙĬ
ĠØ¬ Ø¯Ùĩ
ĠØ¥ ÙĨØ§
ĠØ§ÙĦØ³ ØªÙĬÙĨ
Ø¤ ÙĪÙĦÙĬÙĨ
ĠØ¨ÙĦÙĪ Øº
ĠØ· Ø§ÙĤ
ĠØ§ÙĦØ£ ÙĪØ²
ĠØŃØ± Ø§Ùħ
ĠØªØ± ØŃÙĬØ¨
ĠP L
ĠÙĪØ§ÙĦØ£ ÙĤ
ÙĪØ± ÙĪØ¨Ø§
Ġ9 2
ĠÙĪÙĤ ÙĪÙĦÙĩ
ĠØ§ÙĦÙħ Ø³ÙħÙĪ
ĠØ§ÙĦØŃØ§Ø¯Ø« Ø©
ĠØ¹ Ø°
ÙħÙĬ Ø±ÙĬ
ĠØ§ÙĦÙĨØ³ Ø§Ø¦ÙĬ
ĠÙĪÙĤØª Ø§
ĠØ¨Ø® ÙĦØ§Ùģ
ĠÙĪØ§ÙĦØª ÙĪØ§ØµÙĦ
4 4
ĠØ²ÙĬØ¯ Ø§ÙĨ
ĠØ¯ Ø§ÙĨÙĬ
ĠØ§ÙĦÙĦÙĬ Ø¨Ø±
ĠØ§ÙĦÙħØµ Ø§ÙĨØ¹
ĠØ§ÙĦÙħÙĤ Ø§Ø¨ÙĦØ©
ĠØ§ÙĦØ¯ÙĪØ³ Ø±ÙĬ
Ø§ÙĨÙĬÙĥ ÙĬØ©
ĠØ§ÙĦØŃØ³ Ø§Ø³ÙĬØ©
ĠØ§ÙĦØ¨Ø· Ø±ÙĬØ±Ùĥ
ĠÙħØ¹ Ø§ÙĪÙĨ
ĠÙĬØ³ ÙĤØ·
ĠØ§ÙĦÙħØª ÙĪÙģØ±Ø©
ĠØ§ÙĦØ£Ø± Ø²
ĠÙħÙĪ Ø§Ø¬ÙĩØ§Øª
ĠØ§ÙĦØªØ± ÙĥÙĬØ¨
as s
ĠØ¸ ÙĨ
ĠØ§ÙĦÙĪ Øµ
ĠÙĬØ³Øª ÙģÙĬØ¯
ĠØª Ø³ÙĬØ·Ø±
ĠÙĪØ§ÙĦØŃ Ø¯
Ø§Ø± Ø¦Ø©
ĠØ³ Ø§Ø¯
ØªÙ ĬÙ
ĠØ§ÙĦØ¹ ØµØ¨
ĠØŃÙĤÙĬ Ø¨Ø©
ĠØ§ÙĦØ® Ø§ÙĦÙĤ
Ġ ÙĦÙĨØª
ĠÙħØ±Øª ÙģØ¹
ĠÙĪØ¹ Ø¶ÙĪ
ĠÙĬÙģ ÙĤØ¯
ĠØ§ÙĦÙĩ ÙĪÙĦÙĨØ¯ÙĬ
ĠØ§ÙĦØ¹ Ø¨Ø±ÙĬØ©
ĠÙĦÙĦØªØ¹ Ø§ÙħÙĦ
ĠØ§ÙĦÙĬÙĪ ØªÙĬÙĪØ¨
ĠØ¨Ø§ÙĦÙĤ ÙĪØ©
ĠØº Ø§Ø¨
ĠÙģØ± Ø§Øº
ĠØ§ÙĦÙĥØ§Ùħ ÙĬØ±Ø§
ĠØ§ ÙģØ±Ø§Ø¯
Ø§Ø· Ø±Ø©
ĠØªØ±Ùĥ Ø²
ĠÙĪØª Ø¶
ĠÙĪØ¹ Ø´Ø±ÙĬÙĨ
ĠÙħÙ ĬÙĪ
ĠØ£ÙģØ±ÙĬ ÙģÙĬØ§
ĠØ¨ Ø§Ø¬
r am
ĠØ§ÙĦØµÙģ ØŃØ§Øª
ĠØ§ÙĦÙħÙĨ Ø§Ùħ
ĠØ§ÙĦÙĩ ÙĪ
ĠØ§Ø¬ØªÙħØ§Ø¹ Ù
ĠØ§ÙĦØ§Ø¬ØªÙħØ§Ø¹ Ø§Øª
ĠØ§ÙĦØ§ ÙĥØ«Ø±
ĠØ¬ÙĦØ¯ Ø±
Ġh ow
ĠØ§ÙĦØ§ÙĨØªÙĤ Ø§ÙĦÙĬØ©
ĠØ¥ØŃ Øµ
ĠÙĤ Ø§Ø¦Ùħ
ĠØ§Ø³Øª Ø¨Ø¯Ø§ÙĦ
ĠÙĪØ¹ Ø±Ùģ
ĠØ§Ø¬ØªÙħØ§Ø¹Ù Ĭ
Ø¬ Ø¯Ø¯
ĠØ§ÙĦÙħÙĦØ§ØŃ Ø©
ĠÙħØ§ÙĨ Ø§Øª
ÙĬÙħ Ø¨Ø§Ø¨
ĠØŃØ¨ ÙĪØ¨
ĠØ§ÙĦØ¹Ø«Ùħ Ø§ÙĨÙĬØ©
ĠØ´ ÙĬØ¹
ĠÙĪØ§ÙĦØ¥Ø³ ÙĦØ§ÙħÙĬØ©
ĠØ§ÙĦØ³ÙĦÙħ ÙĬØ©
ØŃ Ø§Ø¯ÙĬ
ĠØ§ÙĦØ£Ø¯ ÙĦØ©
ĠØ£ Ø³ÙĬÙĪØ·
ÙĦØ³ Ø§Øª
ĠØ§ÙĦØ¬Ø² Ø§Ø¡
ĠØ£ÙħØ§Ùħ Ùĩ
ĠÙĪØ§ÙĦÙĥ Ø«ÙĬØ±
ĠÙĬÙĤ ØªØµØ±
ĠØ¥Ùħ Ø§Ø±Ø©
Ø«Ø± Ø§
ĠØ§ÙĦÙħÙĪ ØŃØ¯
ĠÙĥØ§ÙĨ Ø§
ĠØ§ÙĦØ£ØŃ ÙĦØ§Ùħ
ĠÙĦÙĦØ¥ ÙĬØ¬Ø§Ø±
ÙĦØ¨ ÙĬÙĨ
ĠÙĪØ§ÙĦÙħØª ÙĪØ³Ø·Ø©
Ø§Ø´ Ùī
ĠØ§Ø² Ø§ÙĦØ©
ĠØ§ÙĨ ÙħØ§
ĠØ§ÙĦÙĥ ÙĪØ¯
ĠCN H
Ġg et
ĠÙĪØ§ÙĦÙĩ Ø±Ø³Ùĥ
ÙĪÙĨ ÙĬØ³ÙĬØ©
ĠÙĪÙĬÙĪ Ø¬Ø¯
ĠØŃÙ ĬØ²
ĠØ§ÙĦÙħØ³ Ø§ÙģØ±ÙĬÙĨ
Ø¹ ÙĤØ¯
ĠÙĪØ§ÙĦØ§Ø¬ ØªÙħØ§Ø¹ÙĬ
Ġ9 1
ĠÙĪÙħ Ø§Ø°Ø§
ĠØ§ÙĦØ² ÙĩÙĪØ±
ĠPK G
Ø®Ø± Ø§Ø·
ĠØº Ø§Ùħ
ØªÙĬÙĤ Ø¸
ĠØ£Ø¨ Ø¹Ø§Ø¯
ĠØªØ³ ÙħØ¹
ĠØ¬ ÙĪÙĩ
ĠØ³Ùħ Ø§Ø¹
ĠÙĤØ§Ø¯Ø± Ø§
ĠØ§ÙĦØŃ Ø§ÙĥÙħØ©
Ġ Ø§Ø¸
ĠØ¬ Ø§Ø¯
ĠØ§ÙĦØ£ Ø¹Ø±Ø§Ø¶
ĠÙĨØ¨Ø± Ø§Ø³
ĠØ§ÙĦØ±ÙĤ ÙħÙĬ
ĠØ§ÙĦÙħØ± Ø³ÙĪÙħ
ĠØªØ¹ Ø§Ùħ
ĠØ§ÙĦÙħØ¹ Ø§ÙĦØ¬Ø©
ĠÙħØ´Ø±ÙĪ Ø¹Ø§
Ø¬Ùħ Ø§ÙĨ
ĠØ¹ÙĨ Ùģ
ĠØµÙĪØª Ø§
ĠØ¸ Ø¨ÙĬ
Ø¶ ÙĪÙĬØ©
ĠØ§ÙĦÙĥ Ø§Ø«ÙĪÙĦÙĬ
Ø§Ø³ ÙĬØ³
ĠØ§ÙĦÙħÙĨØª Ø¬Ø©
ĠØ¨Ø· ÙĪÙĦØ§Øª
m s
ĠÙĬØ³Øª Ø¹Ø¯
ĠØ¥ ÙĬÙģ
ĠÙĩÙĬ ÙĥÙĦ
ÙĤ Ø§Ø²ÙĬÙĤ
ÙĥØª Ø§Øª
ĠÙĪØ§ÙĦØ¯ ÙĪÙĦØ©
ĠÙĤ Ø°
ĠÙħØ°ÙĥØ± Ø§Øª
ĠÙĪØ¬ ÙĪØ¨
ĠØªØµ ÙģÙĬØ§Øª
ĠØ§Ø³Øª ÙĦØ§Ùħ
ØªÙħ ÙĪÙĨ
ĠØ§ÙĦØ£Ø´ Ø¬Ø§Ø±
Ø¯ ÙĪØ±
ĠØ´Ø¨ Ø§Ùĥ
Ø§ØŃ Ø¯
ÙĨØ¨ ÙĪÙĦ
ĠØªÙĪ Ø¶ØŃ
ĠÙħÙħÙĥÙĨ Ø©
ĠØª ÙĩÙĨØ¦Ø©
ĠÙĬÙĪ ÙħÙĨØ§
ĠØ§ÙĦØŃ Ø±Ø¨ÙĬØ©
Ø§Ø¯ ÙĪØ§
ĠØ§ÙĦÙħÙĪ Ø§ØµÙģØ§Øª
ĠØ£Ùħ Ø«Ø§ÙĦ
ĠØ¬ ÙĦØ§ÙĦØ©
ĠØ® ÙĬØ§
Ø± ÙĩØ§Ø¨
Ø³ÙĨ Ø§ÙĦ
ĠÙģ Ø·
ÙħØ¹ ÙĬØ§Øª
ĠØ³Øª ÙĤÙĪÙħ
ĠØ§ÙĦÙħ Ø¦Ø§Øª
ĠØ§ÙĦÙĤ Ø¨Ø±
ĠØ² ÙģØ§Ùģ
ĠØ¬Ø¨ Ø±ÙĬÙĦ
ĠØ§Ø®ØªØµ Ø§ØµÙĬ
Ø¶ÙĬ ÙĦØ§Øª
Ø§Ø² Ø±
ĠØ§ÙĦØ³ÙĪÙĬ Ø¯ÙĬ
ĠÙĪÙħØ¹ Ø±ÙģØ©
ĠÙĦÙħ ÙĤ
ĠØ¨ÙĦÙĤ Ø¨
ØŃÙ ĬÙģ
ĠÙĦØª ØºÙĬÙĬØ±
ĠÙĨØª ØŃØ¯Ø«
ĠØŃ ÙĪØ¶
ĠØ§ÙĦÙħØŃ ØªÙħÙĦ
ĠÙĪØ§ÙĦØ¥ÙĨ ØªØ±ÙĨØª
ÙħÙ ħÙĬ
ĠØ§ÙĦØ£ ÙĥÙĦ
ĠØ¨ ÙĪØ¬
Ø§ØŃØ« ÙĬÙĨ
Ø§ÙĦÙĬ Ùĩ
ĠÙĬÙĨ Ø¬ØŃ
ĠÙħØ³Øª Ø®Ø¯Ùħ
ÙĪÙĦÙĬ Ø¯
ĠØ§ÙĦØ£Øº ÙĨÙĬØ©
ĠÙĪ ÙĪØ¬
Ø£ Ùĩ
or k
ĠØº Ø§ÙĨÙħ
ĠØ³ Ø±ÙĬØ±
ĠØ§ÙĦÙĥØ«ÙĬØ± ÙĪÙĨ
ĠØ§ÙĦØ£Ø¨ ÙĨØ§Ø¡
ĠÙĨÙĤ ÙĦØ§
Ø³ ÙĥÙĬ
Ø¹ ÙĦÙĥ
ĠØµ Ø¹ÙĪØ¨Ø§Øª
ĠØ§ÙĨ ØªÙħ
ĠØ¨ÙĨ Ø¬
m i
ĠÙĨÙĬÙĪ Ø²ÙĬÙĦ
ĠØ§ÙĦØ±Ùĥ Ø§Ø¨
ĠØ§ÙĦØ² Ø§ÙĪÙĬØ©
ĠÙĥ ÙĬÙħ
ĠÙĦÙĦÙħ Ø²ÙĬØ¯
Øº ÙģØ±
ĠØ«ÙĦØ§Ø« ÙĬØ©
Ø§Ø¯Ø« Ø©
ĠØ§ÙĦØ³ ÙĦÙħÙĬ
ĠØ§ÙĦØ« ÙĨØ§Ø¦ÙĬ
ĠØªØ¤ ÙħÙĨ
ĠØªØ¹ Ø²
ĠØ§ÙĦØªÙĤ Ø§Ø¹Ø¯
ĠÙĤÙ ĦÙĨØ§
ĠÙĪØª Ø¨ÙĬÙĨ
Ø« Ø§Ø±Ø©
ĠØ°Ø§Øª ÙĬØ©
Ġ ÙħØ§Ø¹
ĠÙĨ Ø§ÙħÙĬ
ĠÙĥ Ø±ÙĪØ§ØªÙĬØ§
ĠØ§ÙĦÙģ ÙĪØªÙĪØºØ±
ĠØ§ÙĦØ§Ø¯ Ø§Ø±ÙĬ
Ø´Ø± ÙĬØ©
Ġ17 0
ĠÙĪØŃ Ø±Øµ
ĠØ§ÙĦÙħÙĨ Ø¹Ùħ
ĠÙĪÙģ Ø§Ø²
ĠØ¯Ø¹ ÙħØ§
Ø±Ùĥ Ùĩ
ĠÙħØ´ Ø¹ÙĦ
ĠÙĨ ÙĬØ¨
Ø§Ø±Ù ĬØ§Øª
ĠØªØ¹ Ø§ÙħÙĦØ§Øª
ĠÙħØ¹ ÙĥÙħ
ĠÙĦÙĬØ³ ÙĪØ§
ĠÙĦØª Ø£ÙħÙĬÙĨ
Ø¬Ø± Ø§Ùħ
ĠÙĤØ± Ø£Øª
ĠÙĪÙģ Ø±Ø¶
ĠØ§ÙĦØª ÙģØ§ÙĩÙħ
ĠÙģÙĤØ¯ Øª
ĠØ¨Ø§ÙĦØ¥ Ø³
ĠØ§ÙĦÙĬÙħÙĨ Ùī
ĠØ§ÙĦØ¹ÙĤ ÙĪØ¨Ø©
ĠÙħÙĬ Ø§ÙĨÙħØ§Ø±
ĠÙħÙĥØª ÙĪØ¨
ĠÙĤ ÙħØ±
ĠØ§ÙĦ ÙĦØ³Ø§ÙĨ
Ġs h
ĠÙĩÙ ĬÙĪ
ĠØ§ÙĦØ£ ÙħØ³
ĠÙĨØ³ Ø¹Ùī
ĠØ§ÙĦØ§ÙĨÙĤ Ø³Ø§Ùħ
ÙĪØ§Ø± Ø¨
ÙĤ ÙģÙĬÙĨ
ĠÙĪØ§ÙĦÙĨ ÙĤÙĦ
ĠÙĪØª Ø¶Ùħ
ĠØ³Ø± Ø¹Ø§ÙĨ
ĠÙĬØªÙħ Ø«ÙĦ
ĠÙĪØªØ· Ø¨ÙĬÙĤ
8 8
ĠØ· Ø¹
ĠØ§ÙĦØªØ¯Ø±ÙĬ Ø¨Ø§Øª
ĠØ¯ Ø±Ø¯Ø´Ø©
ĠÙħÙĪÙĤØ¹ Ùĩ
ĠÙħÙģØ§Ø¬ Ø£Ø©
ĠØ¨ ÙĪØ¯
ĠÙĦØª ØµÙĦ
ĠØ£ ÙĦÙĬ
ĠÙĬÙĨ Ø´
ĠÙĬÙĨ ØªÙħÙĬ
ĠÙĦØ± Ø¹Ø§ÙĬØ©
Ø«ÙĬÙĪ Ø¨ÙĬØ§
ĠÙĪØ§ÙĦÙħÙĪ Ø§Ø¯
f or
ÙĪ ÙĥØ³
ĠØ§ÙĦØ§ØŃØªØ¬ Ø§Ø¬Ø§Øª
ÙĪØ¶ ÙĪØ¹
ĠÙĬØ¬ ÙĦØ³
ĠØ£ÙħÙĬØ± ÙĥÙĬØ©
ĠØ§ÙĦØ£Ùħ Ø«ÙĦ
ĠØ§ÙĦØ¯ Ø¹Ø§ÙĬØ©
ÙĦØ§Ù ħØª
ĠØ§ÙĤØª ØŃØ§Ùħ
ĠØ§ÙĦØªØ£ ÙĩÙĦ
ĠÙĪÙģÙĬ ÙĩØ§
ĠØ§ÙĦØŃ Ø±ÙĪÙģ
ÙĨ Ø±
ĠØ§ÙĦØ¥Ùģ Ø±ÙĬÙĤÙĬØ©
ĠØ§ÙĦØ¯ÙĪ Ø§Ùħ
ĠØ§ÙĦÙħØ² Ø§ÙĬØ§
ĠØªØµ Ø§Ø¹Ø¯
ĠÙĬØ® Ø§ÙĦÙģ
ĠÙħÙ ĬÙĤ
ÙĪØ² Ø¹
ĠØ§ÙĦÙĤØµ Ø§Ø¦Ø¯
Ø³ÙĬØŃ ÙĬØ©
ĠØ²Ù ħ
ĠØ§ÙĦÙĨ Ø¹Ùħ
ĠØ¨ ÙĪÙĨ
ĠØ§ÙĦØ³ÙĬ Ø¦Ø©
ĠØŃÙĬÙĪ Ø§ÙĨØ§Øª
Ø§Ø®Ù ĬØµ
ĠØ§ÙĦÙħØ³ Ø¬ÙĦÙĬÙĨ
ĠØ§ÙĦØ®ÙĦÙģ ÙĬØ©
ĠÙħØŃÙģÙĪ Ø¸
in s
ĠÙĥÙĩØ±Ø¨ Ø§Ø¦ÙĬØ©
ĠÙĦÙĦØ£ ÙħÙĨ
ĠØ§ÙĦØ§Ø³Øª Ø¬Ø§Ø¨Ø©
ħ Ø§Ø¯ÙĬØ©
ĠØ§ÙĦÙħØ± Ø§Ø¬Ø¹
ĠØ§ÙĦØ¶ ÙĬÙĪÙģ
ĠØ§ÙĦØ§Ø¹ ÙĦØ§ÙħÙĬ
ĠØ´ ÙĩÙĬØ¯
ĠØ¨ÙħØ³ Ø§Ø¹Ø¯Ø©
ÙĦØ² Ø§ÙĦ
ĠØ¨Ø§ÙĦØŃ ÙĤ
ĠØº ÙĬØ§Ø±
ĠØ¹ Ø§ÙĦ
ĠÙĦÙĦØ´ Ø¹Ø±
ĠÙĤÙĬÙħØª Ùĩ
ĠØ¨Ø§ÙĦÙ ĦÙĪÙĨ
ĠØ¨Ø± Ø§Ø¨Ø·
ĠÙĦÙĦØ¥ ÙĨØ³Ø§ÙĨ
ĠØ¹Ù ĬÙĪØ¨
ĠØ¨Ø¯Ø± Ø¬Ø©
ĠØ§ÙĦØ¹Ùħ Ø§Ø¯
ĠÙĪØ§ÙĦØ§Ø ´
Ø·ÙĪØ§ÙĨ Ø§Øª
ĠØ¹Ø§Ø¬ ÙĦØ©
ÙĤØª ÙĨØ§
B OX
ØªÙĩ Ø¯
Ġp s
ĠÙħØ·Ø§ÙĦØ¨ Ø§
ĠÙĪØ¨ Ø§ÙĦØ±
ĠØ§ÙĦØ§ÙĨÙģ Ø¬Ø§Ø±
ĠØ§ÙĦÙħ ÙĪÙĬÙĩ
ĠÙĥÙ ĬØ¨
ĠØ§ÙĦØ¯ Ø¬Ø§Ø¬
ĠÙĪØªØ£ Ø«ÙĬØ±
ĠØ§ÙĦØ«Ø§Ø¨Øª Ø©
Ø°Ùĥ ÙĬØ±
ÙĬØ¯ Ø²
ħ ÙĦØ§ØŃØ¸Ø§Øª
ĠØ¨Ø§ÙĬØ± ÙĨ
ĠÙĤØ¯Ùħ ÙĩØ§
ĠÙħØ¨ ÙĥØ±Ø§
ĠØµ ÙħØª
ĠÙĨØ¸ ÙĬØ±
ĠÙĤ Ø§Ø¦
ĠØ¨Ø§ÙĦÙĨ Ø¸Ø±
Ù ħÙĦØ§ØŃØ¸Ø§Øª
Ġ199 1
Ø² Ø¡
ĠØª ÙĪØ³
ĠØ§ÙĦØ¬ Ø¯Ø§Ø±
Ġ ÙħÙĦØ§ØŃØ¸Ø§Øª
ĠØªÙĨ Øµ
Ø³Øª Ùĩ
ĠØ¹Ùħ ÙĦÙĩÙħ
wit ter
ĠØŃ Ø§Ø¶
ĠÙĥØ§Ùħ ÙĬØ±Ø§
ĠØ£Ø±Ø¶ ÙĬØ©
ĠÙħØ¤ ÙħÙĨ
ÙĬØª Ø§ÙĨ
ĠØ³ ÙĪÙĬØ¯
Ø§ÙģÙĤ Ùĩ
Ø® Ø±Ùī
ĠØ¹ Ø·Ø§Ø¡
ĠØªØ® Ø·ÙĬØ·
ĠØ¶Ø¹Ù ĬÙģ
ĠØ´ Ø®ØµÙĬ
ĠØ§ÙĦØ¥ Ø¹Ø¯
ĠØ´Ø± Ø§ÙĥØ©
ĠØ§Ø± Ø§Ø¡
ĠØ§ÙĦØ´ Ø±ÙĬÙĥ
ĠÙĪØ§ÙĦØ§Ø «
ĠÙĦÙĦÙģ ÙĪØ²
ĠØ§ÙĦØµ ÙĦØ¨
ĠØ§ÙĦÙĦÙĪ ØŃØ©
ĠØ£Ø¹Ø¯ Ø§Ø¡
Ĭ Ø¬ÙĬØ¨
ĠØªØ³Øª Ø¹Ø¯
ĠÙĪØ§ÙĦØŃ ÙĪØ§Ø±
ĠÙĬÙĨ ÙģØ°
ĠÙħØŃ Ø¶Ø±
ĠÙģ ÙĦØ§Ø¯
ĠØ§ÙĦÙħØ· Ø±ÙĪØŃØ©
ĠÙĤÙĪ Ø§Ø¦Ùħ
ĠØªØ¬ ÙħÙĬØ¹
ĠØ§ÙĦØ³ ÙĪØ¨Ø±
ĠØ§Ø¨ Ø·Ø§ÙĦ
ĠØ³ÙĥØ§ÙĨ ÙĩØ§
ĠÙĦÙĦØ¥ ÙĨ
ĠÙĦÙĬ ØªÙħ
ĠØª Ø¯Ø±Ø³
ĠØ§ÙĩØªÙħ Ø§ÙħØ§
Ø· ÙĪÙĬ
ĠØªØª ØºÙĬØ±
ĠØ§ÙĦØ£ Ø¨Ø¹Ø§Ø¯
ĠØ§ÙĦØ§ ÙģØ¶ÙĦ
ĠØ¨ Ø§Ùģ
Ø¯ ÙĩØ§
Ĭ Ø¯ÙĬØ±
ĠØ§ÙĦØ¹ Ø§Ø²
ĠØ§ÙĦÙħØ¹ Ø·ÙĬØ§Øª
Ù ħØ§Ø¯ÙĬØ©
Ġ ar
er e
ÙĤ ÙĦØ§ÙĦ
ĠÙĪØ§ÙĦ ÙĪÙģ
ĠÙĬØª ÙĩÙħ
ĠØ§ÙĦÙħØ±ØŃ ÙĪÙħ
ĠØ§ÙĦÙħØ³Øª Ø¹ÙħÙĦ
ĠÙĪÙ ĬØ§
ĠØ§ÙĦØ¶ Ø±ÙĬØ¨Ø©
ĠØ¨ Ø¸
ĠÙĥ Ø³ÙĦ
ĠØ§Ø¨ Ø¯Ø§
ĠØ¯Ùħ Ø§Ø¡
ĠØ¨Ø· Ø±ÙĬÙĤ
ĠØªØ¹ ÙĩØ¯
ĠÙĪ Ø¶ÙħØ§ÙĨ
ĠÙĬØª ÙĪØ¬Ø¨
ĠØ§ÙĦØ¬ Ø§Ø¯
ĠÙħØµ Ø§Ø¨
ĠÙģÙĬ Ø±Ø¬
ĠØ§ÙĦØ° ÙĥÙĪØ±
ĠØ¨Ùĥ Ø±Ø©
ĠØ§ÙĨØªÙĩØ§ Ùĥ
ĠØ· ÙĪØ±
Ù ĬØ¯ÙĬØ±
ĠÙħØ± Ø§ÙĤØ¨
ĠØ§ÙĦÙģÙĬ ØµÙĦ
Ø± Ø§Ùĥ
ĠØŃ Ø§Ø±
ĠØ± ØŃØ¨
ĠØ§ÙĦÙħÙĬØ² Ø§ÙĨ
Ù ĬØ¬ÙĬØ¨
ĠØªØ¹ ØªÙĤØ¯
ÙħØ· Ø§Ø±
ĠØ§ÙĦØ¬ Ø§Ø±
ÙĪ Ø³ÙĬØ§
ĠØ§Ù ħÙĪ
ĠØª ØºØ·
ĠØ³ÙĬÙĨ Ø§Ø±ÙĬÙĪ
ĠØ§ÙĦØ£ÙĪ ÙĦÙħØ¨ÙĬØ©
Ø§Ø¤ ÙĩÙħ
Ġ ÙĬØ¬ÙĬØ¨
re e
ØŃÙ ħÙĬØ©
ĠÙĥÙĦ ÙĨØ§
ĠÙĬØ¹ Ø²Ø²
ĠØ§ØŃ ØªÙĦØ§ÙĦ
ĠÙĨÙĪØ¹ Ùĩ
ĠØ¨Ø§ÙĦØ¹ Ø±Ø¨ÙĬØ©
ĠÙĪØ§ÙĦØ¯ ÙĬÙĥ
ĠØ§ÙĦÙħÙĦÙĬ ÙĪÙĨ
ĠØ§ÙĦØ¨ Ùĩ
ĠØ§ÙĦØªØ´ Ø·ÙĬØ¨
ĠØ§ÙĦÙħØµ Ø·ÙĦØŃ
ĠÙĥ ÙĦÙĬØ¨
ĠØ§ÙĦÙģØ± ØŃ
ĠÙĪØ§ÙĦØŃ ÙħØ¯
ĠÙĨØ§Ø¬ ØŃØ©
ĠÙĪÙ ĬÙĩ
Ġ16 0
ĠØ§ÙĦÙĨÙģ ÙĪØ³
Ø§ÙĦØ² ÙĪØ§Ø±
Ġ ÙħØ§Ø¯ÙĬØ©
ĠÙĬÙĪÙģ ÙĨØªÙĪØ³
ĠØ§ÙĦØµØŃ Ø§ÙģÙĬ
ĠØŃÙħ ÙĦØª
Ġi ptv
Ġ ÙĬØ¯ÙĬØ±
ĠØ£Ø¯ ÙĦØ©
ÙĨ Ø¯Ùī
ĠÙĤØªÙĬ ÙĦØ§
ĠØªØ³ ÙĩÙĬÙĦ
ØµÙĬ Ø¨Ø©
Ø³ ÙĥÙĪ
ĠØ¯ ÙģØ§ØªØ±
ĠØ§Ø± ÙĬØ¯
ĠÙģØ¹ ÙĦÙĬØ§
lo ad
ĠØ§ØªØ®Ø° Øª
ÙĪ Ø±Ùħ
ĠØ§ÙĦØŃØ¬ Ø§Ø¨
Ø§Ø¨Øª ÙĨ
ĠØªØŃ Ø±ÙĥØ§Øª
ĠØªØ´ Ø±ÙĬ
ĠØµ ÙĦÙĬ
ĠÙĪØ§ÙĦØªØµ ÙħÙĬÙħ
Ùģ ÙĦÙĬ
ØªÙĥ Ø¨
ĠØ§ÙĦØ¨ ÙĤØ±Ø©
ĠÙĬØµ ØŃ
ĠØ§ÙĦÙħ Ø¨Ø¹ÙĪØ«
ĠØ§ÙĦØ¨ Ø±Ø¯
ĠÙĩØ§ÙĬ ØªÙĬ
ĠØ¹Ø±Ø¶ Øª
ĠÙħÙĨ Ø§Ø®
ĠØ§ÙĦÙģÙĬØ±ÙĪØ³ Ø§Øª
Ø¬ ÙĬØ±Ø§Øª
ĠØ¨Ø¥ Ø¹
ĠØ§ÙĦÙħÙĨ ØµØ¨
ĠØ§ÙĦÙħØ¨ ÙĥØ±Ø©
ĠØ§ÙĨØ¯ ÙĦØ§Ø¹
ĠØ§ÙĦÙħØµ Ø±Ùģ
ĠØ§ÙĦØ§ØŃ Ø²Ø§Ø¨
ĠØªÙĤ ÙĨÙĬ
ÙģØ¸ Ø©
ĠØ¹ Ø§Ø±Ùģ
ĠÙħØ± ØªØ¨Ø©
ÙĬØµ Ø§ÙĦ
Ø¬ Ø¨Ùĩ
ĠØªØ± ØªØ¨Ø·
ĠÙĪØ§ÙĦÙħÙĪ Ø§Ø¶ÙĬØ¹
ĠÙħØŃ ÙĦÙĬØ§
ĠØ§ÙĦÙħ ÙĪØ§ÙĩØ¨
ĠÙĦÙĦØ· Ø¨
ĠÙĦÙĦØª Ø®ÙĦØµ
ĠØ¹Ø¯Ø¯ Ø§ÙĦØ±Ø¯ÙĪØ¯
ĠÙĤ Ø§Øª
ĠØ¹Ø¯Ø¯ Ø§ÙĦØ²ÙĪØ§Ø±
ĠØ¨Ø¯ Ø¹
ÙĦØ§Øª ÙĩÙħ
ĠØ´Ø¹ Ø¨ÙĬ
ĠØ§ÙĦÙħØ± Ø´Ø¯
i o
Ĭ Ø¦Ø§Øª
ĠÙĩÙ ĬØ§
ĠØ¥ÙĦÙĥØªØ± ÙĪÙĨÙĬ
Ø· Ø±ÙĤ
ĠÙĬÙĨ ØªÙĩ
ĠØ§Ø³Øª Ø´Ø§Ø±Ø©
Ø§Ø³ Ùĩ
ĠÙĩØ§ØªÙģ Ùĥ
ØªÙĨ Ø§Ùħ
ĠØ§ÙĦØ¯Ø± Ø§Ø¬Ø§Øª
ÙĪØ² Ø§Øª
ĠÙĪ ÙĦØ§Ø¯Ø©
ĠØ¹ Ø¬ÙĦØ©
ĠØ§ÙĦÙĨØ§Ø´ Ø¦Ø©
E C
ĠØ§ÙĦØ®Ù ĬØ§ÙĦ
ÙĪÙĨ ÙĩÙħ
ĠØ£ØŃ Ø§Ø¯ÙĬØ«
ÙĨ ÙĪÙĥ
ĠÙĦØ§ Ùģ
ĠØ§ÙĦØµÙģ Ø§Øª
ĠØ¨Ø± ØºÙħ
ĠÙĦÙĦØª Ø±Ø¨ÙĬØ©
ĠÙĨØ´Ø± ØªÙĩ
ĠØ§ÙĦÙħØ¬ Ø±
ĠØ§ÙĦØ¹ÙĦØ§Ø¬ ÙĬØ©
ÙĬÙħ ÙĬØ±
ĠÙĪØ§ÙĦØŃ Ø¶
ĠÙĬØ³Øª Ø·Ø¹
ĠÙĬØ´ Ø§Ø¡
ĠØ£ÙĪ Ø¬Ùĩ
Ø· Ø¦
ħ Ø«ÙĬØ±
ĠØ¹Ø³ÙĥØ±ÙĬ Ø§
ĠØª ØµÙĬØ¨
ĠØª Ø§ÙĬÙĦ
ÙĦÙĬ Ø¬
Ù ħØ«ÙĬØ±
ĠÙĪÙĬ Ø¤
ĠÙĪØ§ØŃ Øª
ĠØ£Ø® Ø·Ø±
ĠØ§ÙĦØ§Ø³ØªØ¹ Ø§ÙĨØ©
ÙĤÙĩ ÙĦÙĬØ©
ĠØ´Ùĥ ÙĪÙī
ØŃÙ ĬÙĩ
ĠØ§ÙĦÙĦØŃ Ù
Ġ ÙħØ«ÙĬØ±
ĠØª ÙģØ§Ø¹
ĠØŃ Ø¯Ø§
ĠØ¨ØªØŃ ÙĤÙĬÙĤ
ĠØ§ÙĦØ· ÙĪÙĦ
ĠØ§ÙĦØª Ø´ÙĬ
Ù ¬
Ġ Ù¬
ĠØ¨Ø´Ø± Ø·
ĠØ± ÙĥØ²
ĠØ³ ÙĨÙĩ
Ù ĬÙĪØ¯
ĠØ§ÙĦØ¨ØŃ ÙĬØ±Ø©
ĠØ¶ØŃ ÙĬØ©
Ġt echnology
ĠØ¹ÙĤ Ø§Ø±
ĠÙģØª ØŃÙĬ
ĠØ«Ù ħØ§Ø±
ÙĬØª Ùĥ
ĠÙĨ Ø§Ø¯Ø±Ø©
ĠØ§ÙĦÙħÙĤ ÙĬÙħÙĬÙĨ
Ø§Ø° Ø¨ÙĬØ©
ĠØ´Ù ħ
ĠØ¹Ø´ Ø§ÙĤ
ĠÙħÙĤ Ø¨ÙĪÙĦ
ĠØ§ÙĦØµÙĬÙĨ Ùī
Ø¨ÙĬ ÙĤÙĬ
ĠØ§ÙĦØ£Øº ÙĦØ¨ÙĬØ©
ĠÙħØ³ ÙĦØŃØ©
ĠØº Ø±Ø¨ÙĬØ©
Ø¬ ÙĪØ§Ø¨
ĠØ§ÙĦØ¹Ø¨ ÙĪØ±
ĠÙħØ®Ø§ÙĦÙģ Ø§Øª
Ø§Ø¯Ù ħÙĬÙĨ
ĠÙĦÙĦÙħØ· Ø§ÙĦØ¨Ø©
ĠØ§ÙĦØ¥ÙĨ ÙģØ§ÙĤ
ĠÙĨØ³ Ø§Ø¦ÙĬØ©
ĠS P
ĠØ§ÙĦØ´ÙĩØ± ÙĬØ©
ĠÙĨØ³Øª Ø®Ø¯Ùħ
Ø±ÙĬ Ø²
ØŃ ÙĬÙħ
Ø¯Ø± Ø§
ĠØ£Øµ ØºØ±
ĠØ§ÙĦÙħØ³ÙĦØŃ ÙĬÙĨ
ĠÙħØ³Øª ÙĪØ·
ĠØ¯ Ø±ÙĬÙħ
ĠÙħØ¯ Ø§ÙģØ¹
ĠØªØ² Ø¯Ø§Ø¯
ĠØ§ÙĦØ¥Ø³Ø±Ø§Ø¦ÙĬ ÙĦÙī
ĠÙĬØ¹ ØªØ±Ùģ
ĠØ´ Ø§Ø±Ø¨
ĠArab ic
ĠÙħØ² Ø§Ø±Ø¹
ĠÙĪØ§ÙĦØ¹ ÙħØ±Ø©
ØºØ± Ø§Ùħ
ĠØ§ÙĦÙĤ Ø·Ø§Ø±
ĠÙĦÙĬ Ùĩ
Ø¯Ø± Ø§Ùĥ
Ù ĬØ¸
ĠØ§Ø³Øª ÙĬØ±Ø§Ø¯
ĠÙĪ Ø¯Ùħ
ĠØ§ÙĦØ¬ÙĨ Ø§ØŃ
ĠØ® Ø°
ÙĦØ§Ø³ ÙĬÙĥÙĬØ©
ĠØ§ÙĦÙħØ¤ Ø³
ĠÙħØ¹ Ø§ÙħÙĦØ©
ĠØ§ÙĦØµ Ø¯Ø§Ø±Ø©
ĠØ§Øª ÙĩØ§ÙħØ§Øª
ĠØ§ÙĦÙħØŃ ÙĪØ±
ĠÙģ Ø§Ø´
Ø§ÙĦØ¯ ÙĬÙģ
ĠØ§Ø¨ ÙĬØ¶
Ø¹ Ø§Ø´
ĠØªØŃ ÙħÙĬ
ĠØŃÙ ĬÙģØ§
ĠØ§ÙĦØ¹Ø¸ ÙĬÙħØ©
el l
Ø§Ø¦Ùģ ÙĬØ©
ĠÙĬØ¨ Øª
ĠØµÙģ Ø§Øª
ĠÙĪØ§ÙĦØ´ Øª
ĠÙħØ§ÙĨ Ø¹
ĠØ§ÙĦÙĤ Ø¯ÙĬØ³
ĠØªØ´ Øª
ĠÙħØ¯ ÙĪÙĨ
Ø¹ÙħØ¯ Ø©
ĠØ¨Ùĥ ÙĬÙĨ
ĠØ¬Ùħ Ø§Ø¹Ø§Øª
ÙĬÙĪ ÙĬØ©
ĠÙĬØª ÙģÙĤ
ĠØ§ÙĦØ¹Øµ Ø¨ÙĬØ©
ÙĬÙĤ Ø§Ø¹
ĠÙĪ ÙĪÙĤÙģ
ĠØ¥ ØµØ§Ø¨Ø§Øª
ĠØ§ÙĦØ§Ø³Øª Ø¹ÙħØ§Ø±
Ø§Ø± ÙĩØ§
ĠÙĬØ³ Ø¨ÙĤ
ĠÙģØ³ ÙĪÙģ
ĠØ§ÙĦØ¥ ØµØ¯Ø§Ø±
ĠØ¥ ÙĦØ®
ÙĩÙ ĬØ§
Ø±Ø§ ÙĩØ§
ĠØ§ÙĦÙħØ³ Ø§ÙģØ©
ĠÙĨÙĬÙĥ Ø§Ø±
ĠØ§ÙĦØ§ÙĨØª ÙĩØ§
ĠÙĦØŃ ÙĪØ¯
ĠÙĪØŃ ØµÙĦ
ĠØªÙħØ³ Ùĥ
Ġ198 0
Ø§Ø² Ùī
ĠØ§ÙĦÙħØ· ÙĦÙĤ
ĠØ¨Øº ÙĬØ©
ĠØ§ÙĦØ¯ÙĪ Ø±Ùī
Ø´ Ø§Ø±Ùĥ
ĠÙħÙ ħØ§Ø±Ø³Ø§Øª
ĠØ§ÙĦÙħØ´ Ø±ÙĪØ¨Ø§Øª
ÙĨØ§Ùģ Ø³
ĠØ§Ø±ØªÙĥ Ø§Ø¨
ĠØ§ÙĦØ« ÙĦØ«
ĠÙĤØ¨ ÙĦÙĩ
ÙĪ ÙĤÙĬ
ĠØ§Ø´ Ø®Ø§Øµ
ĠÙĦÙĦÙĥ ÙħØ¨ÙĬÙĪØªØ±
ĠØ§ÙĦØŃØ± Ø§Ùĥ
ĠØ±Ø£ ÙĬÙĩ
ĠNew s
ĠØ§ÙĦØ« ÙħØ§ÙĨ
ĠÙĪÙħ ÙĦÙģØ§Øª
Ø² ÙĪÙĦ
ĠÙħØ¹ ÙĨØ§Ùĩ
ĠÙĦÙĦÙħÙĨ Ø·ÙĤØ©
ĠØ§ÙĦÙħ ÙģØ§ÙĩÙĬÙħ
Ø¯Ø± Ø§Ø¬
ĠÙĪÙĦÙĥÙ Ħ
Ø§ØºÙĪ Ø§ÙĬ
Ø§Ø¦ÙĬ ÙĬÙĨ
ĠØ§ÙĦØª ÙĪØ³Ø¹
ĠÙĦÙĦØ³ ÙĦØ·Ø©
ĠÙħØ§Ø³ ØªØ±
ĠØªØ¹ Ø¨Ø¦Ø©
ĠØ§ÙĦØ¹Ø¶ ÙĦØ§Øª
ÙĤÙĬ Ø¨Ø©
ĠÙĪØª ÙĥÙĨÙĪÙĦÙĪØ¬ÙĬØ§
ĠÙħÙĨ ÙĬØ±
ĠØ§Ù ħÙĦ
ĠØ§ÙĦØ§Ø³ ÙĥÙĨØ¯Ø±ÙĬØ©
ĠÙĪØªÙĪ Ø¬ÙĬÙĩ
ĠØªÙĤ Ø¶ÙĬ
ĠÙħØ´ Øº
ĠØ§ÙĦØ£ Ø³ÙĦÙĪØ¨
ĠØ§ÙĦØ¥Ø³Øª ÙģØ³Ø§Ø±Ø§Øª
ĠÙĨÙħÙĪØ° Ø¬Ø§
ĠØ§ÙĦÙĨ ÙĪØ¹ÙĬØ©
ĠØ§ÙĦÙĪÙģ Ø§Ø©
ĠØ§Ø³Øª ÙĤØ±
ĠØ§ÙĦØ¥Ø³Ø±Ø§Ø¦ÙĬÙĦÙĬ ÙĬÙĨ
ĠÙĬØ± Ø¨Ø·
ĠØ§ÙĦÙħØ¶ Ø§Ø¯Ø©
ĠØ¥ ØŃØ±
ĠØªØ±Ø§Ø¬ Ø¹Øª
ĠÙĪØ§ÙĦØ¯ ÙĬÙĨ
ĠØ± ÙĪØ¶Ø©
Ø³Ø· ÙĨØ¨ÙĪÙĦ
ĠØ§Ùģ ØªØ±
ĠØ§ÙĦØ· Ø§Ø¦ÙģØ©
ĠØ§ÙĦÙĪ Ø³ÙĬØ·
i x
ĠÙĦØ§Ø ²Ùħ
Ùģ Ø¬Ø±
ĠØ£ÙĪÙĦÙĬ Ø§Ø¡
ĠØªÙĤ ÙĪÙĬÙħ
ĠØ¨Ø· Ø±ÙĤ
ÙģÙĬØ³ ÙĪØ±
ĠÙĦØ¬ ÙĦØ¨
ĠÙĨØ´Ø§Ø· Ø§Øª
ĠØ±Ø¶ ÙĪØ§ÙĨ
ĠØ£Ø´ Ø¨Ùĩ
ĠÙħÙĪ Ø±ÙĬØ´
O M
ĠØ¨Ø£ ÙĪÙĦ
ĠÙĪØ§ÙĦÙĩ Ù
ĠØ§ÙĦÙĤØ¨ Ø³
ĠØ§ÙĦÙħØª Ø²Ø§ÙĬØ¯
ĠØ§ÙĦÙħ Ø§Ø¶ÙĬÙĬÙĨ
ĠØ§ÙĦÙħØªÙĪØ§Ø¬ Ø¯ÙĬÙĨ
ĠØ¹ÙĩØ¯ Ùĩ
ĠØ§ÙĦÙĨ Ø§Ùģ
Ġc an
ĠØªØ¶ Ø§ÙħÙĨ
Ĭ Ø¶ÙĬÙģ
ĠØ¨Ø« ÙĦØ§Ø«
ob ile
ĠØ§ÙĨ Ø¬
ĠØª ÙĬØ³
Ø±ÙĪ Ø´Ø§Øª
ĠÙħÙĨ Ø·ÙĦÙĤ
Ø§Ø¹Ø¯ ÙĬÙĨ
Ù ĬØ¶ÙĬÙģ
Ġ ÙĬØ¶ÙĬÙģ
Ø± Ø·Ø§ÙĨ
ĠØ³Ø¹ Ø§Ø¯
Ġp er
ĠØ§ÙĦØ¹ Ø²Ø§Ø¡
ĠØ£ÙĪ Ø³Ø¹
ĠØ´ ÙģÙĬÙĤ
Ø§Ø¦Ø± ÙĬØ©
Ø² ÙĪÙĤ
Ġ le
ĠØ§ÙĦÙħÙĨ ÙĥØ±
ĠÙĨÙģ ÙĪØ°
ĠØªØµ ÙĨØ¹
ĠÙĪÙĦØ¯ Øª
ħØ§Ø± ÙĬÙĨ
ĠØ§ÙĦØ¬Ø§ÙĨ Ø¨ÙĬØ©
ĠØ¨ Ø§Ø²
ĠØ§ÙĦÙħØ¹ ÙĨÙĬÙĬÙĨ
ĠØµØ± Ø§ØŃØ©
ĠØ£Ø¹ Ø·Ùī
ĠØª Ø§ÙħØ±
ĠØ§ÙĦÙħØ´Ø§Ø±Ùĥ ÙĪÙĨ
ÙĪ ØªÙĬØ§Øª
ĠÙħØŃ Ø±
ĠØ®ØµÙĪØµ ÙĬØ©
ĠÙĬØª ÙĥÙĦÙħ
Ø² Ø§Ø¹
ĠØ§ÙĦÙĥØ± Ø§ÙħØ©
ĠÙĪØ§ÙĦØ³ ÙĦØ§ÙħØ©
ĠØ§ÙĦØªÙ ĦÙĪØ«
ĠÙħØ¦ ÙĪÙĬØ©
ĠØ¨Ø§ÙĦØ® Ø¨Ø±
ĠÙĦÙĦØ³ÙĬØ¯ Ø§Øª
Ĭ Ø¸ÙĦ
ĠØ§ÙĦØ§Ø¨ Ø¯Ø§Ø¹
ĠÙĪÙĬØ¨ ÙĦØº
ĠØ§ÙĦÙħÙĨØ¸ ÙĪÙħØ©
ĠÙģ ÙĦØ§ØŃ
ĠØ¬ Ø¯ÙĬØ©
Ø· Ø§ÙĨÙĬØ©
ĠØ¹Ù ĦÙĪ
Ù ĬØ¸ÙĦ
ĠØ£ ÙħÙħ
Ù ħÙĦØ§Ùĥ
ĠØ§ÙĦÙĥ Ø°Ø¨
Ġ ÙĬØ¸ÙĦ
ĠØªØ¹ ÙĨÙī
ĠØ§ÙĦØ¹Ø¨ Ø§Ø¯Ø©
ĠÙĦØ¹Ù Ħ
ĠØ¸ ÙĦÙħ
ĠØ³ÙĪØ¯ Ø§Ø¡
ĠØ§ÙĦØ¨ÙĨ ÙģØ³
4 8
Ø¹Ù ĬØ¨
Ø³ÙĬ ÙĥÙĬ
an s
ĠØ£ Ø³Ø¨
ĠØ§ÙĦØ¨ÙĦØ¯ ÙĬØ§Øª
ĠØ¨Øº Ø±Ø¶
ÙĦÙĦÙ ĬÙĨ
ĠØ£Ø¬ Ø±Ùī
Ø§Øµ ÙĬØ±
ĠØ³ ÙħÙ
ĠØ§ÙĦØ« ÙĪØ±ÙĬØ©
ĠØ¬ ÙĪØ²
ĠT ra
ĠØªØ¹ Ø¯ÙĬÙĦØ§Øª
ÙĪØ± Øº
ĠÙĦØ§ ÙĨØ¯
ĠØ§ÙĦÙħ ÙħØ±
ĠÙĬÙĤ Ø§Ùħ
Ø¹ Ø§ÙĦÙĬØ§Øª
ĠÙĪØŃ ÙģØ¸
ĠØ¯ ÙĨÙĬØ§
ĠÙĥÙĦØ§Ùħ Ùĩ
ĠØ§ÙĦØ¯ ÙħÙĪØ¹
ĠØ§ÙĦÙħØµØ± ÙģÙĬ
ĠØ¨Ø¹Ø¯ Ø©
Ø¨Ø¯ Ø§Ø¯
ĠÙģØ± Ø¹ÙĪÙĨ
ĠÙĪØ§ÙĦØ§Ø ·
Ø¶Ø± Ø§Øª
ĠØ§ÙĦØ£ Ø¨Ø¯
ĠØ®ÙħØ³ ÙĬÙĨ
Ġ12 5
Ø® Øª
ĠØ¯ Ø§ÙĪ
ĠÙģÙ ħØ«
ħ Ø°ÙĩØ¨
ĠÙģØ§Ø³ Øª
ĠØ¨Øª Ø¯
ĠØ§ÙĦØ³ÙĬ Ø§Ø¯Ø©
ĠØ¨Ø« ÙĦØ§Ø«Ø©
ĠØªÙĥ ÙĦÙĬÙģ
ĠÙĨÙĪ Ø§Ùģ
ĠÙĨÙģØ° Øª
ĠØ± Ø§ØªØ¨
ĠØ§ÙĦÙħÙĨ Ø§ØµØ¨
ĠØ§ÙĦÙħØŃ Ø±Ùĥ
ĠØ· Ø§ÙĦ
ĠØªØŃ Ø±ÙĬÙĥ
ÙģØ¹ ÙĪÙĦ
ĠØ£Ø³Øª Ø·ÙĬØ¹
ĠÙħÙħØª Ø§Ø²Ø©
ĠÙĪØ£ ÙģØ¶ÙĦ
ĠØ§ÙĦØ® Øª
ĠÙĦÙĥ Ùī
ĠØ·Ø§ÙĦØ¨ Øª
ĠØ³ÙĤØ· Øª
ÙĪÙħ Ø¨ÙĬ
ĠÙĦØ¥ ØªØ§ØŃØ©
ĠÙĩÙĨØ¯ ÙĪØ±
ĠØ§ÙĦØ³ Ø®
ÙĦÙĬÙ ħÙĩ
ĠÙĦØ§Ø¹ Ø¨Ø§
Ø® Ø§Øª
ĠÙĩÙħ Ø³
ĠØ§ÙĦÙĬÙĪÙĨ Ø§ÙĨÙĬØ©
ĠØ¨ Ø±Ùĥ
ĠÙĪØ¨Ø® Ø§ØµØ©
ĠØ¨Ø§Ø± Ø²
ĠÙĦÙĦØ¯ ÙĥØªÙĪØ±
ĠØ§ÙĦÙģ ÙĩÙħ
4 7
ĠØ§ÙĦØ£ ØŃÙħØ¯
ÙħØ§Ø± Ø³Ø©
ĠÙĬØµ ÙĦØŃ
ÙģØ±Ø¯ Ø§Øª
ħØ§ÙĨ Ø©
ĠÙħØ¤ ÙĩÙĦØ§
ĠØ¨Ø´ Ø±ÙĥØ©
ĠØ¨Ø¨Ø± ÙĨØ§ÙħØ¬
ĠÙħÙĨ ØºÙĪÙĦÙĬ
ĠØ§ÙĦØª ÙĪØ²ÙĬØ¹
ĠÙħØ± Ø§Ø±Ø§
ĠØ¨Ø¶ Ø¹Ø©
ĠÙĪÙħÙĦØŃ ÙĤØ§Øª
ĠÙĥ ÙĦØ¨
ĠÙĪØŃ ÙĦÙģ
ĠIs lam
Ġ Ù¤
ĠÙĪÙħØ´ Ø§ÙĥÙĦ
ĠØ¨ÙħØ´ Ø±ÙĪØ¹
ÙĦØª Ø±
ĠØ§ÙĦÙģ Ø§Ø±Ø³
ĠØ´ Ø±Ùħ
ĠØªØ® ØªØ§Ø±
ĠØ® Ø±ÙĪ
ĠØ·Ùģ ÙĦØ§
ĠØ³Ù ĬØ²
ĠÙģÙĬ ÙĨØ§
ĠG am
ĠÙĪØ´ ÙĩØ¯Øª
ĠØ§ÙĦÙĤ Ø¨ÙĬÙĦØ©
ĠØ§ÙĦØ§Ø³ ÙĪØ§ÙĤ
ĠÙĪ Ø¨ÙĬØ¹
ĠØªØ´ÙĥÙĬ ÙĦØ©
ĠØ§Ø³Ø¨ Ø§ÙĨÙĬØ§
ĠÙĤ Ø§Ø¯ÙħØ©
ĠØ§ÙĦØªÙĨ ÙĪØ¹
Ø· ÙģÙĬ
ĠØ§ÙĦØ£ Ø³Øª
ĠÙĨÙĩ Ø§Ø¦ÙĬØ§Øª
ĠÙģ Ø§ÙĦÙĤ
ĠØ¨ ØŃÙħ
ĠØ§ÙĦÙĪØ± ÙĤÙĬØ©
ĠØ¯ÙĬ Ø¨
ĠÙĪÙĬØ¹ ÙĪØ¯
ĠÙĦØ§ÙģØª Ø©
ĠÙĬÙĤØ¯Ùħ ÙĩØ§
Ġa dvanced
ĠÙĪØ¶ Ø¨Ø·
ĠØ¬Ø§ÙĨØ¨ ÙĩØ§
ĠØ§ÙĦØªØ·Ø¨ÙĬÙĤ ÙĬØ©
ĠØ® Ø¶
ĠØµÙĨ Ø§Ø¹ÙĬØ©
ħ Ø£ÙĨ
ĠÙĪÙĨ Øµ
Ø§Ø²Ø§Ø® Ø³ØªØ§ÙĨ
ĠØŃÙĤ Ø§Ø¦ÙĤ
Ø¨ÙĬ ÙĩØ§
ĠØ§Ø¯ Ø§Ø¡
ĠØ§ÙĦØ¨ Ùĥ
ĠÙħØ¹ ÙħØ±
ĠØ§ÙĦØ« ÙĪØ§Ø±
Ø§ØŃ Øª
ĠØ§Ø¹ ØªØ¯Ø§Ø¡
ĠÙħØ³ ÙħÙī
ĠÙĦÙĦØ¹ Ø±Ø§ÙĤ
ĠØ® Ø¯ÙħØª
Ġ199 3
ĠØ§ÙĦØªØµ ÙģÙĬØ§Øª
ĠØ¬Ùħ Ø§Ø¹ÙĬØ©
ĠØ§ØŃ ØªÙĬØ§Ø·
Ġ ÙĬØ§Ø¯
ĠØ§Øª Øµ
ĠØ³ Ø¯Ø§Ø¯
ĠÙĦÙħÙĨ Ø·ÙĤØ©
ĠÙĦÙĦØ¹ ÙĦØ§Ø¬
ÙħÙĨ ØŃ
ĠÙħÙĪ Ø¬ÙĩØ©
ĠÙĪØ§ÙĦØ¬ ÙħØ§ÙĦ
ĠØ£Ø¹ÙħØ§ ÙĦÙĩØ§
ĠÙĬØ³ Ø¹Ø¯
ĠØ£ ÙĥÙĨ
ĠØ§ÙĦÙĨØ§Øª Ø¬Ø©
ĠØ§ÙĦÙĨØ§Ø² ØŃÙĬÙĨ
ĠØªØ¶ÙħÙĨ Øª
ĠØ£Ø³ ÙģØ±Øª
ĠØ§ÙĦØ¸ Ø§ÙĩØ±
ĠÙĪÙħØ¬ ÙħÙĪØ¹Ø©
ĠÙħÙ ħØ¯
ĠØ§ÙħØª ØŃØ§ÙĨ
ĠØ§ÙĦØ¥ ÙģØ±Ø§Ø¬
ÙĦÙĦØ ª
ĠØ§ÙĦØ·Ø§ÙĦØ¨ Ø§Øª
ĠØ§ÙĦØ¸ ÙĩÙĪØ±
ĠØ§ÙĦØ³ÙĦÙģ Ø§Ø¯ÙĪØ±
Ġla z
Ø¨Ø¹ Ø§Øª
ĠÙĪØµØ± ØŃ
ĠÙĨØ¬Ø§ØŃ Ø§
Ùģ Ø§Ø©
Ù ħØ°ÙĩØ¨
ĠØ¹Ø¯ ÙĪØ§ÙĨ
ĠØµØ§ÙĦØŃ Ø©
ĠÙĪØ§ÙĦÙĤ Ø¶Ø§Ø¡
ĠÙģÙĬ Ø±ÙĪØ³
ĠØ§ÙĦÙħÙ ĬØ§Ø©
ĠØªØª Ùĥ
ÙĨÙ ĬÙĤ
Ø« Ø§
ĠØ§ÙĦÙģ ÙĤÙĬÙĩ
Ù ħÙĦØ§
ĠÙĪØ¬ Ø¹
B C
ĠØ§ÙĦØªØ³ Ø¹ÙĬÙĨ
ĠØ§ÙĦØ§Ø¨ ÙĨ
ĠØ§Ø± ØªØ¯Ø§Ø¡
ÙĦØ³Ø· ÙĬÙĨÙĬÙĬÙĨ
Ġ ÙħØ°ÙĩØ¨
ħØ§Ø± Øª
ĠØ§ÙĦÙħØª ÙĥØ±Ø±Ø©
ÙĦØ§Øª Ø±
ĠÙĪØ§ÙĦÙģ ÙĨØ§ÙĨ
ĠØ§ÙĦÙħ ØŃÙħØ¯
Ø·Ùģ Ø§Ø¡
ĠØ§ÙĦÙĩØ¯ ÙĪØ¡
ĠØ£Ù ĬÙĪØ¨
ĠØ§ÙĦØ§Ø³ Ø¯
ÙĪÙĬØª ÙĩØ§
ol d
ĠØ¨Ø§ÙĦØ¹ Ø¯ÙĬØ¯
ĠÙĤ Ø·Ø§Ø±
ĠØ£Ø´ Ùĥ
ĠØªÙģ ÙĥØ±
ÙĦÙĤ ÙĪÙĨ
ĠØ£ Ø±ÙĬØŃØ§
ĠØ¨Øª ØºÙĬÙĬØ±
ĠØ³ÙĪÙģ Øª
ĠØ¬Ø¹ ÙĦÙĩ
ĠØ§ÙĦÙĨØ® Ø¨Ø©
ĠØ¨Ø§Ø® ØªÙĬØ§Ø±
ĠØ£ Ø´Ø±
ĠØ§ÙĦÙħØ¤ÙĤØª Ø©
ĠÙĪØ§ÙĦÙģ ÙĥØ±
la t
ÙĦÙģ Ø§
ÙĪØ§Øª ÙĬØ±
ÙĦØ¯ Ø§Øª
is m
ĠÙĬØ¹ ÙĦÙħÙĪÙĨ
ĠÙħÙĨØ² ÙĦÙĥ
ÙĦØ¨ Ø³
6 8
ĠÙħØŃ Ø¨Ø©
ĠÙĪÙħØ± Ø§ÙĥØ²
Ø§ÙĪÙĨ ÙĦØ§ÙĬÙĨ
ĠÙħØ± Ø³ÙĬØ¯Ø³
ĠØ¯ ÙĥØ©
ĠØ§ÙĦÙħÙĨ Ø¯
ĠØ§ÙĦØ¹Ø³ÙĥØ±ÙĬ ÙĬÙĨ
ĠØ§ÙĦØ§Ø¹ ÙĦØ§ÙħÙĬØ©
ĬÙĦÙĬ Øª
ĠÙĪÙĦÙĥÙĨ ÙĩÙħ
Ø§ÙĦÙĬ ÙĬÙĨ
ÙĪ Ø²ÙĬ
Ġ194 8
ĠÙĪØ¨ Ø§ÙĦÙħ
ĠØŃØ§Ø¬ Ø²
ĠØ§ÙĦÙħÙ ĬÙĦÙĬ
ĠØ¬ ÙĨØ³
Ø§Ùħ ÙĬÙĥ
ĠØ§ÙĦÙħÙĪØ³ ÙĪØ¹Ø©
ÙĪØ¹ ÙĬÙĨ
Ø¨ ØªÙĩ
ĠØ´Ø¹Ø± ÙĬØ©
ĠÙĦØ¥ ÙĨÙĩØ§Ø¡
ĠÙħØ²ÙĬØ¯ Ø§
ĠØªØ¬Ø§ÙĪØ² Øª
ĠØ§ÙĦØµ Ø¹ÙĪØ¨Ø§Øª
ĠØªØ¹ Ø·
ĠÙĪØ§Øª ÙĩÙħ
ĠØ¨Ø£ Ø³ÙĦÙĪØ¨
Ø§ÙĥÙĨ Ø©
Ø£ Ø¬Ø±
ĠØ§Ø¹ØªØ¨Ø± Øª
ÙĪØ± ÙĪÙĨ
ĠÙĬØ¶ Ø±Ø¨
Ġ Ù¥
ĠØ¨Ø£ ÙģØ¶ÙĦ
ĠØ§ÙĦÙĦØº ÙĪÙĬØ©
ĠÙĬÙģØª ØªØŃ
ĠØ§ÙĦÙħÙĩ ÙĨ
ĠØ¨Ø£ ÙĩÙħÙĬØ©
ĠÙĬÙħ ÙĬÙĨ
ÙĬØ¨ Ø§
ĠÙħÙĪÙĤÙģ Ùĩ
ĠØ³ÙĪØ¯Ø§ÙĨÙĬØ² Ø§ÙĪÙĨÙĦØ§ÙĬÙĨ
ĠÙħÙĨ Ø§Ø³
ĠØ¨ ÙĦØ³
ĠØ§ÙĦØ² ÙĤØ§Ø²ÙĬÙĤ
ĠØ§ÙĦÙħ Ø¨ÙĬØ¯Ø§Øª
ĠÙĪ ÙĪÙĤØ¹
ÙĪ ÙĦØ§Ø±
ĠØ¨ ÙĦØŃ
ĠØªØ¹ ÙĦÙĤ
ĠØ³ÙĬÙĤ ÙĪÙħ
ĠØ§ÙĦÙħØ¹Ø§Ø± Ùģ
ĠØ§ÙĦÙĪØ± ÙĤ
ĠÙĦØ¹ ÙĦÙħ
ĠÙĬØ¶ Ø§Ùģ
ĠØ³Ø¹ Ø§Ø¯ØªÙĩ
ĠÙĦØ¬ Ø§ÙħØ¹Ø©
ĠØ§ÙĬØ· Ø§ÙĦÙĬØ§
ĠÙĦÙħ Ø«ÙĦ
ĠØ¥ Ø¬Ø§Ø²Ø©
ĠØ¯ÙģØ¹ Øª
ĠØ§ÙĦÙħÙĬØ¯ Ø§ÙĨÙĬØ©
ĠØªÙĨ Ø¨ÙĬÙĩ
ĠØªØªØ¹ Ø§ÙħÙĦ
ĠØ§ÙĦØ£ ÙĪØ±ÙĪ
ĠØ£Ø¹ ÙĦØ§Ùħ
ĠØ§ÙĦØº Ø§ÙĬØ©
ĠØ§ÙĦØ§ÙĨØªØ® Ø§Ø¨ÙĬ
Ø¬Ù ĬØ²
ĠØ· Ø§ÙĩØ±
ĠØ§ÙĦØ´Ø± Ø¹
ĠØ§ÙĦØ§Ø¹ Ø¯Ø§Ø¯
ĠÙħÙĪ Ø§ØµÙģØ§Øª
ĠÙĬØ¬ Ø¹ÙĦÙĩ
ĠÙĦÙħ Ø¨
ĠØ§ÙĦØ¯ Ø§Ø¹ÙĬØ©
ĠØ§ÙĦØ®Ø· ÙĬØ±Ø©
ĠØ§ÙĦÙħ Ø«ÙĦ
ĠØ¨ Ø¹Ø¨
Ø²Ù ĬÙĬÙĨ
ĠØ§Ø³ Ùĥ
ĠØ¨Ø§ÙĦÙħØ¹ Ø±ÙĪÙģ
ĠÙĨ Ø§Øµ
ĠØ§ÙĦØŃ Ø²Ùħ
ĠØ§Ø« ÙĬÙĪ
ĠØ§ÙĦÙħÙĤ Ø§Ø·Ø¹Ø©
ĠØ¨ Ùī
ĠØ¨ØŃ ÙĪØ«
ĠØ´Ø±Ùĥ Ùĩ
Ġ198 9
Ù ĬÙĥÙĬ
Ø§Ùģ Ø³Ø©
ÙĬÙĨ Ø¬
ĠØ§ÙĦÙĨØ´Ø§Ø· Ø§Øª
ĠØ§Ø³Øª Ø®Ø±Ø§Ø¬
ĠØ§ÙĦÙĤØµ ÙĬØ¯Ø©
ÙĨÙ ħØ§Ø¡
or ld
ĠØµ ÙĬØ§Ùħ
ĠØ§ÙĦØ´ Ø¹Ø§Ø±
ĠØ§ÙĦØ§ÙħØª ØŃØ§ÙĨ
ĠØ§ÙĦÙħÙģ Ø±ÙĪØ¶
ĠØ§ÙĦØ± ÙĤØ©
ar y
Ġ Ø¯Ù
ĠØŃ Ø§Ø²
ÙĦÙģÙ Ħ
Ø³Øª ÙĩØ§
ĠÙĦÙĦØª Ø¬
ĠÙĦÙĤ ÙĪØ§Øª
ĠÙħÙĪ Ø¶
ĠÙĪØ¨ÙĦØº Øª
Ø§Ùģ Ø¯
ĠÙĬÙħØª Ø¯
oc k
ĠÙĪ ÙĦØ§Øª
ĠÙĦÙĦØ¬ Ø§ÙħØ¹Ø©
ĠØ§ÙĦÙĥ Ø£Ø³
ĠØ§ÙĦÙħØ± Ø³
ĠØ² ÙģØ§Øª
ĠÙĪÙĬ Ø¶Ùħ
ĠÙĪÙĬØŃ Øª
ĠÙĪØ§ÙĦ ÙĪØ²
ĠØŃ ÙĤÙĬÙĤ
ĠÙĨØ´ Ø£
ÙĬÙħØ¨Ø§Ø¨ ÙĪÙĬ
ĠÙĪØ§ÙĦÙħ ÙĬØ§Ùĩ
ØŃØ± Ø±
Ġ Ø§Ø¯Ø±
ØªØ¨Ø± Ø§Øª
ĠØ§ÙĦÙĪ Ø§Ø¬ÙĩØ©
ĠØ£Ø² ÙĩØ±
ĠØ¨ÙĨ ÙĩØ§ÙĬØ©
Ø±ØŃ Ø¨
ĠÙĨ Ø¬ÙħØ©
ĠU n
ĠØªÙĪ Ø§Ø²ÙĨ
ØªÙĩ ÙĨ
ĠØ§ÙĦØ¨ÙĤ Ø§Ø¹
ĠÙĨ Ø§ÙĦ
Ø¹ Ø§ÙħÙĦ
ĠØ£Ø° Ø±Ø¨ÙĬØ¬Ø§ÙĨ
ĠØ§ÙĦÙħÙĨØª Ø´Ø±Ø©
ĠØ§ÙĦØ£ÙĨ ØµØ§Ø±
ĠÙĪØ¬ ÙĨÙĪØ¨
ÙĪÙģ Ùĩ
ĠÙĪÙģ Ø¯Ø§
ĠÙĪÙĥØ§ÙĨ ÙĪØ§
ĠÙĪØ³ ÙĦØ§ÙħØ©
ĠÙħØŃ Ø§Ø³Ø¨Ø©
ĠÙĪØµ ÙĪÙĦÙĩ
Ø³Øª ÙĪÙĨ
ĠØ§ÙĦØ¬ Ø°
ĠÙĪØ§ÙĦØªØ³ ÙĪÙĬÙĤ
ĠÙĪØŃ Ø²Ø¨
ĠØ§ÙĦØ²ÙĩØ± Ø§ÙĨÙĬ
Ø¬Ø² Ø§Øª
ĠØ±ØµÙĬØ¯ Ùĩ
Ø£ ÙĦÙĥ
ĠØ§ÙĦÙħ ÙĩØ¯
ĠØ§ÙĦØ¨ ØµØ±ÙĬØ©
ĠØ§ÙĦØ¥ Øª
Ø¹ Ø¬
ĠÙĦØªØ¹ ÙĦÙĬÙħ
ĠØ§ÙĦØ¢ ØªÙĬ
ĠØ¬ Ø§ÙĨÙĬ
ĠÙĬØ£ ÙĥÙĦ
ĠØ® ÙģÙĬÙģ
ĠØ¢ Ø¨ÙĦ
Ø« ÙĪØ°
ĠØ± ÙĥÙĦØ©
ĠÙĤ Ø±Ø¶
ĠØ§ÙĦØµØ§Ø± ÙĪØ®
ĠÙĥ ÙĪØ±Ø¯
ĠØ¬Ø§Ùħ Ø¹Ø§Øª
ĠØ§ÙĦØŃ Ø°Ø±
ĠS am
ĠØªÙĨØ´ ÙĬØ·
ĠØ§ÙĦÙĥÙĪÙĨ ØºÙĪ
ĠÙĥ ÙĬØ³
ĠS D
la n
Ø±ÙĪ Ø¡Ø©
ĠÙĪØ§ÙĦØµ ÙĬÙĨ
ĠØ¬ Ø¯Ø±Ø§ÙĨ
ĠØµ ÙĦØ¨
ĠØ§ÙĦØ¯ÙĥØªÙĪØ± Ø§Ùĩ
ĠØ§ÙĦØ¶ØŃ ÙĬØ©
ĠØ§ÙĦØ³ÙĬÙĨ Ø§Ø±ÙĬÙĪ
ĠÙĦÙĦØ¯ Ø®ÙĪÙĦ
ĠÙĬÙĤ ÙĦÙĦ
ĠØªØ¯ Ø±ÙĬØ³
ĠØ¬Ùĩ Ø§Ø¯
ĠÙħØ· ÙĦØ¨
ĠÙĪØ¹ ÙĤØ¯
ĠÙĥ Ø±ØªÙĪÙĨ
ĠÙĥ Ø¥
ĠÙĪÙħÙĪ Ø§ÙĤØ¹
ĠØ´Ø¹ Ø§Ø±Ø§Øª
ĠØ¨ ÙĪÙģ
ĠØ§ÙĦØ£Ø«Ø± ÙĬØ©
ĠØ§ÙĦÙĥ Ø§ÙģÙĬ
ĠÙģ ÙĪØ±ÙĬ
ĠÙĪØ¯ Ø¹Øª
ĠÙĦÙĦØ¬ ÙħØ¹ÙĬØ©
ĠØ§ÙĦØ³ ÙĨÙĬØ©
ĠÙĥÙĬÙĦÙĪÙħ ØªØ±Ø§
ĠÙĪØªØ¹ Ø±Ø¶
ĠÙĪØ£Ù ħ
ĠØ§ÙĦÙĪØ± ÙĤØ©
ĠØ§ÙĦØªÙ ħØ§Ø±ÙĬÙĨ
ĠØ§ÙĦØ§Ø®Ø¨Ø§Ø± ÙĬØ©
ĠØ§ÙĦÙħØŃ Ø·Ø§Øª
ĠÙĥ Ø±Ø§Øª
ĠØ§ÙĦØŃ Ø¯ÙĬÙĤØ©
ĠØ§ÙĦØªÙĥ ÙĦÙģØ©
Øµ Ø§
ĠØ§ÙĦØ§ ÙĦÙħØ§ÙĨÙĬØ©
ĠØ¹Øµ ÙĬØ±
ĠØ§Ø³ ØŃÙĤ
ĠØ§ÙĦØ² ÙĬØ§Ø±Ø§Øª
ĠØªØ¹ ÙĤÙĬØ¯
ĠÙĥ Ø°Ø¨
ĠÙĪØ§ÙĦØŃ Ø±ÙĬØ©
ĠØ§ÙĦØµ ÙĦÙĬØ¨
ÙĦØº Ø§Ø²
Ø±ÙĤ Ùī
ĠÙĦÙĦØ§Øª ØµØ§ÙĦØ§Øª
ĠØ§ÙĦÙħØ· ÙĦÙĤØ©
ĠÙĦÙĬ ÙĪ
Ø§Ùģ ÙĬØ±
ÙĤ ÙĦØ§Ø¨
ĠÙĪØ´ Ø±ÙĥØ§Øª
ĠÙĪØ³Ù ħÙĪ
ĠØªØ§ÙĬ ÙĦØ§ÙĨØ¯
ĠØ§ÙĦØ® Ø§Ø·
ĠØ§ÙĦÙħØŃ Ø§ÙĥÙħØ©
Ø¦Ø± Ø§ÙĨ
ĠØªØªØŃ Ø±Ùĥ
ĠÙĨØ§ ÙĩÙĬÙĥ
ÙħÙ ĦÙĪ
ĠØª ÙħÙĬÙĬØ²
ĠÙħÙħÙĬØ² Ø§Øª
ĠØ§ÙĦØ§ØŃ Ø³Ø§Ø¡
ĠØ§ÙĦ ÙĪØ¯ÙĬØ©
Ø« Ø§Ø«
ĠØ§ÙĦÙĤ ÙĦØ¹Ø©
ĠP re
ÙĤÙ ħØ©
ĠÙĪØ§ÙĦØ¯ Ø¹Ùħ
ĠØ¨Ùĥ ÙĦÙħØ©
ĠØ§ÙĦØ· Ø¹ÙĨ
ĠÙĪØ£ ØŃÙĬØ§ÙĨØ§
ĠØ¨Ø§ÙĦØ¹ Ø§ÙĦÙħ
ĠÙģ Ø§ÙĦØ±
ĠT witter
ĠØ£Ø±Ø¯ ÙĨÙĬ
ĠØ§ÙĦ ÙĪØ±Ø¯
ĠÙħÙĨØ§Ø² ÙĦÙĩÙħ
ĠØ¨ÙĦØ¯ Ù
ĠÙĥ Ø±ÙĬÙħØ©
ĠÙĪØ§ÙĦØ¹ Ø¯ÙĬØ¯
ĠØ¨ÙĪØ± ÙĪÙĨØ¯ÙĬ
ĠØ§ÙĦÙĥ ÙĬÙħØ§
ĠS e
ĠØ§ÙĦØ¶Ù ĬØ§ÙģØ©
ĠÙĦØ¨ÙĨ Ø§ÙĨÙĬ
Ø¹Ø¨ Ø§Ø¡
ĠØ§ÙĦØ£Ø³ Ø§ØªØ°Ø©
ĠØ§ÙĦØ´ Ø§ÙģØ¹ÙĬ
ĠØ£ Ø¨Ùī
ĠT h
Ø¸Ø§ÙĩØ± ÙĪÙĨ
ĠØª Ø¸ÙĦ
ĠØ¨ÙĦØ¯Ù Ĭ
ØªÙĬ Ø¨Ø§Øª
ÙĪÙĤ ÙĬØ©
ĠØ§ÙĦØŃØ¯ ÙĪØ¯ÙĬØ©
ÙĪÙĥ ÙĪÙĦØ§Øª
Ø±Ù Ħ
ĠÙĦØ± Ø¦Ø§Ø³Ø©
ĠØ§ÙĦÙħØ¨ Ø§Ø¯Ø±Ø§Øª
ĠØªØª Ø¬Ùĩ
ĠÙĦØ§Ø® ØªÙĬØ§Ø±
ĠÙĥØ«ÙĬØ± ÙĪÙĨ
ĠØ§ÙĦØµ ÙĬØº
ĠØª ØŃÙĦ
ĠØ§ÙĦØ´ Ø§ÙĩØ¯
ĠØ§ÙĦÙģ ÙĬÙģØ§
ĠB lack
Ø§ÙħÙĬÙĨ Ø§Øª
ĠØ§ÙĦØ³ ÙĬÙģ
ĠØ§ÙĦØ§ÙĨØª ÙģØ§Ø¹
ĠØ§ÙĦØ£Ùħ Ø§Ùħ
ĠØ§ÙĦÙħ Ø§ÙĦØ¯ÙĬÙģ
ĠØ§ÙĦØ§Ùģ Ø±ÙĬÙĤÙĬ
Ø§Ø¬ ÙĨ
ĠØ¬ ÙĪØ§Ø±
ĠØ§ÙĦÙħ ØªÙħØ¯
ÙĦØ§Ø¦Ù Ħ
ĠØ§ÙĦÙĨØ¶ Ø§ÙĦ
ĠØ§ÙĦØ£Ø´ Ø¹Ø©
ĠØª ØºØ·ÙĬ
ĠØ§ÙĦÙĨ ÙĤÙĬØ¨
ÙĪÙģ ÙĬÙĨ
ĠØ§ÙĦÙĤØµ ÙĬØ±
ĠÙħØ³Ø¤ ÙĪÙĦØ§
ĠØªÙĨ Ø§Ø²
ĠØ¯ Ø±Ø¨
ĠØ§ÙĦÙħØ¬ØªÙħØ¹ ÙĬØ©
ĠØŃ Ø´
ÙĪØ± Ø¯Ø©
Ø¹Ù ĬØª
ĠØªØŃ Ø°ÙĬØ±
ĠØ¨ ÙĪØ¨
Ø±ÙĪ Ø³Ø©
ĠÙĪØ§ÙĦÙĤ ÙĪÙī
ĠÙĨ Ø§ÙĨ
ĠÙħØ· Ø±ÙĪØŃ
ĠÙĨÙĪ ÙģØ±
ĠÙĪØ¬ ÙĪ
ĠØ§ÙĦØŃØ¶ Ø§Ø±ÙĬ
ĠØ¨ÙĬØ± ÙĪ
ĠØ¨Ù ħØ¤
ĠÙĪØ§ÙĦØ¥ ÙħØ§Ø±Ø§Øª
ĠØº Ø§Ø±
ĠØ¹Ø¨Ø¯ Ø§ÙĦÙĪ
ĠØ§ÙĦÙħ ÙĤØª
ĠØ§ØŃØªÙģ Ø§ÙĦØ§Øª
ĠØªÙĪ ØµÙĦØª
ĠØªÙģ ØµÙĬ
ÙĦÙħØ¨ÙĬ Ø§Ø¯
ĠØŃ Ø§Ø²Ùħ
ĠØ¨Ù ĬÙĪÙħ
Ø§Ø¦ Ø¨Ùĩ
ĠÙĬØªØ± Ø¯Ø¯
ĠØ¥Ø® ÙĪØ§ÙĨ
ĠÙĦØ¹ ÙĤØ¯
ĠØªØ£ Ø®ÙĬØ±
ĠØ§ÙĦØ³ Ø¨ÙĬÙĦ
ĠØ§ÙĦØ£ ÙĩÙĦ
ĠÙĪØª Ø·ÙĪØ±
ĠÙĪ Ø¶Ø±ÙĪØ±Ø©
ĠØªØ³Ø¨ Ø¨Øª
Ø¸ ÙģÙĬÙĨ
ĠØ§ÙĦÙħØ±ÙĥØ² Ùī
own load
ĠT R
Ø§ÙĦÙħ Ø§Øª
ĠØ·Ø¨ Ø§Ø¹Ø©
ĠØ³Ùģ Ø§Ø±Ø©
ĠÙĦØ³ ÙĨÙĪØ§Øª
ĠØ´Ø¹Ø± Øª
ĠØ¹ Ø§Ø±
ĠØ¨Ø§ÙĦØ¨ Ø´Ø±Ø©
ĠØ§ÙĦÙĨ ÙĬØ¬
ĠÙħØµ Ø§Ø±ÙĬÙģ
ĠØ§ÙĦØªÙĥ ÙĬÙĬÙģ
ĠØ¥Ø° Ø§Ø¹Ø©
ĠÙĪÙĥØ£ÙĨ ÙĩØ§
ĠØ¯ÙĬ Ø§Ø¨
ĠØ§ÙĦØµÙĬ ÙģÙĬ
ĠÙĪØ§ÙĦØ¹ Ø§Ø¨
ĠØ· ÙĬØ§Ø±
ĠØ¬ Ø¯ÙĬ
ĠÙģ Ø§ÙĦØ´
ĠÙĬØŃØ§ÙĪÙĦ ÙĪÙĨ
ĠØ§ÙĦØ¹Ø¨ Ø§Ø±Ø©
ĠÙħØ¤ ÙĥØ¯
ĠØ§ÙĤ ÙĪÙī
ĠÙħØ± Ø§ÙĥØ´
ĠØ§Ø³Øª Ø§Ø¯
ĠØ§ÙĦÙħØ± Ø¦ÙĬØ©
ĠÙĬØ² Ø¯Ø§Ø¯
ĠØªÙĪÙĨ Ø³ÙĬ
ÙĨÙ ĬÙģØ©
ĠØ§ÙĦÙĨÙĩ ÙĪØ¶
ĠØªØ± ÙĪÙħØ§ÙĨ
ĠÙħÙĥØª ÙĪÙħ
ĠØ³Ù ħØ§Ø¡
ĠØ§ÙĦÙħ ÙĦØ§ØŃØ¸Ø§Øª
ĠØ¢ ÙĦØ§Ùħ
Ø¬ÙĬ Ø¡
ĠØ§ÙĨ ØŃØ§Ø¡
ĠÙĪØŃ Ø§ÙĪÙĦ
ĠÙĬÙĨ Ø·Ø¨ÙĤ
ĠØ§ÙĦÙħ Ø°Ùĩ
ÙĤØ± Ø±
ĠØ§ÙĦØ£ÙĨ Ùģ
ĠÙĬÙĩ ÙĪØ¯Ø§
ĠØ´ Ø±ÙĬØŃØ©
ĠØ§ÙĦØªÙĨØ¸ÙĬÙħ ÙĬØ©
ĠÙĦÙĦØ¹ Ø¨
ĠÙģØ¶ Ø§Ø¦ÙĬØ©
ĠØ£Ùħ Ø§ÙĨ
ĠØ§ÙĦØ¹ÙĤ Ø¨Ø©
ĠØ³Ù ħÙĥ
ĠÙĥÙĬÙĦÙĪÙħ ØªØ±
ĠÙĪØ§ÙĦØª ÙĤØ¯Ùħ
ĠØ§ÙĦØ³ ÙĦØ¨ÙĬ
ĠÙĦÙĦÙħØ¤ ØªÙħØ±
ĠØ§ÙĦÙħØ³ ØŃ
ĠÙĥÙĪ Ø§Ø¯Ø±
ĠÙĬÙĨ Ø·ÙĦÙĤ
ĠÙĥØ±Ø¨ ÙĦØ§Ø¡
ĠØ¬ Ø§Ø¯Ø©
ĠØ§ÙĦØ§Ø³ ØªÙħØ§Ø¹
ĠÙĪØ§ÙĦÙģ ÙĬØ¯ÙĬÙĪ
ĠÙĥ Ø¬Ùħ
Ø² Ø¦Ø©
ĠØ§ÙĦÙħØµ ÙĬØ±
ĠØ§ÙĦØ§ØŃ ØªØ±Ø§Ùħ
Ġ ÙħÙĦÙĥØ©
ØºÙħ Ø§Øª
ĠØ¹ Ø¨Ø§Ø±Ø§Øª
ĠØª ÙĪØ¹ÙĬØ©
Ø¶ Ø±Ø§Ø±
ĠÙħØŃ ÙĦÙĦ
ĠÙĪØ§ÙĦÙħØ³ Ø§Ø¨ÙĤØ§Øª
ÙĪØ´ ÙĬÙħØ§
ĠÙģØ§ÙĨ Øª
ĠØªØ± Ø§
ĠØ§ÙĦØ· Ø§ÙĪÙĦØ©
ĠØ¬ ÙĬÙħØ³
q ue
ĠØµØŃ Ùģ
ĠØ§ÙĦÙĨ ÙħØ·
ÙĥØ± ÙĬÙĨ
ĠØ§ÙĦØªØ± ÙĪÙĬØ¬
Ĭ Ø¨ÙĬ
ĠÙĪÙĬØ´ ÙĬØ±
Ø£ Ø±
ĠØ¨Ø±Ùģ ÙĤØ©
ĠÙĪØ§ÙĦØªÙĤ ÙĨÙĬØ©
Ġ Ø¯ÙĦ
ĠØ¥ÙĨ Ø¬Ø§Ø²Ø§Øª
ig n
Ø¹Ù ĬÙĪÙĨ
ĠÙĥ ÙĬØª
Ġ10 5
ĠØ¨Øª Ø·Ø¨ÙĬÙĤ
ĠØ¨ÙĤ Ø§ÙĬØ§
ĠØ¥Ø³Ø±Ø§Ø¦ÙĬ ÙĦÙĬ
ĠÙĬØªØŃ Ø±Ùĥ
ĠØ§ÙĦØ®Ø² Ø§ÙĨØ§Øª
ĠØ§ÙĦÙĨÙĤ Ø§Ø´Ø§Øª
Ġ35 0
ĠÙĪØ§ÙĦØ§Ø µ
ĠØ¹ÙĬÙĨ Ùĩ
ĠØ³Ø¹ÙĬØ¯ Ø©
ĠÙĦÙĦØ¨ ÙĨØ§ÙĨ
ĠØ§ÙĦÙħØª Ø·ÙĪØ±Ø©
ĠØ§ÙĦØº ÙĨÙĬ
ĠÙģØ§Ø² Øª
ation s
ĠÙģÙĦØ§Ø¯ ÙĬÙħÙĬØ±
ĠØ§ÙĦØªÙĨ ÙĤÙĦ
ĠÙĬØŃ Ø¸Ùī
ĠØ§ÙĦØ´ Ø§Ø·Ø¦
ĠØ¨ Ø±ÙĥØ©
ĠØ§ÙĦÙĤ Ø§Ø¦ÙħÙĬÙĨ
ĠÙĨØ¹ ÙĬÙħ
ħ ÙĪÙħ
ĠØ§ÙĦØµØŃ Ø§ÙģÙĬÙĬÙĨ
ĠÙħØªØ¹ ÙĦÙĤØ©
ĠØ§ÙĦØªØ± Ø´ØŃ
ĠÙĪÙĬÙĤ Ø§ÙĦ
3 8
ĠØ§ÙĦÙģØ¹ ÙĦÙĬØ©
ĠÙĪØª ÙĪÙĤØ¹
ĠØµØŃ Ø§ÙģØ©
ĠØ£ÙĨ ÙĪØ±
ĠÙĦØ§Ø º
ĠØ§ÙĦÙħÙĨØª Ø®Ø¨Ø§Øª
ĠÙĪØ§ÙĦØ¯Ù Ĭ
ĠØ§ÙĦØ§Øª ÙĩØ§Ùħ
ĠÙĬØµ ÙĦÙĬ
ĠÙĥÙĪÙĦÙĪÙħ Ø¨ÙĬØ§
ĠØ§ÙĦØŃ Ø¬Ø§Ø²
Øº Ø°ÙĬØ©
ĠÙĪØ§ÙĦØªØ± Ø§Ø«
ħ Ø¶ÙħÙĪÙĨ
Ø¨ ÙĤÙī
ĠØ§ÙĦØ£ Ø±ÙĥØ§ÙĨ
ĠØ§ÙĦÙģ ÙĬÙĪÙħ
ĠØ® ÙĦÙĦ
ĠØ¨Ø± Ø£Ø³
ĠØ§ÙĦØº ÙĨÙĬØ©
ĠØ§ÙĦÙĥ ÙĦØ§Ø¨
ĠØ¢ ÙĬÙģÙĪÙĨ
ĠØªØ±Ùĥ Øª
A B
ħ Ø¢
ĠØ£Ø³Ø§Ø³ ÙĬØ§
Ø¢ Ø©
ÙĪØ¹ Ø¨
ĠÙĪØ§ÙĦØ£Ø® ÙĦØ§ÙĤ
ĠØ¨ØµÙĬ Øº
ĠØ§ÙĦÙħÙĦÙĥ Ø©
ĠÙģ ÙĦÙĤ
ĠØ§ÙĦØ³ ÙħÙĨØ©
ĠÙĪÙĬØ´ Ø§Ø±Ùĥ
ĠG u
ĠÙĦÙĤÙ Ĭ
ĠØªØ¹ Ø¯ÙĬ
ĠØ§Ø® Ù
ĠØ§ÙĦØ¥Ø¯ Ø§Ø±Ø§Øª
ħ Ø¶ÙĬ
ĠØ§ÙĦÙħØŃ Ø³
ĠØ§ÙĨØª Ø´Ø±Øª
ĠØªØ§Ø±ÙĬØ® ÙĩØ§
Ø§Ø¯ ÙĬØ±
ĠØ§ÙĦÙĨÙĬ Ø§Ø¨ÙĬ
ĠØ¨Ø¥ Ø±Ø³Ø§ÙĦ
ĠÙħØª Ø·ÙĪØ±Ø©
ĠØŃ Ø§Ø¯Ø©
ĠØ§ÙĦØ§Øª ØŃØ§Ø¯ÙĬ
ĠÙĬØµ Ø¯ÙĤ
ĠØ§Ø¹ Ø¯
ĠÙĪØ§ÙĦÙĨ Ø§Ø³
ĠØ§ÙĦÙħØ¹ÙĦ ÙĪÙħØ©
ĠØ®ÙĦØ§Ùģ Ø§Øª
ĠØ® Ø¶Ø±
Ġm p
ĠØ§ÙĦØª ØŃØ¯Ø«
ĠØ¶ ÙĬÙĪÙģ
ĠØªÙħ Ø§Ø±ÙĬÙĨ
ĠÙģÙĪØ± ÙĥØ³
ĠÙĦÙĦØ¹ Ø¯ÙĬØ¯
i ew
ÙģÙĬ ÙĦØ©
ĠÙĪØ§ÙĦØ¨ ÙĬØ¦Ø©
Ġ ÙĬØ°
ĠÙĦØªØ³ ÙĩÙĬÙĦ
un g
ĠÙĬØ´ Øª
ĠÙĦÙĦÙĤ Ø§Ø¡
ÙĦÙĦÙ Ĭ
ĠØ§ÙĦØªØŃ ÙĪÙĬÙĦ
ĠØ§ÙĦØ£Ø± ØµØ§Ø¯
ĠÙĪÙĤ ÙĪØ§Øª
ĠØ§ÙĦØ²ÙĩØ± Ø§Ø¡
ĠØ§ÙĬØ¬ Ø§Ø¯
ĠØ¥ ØªÙħØ§Ùħ
Ø¬Ù ħØª
ĠØ§Ø³ØªÙĤ ÙĦØ§ÙĦ
ĠÙħØ³Ø¤ ÙĪÙĦÙĬØ§Øª
ĠÙħØ§ ÙĥÙĬÙĨ
ĠØª Ø¨Ø§Ø±Ùĥ
Ø§Ùĥ Ø¨Ø©
ĠP HP
Ø¨ÙĬ ØŃØ©
ĠØ¨ØŃ Ø§ÙĦØ©
ĠØªÙĪØ± Ø·
ĠÙĪØ¹ ÙĦØ§
ĠÙĪÙĥ Ø´ÙģØª
ÙĬÙĪ Ø·
Ù ħØ¶ÙħÙĪÙĨ
ĠØ§ÙĦÙĩ Ø¬
ØºÙĬ Ø§Ø¨
ĠØ§ÙĦÙģ Ùĥ
ĠØ§ÙĦØ¬Ù Ĭ
ÙĬÙħÙ ĬÙĦ
ĠÙĪØ¹ Ø§Ø¯
ĠØŃØ³ Ø§Ø³ÙĬØ©
ĠØ´ÙĩØ¯ ØªÙĩØ§
ĠØ§ÙĦØ§Ø³Øª Ø«
Ġ ÙħØ¶ÙħÙĪÙĨ
ĠØ§ÙĦØ³ Ø±ÙĬØ±
ØªÙ ħØ³
ĠÙģØµ Ø§Ø¦ÙĦ
ħ Ø¶Ùħ
ĠØªØª Ø§Ø¨Ø¹
ĠØ§Ø³ØªØ« ÙĨØ§Ø¦ÙĬØ©
ĠØ¹Ø± Ø¨ÙĬØ§
ĠÙĪÙħÙĥ Ø§ÙĨ
ĠØ§ÙĨØª ØŃ
ĠÙĪØµÙģ Ø©
ĠØªØª ÙĪÙĤØ¹
ĠØ§ÙĦØ£Ø±Ø¬ ÙĨØªÙĬÙĨ
ĠØ§ÙĦØŃ ÙħØ±
ĠØ§ÙĦÙħØªØ®ØµØµ ÙĬÙĨ
ĠØ¨ØªÙĨ Ø³ÙĬÙĤ
ĠÙĪØ¥ Ø³Ø±Ø§Ø¦ÙĬÙĦ
ĠØ§ÙĦØ¬ Ø§Ø±Ùī
ĠÙĤØ¯Ø± ØªÙĩ
ĠÙĪØ§ÙĦØªÙĤ Ø¯ÙĬØ±
ĠØ§ÙĦÙĩ Ø¶
ĠÙĪØ§ÙĦÙĨ Ø´Ø±
ĠØ§ÙĦØ§Øº Ø§ÙĨÙĬ
ĠØªÙĤ ÙĪØ¯
ĠÙħÙĨ Ø®ÙģØ¶Ø©
Ùģ ÙĪÙĦØ©
ĠÙĪØ« ÙĤØ§ÙģØ©
ĠØ§ÙĦÙĤ ÙĦÙħ
ĠØ§ÙĦÙĪ Ø§ÙĦØ¯
ĠÙħØª Ø²Ø§ÙĬØ¯
ĠØ§Ø³Øª Ø´Ø§Ø±Ø§Øª
ĠØ§ÙĦØ§Ø³Øª Øº
ĠØ¨ ÙĤØ¯
ĠÙĪØª Ø¶ÙħÙĨ
ĠØŃ Ø§Ùģ
Ġ198 2
ĠÙĪÙħØ´ Ø±ÙĪØ¹
ĠØ§ÙĦÙħ Ø¨Ø±
ĠØŃ Ø±Ø³
ĠØ§ÙĦÙĥÙĪ Ø§Ø¯Ø±
ĠØ§ÙĦØ§ÙĨØª ØµØ§Ø±
ĠØ¬ÙĪØ± Ø¬ÙĬØ§
ĠÙĪÙħÙĥ Ø§ÙģØŃØ©
ĠØ£ÙĪ ÙĤ
ÙĥÙ ĬØ§Ø³
ÙĥÙĦÙĬ Ø²ÙĬØ©
ĠØ§ÙĦÙĩ Ø²ÙĬÙħØ©
ĠØ± Ø§Ø¬
ĠØµ Ø§ÙĦÙĪÙĨ
ĠØ§ÙĦÙħ Ø¶ÙĬ
ĠS u
ĠØ§ÙĦÙħÙĨ Ø·ÙĤ
ĠÙĬÙĤ Ø±
ĠØ§ÙĦÙĨØ¸ Ø±Ø©
ØªÙĥ Ø§Ø¨
Ùģ ÙĦØª
ĠØ§ÙĦØ¢ Ø³ÙĬÙĪÙĬ
ĠØ§ÙĦÙĪØ¬ ÙĪÙĩ
ÙĪØ³ Ø§
ĠØ§ÙĦØ³ÙĨÙĬ ÙĪØ±Ø©
ĠØ£ ÙĥÙĦ
ĠØ§ÙĦØ´ Ø¯ÙĬØ¯Ø©
ĠØ§ÙĦØªÙĨØ¸ÙĬÙħ Ø§Øª
Ø¨ ÙĪØ¹Ø©
ĠØ§ÙĦØ¬Ùħ Ø§Ø±Ùĥ
ĠØ¯Ùħ Ø¬
ÙĦØ§Ø¦Ù Ĭ
ĠØ¬ÙĪ ÙĥØ±
ation al
ĠØ§ÙĦØ£Ø· ÙĦØ³ÙĬ
ĠØµÙĪØª ÙĬØ©
ĠÙħÙ ĬÙģ
ĠØ§ÙĦØªÙĥ Ø§ÙĦÙĬÙģ
ĠÙĪØ§ÙĤØ¹ ÙĬØ©
ĠÙĨÙĤØ¯ ÙĬØ©
ĠØ§ÙĦØ® Ø¯
ĠÙĩØ¬ ÙĪÙħØ§
ĠØ§ÙĦØªØ´ØºÙĬ ÙĦÙĬØ©
ÙĬØ´ Ø©
ĠÙĪØ® ÙĦÙĤ
ĠÙģÙħØ« ÙĦØ§
ĠØº Ø³Ø§ÙĨ
ĠÙħØµ ÙĦØŃ
ĠÙħØª Ø¹Ø¨
ĠÙĬÙ ħØ³
ĠØ§ÙĦØŃ ÙĦÙĤØ§Øª
ĠØ£Ø¯ Ø®ÙĦ
ĠÙĬØª ÙĪÙģØ±
ÙĦÙĬ ÙĪØ¨ÙĬØ©
ĠÙĪØ§ÙĦØ¹ Ø±Ø¨
ĠÙĨØ² Ø¹
ĠØ§ÙĦØ¥Ø³ÙħØ§Ø¹ÙĬ ÙĦÙĬØ©
Ù ħØ¶Ùħ
ĠÙģØ¥ÙĨ ÙĩÙħ
ĠØ¶ Ø±Ø¨Ø§Øª
ĠØ§ÙĦÙģØª Ø§ÙĪÙī
Ø´ Ø±Ùģ
ĠØ§ÙĦÙĥ Ø¨
ĠØ§ÙĦØ§ ÙħÙĪØ§ÙĦ
ĠÙĪØ£ Ø¬ÙĩØ²Ø©
ĠØ§ÙĦÙħØ´ Ø§Ø±
ĠØ£Ø¯ ÙĪÙĬØ©
ĠØ§ÙĦØµÙģ ÙĪÙģ
ĠÙĦÙĦØ² ÙĪØ§Ø¬
ĠÙĦØµ ÙĨØ§Ø¹Ø©
ÙĦØ§Ø¬ Ø©
ĠØ§ÙĦÙĤÙĨ ØµÙĦÙĬØ©
ĠØ§Ø¯ Ùī
ĠØªØª Ø³
Ġ ÙħØ¶Ùħ
ĠØ¨Ø£ ÙĤ
ĠØ§ÙĦØ£ ÙĤØ¨Ø§Ø·
ĠØ¨ Ø³Ø¨
ĠØ§ÙĦØ§Ø´ØªØ±Ø§Ùĥ ÙĬØ©
ĠÙħØ³ÙĬØ± ØªÙĩ
ĠÙĬÙĪÙĨ ÙĬÙģ
ĠØŃ Ø§Ø¯
ĠØ¨Ø§ÙĦØ´ Ø¹Ø±
ĠØ§ÙĦÙĨØ² Ø§Ø¹Ø§Øª
ĠØ¨Ø§ÙĦØ§Ø ±
ĠØ§Ø¶ Ø§Ùģ
ĠØ§ÙĦØ£ Ø¦ÙħØ©
Ø§Ø¶ ØŃØ©
ÙĪØ§ÙĤ Ø¨
ĠÙĪ ÙĥÙĬ
ĠØ§ÙĦØ£ Ø¶ØŃÙī
ĠØ§ÙĦØ¯ÙĪ ÙĦØªÙĬÙĨ
ĠÙĦØ§Ù ĬÙģ
ĠÙĬÙĨ Ø§Ø³Ø¨
ÙĬØ§Øª Ùĩ
ĠÙĦÙĦØª Ø£
ĠØŃÙģ ÙĦØ§Øª
ÙĬØ§ÙĨ Ùĩ
ĠØŃ Ø«
ĠØ§ÙĦØŃ Ø§ØµÙĦ
ĠØ§ÙĦØ¸ Ø§ÙĦÙħ
ĠØ¹Ù ĬÙĦÙĬØª
ĠÙħÙĤ Øµ
ĠÙħØª ÙĪÙĤ
r en
ĠØµÙĪØ± Ø§
ĠÙĥ ÙĪÙĬØªÙĬ
ĠØ§ÙĦÙĦØ§Øª ÙĬÙĨÙĬØ©
Ø¹ ÙĦÙĤ
ĠÙħÙĥ Ø¹Ø¨
ĠØ§ÙĦÙħØ¹ Ø¯ÙĦ
ĠØ§ÙĦØ± Ø¹Ø¨
ĠØªØŃ Ø¯
ĠØ±ÙĬ ØŃ
ĠØŃÙħ Ø§Ø¯
ÙħØ³ Ø§Ùĥ
ĠÙĪÙĤØ§ÙĦ ÙĪØ§
ĠÙĦØ¨ Ø·ÙĪÙĦØ©
ĠØŃ ØªÙħØ§
ĠÙĨØª Ø§ÙĨÙĬØ§
ĠÙĪØ¨Ø§ÙĦØ± ØºÙħ
ĠÙĥÙĪÙĨ Øº
ĠØ§ÙĦÙģ ÙĪØ±ÙĬ
ĠØ§ÙĦØ¹Ùħ Ø§ÙĨÙĬ
ĠØ¨ÙĦØ§Ø¯ ÙĩÙħ
ĠØ§Ø² Ø¯Ø§Ø¯
ĠØ¯ÙĬÙħÙĤ Ø±Ø§Ø·ÙĬØ©
ĠØ¯ÙĬÙ ħÙĪ
ĠÙĪØ§ÙĦØ´Øª Ø§Ø¦Ùħ
ĠÙģØ± ÙĨØ³ÙĬØ©
ĠÙĨÙĩ Ø§Ø±
ĠÙĨ ÙĪØŃ
ĠÙĨ ÙģØ¹
ĠÙĦØ¯ ÙĪØ±
ĠØ§ÙĦØ´ Ø§Ø¦Ø¹Ø©
ĠH T
il d
ĠØ¨Ø´ ØŃÙĨ
ĠÙħØŃ Ø³
ĠØ§ÙĦÙħ Ø¯ÙĬ
ĠÙħØ± ÙĪØ±Ø§
ĠØ§ÙĦØ±Ø¦ÙĬØ³ Ø©
9 8
ĠØ§ÙĦØ¨Ø· Ø§ÙĤØ§Øª
ĠÙĬÙĥ Ø§Ø¯
ĠØ§ÙĦØ´ Ø±ÙĬÙģØ©
ĠØ§ÙĦØ§Ø³Øª Ø¹Ùħ
ĠØ§ÙĦÙħØ¹ Ø§ÙĦÙħ
ħ Ø§Ø²ÙĨ
Ġ Ø¯ÙħÙĬØ§Ø·
ĠØ§ÙĦØ¬ÙĨ Ø¯ÙĬ
Ø¯Ø§ Ùĥ
ĠØ¥Ø¯Ø± Ø§Ùĥ
ĠØ§ÙĦØªÙĨ ÙģØ³
Ù ħØ§Ø²ÙĨ
ĠÙĪØ§ÙĦØª Ø±Ø¨ÙĬØ©
ĠÙģÙĤ Ùĩ
ĠØ° Ø±Ø§Ø¹
Ġ ÙħØ§Ø²ÙĨ
Ø¨ Ø£
ħ Ø¶ÙĬÙģØ©
ĠÙĪØ¬ Ø±Ùī
ĠØ£ÙĨ Ø¬
Ù ħØ¶ÙĬÙģØ©
ĠÙĦØª Øª
Ø³ ÙĤØ§Ø·
Øº Ùī
Ø¶ Ø¨Ø§Ø·
ÙĬÙħÙĨ Ø©
ĠØ¨Ø§ÙĦÙħ Ø¤
ØµÙģ Ø©
ĠØ§ÙĦØ³Ùĥ Ø§ÙĨÙĬØ©
ĠØ§ÙĦÙĦØŃÙ ħ
ÙĦØ¯ ÙĪÙĨ
Ø¯ Ø®
9 5
ĠÙĩ Ø¯Ùħ
ĠØªÙĤ ÙĦÙĬØµ
ĠÙĦÙģ ØªØŃ
ĠÙĦÙĦØº Ø©
ĠÙħØ¬ Ø±Ùī
ĠØ£ Ø±ÙĪØ§ØŃ
ĠØ®Ø· Ùģ
ĠÙħÙģ Ø§ØªÙĬØŃ
ĠØ§ÙĦØ£ Ø¹ÙĪØ§Ùħ
ĠÙħØ¹ Ø§ÙĩØ¯Ø©
ĠØ¶ Ø±Ø±
ĠØ¬ÙĪ Ø§Ø¯
ĠÙĦØ¨ Ø¯Ø¡
ĠØ´Ø± Ø¹ÙĬ
ĠØ§ÙĦØ§Øµ Ø·ÙĨ
ĠØ¹ ÙĪØ²
ĠØ§ÙĦØ·Ùģ ÙĦØ©
ĠÙħØªÙĥ Ø§ÙħÙĦ
I T
ĠØ§ÙĦØ²Ù Ĭ
Ø£ÙĨ Ùģ
ÙĦØ¨ Ùĥ
ĠØ§ÙĦØ£ÙħÙĬØ±ÙĥÙĬ ÙĬÙĨ
ĠØ¬ÙħØ¹ ÙĬØ§Øª
ÙħØ§ÙĩÙĬ Ø±ÙĬ
Ø«ÙĪØ° ÙĥØ³
ĠÙĪÙĤ Ø¨
ĠØ§ÙĦØ¶ÙĪ Ø¦ÙĬ
Ø±Øª Ø³
ĠÙĬØª Ùĥ
ĠØ§ÙĦÙħØ® ÙĦØµ
ĠØ§ÙĦØ² Ø¬
ĠØ³ Ø·
Ø§ØŃ Ø¨Ø©
Øº Ø±Ùī
ĠÙĦÙĪ ØŃ
ĠØ§ÙĦØ¥ Ø¹Ø¯Ø§Ø¯
ĠÙĪÙĤ ÙĪØ©
ĠÙĪØ¬ Ø±ØŃ
ĠØ§ÙĦØ¬ ÙĩØ±Ø§Ø¡
ĠÙĪ ÙĦØ§Ø¯
Ø² ØŃ
ĠÙĪØªØ± ÙĥÙĬØ¨
ĠÙĪØµ Ø§Ø±
x y
ĠØ§ÙĦÙħ ÙĦÙĪÙĥ
ĠÙĦÙĦØª Ùģ
ĠØ§ÙĦØ« ÙĪØ±Ø§Øª
ĠØ§ÙĦØ¬Ø§Ùĩ Ø²Ø©
ĠØ§ÙĦÙħØ² Ø¯
Ø« Ùģ
ĠØ¨Ø¥ ØµØ¯Ø§Ø±
Ø¶ØŃ Ùĥ
ĠØªØª ÙĨØ§ÙĪÙĦ
ĠÙģØ§Ø¦ ÙĤØ©
ĠØ§ÙĦØ¯ÙĪÙĦØ§Ø± Ø§Øª
ĠØ± Ø¬Ø¹
ĠÙĦØ£ÙĨ Ùĥ
ĠØ§Ø³Øª Ø§ÙĬÙĦ
Ø±Ø¨ ÙĪØ§
ĠØ§ÙĦÙĪ Ø¸ÙĬÙģÙĬØ©
ĠØ§ÙĦØ² ÙĬÙĨØ©
ĠØŃ Ø¨Ø©
ĠÙĪØ³Øª ÙĥÙĪÙĨ
ĠØ´ ØŃ
ĠÙĦÙĦÙħÙ ĬØ§Ùĩ
N T
ĠÙĩ ÙĪÙĨØ¬
ĠÙģØ± ÙĨØ³ÙĬ
ÙĤÙ ĬÙĪÙĨ
ÙĪØª ÙĩÙħ
ĠÙĬÙħØ«ÙĦ ÙĪÙĨ
ĠØ§ÙĦÙħØ¤ Ø±Ø®
ĠØµ ÙĦÙĪØ§Øª
ÙĤ Ø°
ĠÙĨØŃ Øª
ĠØ§ÙĦØ´ ØºÙĦ
ĠÙħØ§Ø± ØªÙĨ
ĠØ§ÙĦØ¹ÙĨ ØµØ±
Ġ15 00
ĠÙĤØ· Ø±ÙĬ
ĠØªÙĨØª Ø´Ø±
ĠØ§ÙĦØ¹Ø¨ Ø§Ø³
ĠØ· ÙĦÙĪØ¹
ÙħØ¯ Ø§Ø¯Ø§Øª
ĠØ§Ø³Øª Ø¨Ø¹Ø§Ø¯
ÙĨØ§ ÙĪÙĬÙĨ
ĠÙĥ Ø§Ø¯
ĠÙĥØ±ÙĬ Ø³Øª
Ø¯ÙĬ Ø§Ø¯
ĠÙĪØ§Ø³ ØªØ±
ĠÙħØ±Ùĥ Ø¨Ø§Øª
ĠØ³ Ø£ÙĦ
ĠØ§ÙĦØ£Ùģ Ø±ÙĬÙĤÙĬ
ĠØ´Ùĩ Ø±Ø©
ĠØ±ÙĪ Ø¨Ø±Øª
ĠÙĪØ¨ Ø§ÙĦÙģ
ĠÙĤØ¶ Øª
ĠØ§ÙĦÙħØ¹ Ø§ÙĨÙĬ
Ø¬ÙĨ Ø§Øª
ĠØªÙĨØ§ ÙĪÙĦØª
ĠÙĤØ¨Ø± Øµ
ĠØ§ÙĦØ± Ø¨Ø·
Ø±Ùĥ ÙĬÙĨ
ĠÙĦØ£ ØºØ±Ø§Ø¶
ĠØŃ Ø§ÙĦØª
ÙĪØ§Ø¨ Øª
Ġ9 00
Ø«Ø± Ø§Øª
ĠØ£ØµØŃØ§Ø¨ Ùĩ
ÙĪ Ø§Ø±ÙĬØ®
ÙĦÙĬÙģ ÙĪÙĨ
ĠÙĨØ² ÙĦØª
ĠÙĪØ§ÙĦÙħ Ø¹Ø¯Ø§Øª
Ġ143 9
Ùģ Ø§Ø¯
ĠÙĪØ¨ ØŃØ«
ĠÙĪ ÙĪØ¬Ø¯
ĠÙħØ¬ Ø§ÙĩØ¯
ĠÙĪÙħØ¹ Ùĩ
ĠØª ÙģØ¶ÙĦ
ĠØªØŃ ÙĬØ©
ĠÙħØ± Ø§Ø¬Ø¹Ø§Øª
ĠØ¹Ùħ Ø±ÙĬ
ĠØ£ÙĤ ÙĪØ§ÙĦ
M A
ĠØ§ÙĦÙĤØ· ÙĬÙģ
ĠØ§ÙĦÙħ ÙĬØ±
ĠC l
ĠØ§ÙĦØ² ÙħÙĬÙĦ
ĠØºØ± Ø§Ø¦Ø¨
ĠÙĪØ§ÙĦÙħÙĨ Ø§Ø·ÙĤ
ĠØ§ÙĦØ£Ùħ ÙĬØ±Ø©
ĠØ§ÙĦØŃ Ø±Ø§Ø±ÙĬØ©
ĠÙĦØ¥ÙĨ ÙĤØ§Ø°
ĠÙĤÙĦÙĪØ¨ ÙĩÙħ
ĠÙĪÙĦÙĥÙĨ ÙĨØ§
ĠØ´ ÙĪÙħ
ĠÙĨÙģ Ø·
ĠÙģØª ÙĨØ©
ĠØ§ÙĦØ®Ù ħ
ĠØªØº ÙĦØ¨
ĠØ¨Ø¯ÙĬ ÙĦØ§
ĠÙĥ Ø§Ø±Øª
ĠÙĬØ± Ø§Ùĩ
ĠÙĦÙħØ³ Ø§Ø¹Ø¯
ĠØ§ÙĬÙģ ÙĪÙĨ
ĠØ§ÙĦØ±ÙĪÙħ Ø§ÙĨÙĬØ©
ĠØ¥Ø¯Ø± Ø§Ø¬
ĠØ§ÙĨØªÙĤ ÙĦØª
Ĭ Ø¨Ø¯
ĠØ§ÙĦØ¨Ø§ÙĤ Ø±
ĠØ§ÙĦØ§ÙĨØª ÙģØ§Ø¶Ø©
ĠØ§ÙĦØ¨Ø±ÙĪ ØªÙĬÙĨ
ĠØªÙĪ Ø±ÙĬØ¯
ĠÙĦØ£ Ø¯Ø§Ø¡
ĠØ§ÙĦÙħØ³Øª ÙĨ
ĠØ§ÙĦØ³Ø¨ Ø¹Ø©
ĠÙĪØ§ÙĦØ¬ Ù
ĠT V
ĠØ¯ ÙĬÙĨÙĬ
ĠØŃ Ø±ÙĪØ¨
ĠØ§ÙĦØ¬ ÙģÙĨ
ĠØ¨Ø¥ Ø³Øª
ĠØªØ± Ø¬Ø¹
ĠÙĦØª Ø·Ø¨ÙĬÙĤ
Ù ħØ¢
ĠØ§ÙĦÙħØ¹ ÙĨÙĬ
ĠØ§ÙĦØ¨ØŃØ± ÙĬÙĨÙĬ
ĠÙĪØ§ÙĦØ§ÙĨ ØŃØ±Ø§Ùģ
ĠØ§ÙĦØ±ÙĪØŃ ÙĬØ©
ĠÙĪØ§ÙĦØ§Ø³Øª ÙģØ§Ø¯Ø©
ĠØ§ÙĦÙĨ Ø¸Ùħ
ĠØ§ÙĦØµ Ø±Ø¨ÙĬ
ec ial
ĠÙĦÙĦØ¹ ÙĪØ¯Ø©
ĠØ¨Ø· ÙĨ
ĠØ¬Ø§Ùĩ Ø²
ĠÙĬØªÙĨ Ø§Ø³Ø¨
ĠØ§ÙĦÙĤØ¶ Ø§Ø¦ÙĬ
ĠÙĪØ§ÙĦØŃ Ùĥ
Ø§ÙĨ ÙĬÙħ
ĠÙħØ³ Ø§Ø¦ÙĦ
ĠØ§ÙĦÙĤ Ø·Ø±
U S
ĠØ§ÙĦÙħØ¹ Ø§ÙĩØ¯
ĠÙĩØ¯Ùģ ÙĩØ§
ĠÙĪØ¬ Ø¨
ĠØ§ÙĦØ¥ ØªØµØ§ÙĦØ§Øª
Ġa d
ĠØ§ÙĦØ® Ø±Ø¬
ĠÙĪØ£ Ø·ÙĦÙĤ
ĠØªØ¬ Ø§ÙĩÙĦ
ĠÙĪØ§ÙĦÙħÙĨ ØªØ¯ÙĬØ§Øª
Ùĩ Ø§ÙĨØ©
ĠØ®ÙĦÙĤ Ùĩ
ĠÙĦÙĦÙĩ ÙĬØ¦Ø©
Ù ĬØ¨Ø¯
ĠØ§ÙĦØªØ´ Ø±ÙĬØ¹
ĠØµ ÙĬÙĨÙĬ
ĠÙħØ± ÙĥØ¨
Ø² Ø§Ø²
ĠÙĪØ§Ø³ Ø¹Ø§
ĠÙĪØ§ÙĦØ¹ ÙĦØ§Ø¬
ĠØ¨Ù ĬØ´
Ø³Ø§Ùħ ØŃ
ĠØ§ÙĦÙĤ Ø§ØªÙĦ
ĠÙħÙĥ Ø§Ø³Ø¨
ot e
ĠØº Ø·Ø§Ø¡
ĠØ°Ùĩ Ø¨ÙĬØ©
ĠØ§Ø¯ ÙĪØ§Øª
ĠØ¹Ø§Ø´ÙĪØ± Ø§Ø¡
Ø§Ùĩ Ø¶Ø©
ĠØ§ÙĦØ¬Ùĩ ÙĪÙĬØ©
ĠØ· ÙĤØ³
ĠØ´ÙĥØ± Ùĩ
ĠØ£Ø¹ ÙĬÙĨ
ĠØ§ÙĦØ® Ø´Ø¨
ĠØ³ Ø±Ø§
ĠÙĦÙĦØ³ ÙĪÙĤ
Ø§ÙĬÙħ Ø§ÙĨ
ĠØ§ÙĦØ§ÙĨØª Ø´Ø§Ø±
ØŃÙĪ Ø§Ø°
ĠØªÙĨØª Ùĩ
ĠØ§ÙĦØ·Ø¨ Ø¹Ø©
I G
ĠØ³ ÙĦÙĬÙħØ©
ÙĪÙħÙ ĬØ§Øª
ÙĪÙĦÙĬ Ø§
ĠØ£Ø³ Ø¹Ø¯
ÙĬØª Ø§Ùħ
Ġ ÙĬØ¨Ø¯
ĠØ·ÙĨ Ø¬Ø©
ĠØ¶ Ø®Ùħ
ĠØ§ÙĦÙģØ¹ ÙĦÙĬ
ĠÙĥ ÙħØ±
ĠØ¨ØªØŃ Ø¯ÙĬØ¯
Øª Ø§ØŃÙĬØ©
ĠØ² ÙĩØ±Ø©
ĠØ§ÙĦØ± ÙģÙĬØ¹
Ġ an
ĠÙĤ Ø§Ø¶ÙĬ
ĠØ¯ ÙĬÙĨØ§
Ø§ÙĬØ± Ø©
ĠØªØ± ØªÙģØ¹
ĠÙĬÙĪ ØŃÙĨØ§
Ġ ÙħÙĦØ§Ùĥ
ħ Ø²ÙĬØ¬
ĠÙģ Ùģ
Ø¯ÙĬ Ùģ
ĠØ§ÙĦÙĨ ØŃÙĦ
ĠØ£ÙĪ Ø³Ø§Ø·
ĠÙħØª ÙħÙĨ
ĠÙĪÙħÙ ħØ«
ĠØ¨Ø± ÙĤÙħ
ĠØªÙĪ Ø§Øµ
ĠØ·ÙĦØ¨ Ø§
ĠØ§ÙĦÙħØ± Ø¬ØŃ
ĠÙĬÙĥ ÙħÙĨ
ĠØ¨Ù ħØ«ÙĦ
ØªØ³ Ø§ÙħØ©
ĠØªÙĨ ÙĪØ¹
ĠÙĪØ· Ø±ÙĬÙĤØ©
ĠØ§ÙĦØ«Ùħ Ø§ÙĨÙĬØ©
ÙħÙĥ Ø§ÙĨÙĬØ©
Ø±ÙĬØª Ø±ÙĬØ§
ĠØ§ÙĦÙħØŃ ØªÙĦ
ÙĦÙĬØ¨ Ø³
ĠØ´ ÙĪÙĤ
ĠØ§ÙĦØ¹ Ø§Ø¯Ø§Øª
ĠÙĨÙħÙĪ Ø§
ĠØ¹Ùħ ÙĪÙħ
Ø§Ø ¥
ĠØº Ø±ÙĬ
ĠØ¬Ø² Ø¦ÙĬØ§
ĠØ³Ø§Ø¹ ØªÙĬÙĨ
ĠØ§ÙĦÙģ ØŃ
ĠØ· Ø§Ø¦ÙģØ©
ĠØ± ÙĪØ³ÙĬØ©
ĠÙĪØ§ÙĦØŃ ØµÙĪÙĦ
ĠÙĦÙĦØ ¸
ĠØ§ÙĦÙĥ ÙģØ±
Ø® Ø°Ùĩ
ĠØ§ÙĦØª Ø®Ø±Ø¬
ĠØ¨ÙĨ Ø¯Ø±
ĠÙħÙĪ Ø¨Ø§ÙĬÙĦ
ĠØ§ÙĦØ¬Ø¯ ÙĪÙĦ
Ù ħØ²ÙĬØ¬
ĠØ§ÙĦØ£ÙĨ ØµØ§Ø±ÙĬ
Ġ ÙħØ²ÙĬØ¬
ĠÙħØ¬ ÙĩÙĪØ¯
Ġ14 40
Ø´ ÙĬØ±Ø§Øª
ĠÙħÙĪ Ø¨
ĠÙħÙĥ Ø§ÙĨØ§
ØªØ¯ Ø§ÙĦ
ĠØ§ÙĨ Ø¶Ùħ
ĠØ§ÙĦØ´ Ø§Ø´Ø§Øª
ĠØ§ÙĦØ³ ÙĩÙħ
ĠØ§Ø³Øª Ø´ÙĩØ¯
ĠØ§ÙĦØ§Ø® Øª
ĠØ¨Ø¯ ÙĪÙĦØ©
ĠØ§ÙĦØ¨ÙĬ Ø¦ÙĬ
Ø§ÙĦÙĤ Ø©
ĠØ§ÙĦÙħÙģ ÙĩÙĪÙħ
ĠØ§ÙĦÙĥ ÙĨÙĬØ³Øª
ĠØ§ÙĦØ¥Ø³ ÙĦØ§ÙħÙī
ĠÙĬÙĨ Ø²ÙĦ
ØµÙĬØµ Ø§
ĠÙĪÙĨ Ø¬
ĠØ§ÙĦØª ÙģØ§Ø¹
ĠÙĦÙĦÙĨ Ø§Ø¯ÙĬ
ĠÙĪØµ ØŃÙĬÙģØ©
Ø¬Ù ĬØŃ
ĠÙĪØ§ÙĦØ¯ Ø±
ĠÙħÙĨ Ø§ØµØ¨
ĠØ§ÙĦÙħØ± Ø§Ø³
ĠØ§ÙĦØ£Ø±Ø¬ ÙĨØªÙĬÙĨÙĬ
ĠØªØ£ Ø«Ø±
6 7
ĠÙģ Ø§ÙĬØ²
ĠÙĨ Ø±Ø¬ÙĪ
ĠØ¥ÙĤ ÙĨØ§Ø¹
ĠØ®Ø¯ÙħØ§Øª ÙĩØ§
ĠÙĪ Ø·Ø±
ĠØ§ÙĦØ± Ø§Ø¹ÙĬ
ĠØ§ÙĦØ¹Ø§Ø· ÙģÙĬØ©
ĠÙĪ Ø¸ÙĬÙģ
ĠØ£Ø¨ Ø¯Ùī
ĠØ§ÙĦØ§Ø´ ØªØ¨Ø§ÙĥØ§Øª
ĠØ§ÙĦØ¨Ø± ÙĦÙħØ§ÙĨÙĬ
ĠÙĬØ± Ø£Ø³
ĠØ§ÙĦÙħØª ØµÙģØŃ
ĠÙĦØ® Ø¯ÙħØ§Øª
ĠØ£Ø´ Ø¹Ø§Ø±
ĠØ£ÙĪ Ø§ÙħØ±
ĠÙĪØ§ÙĦØ£ Ø±
ĠØ§ÙĦØµÙģ ÙĤØ§Øª
ÙĥØª Ø´Ø§Ùģ
ĠØ®Ø§Øµ ÙĬØ©
ĠÙħØŃ Ø§ÙħÙĬ
ĠØ£Ø´ Ø§Ø¯
ĠÙĪØªÙħ ÙĥÙĨ
ĠÙĪÙħØ³ Ø§Ø¹Ø¯
ĠØ§ÙĦØ³ ÙĦØ³ÙĦØ©
ĠØ§ÙĦØ¹ÙĤ Ø§Ø¨
ĠØ§ÙĦØ¥Ø³Øª Ø±Ø§ØªÙĬØ¬ÙĬØ©
ĠØ§ÙĦØ¹ Ø¨ÙĬ
Ø§Ø¯ ÙĬÙĦ
ĠØ¨Ø¯ Ø¹ÙĪØ©
ĠØª ÙĪÙĬ
ĠØ§ÙĦØ° ÙĥÙĬ
ĠØªØŃ Ø³Ø¨
ĠØµ Ø¯Ø§Ø±Ø©
ĠÙĦÙĦØµØŃ Ø§ÙģØ©
ĠØ§Ø®Ù Ĭ
ĠØ§ÙĦØ± Ø§Ø¬
ĠÙģ Ø®Ø±
ĠØ§ÙĦØ§ÙĦÙĩ ÙĬØ©
Ġex t
ĠØµØŃÙĬØŃ Ø§
ĠÙĪØ¨ Ø³
Ø¯Ø± Ø§ÙĦÙĬØ©
Ø® ÙĪØ§ÙĨ
ÙĦØ§Ø³Ù Ħ
ĠØ·Ùģ ÙĦÙĥ
ĠØ§ÙĦØ§ÙĨ Ø¨Ø§Ø¡
Ġ198 8
ĠØ£ØŃ ÙĪØ§ÙĦ
ĠØª ÙĩÙħØ©
ĠÙħÙĨØ´ ÙĪØ±Ø§Øª
ĠÙĬØ´ ØºÙĦ
ĠØŃØ¨ Ø³
Ĭ ÙĦØ¬Ø£
ĠØ§ÙĦØ¥ÙĨØªØ§Ø¬ ÙĬØ©
ĠØ±Ùģ ØŃ
ĠØ¹ ÙĤÙĬØ¯Ø©
ÙĩÙħÙ ĬØ´
ĠÙĪØ§ÙĦÙħØ± Ø§Ø¯
ĠØ§ÙĦØªØŃ Ø±Ø±
ĠST AR
ĠØ¨ØªÙĪ Ø¬ÙĬÙĩ
ĠØ§ÙĦØ§Ø±Ø¯ ÙĨÙĬØ©
ĠÙĪÙ ĬÙĪÙħ
ÙĪØ§Ø¹ ÙĩØ§
ĠÙĪØ± Ø¬
ĠØ³Ù ħØ§Ø±Øª
ĠØªØ³ Ø±Ø¨
Ù ĬÙĦØ¬Ø£
ĠØ§ÙĨ Ø¹Ø¯Ø§Ùħ
m e
Ġ ÙĬÙĦØ¬Ø£
ĠÙģ ÙĦØ¨
ĠÙĪØ§ÙĦØ§ ÙĩØªÙħØ§Ùħ
ĠØ§ÙĦØ¥ÙĤØªØµ Ø§Ø¯ÙĬØ©
ĠØ§ÙĦØ§Ø· Ø±Ø§Ùģ
ĠS E
I ON
ĠØ¨Ø¹Ùħ ÙĦÙĬØ§Øª
ĠØ·ÙħÙĪ ØŃØ§Øª
ĠØ¬ Ø«ÙħØ§ÙĨ
ĠØ§ÙĦØªØ³ Ø§ÙħØŃ
Ġ ÙħÙĦØ§
ĠØ§ÙĦÙħØº ØªØ±Ø¨ÙĬÙĨ
ÙĬÙĨ ÙĬÙĪ
ĠÙĬÙħÙĦÙĥ ÙĪÙĨ
Ø§Ø± ÙĨ
ĠØ§ÙĦØŃ Ø§Ø¶
ĠÙħÙĤØ¯ÙħØª ÙĩØ§
ħ Ø§ÙĦØ©
ĠØ§ÙĦÙħÙĨ Ø¸Ùħ
ĠØªØµ Ø¹ÙĬØ¯
ĠÙģ Ø§ÙĦØ³
ĠÙĪÙĦÙĦØ £
ÙģÙĬ ÙĩØ§
ĠØªÙĪØ«ÙĬÙĤ ÙĬØ©
ĠØ¨Ø§ÙĦØ´ Ø±
ĠØ® Ø¯
ĠÙģØ¬ Ø§Ø¡
ĠØ§ÙĦØ¨ØŃ Ø§Ø±
ĠØ§ÙĦØ¥Ø± Ø§Ø¯Ø©
ĠØª Ø¯ÙĬØ±
ĠØ¨Ø¥ Ø¯Ø§Ø±Ø©
ĠÙĪØ§ÙĦØ¬ ÙĬØ´
ĠÙħØ¨ ÙĥØ±Ø©
ĠÙĥ Ø°
ĠØ± Ø§Ø¦Ø¯Ø©
ĠÙĦÙĦÙħØ¯ ÙĬÙĨØ©
ĠØ§ÙĦØ£Ø¶ Ø±Ø§Ø±
Ø¬ ÙħØ§
ĠØ³ÙĬ Ø³Øª
ĠÙĬØ´ Ø§ÙĩØ¯
ĠØ¨Ø¥ Ø´Ø±Ø§Ùģ
ĠØ¶ÙħØ§ÙĨ Ø§Øª
ĠØ§ÙĦÙĨÙĤ Ø§Ø¨Ø§Øª
ĠØ¨Ø¹ ÙĤØ¯
Ø§Ø¹ Ø±Ø©
ĠÙĬØ³ ÙĩÙħ
ĠÙĦÙ Ħ
Ø¹Ø§Ø± Ø¶Ø©
ĠØ§ÙĦÙħÙĪÙĨ Ø¯ÙĬØ§ÙĦ
ĠÙĪÙģ Ø§Ø¡
ĠØ² Ø¬Ø§Ø¬
N G
o h
ĠÙĪØŃ ÙĤÙĤ
ĠØ§ÙĦØ¬ØºØ± Ø§ÙģÙĬØ©
ĠÙĤ Ø¯ÙĬÙħØ§
ĠØ§ÙĦØµÙĬØ¯ ÙĦØ©
ĠØ§ÙĦÙħØ¯ Ø¹
ĠÙħØ´ ØªØ±
ØµÙģ ÙĬØ©
Ø§Ø¯ ÙĪ
ĠØ§ÙĦØ³ÙĬÙĪ ÙĦØ©
ĠØ§ÙĦØ² ÙģØ§Ùģ
ĠØªØ´ÙĩØ¯ ÙĩØ§
ÙĪØ¯ÙĬ ÙĪ
ĠÙĪØ§ÙĦØ® Ø§Øµ
ĠØ¨ÙĨ Ø§Ø¯ÙĬ
Ø±Ø§ ÙĪØŃ
ĠØ§ÙĦÙħØŃÙĦÙĬ ÙĬÙĨ
ÙģØ± Øº
ĠØ§ÙĦØªÙĩØ¯ÙĬØ¯ Ø§Øª
ĠØ± Ø£Øª
ĠÙĬØ¬ Ø¹ÙĦÙĩØ§
ĠØ§ÙĦÙħÙĪ ØŃØ¯Ø©
ÙĦØºÙ Ĭ
ĠØªØª ÙĤØ¯Ùħ
Ø§ÙĦØ§Ø ³
ĠØ¹ Ø¬ÙĦ
Ġm ot
ĠÙĪÙĤ Ø§Ø¦Ø¹
ĠØ´ ÙĩØ§Ø¨
Øª Ø°Ø§Ø±
ĠÙħØª Ø®
ĠØ§ÙĦØ± Ø³ÙĦ
ĠØ§ÙĦØ§ÙģØª ØªØ§ØŃ
ĠÙĦÙĦÙĨ Ø¸Ø±
ħ ÙĦØº
ĠØ¨Ø§Ø³ ÙĬÙĦ
ĠØªØ¯ Ø±Ùĥ
ĠØ§ÙĦÙħÙĨ Ùģ
ec ond
ĠÙĪØ²ÙĪØ¬ ØªÙĩ
ĠÙĪØ§ÙĦØ£ Ø·ÙģØ§ÙĦ
ĠG T
ÙħØ¹ Ø§Ø¡
Ù ħÙĦØº
ĠØ¨Ø§ÙĦØ¶ Ø¨Ø·
ĠÙĪÙħ Ø§Ø²
ĠÙĦÙĦÙħØ³Øª Ø®Ø¯ÙħÙĬÙĨ
ĠÙĦÙĦÙħØŃ Ø§ÙģØ¸Ø©
ĠÙħØ³Øª ÙĪÙĬ
ĠÙĦØª ÙĨÙħÙĬØ©
ĠØ§ÙĦØ· Ø§Ø¨ÙĤ
Ġ ÙħÙĦØº
ÙĦØ§Ùħ Ùĩ
ĠÙĦÙĦÙĪ Ø·ÙĨ
Ø§Ø¦ ØŃØ©
a in
ĠÙĦØ® ÙĪØ¶
ĠØ¹Ø± Ø§ÙĤÙĬØ©
ĠØŃ Ø±Ø¬
ĠØ¨Ø§ÙĦØ· Ø§Ø¦Ùģ
ĠÙĪØ§ÙĦØ¨ ÙĨØ§Ø¡
ĠØŃ ØµØ¯
ĠØ§ÙĦØ´Ùģ Ø§ÙģÙĬØ©
ĠØ§ÙĦØº Ø¯Ø©
ĠØ§ÙĦØ¹Ø§Ùħ ÙĬÙĨ
ĠØ¥ÙĨ Ø¬ÙĦØªØ±Ø§
ĠØ§ÙĦØ® Ø±ÙĬØ¬ÙĬÙĨ
ĠØ§ÙĦØªØ´Ø±ÙĬ Ø¹Ø§Øª
ĠÙĪØ§ÙĦÙħ Ø´ØŃ
3 4
ĠØŃ Ø§ÙĦÙĩ
ĠÙĪØ® Ø¯ÙħØ©
ĠØ§ÙĦØªÙĤ Ø§Ø·
ĠØ£Ø±Ø¬ Ø§Ø¡
ĠÙĪØ£ ÙĪÙĦ
ĠÙĪØ² Ø§Ø¯
ĠØ§ÙĦØŃØ¶ Ø§Ø±Ø§Øª
ØªØ± Ø§Ø¹
ĠØ§ÙĦØ¨ Ø§Ø±Ø¯Ø©
ĠØ§ÙĦØ§ØŃØªÙģ Ø§Ø¸
Ø¯ÙĬØ± Ø©
ĠØ´Ø±Ùĥ Ø§Ø¡
ĠØ¨Ø§ÙĦØ§ ÙĨØª
ĠÙħØª Ø¯
ĠÙģØ¹ÙĨ Ø¯ÙħØ§
ÙĪÙĬØª Ø´
ĠÙĦÙĦÙĨ ÙģØ·
Øº Ø¶
ĠÙĦÙĦØ§Ø ´
ĠØ§ÙĦØ¹Ù Ĭ
ĠØ§ÙĦØª Ø¹ÙĬÙĬÙĨ
ĠØ§ÙĦØ¹ Ø´Ø±Ø©
ĠØ§ÙĦØ´Ø¨ Ø§Ø¨ÙĬØ©
ĠØ¥ Ø¸ÙĩØ§Ø±
ĠÙĦÙĦÙħÙĤ Ø¯Ø³Ø§Øª
ĠØ§ÙĦØ§ ÙĪØ¶Ø§Ø¹
ĠMic ro
ĠØ§ÙĦÙģØ± Ø§Øª
ĠØ§ÙĦØµ ÙĨØ¹
ĠØŃ ÙģØ§Ø¸
ÙĪÙħÙĬ Ø¯ÙĬØ§
ĠÙĪØ§ÙĦÙħ Ø²
ĠØª Ø±ÙħÙĬÙħ
ĠÙĬØ· ÙĦØ¹
ĠØ§ÙĦØ£Ø´ ØºØ§ÙĦ
ĠØ§ÙĦØ¬ ÙĨÙĬÙĨ
ĠÙĪØ§ÙĦØ¬ Ø±
ĠØ¥ ÙĦØŃ
ĠØ§ÙĦØ¨ Ø¯ÙĬ
ĠØªØ¹ Ø²Ø²
ĠÙĪØ§ÙĦÙħØ´ØŃ ÙĪÙĨØ©
ĠØ§ÙĦØªÙĪ ØµÙĬØ§Øª
ĠØ£Ø±Ø¨Ø¹ ÙĬÙĨ
ĠÙĬØº Ø§Ø¯Ø±
ĠØ¹Ø± Ø¨Ùī
ĠØªÙĤ ØªØµØ±
ĠØ³ÙĬ Ø§Ø±
ĠÙĦØ¨ Ø±
ĠØ§Ø³ØªØ± Ø§ÙĦÙĬØ§
Ø¯Ø± Øª
ĠØ¨ØªÙĥ ÙĦÙģØ©
ĠÙĤ ÙĪÙħÙĬ
ĠÙĪÙĦØ¯ Ù
ĠØ³ Ø§Ùģ
ĠØ¨Ù ħØ¯ÙĬØ±
ĠØ¯ÙĬ Ø²
ĠØ¯ ÙĦØ§ÙĦØ©
ĠÙħØª ÙģÙĤ
ĠÙĪ ÙħÙĬ
ĠÙĪØ§ÙĦØªÙĨ Ø³ÙĬÙĤ
ĠØ§ÙĦØ«ÙĦØ§Ø« Ù
ĠØ§ÙĦÙĦØ§Ø °
Ġ ÙħØ¢
ØºØ± Ø§ÙģÙĬØ©
ĠØ¨ ÙĦÙģ
ØªÙħ ÙĬØ©
Øº ÙĨ
ħ Ø§Ø¹Ø§Øª
ĠØ§ÙĦØ«ÙĦØ§Ø«Ù Ĭ
O L
ĠØ³ ÙĦÙĥ
ĠØªØ± Ø£Ø³
ĠÙĬØ¯ Ø§ÙģØ¹
ĠØ¨Ø¯ ÙģØ¹
ĠØµ Ø§ÙģÙĬ
ĠØ§ÙĦØ£ ÙģØ¹Ø§ÙĦ
ĠØ¨ÙĪ ÙĦØ³
ĠÙħØ³ Ø¨ÙĤ
ĠØº Ø§Ø±Ø§Øª
ĠÙģÙĬ Ø¯ÙĬÙĪÙĩØ§Øª
ĠÙĪÙĨ ØŃ
ĠÙĪÙģ ÙĤØ¯
ĠØ§ÙĦØ¨ Ø¤
ĠØ§ÙĦØ° Ø±ÙĬØ©
ĠØ§ÙĦØ£Ø® Ø°
ĠØ§ÙĦÙħØ¹ Ø§ÙĨØ§Ø©
Ø¸ Ø±Ø©
ĠÙĬÙĨØª ÙĤÙĦ
ĠÙĪØ§ÙĦØ§ÙĤ ØªØ±Ø§ØŃØ§Øª
ĬØ§Ø· ÙĬÙĨ
ĠØ§ÙĦÙħÙĤØªØ± ØŃØ§Øª
ĠÙģ Ø§Ø¯
ĠÙħØª Ø²ÙĪØ¬
ĠM obile
ĠÙĥ ÙĪÙĬØª
ĠÙħØ¬ ÙĩÙĪÙĦØ©
ĠÙĪ Ø¬Ùħ
ĠØ§ÙĦØ§Ø´ Ø±Ø§Ùģ
ĠØ§ÙĦÙħØªØ· Ø±Ùģ
ĠØ¥ÙĨ ÙĨÙĬ
Ø´Ù ħ
Ø±Ø¬ Ø¹
ĠÙĪÙħØ¹ ÙĦÙĪÙħØ§Øª
ĠØ¨ Ø±ÙħÙĪ
ĠØŃ Ø´Ø¯
Ø§Ù ĬØ¶
ĠØ§ÙĦØ·ÙĪ Ø§Ø¦Ùģ
ĠØ§ÙĦÙħØ´ Ø±ÙĪØ¹Ø©
ĠØŃØ± Ø§Ø¬
ĠØ§ÙĦØ³Ø¬ ÙĨØ§Ø¡
Ø¨Ø± ÙĨØ§
Ø¬Ø§ ÙĩÙĦ
ĠØ£Ø®Ø¨Ø± ÙĨØ§
ĠØ¥Ø¯ Ø±ÙĬØ³
ĠØªØª Ø³Ø¨Ø¨
ĠØ§ÙĦÙħÙĪ Ø§Ø¬ÙĩØ§Øª
ĠÙĬÙĤ Ø·Ø¹
ĠØ§ÙĦÙĤØµ ÙĪÙī
ĠÙĪØ§ÙĦØ± ØŃÙĦØ§Øª
ĠÙħØ¶ÙĬÙģ Ùĩ
ÙĪÙħÙĬ Ø¯ÙĬ
ĠØªØ±ØªÙĬ Ø¨Ùĩ
Ù ħØ§Ø±ÙĬ
Ø´ ÙģÙĬ
ØªÙĥ Ø±Ø©
ĠÙĪØŃ Ø¨
ĠØ§Ø±ØªÙĥ Ø¨
Ġ en
ĠØ§ÙĦØ¹Ùħ ÙĦØ§ÙĤØ©
ĠÙĦØ´ Ø®Øµ
ĠØ®Ø§Ø± Ø·Ø©
ĠÙĦØ¬ Ø¹ÙĦ
ÙĦØ§ ÙħØ§
ĠØ§ÙĦØ´ ÙĤÙĬÙĤØ©
ĠÙĬØ³ ÙĦÙħ
ĠÙĪØ£ Ø¨Ø±Ø²
ĠÙĪÙħÙĨ ØŃ
ĠÙĪØŃÙ ĬØ«
ØªÙĬ Ø§ÙĨÙĪ
ĠØ±Ø£ ÙĬÙĨØ§
ĠØ¥ Ø´Ø§Ø±Ø§Øª
ĠÙħØªØª Ø§ÙĦÙĬØ©
ĠE l
ĠÙĪØ§ÙĦÙħØ± Ø§ÙĥØ²
u c
Ø³ÙĬ Ø¨ÙĬ
ÙĦÙģ Ùĩ
ĠÙĤ ÙĬØ³
ĠØ§ÙĦØ¥ÙĬØ¬ Ø§Ø¨ÙĬ
Ùĩ ÙĦØ§Øª
ĠÙģÙĤ Ø±
ĠØŃ ÙĦÙĩØ§
ĠØ§ÙĦÙĪØ¬ Ø¨Ø§Øª
ĠÙĪÙĥ Ø§ÙģØ©
ĠØ±ÙĪ Ø³ÙĬ
Ø¬ ÙĬÙħ
ĠØ§ ÙĩÙĦØ§
Øº Ø§Ùħ
ĠØ¨ Ø°Ùĥ
ĠØ§ÙĦØ´Ø¨ Ø§ÙĨ
ĠÙĦÙĦÙħØ³ Ø§Ø¹Ø¯Ø©
ĠØªØ± Ø§Ùĩ
ĠØ£Ø³ ÙĨØ§ÙĨ
ĠØ¨ ÙĩØ¯
ĠØ¥ÙħÙĥ Ø§ÙĨÙĬØ§Øª
ĠÙħØ³Øª ÙĤ
ĠØ§ÙĦØ¢ ÙĦÙĬØ©
ĠØ§ÙĦØ§Ø³ØªÙĩ ÙĦØ§Ùĥ
ÙĨÙ ĦÙĨØ¯ÙĬØ©
Ø³Ø± Ùĩ
ĠØ§ÙĦÙħØ¨Ø§Ø± ÙĥØ©
ĠÙħÙĨ ÙģØ°
ĠÙĪÙĨ ØŃÙĪ
Ġ ÙĬØ¸
ÙĤ ÙĦÙĬÙħ
ĠØ§ÙĦÙĤØ± Øµ
ĠØ§ÙĦØµ ÙĦÙĬ
ĠÙĨÙĨ ØµØŃ
ĠØªØ± ÙģÙĬÙĩ
Ø¨ÙĬÙ ĬØ¶
ĠÙĪØ§ÙĦØŃ ÙĤ
ÙĨÙĬ Ø´
ĠØ¨Ù ħÙĥØª
ĠØ§ÙĦÙħØªØ¯Ø§ ÙĪÙĦØ©
ĠØ§ÙĦØº Ø§ÙĦÙĬ
ĠÙĦÙĦÙĪ ÙĤÙĪÙģ
ĠØ§ÙĦØ³ÙĬÙĨÙħ Ø§Ø¦ÙĬØ©
ÙħÙĪ ØŃ
ĠØ¥ ÙĬØ§Ùĩ
ĠÙĬØ¨ ÙĬÙĨ
ĠÙĪØ§ÙĦÙĬ ÙħÙĨ
ĠÙħØ« Ø§ÙĦÙĬØ©
ĠØ£Ø± Ø¬ÙĪ
ĠÙĤØ± Ø¹Ø©
ĠØªØ³Øª ÙĤØ¨ÙĦ
ĠØ§ÙĦØº Ø±ÙĬØ¨Ø©
ĠÙĦÙĦØ¥ Ø¹ÙĦØ§Ùħ
Ĭ ÙĪÙĤØ¹
Ġ ÙħØ¶ÙĬÙģØ©
Ùĥ Ø³ÙĬ
ĠØ§Ø« ÙĨØ§ÙĨ
ĠÙħØ¬ ÙħÙĦ
ĠÙĦÙĦÙ ħØº
ĠØ§ÙĦÙħÙĥØª Ø¨Ø§Øª
Ù ĬÙĪÙĤØ¹
Ø§ÙĦØ¨ ÙĤØ±Ø©
Ġ ÙĬÙĪÙĤØ¹
Ġ198 7
ĠØ¨Ø§ÙĦØ¨ Ø±ÙĬØ¯
ĠØªÙĥ Ø§Ø¯
ĠØ± Ø§ÙĬØª
ĠÙĪØŃ Ø³
ĠÙħÙĬÙĪÙĨ ÙĬØ®
ĠØ§ÙĦØº Ø²ÙĪ
ĠÙħØ² Ø§ÙĬØ§
Ø§Ø¶ ÙĦØ©
ĠÙĦØ§Øª Ø®Ø§Ø°
ĠØ¬Ø§ÙĨ Ø¨ÙĬØ©
ĠÙĬØŃÙħÙĦ ÙĪÙĨ
ĠØº Ø§ÙĨØ§
ĠØŃ ÙĨÙĬÙĨ
ĠØ§ÙĦØªØ® ÙĦÙĬ
in k
ĠÙħÙĥØ« ÙģØ©
Ø²ÙĪÙĬ ÙĦØ§
ĠØªÙĨ Ø¬ØŃ
ĠÙĪØ§ÙĦØ¯ ÙĬÙħÙĤØ±Ø§Ø·ÙĬØ©
ĠØ§ÙĦØ§ÙĨ Ø¬ÙĦÙĬØ²ÙĬ
Ø¹ Ø§ÙĦ
ĠØ§ÙĦØ§ØŃ ØªØ±
ĠØ® Ø³
ĠÙĬØ³ØªØ·ÙĬØ¹ ÙĪÙĨ
ĠØª Ø°Ø§ÙĥØ±
I S
ĠØ§ÙĦÙħØ± Ø§Øª
ĠØ§ÙĦÙħØ« ÙĤÙģÙĬÙĨ
Ø¯ Ø§Ø±Ø§Øª
ĠØ§ÙĦ ÙĦØ¯
ĠÙĦÙĨ Ø§Ø¯ÙĬ
ĠØ£Ø®Ø± Ø¬Ùĩ
ĠØªÙĤ Ø±Ø£
ĠØ§ÙĦÙħØ® ØªØ§Ø±
ÙħÙ ĬÙĪÙĨ
ĠØ§ÙĦØª Ø±Ø¨Ø©
ĠÙģÙĬ ØªÙĨØ§Ùħ
ĠÙĨ Ø°ÙĥØ±
ĠØ§ÙĦÙħØ· ÙĦØ¨
ĠØ¥ÙĦÙĬ ÙĥÙħ
ĠØ§ÙĦØ¬ ÙĪÙĩ
ĠÙĪØ£ ØŃØ¯
ĠØ§ÙĦØ£ Ø¬Ø±
ĠØ§ÙĦØªØ± Ø¯Ø¯
ĠØ§ÙĦÙħØŃ Ø§ÙĪØ±
ÙĦØª Ø§ÙĨ
ĠØ¨ÙĨ ÙĪ
ĠØ£Ø® ÙĬÙĩ
ĠØ¥Ù ħØ§Ø±Ø§Øª
ĠØ¹ Ø¯ÙĬØ¯
ĠØ§ÙĦÙĪÙĤ Ø§Ø¦Ø¹
ĠØ§ÙĦÙĥÙ ħ
ĠÙģÙ ħØ¹
ĠÙħØªØŃ Ø±ÙĥØ©
ĠØ¨Ø§Ø± ØªÙģØ§Ø¹
Ø§ØŃ ÙĨ
ĠØ§ÙĦÙħØº Ø±
ØªÙ ĬØ¯
ĠÙģØ± Ø´
ĠØ§ÙĦØ³Ø§Ø® ÙĨØ©
ĠÙĪØŃ Ø°Ø±
ĠØ¨ÙĦØº Ø©
ĠØ§ÙĦØ§Ø¯ Ø¨ÙĬØ©
ĠØ« ÙĦØ§Ø¬Ø§Øª
ÙĥÙĬÙģ Ø§Øª
ĠÙĪØ± Ø¯Ø§
Ø± ÙĨÙĬØ©
ĠØ§ÙĦØ® Ø§Ø±
ĠØ¬ Ø±ØŃ
ĠØ§ÙĦÙħØ´ Ù
ĠÙĬØ£ ÙħØ±
ĠÙħØ±Ùĥ Ø¨Ø©
ĠØ¨Ø±ÙĪØª ÙĪÙĥÙĪÙĦ
ĠØ¥ Ø¬Ø±
ĠÙĪ ÙĦØ§Ø³
ĠØªØ¨ Ø¹Ø§
ĠÙĪÙĪ ØµÙĦ
ĠA b
ĠØ§ÙĦØ¥ Ø¹Ø¯Ø§Ùħ
ĠØ§ÙĦØ¹ÙħØ± ÙĬØ©
Ġ ÙħØ§ØŃ
Ġ18 8
ĠÙħÙĤØ¹Ø¯ Ø§
Ø¯Ø§ ÙĪÙĬ
ĠØŃ Ø§ÙĨ
ØµØ± Øª
Ø± Ø§ÙĨ
ĠØ§ÙĦÙĪØ³ Ø§Ø¦Ø·
Ø³Ø¨ Ùĩ
ĠÙĩØ¯Ùģ Ùĩ
ĠØ£Ø« Ø§Ø«
ĠØ§ÙĦØµ Ø¹ÙĪØ¯
ĠØ§ÙĦÙħØ° Ø§ÙĩØ¨
ĠØ· Ø¹Ùħ
ĠØ£Ø¬ Ø§Ø¨
ĠØ§ÙĦØ® ÙĦØ§Øµ
ĠÙĦØ§Ø³Øª ÙĥÙħØ§ÙĦ
ĠØ§ÙĦØ§Ø³Øª Ø¦ÙĨØ§Ùģ
ĠØ¨ÙĨ ÙĪØ¯
ĠØ§ÙĤ ÙĪÙĦ
ĠÙĨØ¸ Ø±ÙĬ
ĠÙĪØ§ÙĦØ³ Ø¨Ø¨
ĠÙĬØ³Øª Ø¹ÙħÙĦ
ĠÙĤØµ ÙĪØ±
ĠÙĪØº Ø§ÙĦØ¨Ø§
ĠØ§ÙĦØ¥Ùģ Ø·Ø§Ø±
ĠÙħØ± Ø³
ĠÙĪØªØµ ÙħÙĬÙħ
ĠØ§ÙĦØ£ ÙĩØ±Ø§Ùħ
ĠØ§ÙĦÙĪ Ø¸ÙĬÙģÙĬ
ĠØ§ÙĦØ³ Ø§Ø¦ÙĦ
ĠØªØ¨ Ø¹Ø¯
ĠØ£ÙĪØ± ÙĪØ¨ÙĬØ©
Ø¨ÙĦ ÙĪØ±
ĠØ§ÙĦØ§Ø±Ø¯ ÙĨÙĬ
ĠÙħØ® Ø±ÙĪØ·
ĠØ§Ø³ ØªÙħØ¹
ĠØ§ÙĦØªÙĪ ØŃØ¯
ĠÙģÙĬ ÙĩÙħØ§
Ø· ØªÙĩØ§
ĠØ§ÙĦÙĩ Ø§Ø´
ĠÙĩ ÙĪÙĨ
ĠÙĪØ§ÙĦØ´ Ø±Ø·Ø©
ĠÙĤ Ø§ØªÙĦ
ĠØ£ Ø°ÙĥØ±
Ø§Ø²ÙĬØº ÙĬØ©
ĠØ¹Ø§ÙĦÙĬ Ùĩ
ĠØªØµ ÙģÙĬØ©
ĠØ±ÙģØ¶ Ùĩ
ĠÙĦÙĦÙĨ Ùĩ
Ø§ÙĦØ§ ÙĬØª
ĠØ® ØµÙĬØµØ§
ÙĪØ¬ ÙĪØ§ÙĬ
ĠØ§ÙĦØ£Ø¹ Ø¸Ùħ
ĠØµ ÙĪØ¨
ĠÙĦÙĥÙĨ ÙĨÙĬ
ĠÙĨÙĤ ÙĦÙĩØ§
ĠØ¯Ø¹ ÙĪØ§Øª
ÙĬØ¯ ÙĬØ©
ĠÙĪ ÙĬÙĦ
ÙĦØ¯ Ø§ÙĨ
ħØ¨Ø§Ø± Ø§Ø©
ĠØ§ÙĦØ¥ÙĨ Ø¬Ø§Ø²
ĠÙĪØ§Ø³ ØªÙĩ
ĠØ§ÙĦÙĨ Ø§Øµ
ĠØ§ÙĦØ¸ ÙĦØ§Ùħ
ĠÙĪØ¬Ø± Ø§ØŃØ©
ĠØ¨ØŃ ÙĪØ§ÙĦÙĬ
ĠÙĪØ§Øª Ø®Ø§Ø°
ÙģØ¹ ÙĬØ©
ĠØ¥ Ø³Ø·ÙĨØ¨ÙĪÙĦ
ĠØµ Ø§Ø¯
ĠØ£Ø« Ø§Ø±Øª
ĠÙģ ÙĦØ³ÙģØ©
ĠØ¯Ø±Ø§Ø³ ØªÙĩ
ÙĤÙ ĦÙĪØ§
ĠØ¨ÙĥØ§ÙĦ ÙĪØ±ÙĬØ§
ĠØªØ¯ Ø¨ÙĬØ±
ĠØ§Ø³Øª ÙģØªØ§Ø¡
ĠØ§ÙĦØ® ÙģÙĬÙģØ©
ĠØ¹Ø´ ÙĬØ±Ø©
ĠØ¢ ÙĦØ§Øª
ĠØ³ ÙĬÙĨÙħ
Ġ197 0
ĠÙģØ¹ Ø§ÙĦÙĬ
ĠÙĪØ¨ Ø¹
ĠÙĦÙĦÙħÙĤ ÙĬÙħÙĬÙĨ
ĠÙħØº Ø±Ø¨ÙĬØ©
Øª ÙģÙĬ
ĠØ¨Ø§ÙĦØ ¸
ĠØ§Øª Ø³
ĠÙĪØ§ÙĦÙħ ØºØ±Ø¨
ĠØª ÙĪÙĤÙģØª
ĠØ¨ÙĬØª Ùĥ
ĠÙĦØ´ Ø¦ÙĪÙĨ
ĠÙĬØŃ ØªÙĦ
ĠÙħÙĬØ± ÙĥÙĦ
ĠÙħØ¨ Øª
ĠØ¨Ø±ÙĪ ØŃ
Ø¯ÙħØ± Ø©
ĠÙħØª Ø´
ĠÙħÙĬØ² Ø§ÙĨ
ĠÙĪØ³ Ø¨ÙĦ
ĠØªØ¹ Ø§ÙĦØ¬
ĠØ§ÙĤØªØµ Ø§Ø¯ÙĬØ§
ĠÙĬØŃ Ø°Ø±
ĠÙģÙĪ Ø²ÙĬ
ĠÙĪØª ÙĪØ¨
ĠÙĪÙĤ Ø·Ø§Ø¹
ĠØ§Ø³Øª Ø´Ø§Ø±ÙĬ
ĠÙĪØ§ÙĦØŃ ÙĥÙħ
ĠØªØ¹Øª Ø²Ùħ
ĠØªÙĤ ÙĪÙĬØ©
ĠØ§ÙĦØªØ± ÙģÙĬÙĩÙĬ
ĠÙģ ÙĩÙī
ĠØ§ÙĦØ¹Øµ Ø¨ÙĬ
ĠØŃ Ø²ÙħØ©
ĠÙĪØŃ Ø¶ÙĪØ±
Ù ħØ§Ø´
ĠÙħØ¤ØªÙħØ± Ø§
ĠÙħØ¹Ø¸Ùħ ÙĩØ§
ĠÙĪØ§ÙĦØªÙĨ Ø¸ÙĬÙħ
ĠØ¬Ø¹ Ø¬Ø¹
ĠÙĪØ§ÙĦØ² Ø±Ø§Ø¹Ø©
ĠØ§Ø³ØªØ±Ø§ØªÙĬ Ø¬ÙĬØ§Øª
Ø¹Ùħ ÙĬØ±
ĠØªØª ÙĪÙĦÙī
ĠÙĪØ¥ ÙĤØ§ÙħØ©
ĠØ¨Ø¹ ÙĤ
ĠÙĤ ÙĪØ³
ĠÙĪ Ø³Ø¨ÙĤ
ĠÙĬØ³Øª Ø¶ÙĬÙģ
Ø¸Ù ĦÙĪÙħ
Ġ197 9
ĠÙĦÙĦÙħØ± ØŃÙĦØ©
ĠØ£ÙĨ ÙĩÙħØ§
RE AM
ĠÙĩ ÙĪØ¯
ĠØ§ÙĦØ£ Ø°
Ġ Ø¯ÙĬÙħ
ÙĤ ÙĪØ³
ĠØ´ Ø¦ÙĪÙĨ
ĠÙĪÙĪÙģ ÙĤ
ĠØ§ÙĦÙĥÙĨ Ø§Ø¦Ø³
ĠØ§ÙĦØ§ ÙĬÙģÙĪÙĨ
ĠØ§ÙĦÙħØ® Ø§ÙĪÙģ
ĠØª Ø¨Øª
ĠØªÙħ Ø±ÙĬØ±
ĠØ± Ø¢
ĠØªØ®ÙģÙĬØ¶ Ø§Øª
ĠØª ÙħÙĬÙħ
ĠÙħÙħØ« ÙĦÙĬÙĨ
ĠÙĪØ§Ø³ ØªÙħØ±Ø§Ø±
ĠÙĪÙĤ Ø¶Ø§ÙĬØ§
ĠØ§ÙĦÙħÙĩ Ø¬Ø±
ÙħØ¦ ÙĨØ§ÙĨ
ĠÙĬØ® ÙĦÙĤ
ÙĪÙģ ÙĪ
ĠØ¥ Ø³ØªØ±
ĠØ® ÙĦÙĪ
ĠØ¬ÙĨ Ø±Ø§ÙĦ
ĠØ¹ÙħÙĦØ§Ø¦ ÙĨØ§
ĠØ±Øº Ø¨Ø§Øª
ĠØŃÙĥ ÙĪÙħÙĬ
Ġ10 7
ĠØŃÙĤÙĪÙĤ ÙĩÙħ
ĠØ§Øª ÙģØ§ÙĤÙĬØ§Øª
ĠØ§ÙĦÙħØ¹ÙĬØ´ Ø©
ĠØ¨ ÙĪÙĦÙĨØ¯Ø§
ĠØ§ÙĦØ± Ø´Ø¯
ĠÙħØª ÙĪÙģØ±Ø©
ĠØ§Ø³ ÙĦØ§ÙħÙĬÙĩ
Ġa g
ĠÙĤ Ø¯ÙħÙĪØ§
ĠØ§ÙĦØªØ´ ÙĬÙĥÙĬØ©
ĠØ¹Ùħ Ø§ÙĦØ©
ĠÙħØŃ ÙĦÙĬ
ĠÙĦÙĦØª Ø£ÙħÙĬÙĨ
ĠØ² ÙħÙĬ
Ø« Ø¨Ø§Øª
ĠÙĦÙĪØ² ÙĬØ±
ĠÙĪØ§ÙĦÙħÙĪ Ø§ÙĤØ¹
ĠØ§ÙĦ ÙĦØ§Ø³
ĠØ¹Ø¨Ø± Øª
Ø§Ø· Ø¨Ø©
ÙĪØ§Øª ÙĬÙħ
ĠØ§ÙĦØ²ÙħÙĨ Ù
ĠØ§ÙĦØ²ÙħÙĨÙ Ĭ
ĠØ§ÙĦØº Ø¨Ø§Ø±
ĠÙĨØµ ÙĬØ©
ĠØ§ÙĦØ¯ÙĪÙĦÙĬ ÙĬÙĨ
ĠØ§Ø¦ ØªÙĦØ§Ùģ
ĠØ§ÙĦØ§Øµ Ø§Ø¨Ø©
ĠØ§ÙĦÙħØ³Ø¦ ÙĪÙĦÙĬØ©
ĠØªÙĪ Ø¶Ø¹
ĠÙħÙĪØ±ÙĬØ´ ÙĬÙĪØ³
ĠØ§ÙĦØªØ¹ Ø§Ø²ÙĬ
ĠÙĪØ§ÙĦØ£ Ø¯Ø¨
ĠØ±ÙĪÙħ Ø§ÙĨÙĬØ§
ĠØ« ÙĨØ§Ø¦ÙĬØ©
ĠÙĩØ° Ø©
ĠP lay
ĠÙĪØ¨ØŃ Ø¶ÙĪØ±
ĠØ¯ÙĪ Ø§Ø¡
ĠØ¶ Ø±ÙĪØ±ÙĬØ©
ĠØ·Ø±ØŃ Øª
ĠØ§ÙĦØ§ ÙħØ§ÙĥÙĨ
ĠØ¨Øª Ø·ÙĪÙĬØ±
ĠØ§ÙĦØ¹Ø§Ø¦ ÙĦÙĬØ©
ĠÙĦÙĦØ¥ Ø³ÙĦØ§Ùħ
ĠØª ÙĪÙħÙĬ
ĠØ§ÙĤØªØ± ØŃ
ĠØ§ÙĦØ§Ø³ Ø¦ÙĦØ©
Ø³ÙĨ Ø§Ø¯
ĠØ§ÙĦØªØºÙĬÙĬØ± Ø§Øª
ĠØ§ÙĦÙĨØµ Ø§Ø¦ØŃ
ĠØ¨ØŃÙĬ Ø§Ø©
ĠØ® ÙĦÙĬØ©
ĠÙĥÙ ĬÙĥ
ĠØ³Ø£ ÙĦØª
ĠØ¨Ø§ÙĦØ£ ÙħØ±
ĠØ¬Ø° ÙĪØ±
ĠØ³ ÙĪÙĩØ§Ø¬
ĠØ¨Ø±ÙĪ Ø²
ĠØ§ÙĦÙĨÙĤ Øµ
ĠØªÙģ ØªÙĬØ´
ĠØ§ÙĦÙħØ® ÙĦÙĪ
ĠØ§ÙĦÙĩÙĬ ÙĥÙĦ
ĠØ®ÙĦÙģ Ùĩ
ĠØ¹ÙĦÙħ Ùĩ
ĠÙĪØ§ÙĦÙĨ Ø¸Ø§Ùħ
ĠØ§ÙĦÙħ Ø¨Ø¯Ø£
ĠÙĪÙĬØ¹ ØªÙĤØ¯
ÙĪØ¬ Ø§Øª
ĠØ®Ø· Ø¨Ø©
ĠÙģØŃ ÙĪØµØ§Øª
ĠØ§ÙĦØ® ÙĬÙĦ
ĠT e
ĠØ§ÙĨØªÙĩØ§ ÙĥØ§Øª
ĠÙĦØ§Øª ÙģÙĬØ§
ĠØ¯ÙĬ Ø§Ø±
ÙĪÙĦ ÙĪØ§
ĠØŃ ØµØ§Ø±
ĠØªØŃ ÙĤ
ĠØ§ÙĦÙģØª ÙĨ
ĠØ§ÙĦØµÙĪ ØªÙĬ
ĠØ§Ø¬ ÙĨØ¨ÙĬØ©
ĠØ§ÙĦÙĨÙĤ Ø§Ø¨
ĠÙĪØ§ÙĦØ¯ ÙĩØ§
ĠØ§ÙĦØ¨ÙĨÙģØ³ Ø¬ÙĬØ©
ĠÙĦÙĦØ· ÙģÙĦ
A L
ĠØ§ÙĦÙĤØ±Ø¢ ÙĨÙĬØ©
ĠÙĬÙģ ÙĪÙĤ
ÙĦØ§ ÙħÙĬØ§Øª
ĠØ§Ù ĬØ¯
ĠÙĪ ÙĪØ¬ÙĪØ¯
ĠØ§ÙĦÙħÙĨ Ø§Ø¹Ø©
ĠØ§ÙĦØ£ÙĤ ØµØ±
ĠÙħÙĪ Ø¯ÙĬÙĦØ§Øª
ĠÙĩÙĬ ÙĦØ§
ĠØ° ÙĥÙĬØ©
ĠÙĬØ¯ Ø¹
ĠØ§ÙĦØ¯Ø¹ ÙĪÙĬØ©
ĠÙĪ ÙĦÙĦÙĩ
ĠÙĪ Ø®Øµ
ĠÙĦØŃ Ø³Ø§Ø¨
ĠØªØ· Ø±ÙĤ
ĠÙħØ® ÙĦØµ
ĠØ§ÙĦØ¬Ø± Ø§ØŃ
ĠØ§ÙĦØ§Ø® ÙĪØ§ÙĨ
ĠÙĪØ§ÙĦÙħÙĨ Ø¸ÙħØ§Øª
ĠØ§ÙĦÙĤØµ ÙĪØ±
ĠÙĪØ§ÙĦØ¯ ØªÙĩ
Ø·Ø± Ø§Ø¨
ĠØ§ÙĦØ£Ø® ÙĪØ©
ĠØ´ÙĪ ÙĤÙĬ
I C
ĠØ±Ø¬ Ø§Ø¡
ĠØ£Ø³ Ø§ØªØ°Ø©
ĠØ£Øµ Ø§Ø¨Ø¹
ĠØ¨Ø¥ ÙĦØºØ§Ø¡
ĠÙĥ ÙĬÙĨÙĬØ§
Ø§Ùħ ÙĬØ±
ĠØ¨Ø§ÙĦØ¥Ø³ ÙĥÙĨØ¯Ø±ÙĬØ©
ĠØŃÙĬÙĪ ÙĬØ©
ĠÙħÙħØ± Ø¶
ØµÙ ĬØ§ÙĨ
l ine
ĠØ§ÙĦØ£Ø³ØªØ± Ø§ÙĦÙĬ
ĠØ£Ø® Ø±ÙĬ
ĠØ§ÙĦÙħØ²Ø¹ Ø¬Ø©
ĠÙĥÙ ĬÙĪ
ĠÙĦÙĦÙħØ³ ÙĦÙħÙĬÙĨ
ĠÙĦÙĬØ¨ Ø±ÙħØ§ÙĨ
Ġc omp
ĠØ§ÙĦÙħØ± Ø¦ÙĬØ§Øª
ĠØ¬ ÙģØ§Ùģ
ĠØ§ÙĦØ¥Ø³ÙĦØ§ÙħÙĬ ÙĬÙĨ
ĠPh ot
ÙĨ Ø·
ĠØªØ± Ø³ÙĦ
ĠÙĬØ± ØªÙģØ¹
ĠØ¨ ÙĬÙĦ
ĠØ¹ Ø±ÙĪØ³
Ġsp ecial
ĠÙĬÙĪ ÙĦØ¯
ĠØ§ÙĦØ£Ø³Ø± ÙĬØ©
ĠÙĪÙħØ¯ ÙĬÙĨØ©
ĠØ¨Ø± Ø£
ĠØ§Ø· ÙĦÙĤ
ØªÙ ĬØ²
ĠØ³ ÙĪØ²
ĠØ§ÙĦØ³ Ø§Ø¦Ø¯Ø©
ĠØ£Ø¯ ÙĪØ§Ø±
ĠÙħÙ ĬØ¬Ø§
ĠØ§ÙĦØ³ Ø§Ùħ
ĠØ§Ø¨ ÙĬÙĨ
ĠÙĥÙĪØ³Øª Ø§Ø±ÙĬÙĥØ§
ĠÙħÙĪ Ø§Ø¬Ùĩ
ĠØŃÙĥ Ø§ÙĬØ§Øª
ĠØ¹ÙĤ Ø¨Ø©
ĠØ® ÙĪØ§Ø·Ø±
ĠÙĥØ±Ùĥ ÙĪÙĥ
ĠÙĪØ§ÙĦØ¹ Ø´Ø±ÙĪÙĨ
ĠÙĪØª ÙĬØ±Ø©
ĠÙĪØ§ÙĦ ÙĪØ·
ĠØ´Ùĩ Ø±ÙĬ
ĠØ¹Ø´ ÙĬØ©
ĠØ§ÙĦØ« Ø§ÙĨ
ĠØ§ÙĦØ§ÙĨØªÙĩØ§ ÙĥØ§Øª
ĠÙħØ± ØªØ¨
ĠÙģ Ø§ÙĦØ¬
ĠØ¥Ø³Øª Ø®Ø¯Ø§Ùħ
ĠÙĪÙĬØ¨ ÙĤÙī
ĠØ®Ø· Ø¨
ĠØ§ÙĦÙĥØ±Ø¯ Ø³ØªØ§ÙĨÙĬ
ĠØ§ÙĦØ¨ Ø§Ø±Ø¯
ĠØªØŃÙĤÙĬÙĤ Ø§Øª
ĠØ³ Ø±ÙĤ
ĠØ± ØŃØ§Ø¨
ĠØ« ÙĬÙħØ§Øª
Ø¨Øª ÙĩÙħ
ĠØ§ÙĦÙĨÙĩ Ø¬
ĠØ§Ø¯ Ø®ÙĦ
ĠØ¥ ÙģØ±
ĠØ§ÙĦØ® Ø±ÙĬÙģ
ĠÙĪØªØ± Ø§Ø¬Ø¹
ĠØ·Ùģ ÙĦØ©
ĠØ§ÙĦØ¨ ÙĪÙĦÙĨØ¯ÙĬ
ĠØ§ÙĦØªØ³ ÙĦÙĬÙħ
ÙĪÙĬ ÙĦÙĩØ§
ĠÙħØ± Ø¦ÙĬØ§Øª
ĠØ§ÙĦÙħØ³Øª Ø¬Ø¯Ø§Øª
ĠÙģØ±ÙĬ Ø²Ø±
ĠÙħÙ ĬØ®
ÙĨ Ø§ÙħÙĬØ©
ĠØª Ø³ÙĬÙĬØ±
ĠØ§ÙĦÙĩ Ø§Ø¯ÙģØ©
ØªÙģ Ùī
ĠÙĦØ§Ù Ĭ
ÙĪ Ø§ÙĨÙĬØ©
ĠØ§ÙĦØ± Ø§Ø³
ĠØ§ÙĦØ§ÙĬØ· Ø§ÙĦÙĬØ©
ĠÙĥ Ø¨Ø±
ĠØ§ÙĦØ±Ù ħØ§ÙĦ
ĠÙģ Ø§ØŃ
Ø·ÙĪØ§ÙĨ Ø©
ĠØ³Ø§Ùħ ÙĪØ§
ĠØ³ ÙĪÙĦ
ĠØ§ÙĦØ¬ Ø±ÙĬ
Ø¦ ØªÙĩ
ĠÙħÙĪ Ø¶Ø©
Ħ ÙĦØ§Ø¨
ĠØ§ÙĦÙħØ´ ØªØ¨Ùĩ
ĠÙĪØ§ÙĦØ³ÙĬØ§Ø³ Ø©
ĠÙģ Ø§ÙĬ
ĠØ§ÙĦÙĥØ§Ùħ ÙĬØ±ÙĪÙĨ
ĠØ´Ø± Ø¹
Ĭ ÙĦÙĤÙĬ
Ù ĬÙĦÙĤÙĬ
ĠØ§ÙĦÙĪØ± Ø´Ø©
ĠÙĪØ§ÙĦØ³ ÙĬØ¯
ĠØ§ÙĦØ® Ø¨ÙĬ
ĠØŃÙħØ§Ùħ Ø§Øª
ĠÙĪØ±Ø¤ Ø³Ø§Ø¡
Ġ ÙĬÙĦÙĤÙĬ
ĠØ± ÙĪØ¯
ĠØŃÙĥ Ø§Ùħ
Ø§ÙĨÙĬ ÙĪÙĨ
ĠØ± ÙĪØ³
ĠØ§ÙĦØªØ±Ø§Ø« ÙĬØ©
ĠØ§ÙĪ ÙĦØ§Ø¯
ĠØ§ÙĦÙģØª ÙĪÙī
ĠØŃ ØµØ±ÙĬØ©
ĠÙħÙĤ ÙĪÙħØ§Øª
ĠØ§ÙĤ ÙĦÙĬÙħ
Ġ18 7
ĠØ§ÙĦØ±Ø¤ Ùī
ĠØ§ÙĦÙĥØ± Ø¯ÙĬ
ĠÙĪØ£Ø® Ø¨Ø§Ø±
ĠØ± Ø¦ÙĬ
ĠØµÙģ ÙĤØ§Øª
ĠÙĪÙĬØ¹ Ø±Ùģ
ĠÙĤ ÙĨØ¨ÙĦØ©
ĠØº ÙĨÙĬØ©
ĠÙħØ¹ Ø¬Ùħ
ĠÙĪØ§ÙĦÙħØ± Ø£Ø©
ĠØ® Ø¯ÙĬ
ĠØ²ÙĪ Ø¬ÙĬ
ĠØ§ÙĦÙĤ Ø§Ø¹Ø©
ĠÙĦÙĦÙħØŃ ØªØ±ÙģÙĬÙĨ
Ø¢ ÙħØ±
ĠØ§ÙĦÙĥÙ ħÙĬØ©
ĠØ® ÙĬÙħØ©
ĠØ¨Ø§ÙĦÙħ Øµ
ĠØ§ÙĦØ§ÙĨ ØªÙħØ§Ø¡
ĠØ§ÙĦØ¶ Ø§Ø¨Ø·
ĠØ§ÙĦØªØ´ ÙĬÙĥ
ĠØ§ÙĦØ¹ÙĨ ØµØ±ÙĬ
Ø¯ ÙĪÙĬØ©
ĠÙĦÙħÙĪÙĤØ¹ Ùĥ
ĠØ£Ù ĬÙĤ
O K
ĠØ§ÙĦÙħØ±ÙĬ Ø®
ĠØªØ· ÙĩÙĬØ±
ÙĥÙĨ Ø©
ĠØªØ¯ Ø´ÙĬÙĨ
ĠØ§ÙĦØ¹Ø° Ø¨Ø©
ĠÙĪØ§ÙĦØ¨ Ø¹Ø¶
ĠØ¨ Ø§ÙĪÙĦ
ØŃØ¨ Ø§Ø·
ĠØ§ÙĦØ² Ø§Ø¦Ø¯
ĠÙĪÙĨ Ø´Ø§Ø·
Ġ ÙħØ§Ø±ÙĬ
ĠØ§ÙĦØ¨Ø± Ø¬
ĠÙħØ¹ÙĦ ÙĪÙħØ©
ĠØ¨ÙĬØª Ø±
ĠØ§ÙĦØ³ Ø¹Ø¯
Ø´ ÙĬØ·
ĠÙĦØª Ø¬ÙĨØ¨
ĠH U
ĠØ§ÙĦØŃØ¯ Ø§Ø¦ÙĤ
ĠØª Ø¶Ø§Ùģ
ĠØ¨Ø§ÙĦØ£ ÙĨ
ĠØ§ÙĦÙħØ« ÙĬØ±Ø©
ÙĥØ± Øª
ØªØ± ÙĨ
ĠØ¨ÙħØ³Øª Ø´ÙģÙī
ĠÙĦÙĩ ÙĬØ¦Ø©
ĠØ¶ ÙħÙĬØ±
ĠÙĦÙĦÙ ħÙĥ
ĠÙĤÙĨ Ø¯ÙĬÙĦ
ĠØ§ÙĦÙĦØŃ Ø¸Ø§Øª
ØŃÙĪ Ø°
ĠØ° Ø±
ĠÙĪØµÙģ ÙĩØ§
ĠZ W
ĠØ§ÙĦØ¬ Ø¯Ø±Ø§ÙĨ
ĠØ§ÙĦØ£ Ø¬Ø²Ø§Ø¡
ĠØŃØ³ ÙĨØ©
ĠÙĬØ¹ØªÙĤØ¯ ÙĪÙĨ
ĠØ§ÙĦØ§Ø¯ Ø¨
Ø«Ù ĬØ«
ĠØ§ÙĦØª ÙģØ¹ÙĬÙĦ
ĠØ§ØŃ Ø¨
ĠØ§ÙĦØ·ÙĦØ§Ø¨ ÙĬØ©
ĠØªÙĨÙģÙĬ Ø°Ùĩ
ĠØ¨ÙĨ Ø²
ĠØ§Ø· ÙĦØ¹
ĠÙħØ¬ØªÙħØ¹ ÙĨØ§
ĠØ§ÙĦØªØ´Ø±ÙĬ Ø¹ÙĬ
ĠÙĦÙĩ ÙĨ
ĠØ§ÙĦÙĥ ØªÙĦ
ĠØªØ³ ÙĩÙħ
Ø® Ø§
ĠÙĦÙĤ Ø§ÙĨÙĪÙĨ
ĠØ§ÙĦÙħØµÙĨ Ø¹Ø©
ĠØ± Ø§ÙħÙĬ
ĠÙĬØ¯ Ø¹ÙĪÙĨ
ĠÙĤ Ø§Ø³ÙĬØ©
ÙĪÙģ Ø§ÙĨ
ide o
ĠØ¨Ø§ÙĦØ¹ Ù
ĠÙĪØ§ÙĦØ· Ø§ÙĤØ©
ĠÙĤ Ø§Ø¦ÙħØ§
ĠØªØ± Ø§ÙĥÙħ
ĠÙĪÙĬ Ø¶Ø¹
ĠÙħÙĪ ÙĦØ§ÙĬ
Ġ198 6
ĠØ¯Ùģ ØªØ±
ĠØ¥ÙĨÙģ ØµØ§ÙĦ
ĠÙĪØ§ÙĦØ® Ø±ÙĪØ¬
ĠØ§ÙĦØªÙĥ Ø±Ùħ
Ù ħØ¶ÙĬ
ĠØªØŃ ØµÙĬÙĦ
ĠØ§ÙĦØ§Ø³ ÙĥØ§ÙĨ
ĠØ§ÙĨ Ø³Ø§ÙĨ
ĠÙħØ¶Ø§Ø¹ ÙģØ§Øª
ĠØ¹ Ø§Ø¯Ø§Øª
ĠÙĨ Ø§ØŃ
ĠÙĥØ§Ùģ ÙĬÙĩ
Ùĥ ÙĦØª
Ø¹ÙĪ ØªÙĩ
[...]
