{
  "!": 4,
  "\"": 5,
  "#": 6,
  "$": 7,
  "%": 8,
  "&": 9,
  "'": 10,
  "(": 11,
  ")": 12,
  "*": 13,
  "+": 14,
  ",": 15,
  "-": 16,
  ".": 17,
  "/": 18,
  "0": 19,
  "00": 1445,
  "01": 33569,
  "02": 51755,
  "03": 58234,
  "04": 53786,
  "05": 49718,
  "06": 61757,
  "07": 57098,
  "08": 62518,
  "1": 20,
  "10": 4858,
  "100": 31616,
  "101": 18163,
  "102": 55087,
  "108": 62212,
  "11": 8373,
  "112": 45331,
  "115": 54611,
  "116": 59905,
  "12": 6392,
  "120": 52448,
  "121": 58190,
  "13": 9471,
  "14": 9259,
  "15": 9028,
  "16": 9263,
  "17": 7808,
  "1710": 38239,
  "18": 9058,
  "19": 8791,
  "2": 21,
  "20": 3467,
  "200": 24938,
  "21": 11863,
  "212": 26079,
  "22": 11096,
  "23": 9119,
  "230": 33853,
  "24": 8271,
  "246": 44909,
  "24699": 49681,
  "2470": 60621,
  "25": 8010,
  "26": 9063,
  "264": 51246,
  "27": 8700,
  "275": 61387,
  "28": 9226,
  "29": 8980,
  "3": 22,
  "30": 5710,
  "300": 39187,
  "301": 63716,
  "31": 21228,
  "32": 17873,
  "320": 60448,
  "33": 20370,
  "34": 16985,
  "35": 12939,
  "36": 13449,
  "360": 63717,
  "37": 13675,
  "38": 16160,
  "39": 19529,
  "4": 23,
  "40": 6779,
  "400": 41090,
  "41": 22375,
  "42": 24227,
  "43": 22748,
  "44": 14633,
  "4400": 55552,
  "45": 12656,
  "46": 21582,
  "47": 15539,
  "48": 15468,
  "49": 18797,
  "5": 24,
  "50": 6768,
  "500": 27195,
  "51": 46292,
  "52": 41350,
  "53": 28764,
  "54": 37545,
  "55": 19399,
  "56": 27831,
  "57": 36874,
  "58": 31539,
  "59": 38563,
  "6": 25,
  "60": 7291,
  "600": 32033,
  "6080": 35776,
  "6080881": 36384,
  "61": 43148,
  "610": 27352,
  "6101": 41370,
  "6108": 48708,
  "62": 41455,
  "620": 39795,
  "63": 35139,
  "636": 57862,
  "63637": 62382,
  "64": 34575,
  "65": 14381,
  "66": 19145,
  "67": 16791,
  "68": 15690,
  "69": 20510,
  "7": 26,
  "70": 10379,
  "700": 58141,
  "71": 42915,
  "72": 27825,
  "73": 27793,
  "74": 30673,
  "75": 20274,
  "76": 26269,
  "77": 21655,
  "78": 26212,
  "79": 42448,
  "8": 27,
  "80": 7432,
  "800": 29709,
  "804": 60937,
  "81": 37719,
  "82": 39322,
  "83": 39705,
  "84": 42533,
  "85": 23574,
  "86": 32791,
  "87": 40836,
  "88": 14898,
  "881": 35170,
  "89": 39026,
  "9": 28,
  "90": 10726,
  "900": 47538,
  "91": 29998,
  "92": 28234,
  "93": 28943,
  "94": 30594,
  "95": 16470,
  "96": 10337,
  "97": 13782,
  "98": 16437,
  "99": 12804,
  ":": 29,
  ";": 30,
  "<": 31,
  "</s>": 3,
  "<pad>": 2,
  "<s>": 1,
  "<|endoftext|>": 0,
  "=": 32,
  ">": 33,
  "?": 34,
  "@": 35,
  "A": 36,
  "AB": 16184,
  "AC": 13684,
  "ACE": 43481,
  "ACK": 55099,
  "AD": 10377,
  "ADER": 60348,
  "AF": 30743,
  "AG": 24593,
  "AI": 46652,
  "AJ": 35535,
  "AK": 19284,
  "AL": 17525,
  "AM": 7769,
  "AMM": 52554,
  "AN": 9163,
  "AND": 25030,
  "ANT": 58732,
  "AP": 41897,
  "AR": 5299,
  "ART": 39314,
  "AS": 8809,
  "AT": 7631,
  "ATION": 40316,
  "AV": 60837,
  "AX": 36261,
  "AY": 33689,
  "Advisor": 14304,
  "App": 36365,
  "B": 37,
  "BAS": 63578,
  "BC": 15651,
  "BD": 13164,
  "BM": 58737,
  "BOX": 14970,
  "BP": 20417,
  "BS": 32512,
  "Berry": 29670,
  "Box": 33279,
  "C": 38,
  "CA": 49233,
  "CD": 22036,
  "CE": 46079,
  "CH": 46828,
  "CO": 51624,
  "CS": 50620,
  "Ch": 57772,
  "Cl": 63736,
  "D": 39,
  "DA": 40470,
  "DF": 13199,
  "DL": 18514,
  "DR": 12181,
  "DRip": 60245,
  "DT": 21584,
  "DVB": 39038,
  "E": 40,
  "EB": 37658,
  "EC": 15185,
  "ECH": 26958,
  "ED": 9082,
  "EF": 19003,
  "EG": 33932,
  "EL": 13466,
  "EM": 30014,
  "EN": 10897,
  "ENT": 50919,
  "EP": 20041,
  "ER": 6250,
  "ERS": 32193,
  "ES": 12559,
  "ET": 12875,
  "EX": 27814,
  "F": 41,
  "FACE": 49451,
  "FC": 62114,
  "FT": 49894,
  "Fil": 56810,
  "Finder": 23400,
  "G": 42,
  "GA": 18925,
  "GB": 19053,
  "GD": 20140,
  "GET": 35919,
  "GN": 13386,
  "GX": 23128,
  "Gosh": 58987,
  "H": 43,
  "HA": 56933,
  "HD": 10477,
  "HP": 11673,
  "HR": 21648,
  "HS": 21309,
  "I": 44,
  "IA": 21973,
  "IB": 40135,
  "IC": 17551,
  "ID": 24747,
  "IF": 13931,
  "IG": 16697,
  "IL": 36790,
  "IM": 13081,
  "IN": 10050,
  "INE": 25058,
  "ING": 39639,
  "IO": 20433,
  "ION": 16869,
  "IP": 13832,
  "IR": 31736,
  "IS": 17219,
  "ISION": 48552,
  "IST": 46255,
  "IT": 16489,
  "IV": 33847,
  "IX": 35929,
  "IZ": 33048,
  "IZE": 45002,
  "In": 45572,
  "J": 45,
  "JD": 23082,
  "JS": 23226,
  "K": 46,
  "KB": 48639,
  "KD": 21649,
  "KK": 14287,
  "KP": 18729,
  "KR": 23008,
  "KY": 29718,
  "L": 47,
  "LC": 19807,
  "LE": 45154,
  "LL": 18951,
  "LT": 44079,
  "Load": 56688,
  "M": 48,
  "MA": 16596,
  "MAX": 23573,
  "MC": 62336,
  "MD": 10287,
  "MI": 62320,
  "MK": 14547,
  "MP": 45025,
  "MS": 33724,
  "MT": 10294,
  "MW": 18446,
  "Max": 47236,
  "N": 49,
  "NA": 33207,
  "ND": 12885,
  "NF": 21195,
  "NG": 16915,
  "NL": 19250,
  "NN": 55905,
  "NS": 50527,
  "NT": 16537,
  "O": 50,
  "OA": 20348,
  "OB": 18539,
  "OC": 27702,
  "OCK": 40723,
  "OD": 49435,
  "OK": 17697,
  "OL": 17055,
  "OLD": 44236,
  "OLO": 56407,
  "OLOR": 48359,
  "OM": 15396,
  "ON": 6898,
  "ONE": 51684,
  "ONT": 39812,
  "ONY": 57829,
  "OP": 7888,
  "OR": 9215,
  "ORA": 28437,
  "ORT": 62461,
  "OS": 8826,
  "OSAT": 43273,
  "OSH": 47683,
  "OT": 24424,
  "OW": 37576,
  "OX": 11961,
  "On": 58213,
  "P": 51,
  "PA": 44149,
  "PC": 56887,
  "PF": 21685,
  "PG": 47930,
  "PL": 42850,
  "PLUS": 61714,
  "PN": 46448,
  "PR": 20817,
  "PS": 24185,
  "Point": 50327,
  "Q": 52,
  "QL": 52728,
  "R": 53,
  "RA": 26910,
  "RD": 14366,
  "RE": 11557,
  "REAM": 17410,
  "REE": 59648,
  "RL": 28132,
  "RO": 12919,
  "RON": 33017,
  "RONG": 37227,
  "RY": 44566,
  "Ray": 40859,
  "Rip": 53828,
  "S": 54,
  "SA": 38395,
  "SAT": 22471,
  "SD": 10504,
  "SH": 54475,
  "SI": 62017,
  "SL": 10812,
  "SS": 19075,
  "ST": 8107,
  "STAR": 24788,
  "STATION": 50952,
  "SU": 61426,
  "Sat": 20276,
  "Sh": 41475,
  "Sky": 61659,
  "Soft": 63362,
  "Sole": 58328,
  "St": 22012,
  "Star": 42997,
  "Station": 48032,
  "T": 55,
  "TC": 37421,
  "TD": 20195,
  "TE": 45878,
  "TEC": 54853,
  "TH": 53269,
  "TL": 12955,
  "TP": 33481,
  "TR": 45978,
  "TS": 36057,
  "TV": 12172,
  "The": 36518,
  "Theatre": 44828,
  "Tube": 19185,
  "U": 56,
  "UB": 19601,
  "UD": 62224,
  "UE": 55351,
  "UL": 53706,
  "UM": 34732,
  "UP": 17822,
  "UR": 13934,
  "URE": 48669,
  "URL": 41017,
  "US": 16655,
  "USB": 60272,
  "UST": 56703,
  "UT": 32765,
  "UV": 41372,
  "Up": 47677,
  "V": 57,
  "VA": 46493,
  "VB": 24680,
  "VC": 18861,
  "VE": 20265,
  "VER": 50133,
  "VL": 22999,
  "VR": 21731,
  "View": 42011,
  "Viewer": 52127,
  "W": 58,
  "WD": 22263,
  "WE": 35780,
  "WF": 22294,
  "WK": 22334,
  "WP": 22920,
  "X": 59,
  "XT": 52755,
  "Y": 60,
  "YD": 10587,
  "YK": 40759,
  "YN": 21349,
  "YR": 14452,
  "YU": 21981,
  "Z": 61,
  "ZD": 14187,
  "ZL": 23386,
  "ZN": 14563,
  "ZS": 14181,
  "ZT": 22917,
  "[": 62,
  "\\": 63,
  "]": 64,
  "][": 8768,
  "]]": 40735,
  "^": 65,
  "_": 66,
  "`": 67,
  "a": 68,
  "ab": 5204,
  "abi": 59911,
  "able": 22189,
  "aby": 47682,
  "ac": 1636,
  "ace": 19277,
  "acebook": 12002,
  "ach": 11300,
  "ack": 10570,
  "acle": 53727,
  "act": 2239,
  "active": 38706,
  "acy": 33005,
  "ad": 3361,
  "ada": 27627,
  "ade": 31834,
  "adem": 30485,
  "ademy": 41392,
  "adh": 53521,
  "ae": 21065,
  "af": 8401,
  "afa": 59189,
  "afe": 14482,
  "afim": 58957,
  "afri": 58650,
  "ag": 4434,
  "age": 9500,
  "agement": 42350,
  "ages": 24541,
  "aging": 52065,
  "agon": 60375,
  "agram": 49247,
  "ague": 37699,
  "ah": 9142,
  "ai": 5319,
  "aier": 48283,
  "ail": 13210,
  "aily": 45804,
  "ain": 16971,
  "air": 22495,
  "aire": 55402,
  "airo": 51783,
  "aj": 47326,
  "ak": 9594,
  "ake": 27858,
  "aker": 60332,
  "al": 1597,
  "ala": 9771,
  "alaxy": 18781,
  "alcon": 50432,
  "ald": 60064,
  "ale": 18800,
  "ali": 63851,
  "alk": 37525,
  "all": 9916,
  "alla": 53276,
  "ally": 49619,
  "alm": 32811,
  "als": 19091,
  "alt": 61469,
  "alth": 34616,
  "aly": 29956,
  "alyon": 58849,
  "alys": 59715,
  "alysis": 62369,
  "am": 2154,
  "ama": 33428,
  "amad": 42187,
  "amadan": 52901,
  "amb": 52968,
  "ame": 27376,
  "ament": 57030,
  "ames": 44121,
  "amily": 38698,
  "amp": 22087,
  "ams": 62282,
  "an": 1320,
  "ana": 12945,
  "anager": 41296,
  "anc": 13373,
  "ance": 21089,
  "and": 4120,
  "ane": 40383,
  "anese": 49229,
  "ang": 9121,
  "ange": 29639,
  "anger": 26642,
  "angerous": 28801,
  "ani": 56951,
  "ank": 28359,
  "ann": 22235,
  "anon": 61386,
  "ans": 15471,
  "ansat": 43551,
  "ant": 11597,
  "ants": 52182,
  "any": 29418,
  "ap": 9104,
  "apest": 44624,
  "app": 23632,
  "ar": 1189,
  "ara": 30565,
  "aract": 2493,
  "aram": 43195,
  "arch": 31336,
  "ard": 8424,
  "ards": 27826,
  "are": 7574,
  "ari": 24818,
  "ark": 12935,
  "arket": 37376,
  "arly": 40985,
  "arm": 35822,
  "arn": 20566,
  "ars": 18035,
  "art": 6931,
  "arth": 54276,
  "arut": 36288,
  "aruto": 54094,
  "ary": 15796,
  "as": 3697,
  "ase": 23875,
  "ases": 60651,
  "ash": 13313,
  "ashion": 58858,
  "asis": 44848,
  "ason": 40059,
  "ass": 14649,
  "ast": 12343,
  "aster": 39053,
  "asy": 34847,
  "at": 1150,
  "ata": 23416,
  "atar": 44691,
  "atch": 22223,
  "ate": 10148,
  "ated": 27102,
  "ateg": 34837,
  "ater": 30767,
  "ates": 37165,
  "ath": 21536,
  "ather": 60989,
  "ati": 61993,
  "ating": 34736,
  "ation": 3603,
  "ational": 16328,
  "ations": 16147,
  "ative": 51907,
  "ator": 28324,
  "atre": 40949,
  "ats": 21361,
  "att": 27877,
  "attle": 60195,
  "ature": 52319,
  "atz": 52508,
  "au": 50703,
  "ault": 58549,
  "aus": 32376,
  "aut": 32693,
  "auty": 48886,
  "av": 11040,
  "ava": 30050,
  "avd": 57955,
  "ave": 4487,
  "aw": 11806,
  "awe": 28741,
  "aweer": 49385,
  "awei": 43973,
  "ax": 13264,
  "ay": 6334,
  "aya": 62183,
  "ays": 37720,
  "az": 13220,
  "b": 69,
  "ba": 55263,
  "ball": 53818,
  "bash": 54152,
  "bc": 23807,
  "be": 51662,
  "ber": 14328,
  "berg": 58619,
  "berry": 42343,
  "bi": 58718,
  "bl": 60365,
  "ble": 22729,
  "blems": 37675,
  "bo": 29582,
  "board": 42965,
  "book": 48275,
  "box": 7654,
  "bs": 59344,
  "bsp": 59769,
  "by": 32809,
  "c": 70,
  "ca": 43914,
  "cam": 20190,
  "camd": 37064,
  "cc": 49200,
  "cd": 45652,
  "ce": 6466,
  "ced": 6739,
  "cel": 34548,
  "cer": 56975,
  "ces": 26204,
  "cess": 14528,
  "ch": 4571,
  "change": 50189,
  "che": 44696,
  "ck": 10590,
  "cl": 35062,
  "clop": 61950,
  "co": 24602,
  "com": 27876,
  "con": 27761,
  "craft": 51842,
  "cri": 25319,
  "cript": 44723,
  "cription": 40104,
  "cruiser": 45603,
  "ct": 7948,
  "ction": 34360,
  "cy": 24535,
  "cyclop": 62767,
  "d": 71,
  "da": 34712,
  "day": 57322,
  "de": 21283,
  "der": 24276,
  "df": 11888,
  "ding": 44701,
  "dream": 63616,
  "du": 28527,
  "duct": 49528,
  "dv": 7839,
  "dvan": 13877,
  "dvanced": 14028,
  "dvisor": 14120,
  "dy": 54280,
  "e": 72,
  "ear": 36303,
  "ears": 50383,
  "eb": 6878,
  "ebook": 11756,
  "ec": 3028,
  "ech": 7277,
  "echn": 9627,
  "echnology": 13443,
  "ecial": 16645,
  "econd": 16954,
  "ect": 8378,
  "ected": 24318,
  "ection": 19501,
  "ed": 2267,
  "eda": 42791,
  "edem": 58270,
  "edia": 18569,
  "ee": 20201,
  "eed": 28557,
  "eek": 61394,
  "ef": 20371,
  "eg": 34896,
  "eh": 36875,
  "el": 3645,
  "elf": 48459,
  "ell": 15294,
  "els": 24890,
  "ely": 55596,
  "em": 3820,
  "ema": 27635,
  "email": 20580,
  "emb": 53233,
  "ember": 47055,
  "emen": 38355,
  "ement": 22749,
  "emp": 48767,
  "en": 1413,
  "ena": 45982,
  "ence": 28158,
  "ences": 61479,
  "ency": 42536,
  "end": 10119,
  "endo": 34425,
  "ene": 62490,
  "ener": 18397,
  "eneral": 21260,
  "eng": 44687,
  "enger": 34007,
  "enn": 39971,
  "enovo": 57781,
  "ens": 13851,
  "ense": 35758,
  "ent": 2769,
  "ental": 48999,
  "entel": 63883,
  "enter": 8279,
  "ents": 32796,
  "ep": 41735,
  "er": 728,
  "era": 37757,
  "erat": 22688,
  "eratome": 29115,
  "ere": 15049,
  "eria": 52611,
  "erif": 56232,
  "ering": 49653,
  "erj": 54683,
  "ern": 21605,
  "ero": 37985,
  "err": 40229,
  "erry": 23907,
  "ers": 6209,
  "erson": 45873,
  "ert": 24903,
  "ery": 14573,
  "es": 1434,
  "esat": 56525,
  "ese": 14446,
  "esearch": 48397,
  "esh": 27385,
  "esha": 57982,
  "ess": 6215,
  "essenger": 44244,
  "est": 5150,
  "estin": 54982,
  "estions": 56189,
  "esy": 59890,
  "esyousif": 61474,
  "et": 3184,
  "eta": 29706,
  "eter": 62997,
  "eth": 46549,
  "ether": 40624,
  "ets": 30031,
  "ett": 61569,
  "ety": 43983,
  "ev": 31143,
  "eva": 52618,
  "ew": 5690,
  "ex": 9716,
  "ext": 22108,
  "ey": 11084,
  "f": 73,
  "fer": 35648,
  "fess": 41750,
  "fessional": 48528,
  "ff": 13633,
  "ffect": 53191,
  "fh": 46232,
  "field": 48440,
  "fl": 50435,
  "fo": 63145,
  "for": 14912,
  "form": 24729,
  "formation": 30630,
  "fox": 54458,
  "fr": 4730,
  "front": 5159,
  "ft": 9637,
  "g": 74,
  "ga": 38670,
  "gan": 49944,
  "gar": 43579,
  "gas": 57777,
  "ge": 11138,
  "gen": 49011,
  "ger": 1402,
  "gery": 1470,
  "get": 50926,
  "gh": 41778,
  "gi": 48651,
  "gle": 7884,
  "gram": 29434,
  "ground": 59224,
  "gy": 17796,
  "gypt": 26317,
  "h": 75,
  "ha": 45818,
  "han": 32550,
  "hd": 28058,
  "he": 2601,
  "her": 18123,
  "het": 60294,
  "hman": 52438,
  "hone": 12600,
  "hor": 54511,
  "ht": 10118,
  "i": 76,
  "ia": 4880,
  "ial": 9511,
  "ian": 10141,
  "ians": 62551,
  "iaomi": 55312,
  "iation": 43138,
  "ib": 12017,
  "iba": 60007,
  "iber": 58537,
  "ible": 60939,
  "ic": 1971,
  "ica": 24948,
  "ical": 14198,
  "ican": 43752,
  "ice": 8026,
  "ices": 22061,
  "ich": 21517,
  "ick": 23097,
  "icles": 56884,
  "ico": 62060,
  "icro": 55802,
  "ics": 18983,
  "ict": 31276,
  "icy": 39746,
  "id": 3237,
  "ida": 50863,
  "idae": 28181,
  "idd": 56491,
  "ide": 10602,
  "ided": 27955,
  "ideo": 17756,
  "ideos": 53688,
  "ider": 27181,
  "idi": 48607,
  "ids": 34532,
  "ie": 8833,
  "iec": 51729,
  "iece": 61038,
  "iel": 17799,
  "ield": 35282,
  "ien": 11612,
  "ience": 20367,
  "ient": 26481,
  "ier": 26235,
  "ies": 8095,
  "iew": 16222,
  "iezer": 58557,
  "if": 8349,
  "ife": 25705,
  "ifi": 41179,
  "ific": 39305,
  "ification": 63491,
  "ified": 55876,
  "ift": 44211,
  "ig": 4666,
  "iger": 28753,
  "igh": 34984,
  "ight": 12155,
  "ighted": 44791,
  "ightedness": 45644,
  "igma": 30925,
  "ign": 16129,
  "ih": 37246,
  "iik": 58476,
  "iir": 58533,
  "ij": 44845,
  "ik": 2546,
  "ike": 32810,
  "iks": 41625,
  "il": 3203,
  "ila": 37105,
  "ild": 16431,
  "ildren": 50956,
  "ile": 10887,
  "ilit": 50568,
  "ilitary": 60303,
  "ility": 56757,
  "ill": 12473,
  "illa": 35498,
  "illidae": 46083,
  "ilot": 52670,
  "ilt": 46609,
  "ily": 31353,
  "im": 4656,
  "ima": 50495,
  "ime": 13171,
  "imie": 52778,
  "in": 1143,
  "ina": 20103,
  "inal": 50188,
  "inanc": 18935,
  "inancial": 61800,
  "ind": 6229,
  "inder": 21373,
  "indows": 10025,
  "ine": 7333,
  "inegar": 58321,
  "inema": 30607,
  "ines": 31227,
  "iness": 33419,
  "ing": 2908,
  "ings": 25573,
  "ini": 20236,
  "ining": 48364,
  "initis": 44875,
  "inity": 45434,
  "ink": 17208,
  "ino": 35730,
  "ins": 14944,
  "int": 12916,
  "inten": 55013,
  "intenance": 55721,
  "intendo": 35233,
  "inter": 18764,
  "interest": 22734,
  "io": 15170,
  "ion": 2090,
  "ional": 26549,
  "ione": 50049,
  "ions": 14046,
  "ior": 54272,
  "ious": 41615,
  "ip": 9434,
  "ipp": 53457,
  "ips": 35894,
  "iqu": 46624,
  "ique": 21937,
  "iques": 62868,
  "ir": 4608,
  "ira": 36561,
  "ird": 42881,
  "ire": 14122,
  "irect": 50295,
  "iri": 53954,
  "irl": 26756,
  "iron": 59273,
  "irst": 36012,
  "irus": 37971,
  "is": 1718,
  "ise": 28417,
  "iser": 36861,
  "ish": 6796,
  "ision": 12507,
  "ism": 15686,
  "ismet": 24098,
  "ison": 63033,
  "isor": 14055,
  "iss": 22946,
  "ist": 6540,
  "ista": 52462,
  "isted": 28455,
  "istr": 60205,
  "istry": 51944,
  "it": 2118,
  "ital": 28193,
  "itch": 61237,
  "ite": 11889,
  "ited": 31898,
  "iter": 41748,
  "ites": 51428,
  "ith": 8123,
  "ities": 43374,
  "ition": 22687,
  "itis": 37396,
  "itor": 38063,
  "itron": 54839,
  "its": 19379,
  "itt": 27022,
  "ity": 10289,
  "ium": 28134,
  "iv": 6623,
  "ive": 10736,
  "iver": 38036,
  "ivers": 22977,
  "ives": 54397,
  "ivin": 59241,
  "ivion": 45889,
  "ivision": 46964,
  "ivon": 59305,
  "ix": 15384,
  "iy": 11227,
  "iya": 42711,
  "iyab": 21844,
  "iyam": 58556,
  "iye": 53085,
  "iyya": 57804,
  "iz": 9785,
  "ize": 22411,
  "ized": 49167,
  "izz": 43714,
  "izzana": 60835,
  "j": 77,
  "ja": 63521,
  "jaz": 44134,
  "ject": 32161,
  "k": 78,
  "ka": 42000,
  "ke": 35668,
  "key": 42604,
  "kh": 50746,
  "khan": 57571,
  "ki": 41068,
  "ks": 47041,
  "kt": 40837,
  "ky": 12906,
  "l": 79,
  "la": 1110,
  "lace": 35041,
  "lack": 14007,
  "lah": 44830,
  "lam": 11248,
  "lan": 15874,
  "land": 19293,
  "lar": 40632,
  "las": 28378,
  "lash": 27811,
  "lasik": 45599,
  "lass": 21255,
  "lat": 15682,
  "lata": 56881,
  "late": 54914,
  "lation": 40187,
  "lay": 11267,
  "ld": 12776,
  "le": 2349,
  "lean": 32934,
  "lease": 49594,
  "lect": 19640,
  "led": 59530,
  "ler": 31935,
  "les": 20386,
  "less": 49865,
  "let": 14393,
  "lets": 52604,
  "lex": 40215,
  "ley": 45474,
  "li": 30429,
  "lic": 13235,
  "lication": 60098,
  "lications": 22736,
  "lick": 49834,
  "liel": 59334,
  "lies": 24741,
  "light": 52364,
  "lim": 22177,
  "lin": 26446,
  "line": 17562,
  "ling": 47198,
  "lish": 8431,
  "ll": 39879,
  "lo": 10971,
  "load": 15125,
  "lob": 32956,
  "lobal": 35787,
  "lor": 37522,
  "lorer": 56163,
  "ls": 56811,
  "lt": 42245,
  "lug": 24482,
  "lugins": 27429,
  "lus": 11375,
  "ly": 11180,
  "m": 80,
  "ma": 8790,
  "mad": 41011,
  "mail": 32937,
  "man": 12018,
  "manent": 28806,
  "mar": 42337,
  "mark": 54629,
  "mat": 58819,
  "max": 18776,
  "mb": 21189,
  "mber": 46080,
  "me": 16862,
  "med": 14108,
  "ment": 6104,
  "ments": 40218,
  "mer": 30170,
  "mes": 39945,
  "mey": 57293,
  "mi": 14837,
  "min": 20590,
  "ml": 43425,
  "mm": 48180,
  "mn": 63007,
  "mon": 37607,
  "mona": 58282,
  "mp": 52094,
  "ms": 14765,
  "mun": 63099,
  "my": 52539,
  "n": 81,
  "na": 26745,
  "nd": 5748,
  "ne": 12240,
  "nea": 44567,
  "ner": 48132,
  "ness": 34574,
  "ng": 27579,
  "nik": 58426,
  "ning": 63748,
  "now": 52993,
  "nxx": 41966,
  "ny": 44697,
  "o": 82,
  "oad": 34625,
  "ob": 6570,
  "obe": 21997,
  "obile": 15409,
  "oc": 5387,
  "ocal": 56812,
  "oche": 48860,
  "ock": 15807,
  "ocket": 58000,
  "od": 6808,
  "ode": 23185,
  "odth": 60496,
  "odthla": 60506,
  "ody": 43172,
  "of": 37139,
  "oft": 11619,
  "og": 5702,
  "ogether": 41504,
  "ograph": 42656,
  "ography": 54465,
  "oh": 16916,
  "oham": 27510,
  "ohn": 55535,
  "oice": 48126,
  "oint": 30602,
  "oj": 53193,
  "ok": 8946,
  "oka": 62385,
  "oker": 29884,
  "okia": 24740,
  "okonia": 45649,
  "ol": 3272,
  "ola": 25798,
  "olar": 63527,
  "old": 15667,
  "ole": 29813,
  "olink": 39086,
  "oll": 40136,
  "olog": 8679,
  "ologie": 51526,
  "ology": 9914,
  "olor": 32361,
  "ols": 62965,
  "olut": 29667,
  "olution": 44028,
  "olutions": 52409,
  "olved": 40571,
  "om": 2838,
  "oma": 30281,
  "oman": 51652,
  "omb": 53125,
  "ome": 13363,
  "omen": 24205,
  "omi": 48404,
  "omp": 11468,
  "oms": 58631,
  "omy": 52011,
  "on": 1053,
  "ond": 10192,
  "one": 5970,
  "ones": 24764,
  "oney": 61780,
  "ong": 19418,
  "ongs": 48206,
  "onia": 40981,
  "onic": 51477,
  "ons": 14080,
  "ont": 3596,
  "ony": 22420,
  "oo": 3731,
  "ood": 18385,
  "oogle": 8265,
  "ook": 6872,
  "ooking": 44976,
  "ool": 19945,
  "oom": 48872,
  "oon": 36863,
  "oot": 25248,
  "op": 5917,
  "ope": 38234,
  "opia": 43629,
  "ople": 49045,
  "or": 1389,
  "ora": 39349,
  "ord": 12852,
  "order": 58196,
  "ore": 12169,
  "org": 63641,
  "ories": 36897,
  "ork": 14826,
  "orld": 15790,
  "orm": 48923,
  "orn": 22855,
  "orr": 44792,
  "orrent": 62746,
  "ors": 22106,
  "ort": 7398,
  "orth": 57327,
  "ory": 19980,
  "os": 4432,
  "osa": 39588,
  "osat": 36786,
  "ose": 31215,
  "osecond": 18171,
  "osh": 19189,
  "oshop": 29809,
  "oss": 27501,
  "osson": 52023,
  "ost": 12497,
  "ostar": 50513,
  "ot": 3365,
  "otal": 60283,
  "ote": 16679,
  "oth": 21466,
  "ots": 45852,
  "ott": 57249,
  "ou": 3224,
  "oub": 50238,
  "ouch": 40649,
  "oud": 35479,
  "ould": 63305,
  "oun": 18921,
  "ound": 24073,
  "ount": 32410,
  "our": 9158,
  "ourn": 49085,
  "ournal": 60885,
  "ours": 29167,
  "ous": 11748,
  "ouse": 34224,
  "ousif": 57138,
  "out": 9805,
  "outube": 21386,
  "ov": 4133,
  "ove": 11434,
  "over": 36903,
  "overy": 20819,
  "ovo": 52636,
  "ow": 3984,
  "ower": 22393,
  "own": 13117,
  "ownload": 16039,
  "ows": 9722,
  "ox": 5485,
  "oy": 24138,
  "oz": 29177,
  "p": 83,
  "pa": 30660,
  "paper": 59671,
  "part": 27052,
  "partment": 28912,
  "pat": 41651,
  "patient": 45523,
  "pe": 24703,
  "pen": 12001,
  "per": 4750,
  "pet": 51010,
  "pg": 58200,
  "ph": 9821,
  "phone": 26621,
  "phth": 44724,
  "phthalm": 44913,
  "play": 54536,
  "ple": 58360,
  "plus": 23409,
  "port": 24911,
  "pos": 57106,
  "pp": 6651,
  "pport": 46961,
  "pr": 32894,
  "press": 39576,
  "pro": 56000,
  "ps": 21055,
  "pt": 6252,
  "ption": 22658,
  "ptop": 50347,
  "ptv": 14534,
  "py": 63710,
  "q": 84,
  "qa": 51852,
  "qu": 11489,
  "que": 16117,
  "r": 85,
  "ra": 3136,
  "rab": 10189,
  "rack": 30112,
  "ract": 14149,
  "raction": 17877,
  "raft": 42765,
  "rag": 29007,
  "ragon": 36948,
  "rah": 39154,
  "rahim": 59307,
  "ral": 39040,
  "ram": 14681,
  "ran": 10197,
  "rand": 59951,
  "rans": 26089,
  "raph": 24978,
  "raq": 53747,
  "rary": 61563,
  "rat": 40401,
  "raw": 59074,
  "re": 1862,
  "read": 41301,
  "reak": 51051,
  "ream": 8024,
  "reaming": 41628,
  "reat": 8354,
  "reatment": 9453,
  "red": 39010,
  "ree": 15090,
  "reen": 38010,
  "reet": 44616,
  "ren": 16399,
  "rence": 47220,
  "rench": 36803,
  "res": 46850,
  "ress": 19436,
  "rest": 53284,
  "ret": 53536,
  "rex": 42251,
  "ri": 3682,
  "ria": 27895,
  "rian": 59167,
  "ric": 34381,
  "rid": 42583,
  "riend": 21352,
  "rig": 31274,
  "right": 53552,
  "rim": 22757,
  "rip": 12295,
  "ris": 48933,
  "rist": 40537,
  "rit": 48779,
  "riv": 18812,
  "rix": 37291,
  "ro": 2246,
  "roid": 9438,
  "rol": 25222,
  "rom": 24072,
  "rome": 43022,
  "ron": 13477,
  "rong": 33125,
  "ronic": 51563,
  "rop": 52063,
  "round": 47933,
  "roup": 30700,
  "row": 27467,
  "rtl": 38365,
  "ru": 21378,
  "ruiser": 41056,
  "ry": 10343,
  "s": 86,
  "sa": 51947,
  "sat": 41800,
  "sc": 39718,
  "sch": 33891,
  "se": 25251,
  "ser": 38508,
  "sh": 10873,
  "shah": 57775,
  "ship": 37508,
  "size": 42370,
  "sky": 41575,
  "sn": 24202,
  "sniyya": 59026,
  "soft": 20312,
  "son": 40614,
  "sound": 44763,
  "sp": 19711,
  "ss": 8380,
  "st": 2276,
  "star": 50696,
  "station": 32139,
  "stem": 23096,
  "ster": 44598,
  "sung": 20876,
  "sur": 49842,
  "surance": 62055,
  "sw": 61851,
  "t": 87,
  "ta": 31872,
  "tain": 53166,
  "td": 42020,
  "te": 23380,
  "ter": 3968,
  "tern": 13451,
  "ters": 36890,
  "th": 8201,
  "ther": 25050,
  "ting": 19973,
  "tl": 22766,
  "to": 42740,
  "ton": 50712,
  "tor": 10818,
  "tr": 52460,
  "tre": 48531,
  "ts": 42129,
  "tu": 63002,
  "tv": 57342,
  "ty": 48927,
  "u": 88,
  "ual": 27062,
  "ub": 4033,
  "ubai": 7320,
  "ube": 10561,
  "ublic": 41991,
  "ublish": 61845,
  "uc": 17130,
  "ucation": 44275,
  "uch": 18960,
  "uck": 34378,
  "ucoma": 45258,
  "ud": 8515,
  "ude": 58221,
  "udi": 29686,
  "udio": 44537,
  "ue": 7067,
  "ug": 12978,
  "uh": 40893,
  "uj": 48838,
  "uk": 32515,
  "ul": 5187,
  "ula": 20557,
  "ular": 62110,
  "ulator": 48368,
  "ulf": 52050,
  "ull": 23155,
  "ullet": 30762,
  "ulletin": 31880,
  "ult": 8795,
  "um": 3546,
  "uman": 32932,
  "ume": 60550,
  "ump": 18121,
  "un": 4058,
  "und": 21426,
  "ung": 16227,
  "up": 8921,
  "ur": 1157,
  "ura": 53587,
  "ural": 43806,
  "ure": 7096,
  "ures": 25858,
  "urim": 58454,
  "uring": 37611,
  "urity": 35031,
  "url": 38910,
  "urn": 43386,
  "urs": 34537,
  "ury": 19954,
  "us": 3868,
  "ush": 28162,
  "usic": 51329,
  "usiness": 34581,
  "uss": 33621,
  "ust": 6562,
  "ustom": 8289,
  "ut": 5254,
  "ute": 54225,
  "uter": 26978,
  "uwa": 38794,
  "uwait": 43059,
  "ux": 18823,
  "uz": 33489,
  "v": 89,
  "vata": 59301,
  "vb": 32997,
  "vd": 55450,
  "ve": 2691,
  "ved": 26920,
  "vel": 14128,
  "velop": 43314,
  "ven": 41484,
  "vent": 29402,
  "ver": 9208,
  "verage": 28075,
  "verter": 46064,
  "vice": 39609,
  "vices": 34784,
  "vid": 52214,
  "view": 48973,
  "vil": 55680,
  "vision": 30572,
  "vo": 50108,
  "vue": 20666,
  "w": 90,
  "wa": 27530,
  "war": 44761,
  "ware": 19146,
  "way": 30129,
  "we": 28092,
  "weet": 62735,
  "win": 60902,
  "wit": 13676,
  "witter": 15000,
  "word": 37338,
  "work": 32080,
  "x": 91,
  "xis": 61168,
  "xx": 31816,
  "xy": 16515,
  "y": 92,
  "ya": 19364,
  "yah": 51031,
  "yahu": 58716,
  "yan": 42118,
  "yanot": 58699,
  "yg": 25517,
  "yle": 38240,
  "yn": 32292,
  "yo": 61329,
  "yp": 34117,
  "ype": 53675,
  "ypes": 41829,
  "yr": 58992,
  "ys": 18031,
  "ysique": 52158,
  "z": 93,
  "za": 29942,
  "ze": 56445,
  "zer": 36139,
  "zh": 52189,
  "zy": 56472,
  "{": 94,
  "|": 95,
  "}": 96,
  "~": 97,
  "¡": 98,
  "¢": 99,
  "£": 100,
  "¤": 101,
  "¥": 102,
  "¦": 103,
  "§": 104,
  "§Ø": 264,
  "§Øª": 838,
  "§ÙĦØ": 266,
  "§ÙĦØª": 6784,
  "§ÙĦØªØ²Ø§Ùħ": 12862,
  "¨": 105,
  "©": 106,
  "ª": 107,
  "«": 108,
  "¬": 109,
  "®": 110,
  "¯": 111,
  "°": 112,
  "±": 113,
  "²": 114,
  "²Ù": 2068,
  "²Ùħ": 3429,
  "²ÙħØ©": 3295,
  "²ÙħÙĦØ§Ø¡": 58003,
  "³": 115,
  "³Øª": 1306,
  "´": 116,
  "´ØªØ±Ø§Ùĥ": 10722,
  "µ": 117,
  "µÙĬÙĨ": 45134,
  "¶": 118,
  "¶Ø§ÙģØ©": 6544,
  "·": 119,
  "¸": 120,
  "¹": 121,
  "¹Ø§Ø¨": 7247,
  "º": 122,
  "ºØ§Ø¡": 51696,
  "ºØ§Ø²": 25067,
  "ºØ§Ùħ": 62278,
  "»": 123,
  "¼": 124,
  "½": 125,
  "¾": 126,
  "¿": 127,
  "À": 128,
  "Á": 129,
  "Â": 130,
  "Ã": 131,
  "Ä": 132,
  "Å": 133,
  "Æ": 134,
  "Ç": 135,
  "È": 136,
  "É": 137,
  "Ê": 138,
  "Ë": 139,
  "Ì": 140,
  "Í": 141,
  "Î": 142,
  "Ï": 143,
  "Ð": 144,
  "Ñ": 145,
  "Ò": 146,
  "Ó": 147,
  "Ô": 148,
  "Õ": 149,
  "Ö": 150,
  "×": 151,
  "Ø": 152,
  "Ø¡": 732,
  "Ø¡Ø§": 50111,
  "Ø¡Ø©": 13786,
  "Ø¢": 931,
  "Ø¢Ø¡": 22574,
  "Ø¢Ø¢": 59303,
  "Ø¢Ø¨": 24244,
  "Ø¢Ø¨Ø©": 38385,
  "Ø¢Ø©": 16187,
  "Ø¢Øª": 4124,
  "Ø¢Ø±": 30749,
  "Ø¢Ø¹": 49868,
  "Ø¢Ù": 14425,
  "Ø¢Ùģ": 30928,
  "Ø¢ÙĥÙĦ": 23300,
  "Ø¢ÙĦ": 19431,
  "Ø¢ÙĦÙģ": 46170,
  "Ø¢Ùħ": 40259,
  "Ø¢ÙħØ±": 17686,
  "Ø¢ÙĨ": 2173,
  "Ø¢Ùĩ": 52092,
  "Ø£": 349,
  "Ø£Ø¨": 23475,
  "Ø£Ø¨Ø§ÙĨ": 52113,
  "Ø£Ø¨ÙĪ": 54309,
  "Ø£Ø©": 1259,
  "Ø£Øª": 2016,
  "Ø£ØªØ§ÙĨ": 62951,
  "Ø£ØªÙĩ": 19790,
  "Ø£ØªÙĩØ§": 62219,
  "Ø£ØªÙĪÙĨ": 60150,
  "Ø£ØªÙī": 60485,
  "Ø£ØªÙĬ": 6304,
  "Ø£ØªÙĬÙĨ": 45420,
  "Ø£Ø«Ø±": 23570,
  "Ø£Ø¬Ø±": 15721,
  "Ø£Ø¬Ø±Ø©": 51597,
  "Ø£Ø®Ø¨Ø§Ø±": 54138,
  "Ø£Ø®Ø°": 10796,
  "Ø£Ø®Ø±": 53403,
  "Ø£Ø¯": 51910,
  "Ø£Ø¯ÙĪÙĬØ©": 34604,
  "Ø£Ø°ÙĨ": 37693,
  "Ø£Ø±": 16124,
  "Ø£Ø±Ø©": 54019,
  "Ø£Ø³": 1123,
  "Ø£Ø³Ø§Ø©": 14411,
  "Ø£Ø³Ø¨ÙĪØ¹": 28084,
  "Ø£Ø³Ø¨ÙĪØ¹Ø£Ø³Ø¨ÙĪØ¹": 44634,
  "Ø£Ø³Ø³": 53038,
  "Ø£Ø³Ùģ": 35550,
  "Ø£Ø´": 43639,
  "Ø£ØŃÙħØ¯": 29880,
  "Ø£Ù": 1336,
  "Ø£ÙĥØ¯": 7062,
  "Ø£ÙĥÙĦ": 50791,
  "Ø£ÙĥÙĬØ¯": 6434,
  "Ø£ÙĦ": 4316,
  "Ø£ÙĦØ©": 3851,
  "Ø£ÙĦØ¹Ø§Ø¨": 43971,
  "Ø£ÙĦÙĥ": 15851,
  "Ø£ÙĦÙĥÙħ": 52368,
  "Ø£ÙĦÙħØ§ÙĨÙĬ": 56661,
  "Ø£ÙĦÙĨØ§": 37379,
  "Ø£ÙĦÙĩ": 18299,
  "Ø£ÙĦÙĩØ§": 55420,
  "Ø£ÙĦÙĩÙħ": 58937,
  "Ø£ÙĦÙĪØ§": 40833,
  "Ø£ÙĦÙĪÙĨ": 25976,
  "Ø£Ùħ": 10481,
  "Ø£ÙħØ©": 57354,
  "Ø£ÙħÙĦ": 7643,
  "Ø£ÙħÙĬÙĨ": 3894,
  "Ø£ÙĨ": 1322,
  "Ø£ÙĨØ§": 31450,
  "Ø£ÙĨÙģ": 16491,
  "Ø£ÙĨÙģØª": 54208,
  "Ø£ÙĨÙĩ": 4909,
  "Ø£ÙĨÙĬ": 39069,
  "Ø£Ùĩ": 14825,
  "Ø£ÙĩØ§": 60224,
  "Ø£ÙĩÙĦ": 37798,
  "Ø£ÙĪ": 56316,
  "Ø£ÙĪØ§": 55002,
  "Ø£Ùī": 6799,
  "Ø£ÙĬ": 2259,
  "Ø£ÙĬØª": 30224,
  "Ø£ÙĬØ³ÙĦÙĨØ¯Ø§Øª": 59193,
  "Ø£ÙĬØ³ÙĦÙĨØ¯Ø§ØªØ§ÙĬÙĪØ§ÙĨ": 59309,
  "Ø£ÙĬÙĨ": 62991,
  "Ø¤": 448,
  "Ø¤Ø§Ø¯": 7280,
  "Ø¤Ø§ÙĦ": 2885,
  "Ø¤Ø§ÙĦÙĩ": 55479,
  "Ø¤Ø©": 63072,
  "Ø¤Ø«Ø±": 19479,
  "Ø¤Ø¯ÙĬ": 9130,
  "Ø¤Ø±ÙĬØ©": 45049,
  "Ø¤Ø³": 39851,
  "Ø¤Ù": 51619,
  "Ø¤ÙĥØ¯": 5665,
  "Ø¤ÙĦØ§Ø¡": 2561,
  "Ø¤ÙħÙĨ": 10827,
  "Ø¤ÙħÙĨÙĬÙĨ": 59900,
  "Ø¤ÙĨ": 43300,
  "Ø¤Ùĩ": 42159,
  "Ø¤ÙĩØ§": 48360,
  "Ø¤ÙĪØ§": 32930,
  "Ø¤ÙĪØ¨": 32171,
  "Ø¤ÙĪØ³": 18604,
  "Ø¤ÙĪÙĦ": 11906,
  "Ø¤ÙĪÙĦÙĬ": 36971,
  "Ø¤ÙĪÙĦÙĬØ§Øª": 35797,
  "Ø¤ÙĪÙĦÙĬØ©": 13853,
  "Ø¤ÙĪÙĦÙĬÙĨ": 14614,
  "Ø¤ÙĪÙĨ": 2283,
  "Ø¤ÙĬØ©": 9888,
  "Ø¥": 527,
  "Ø¥Ø¨Ø±Ø§ÙĩÙĬÙħ": 57575,
  "Ø¥ÙĦÙī": 60022,
  "Ø¥ÙĨ": 48377,
  "Ø¦": 412,
  "Ø¦Ø§": 2867,
  "Ø¦Ø§Ø¨": 10208,
  "Ø¦Ø§Øª": 2395,
  "Ø¦Ø§Ø³Ø©": 2337,
  "Ø¦Ø§ÙĦ": 50605,
  "Ø¦Ø§Ùħ": 20675,
  "Ø¦Ø¨": 21795,
  "Ø¦Ø¨ÙĤ": 51827,
  "Ø¦Ø©": 764,
  "Ø¦Øª": 9834,
  "Ø¦ØªÙĩ": 17645,
  "Ø¦ØªÙĩØ§": 23005,
  "Ø¦ØªÙĩÙħ": 53289,
  "Ø¦ØªÙĬ": 54530,
  "Ø¦ØªÙĬÙĨ": 29199,
  "Ø¦Ø«Ø§Ø±": 62251,
  "Ø¦Ø¬Ø§Ø±": 39362,
  "Ø¦Ø¯Ø©": 54831,
  "Ø¦Ø°": 8880,
  "Ø¦Ø°Ø§ÙĨ": 51542,
  "Ø¦Ø±": 6635,
  "Ø¦Ø±Ø§ÙĨ": 15930,
  "Ø¦Ø³": 50014,
  "Ø¦ØµØ§ÙĦ": 40097,
  "Ø¦Ù": 2069,
  "Ø¦ÙĦ": 11427,
  "Ø¦ÙĦØ©": 3689,
  "Ø¦ÙĦÙĩ": 19029,
  "Ø¦Ùħ": 39938,
  "Ø¦ÙħØ©": 9364,
  "Ø¦ÙĨ": 18075,
  "Ø¦ÙĨØ§": 58361,
  "Ø¦ÙĨØ§Ùģ": 7216,
  "Ø¦Ùĩ": 10757,
  "Ø¦ÙĩØ§": 21335,
  "Ø¦ÙĩÙħ": 47735,
  "Ø¦ÙĪØ§": 45442,
  "Ø¦ÙĪÙĦÙĬØ©": 59804,
  "Ø¦ÙĪÙĦÙĬÙĨ": 63730,
  "Ø¦ÙĪÙĨ": 5476,
  "Ø¦ÙĪÙĬØ©": 18302,
  "Ø¦Ùī": 27838,
  "Ø¦ÙĬ": 2261,
  "Ø¦ÙĬØ§": 11738,
  "Ø¦ÙĬØ§Øª": 5219,
  "Ø¦ÙĬØ¨": 44962,
  "Ø¦ÙĬØ©": 3955,
  "Ø¦ÙĬØ³": 612,
  "Ø¦ÙĬØ³ÙĬ": 4017,
  "Ø¦ÙĬÙĦ": 7702,
  "Ø¦ÙĬÙħ": 35480,
  "Ø¦ÙĬÙĨ": 3383,
  "Ø¦ÙĬÙĩ": 43294,
  "Ø§": 271,
  "Ø§Ø": 265,
  "Ø§Ø¡": 345,
  "Ø§Ø¡Ø§Øª": 2921,
  "Ø§Ø¡Ø§ØªÙĩÙħ": 54575,
  "Ø§Ø¡Ø©": 6916,
  "Ø§Ø¡Øª": 24855,
  "Ø§Ø¡ÙĦØ©": 57780,
  "Ø§Ø¡Ùĩ": 33826,
  "Ø§Ø¡ÙĩØ§": 53753,
  "Ø§Ø¢": 37241,
  "Ø§Ø£": 8724,
  "Ø§Ø£ÙĦØ¨Ø§ÙĨÙĬØ§Ø£": 54357,
  "Ø§Ø£ÙĦØ¨Ø§ÙĨÙĬØ§Ø£ÙĪØ±ÙĪØºÙĪØ§ÙĬÙĨÙĬ": 59842,
  "Ø§Ø£ÙĦØ¨Ø§ÙĨÙĬØ§Ø£ÙĪØ±ÙĪØºÙĪØ§ÙĬÙĨÙĬØ¬ÙĬØ±ÙĬØ§ÙħÙĪØ±ÙĬØªØ§ÙĨÙĬØ§ÙĦÙĬØªÙĪØ§ÙĨÙĬØ§Ø³ÙĦÙĪÙģØ§ÙĥÙĬ": 60679,
  "Ø§Ø£ÙĦØ¨Ø§ÙĨÙĬØ§Ø£ÙĪØ±ÙĪØºÙĪØ§ÙĬÙĨÙĬØ¬ÙĬØ±ÙĬØ§ÙħÙĪØ±ÙĬØªØ§ÙĨÙĬØ§ÙĦÙĬØªÙĪØ§ÙĨÙĬØ§Ø³ÙĦÙĪÙģØ§ÙĥÙĬØ§Ø¨ÙĨØºÙĦØ§Ø¯ÙĬØ´Ø¨ÙĨÙħØ§Ø¨ÙĪØªØ³ÙĪØ§ÙĨ": 61425,
  "Ø§Ø£ÙĨ": 63534,
  "Ø§Ø£ÙĪÙĥØ±": 44849,
  "Ø§Ø£ÙĪÙĥØ±Ø§ÙĨÙĬØ§Ø³ÙĨØºØ§ÙģÙĪØ±Ø©": 59182,
  "Ø§Ø£ÙĪÙĥØ±Ø§ÙĨÙĬØ§Ø³ÙĨØºØ§ÙģÙĪØ±Ø©ÙĥÙħØ¨ÙĪØ¯ÙĬ": 59437,
  "Ø§Ø¤": 2516,
  "Ø§Ø¤Ù": 8655,
  "Ø§Ø¤Ùĥ": 38093,
  "Ø§Ø¤ÙĥÙħ": 43926,
  "Ø§Ø¤ÙĦ": 9552,
  "Ø§Ø¤ÙĦØ§Øª": 12698,
  "Ø§Ø¤Ùħ": 39315,
  "Ø§Ø¤ÙĨØ§": 18711,
  "Ø§Ø¤Ùĩ": 8414,
  "Ø§Ø¤ÙĩØ§": 8815,
  "Ø§Ø¤ÙĩÙħ": 15088,
  "Ø§Ø¤ÙĪØ§": 32016,
  "Ø§Ø¤ÙĪÙĦ": 30182,
  "Ø§Ø¤ÙĪÙĨ": 58950,
  "Ø§Ø¥": 16744,
  "Ø§Ø¥ÙĬØ±Ø§ÙĨ": 53296,
  "Ø§Ø¥ÙĬØ±Ø§ÙĨØ§ÙĦØ£Ø±Ø¬ÙĨØªÙĬÙĨ": 59597,
  "Ø§Ø¦": 357,
  "Ø§Ø¦Ø§Øª": 45080,
  "Ø§Ø¦Ø¨": 1271,
  "Ø§Ø¦Ø¨Ø©": 10680,
  "Ø§Ø¦Ø¨Ùĩ": 16027,
  "Ø§Ø¦Ø¨ÙĬ": 53586,
  "Ø§Ø¦Ø¨ÙĬÙĨ": 58700,
  "Ø§Ø¦Ø©": 2747,
  "Ø§Ø¦Ø¬": 1966,
  "Ø§Ø¦Ø¬Ø©": 49649,
  "Ø§Ø¦Ø¬Ùĩ": 21732,
  "Ø§Ø¦Ø®": 57966,
  "Ø§Ø¦Ø¯": 1394,
  "Ø§Ø¦Ø¯Ø§": 29923,
  "Ø§Ø¦Ø¯Ø§Øª": 62548,
  "Ø§Ø¦Ø¯Ø©": 2654,
  "Ø§Ø¦Ø¯Ùĩ": 28710,
  "Ø§Ø¦Ø¯ÙĬ": 24667,
  "Ø§Ø¦Ø±": 1062,
  "Ø§Ø¦Ø±Ø§": 59138,
  "Ø§Ø¦Ø±Ø§Øª": 4461,
  "Ø§Ø¦Ø±Ø©": 2114,
  "Ø§Ø¦Ø±Ùģ": 55776,
  "Ø§Ø¦Ø±ÙĩØ§": 63907,
  "Ø§Ø¦Ø±Ùī": 27251,
  "Ø§Ø¦Ø±ÙĬ": 4504,
  "Ø§Ø¦Ø±ÙĬØ©": 15423,
  "Ø§Ø¦Ø±ÙĬÙĨ": 29597,
  "Ø§Ø¦Ø²": 3746,
  "Ø§Ø¦Ø²Ø©": 3020,
  "Ø§Ø¦Ø²ÙĬÙĨ": 42852,
  "Ø§Ø¦Ø³": 8336,
  "Ø§Ø¦Ø³Ø©": 26742,
  "Ø§Ø¦Ø´": 24827,
  "Ø§Ø¦Øµ": 6972,
  "Ø§Ø¦Ø¶": 17978,
  "Ø§Ø¦Ø·": 4835,
  "Ø§Ø¦Ø¹": 2338,
  "Ø§Ø¦Ø¹Ø§": 36696,
  "Ø§Ø¦Ø¹Ø§Øª": 14026,
  "Ø§Ø¦Ø¹Ø©": 3738,
  "Ø§Ø¦Ø¹ÙĬÙĨ": 60328,
  "Ø§Ø¦Øº": 56912,
  "Ø§Ø¦ØŃ": 2832,
  "Ø§Ø¦ØŃØ©": 16970,
  "Ø§Ø¦Ù": 535,
  "Ø§Ø¦Ùģ": 1617,
  "Ø§Ø¦ÙģØ§": 48880,
  "Ø§Ø¦ÙģØ©": 7460,
  "Ø§Ø¦ÙģÙĬ": 9512,
  "Ø§Ø¦ÙģÙĬØ©": 15295,
  "Ø§Ø¦ÙĤ": 1181,
  "Ø§Ø¦ÙĤØ©": 27601,
  "Ø§Ø¦ÙĤÙĬ": 14016,
  "Ø§Ø¦ÙĤÙĬÙĨ": 41610,
  "Ø§Ø¦Ùĥ": 8517,
  "Ø§Ø¦ÙĥØ©": 30550,
  "Ø§Ø¦ÙĥÙħ": 18931,
  "Ø§Ø¦ÙĦ": 963,
  "Ø§Ø¦ÙĦØ§": 3422,
  "Ø§Ø¦ÙĦØ§Øª": 24150,
  "Ø§Ø¦ÙĦØ©": 2401,
  "Ø§Ø¦ÙĦÙĩ": 17868,
  "Ø§Ø¦ÙĦÙĩØ§": 35660,
  "Ø§Ø¦ÙĦÙĩÙħ": 38000,
  "Ø§Ø¦ÙĦÙĬ": 43055,
  "Ø§Ø¦ÙĦÙĬØ©": 32818,
  "Ø§Ø¦ÙĦÙĬÙĨ": 21682,
  "Ø§Ø¦Ùħ": 1705,
  "Ø§Ø¦ÙħØ§": 2587,
  "Ø§Ø¦ÙħØ©": 2015,
  "Ø§Ø¦ÙħÙĩ": 25124,
  "Ø§Ø¦ÙħÙĬÙĨ": 10142,
  "Ø§Ø¦ÙĨ": 4686,
  "Ø§Ø¦ÙĨØ§": 6325,
  "Ø§Ø¦ÙĨØ§Øª": 13027,
  "Ø§Ø¦ÙĨØ©": 29865,
  "Ø§Ø¦ÙĨÙĩ": 51512,
  "Ø§Ø¦ÙĨÙĬÙĨ": 46130,
  "Ø§Ø¦Ùĩ": 2488,
  "Ø§Ø¦ÙĩØ§": 2912,
  "Ø§Ø¦ÙĩÙħ": 4435,
  "Ø§Ø¦ÙĩÙħØ§": 29737,
  "Ø§Ø¦ÙĩÙĨ": 36651,
  "Ø§Ø¦Ùī": 4823,
  "Ø§Ø¦ÙĬ": 854,
  "Ø§Ø¦ÙĬØ§": 4689,
  "Ø§Ø¦ÙĬØ§Øª": 4503,
  "Ø§Ø¦ÙĬØ©": 904,
  "Ø§Ø¦ÙĬØ±": 38361,
  "Ø§Ø¦ÙĬÙĦ": 1614,
  "Ø§Ø¦ÙĬÙħ": 51150,
  "Ø§Ø¦ÙĬÙĨ": 32008,
  "Ø§Ø¦ÙĬÙĩ": 13326,
  "Ø§Ø¦ÙĬÙĪÙĨ": 40269,
  "Ø§Ø¦ÙĬÙĬÙĨ": 15353,
  "Ø§Ø§": 5961,
  "Ø§Ø§Ø": 10551,
  "Ø§Ø§Øª": 46635,
  "Ø§Ø§Ø±": 35445,
  "Ø§Ø§Ø±ÙĪØ¨": 59482,
  "Ø§Ø§Ø²": 51865,
  "Ø§Ø§Ø²Ø§Ø±": 55970,
  "Ø§Ø§Ø³": 39864,
  "Ø§Ø§Ø³Øª": 43037,
  "Ø§Ø§Ø³ØªØ±Ø§ÙĦÙĬ": 54746,
  "Ø§Ø§Ø³ØªØ±Ø§ÙĦÙĬØ§ÙĩÙĪÙĨØ¬": 59524,
  "Ø§Ø§Ø³ØªÙĪÙĨÙĬ": 50011,
  "Ø§Ø§Ù": 27936,
  "Ø§Ø§ÙĦ": 45381,
  "Ø§Ø§ÙĦØ": 7421,
  "Ø§Ø§ÙĦØ£": 35541,
  "Ø§Ø§ÙĦØ§Øª": 55112,
  "Ø§Ø§ÙĦØ§ØªØŃØ§Ø¯": 56439,
  "Ø§Ø§ÙĦØ¨": 32771,
  "Ø§Ø§ÙĦØ¨Ø±Ø§Ø²ÙĬ": 53823,
  "Ø§Ø§ÙĦØ¨Ø±Ø§Ø²ÙĬÙĦØ¬ÙħÙĩÙĪØ±ÙĬØ©": 59548,
  "Ø§Ø§ÙĦØª": 53770,
  "Ø§Ø§ÙĦØ¬": 43728,
  "Ø§Ø§ÙĦØ¬Ø²Ø§Ø¦Ø±Ùģ": 59579,
  "Ø§Ø§ÙĦØ¬Ø²Ø§Ø¦Ø±ÙģÙĦØ³Ø·ÙĬÙĨ": 59580,
  "Ø§Ø§ÙĦØ¬Ø²Ø§Ø¦Ø±ÙģÙĦØ³Ø·ÙĬÙĨØ§ÙĦÙģÙĦØ¨ÙĬÙĨÙģÙĨØ²ÙĪÙĬÙĦØ§ÙĥÙĪÙĦÙĪÙħØ¨ÙĬ": 60599,
  "Ø§Ø§ÙĦØ¬Ø²Ø§Ø¦Ø±ÙģÙĦØ³Ø·ÙĬÙĨØ§ÙĦÙģÙĦØ¨ÙĬÙĨÙģÙĨØ²ÙĪÙĬÙĦØ§ÙĥÙĪÙĦÙĪÙħØ¨ÙĬØ§ÙħØ§ÙĦÙĬØ²ÙĬØ§Ø£ÙĪÙĥØ±Ø§ÙĨÙĬØ§Ø³ÙĨØºØ§ÙģÙĪØ±Ø©ÙĥÙħØ¨ÙĪØ¯ÙĬ": 61471,
  "Ø§Ø§ÙĦØ¯": 48870,
  "Ø§Ø§ÙĦØ¯ÙĨÙħØ§Ø±Ùĥ": 57554,
  "Ø§Ø§ÙĦØ¯ÙĨÙħØ§Ø±ÙĥØ§ÙĦØ³ÙĪÙĬØ¯": 58758,
  "Ø§Ø§ÙĦØ¯ÙĨÙħØ§Ø±ÙĥØ§ÙĦØ³ÙĪÙĬØ¯ØªØ±ÙĥÙĬØ§Ø§ÙĦÙħÙĥØ³ÙĬÙĥÙĦØ¨ÙĨØ§ÙĨ": 60728,
  "Ø§Ø§ÙĦØ³": 44949,
  "Ø§Ø§ÙĦØ³ÙĨØº": 58586,
  "Ø§Ø§ÙĦØ³ÙĨØºØ§ÙĦØ¨Ø§Ø±": 59663,
  "Ø§Ø§ÙĦØ³ÙĨØºØ§ÙĦØ¨Ø§Ø±Ø§Ø¬ÙĪØ§ÙĬØ§ÙĦÙĥÙĪÙĬØªØ§ÙĦØµÙĪÙħØ§ÙĦØ¨": 60285,
  "Ø§Ø§ÙĦØ³ÙĨØºØ§ÙĦØ¨Ø§Ø±Ø§Ø¬ÙĪØ§ÙĬØ§ÙĦÙĥÙĪÙĬØªØ§ÙĦØµÙĪÙħØ§ÙĦØ¨Ø§Ø¨ÙĪØ§": 60761,
  "Ø§Ø§ÙĦØŃ": 38277,
  "Ø§Ø§ÙĦÙĦÙĩ": 46127,
  "Ø§Ø§ÙĦÙħ": 26443,
  "Ø§Ø§ÙĦÙħÙĥØ³ÙĬÙĥ": 59112,
  "Ø§Ø§ÙĦÙĨÙħØ³": 53157,
  "Ø§Ø§ÙĦÙĩ": 49596,
  "Ø§Ø§ÙĦÙĩÙĨØ¯": 53867,
  "Ø§Ø§ÙĦÙĪÙĦ": 59699,
  "Ø§Ø§ÙĦÙĪÙĦÙĪÙģÙĦØ§": 60173,
  "Ø§Ø§ÙĦÙĪÙĦÙĪÙģÙĦØ§ÙĪØ§ÙĦÙĥØªÙĦØ§ÙĨÙĬØ©": 60586,
  "Ø§Ø§ÙĦÙĪÙĦÙĪÙģÙĦØ§ÙĪØ§ÙĦÙĥØªÙĦØ§ÙĨÙĬØ©Ø§ÙĦØ¨ÙĦØºØ§Ø±ÙĬØ©Ø§ÙĦØ¨ÙĬÙĦØ§Ø±ÙĪØ³ÙĬØ©Ø§ÙĦØ£Ø±ÙħÙĨÙĬØ©Ø§ÙĦÙĥØ±Ø¯ÙĬØ©": 62273,
  "Ø§Ø§ÙĦÙĬ": 45728,
  "Ø§Ø§ÙĦÙĬØ§Ø¨Ø§ÙĨ": 53421,
  "Ø§Ø§ÙĬØ·Ø§ÙĦÙĬ": 52996,
  "Ø§Ø¨": 338,
  "Ø§Ø¨Ø§": 3345,
  "Ø§Ø¨Ø§Øª": 1047,
  "Ø§Ø¨Ø§ÙĥØ³ØªØ§ÙĨØ£ÙģØºØ§ÙĨØ³ØªØ§ÙĨ": 59636,
  "Ø§Ø¨Ø§ÙĥØ³ØªØ§ÙĨØ£ÙģØºØ§ÙĨØ³ØªØ§ÙĨØ§ÙĦØ¨ÙĪØ³ÙĨØ©": 60159,
  "Ø§Ø¨Ø§ÙĦØ§": 47211,
  "Ø§Ø¨Ø§ÙĨ": 14302,
  "Ø§Ø¨Ø§ÙĨÙĬØ©": 39533,
  "Ø§Ø¨Ø§ÙĬØª": 21695,
  "Ø§Ø¨Ø©": 849,
  "Ø§Ø¨Øª": 2887,
  "Ø§Ø¨ØªÙĨ": 15129,
  "Ø§Ø¨ØªÙĩ": 13839,
  "Ø§Ø¨ØªÙĩØ§": 50958,
  "Ø§Ø¨ØªÙĬ": 42744,
  "Ø§Ø¨Ø®": 13550,
  "Ø§Ø¨Ø¯": 24920,
  "Ø§Ø¨Ø±": 3363,
  "Ø§Ø¨Ø±Ø§Øª": 7301,
  "Ø§Ø¨Ø±Ø§Ø¬": 44268,
  "Ø§Ø¨Ø±Ø©": 20208,
  "Ø§Ø¨Ø²": 18584,
  "Ø§Ø¨Ø³": 29510,
  "Ø§Ø¨Ø³Øª": 56625,
  "Ø§Ø¨Ø·": 1313,
  "Ø§Ø¨Ø·Ø©": 4824,
  "Ø§Ø¨Ø·ÙĬÙĨ": 22171,
  "Ø§Ø¨Ø¹": 1164,
  "Ø§Ø¨Ø¹Ø§Øª": 60869,
  "Ø§Ø¨Ø¹Ø©": 1387,
  "Ø§Ø¨Ø¹Ùĩ": 38734,
  "Ø§Ø¨Ø¹ÙĩØ§": 32477,
  "Ø§Ø¨Ø¹ÙĬÙĨ": 13109,
  "Ø§Ø¨ØŃ": 14297,
  "Ø§Ø¨Ù": 1119,
  "Ø§Ø¨ÙĤ": 1511,
  "Ø§Ø¨ÙĤØ§Øª": 3970,
  "Ø§Ø¨ÙĤØ©": 1928,
  "Ø§Ø¨ÙĤÙĩ": 52967,
  "Ø§Ø¨ÙĤÙĪÙĨ": 50938,
  "Ø§Ø¨ÙĤÙĬÙĨ": 25574,
  "Ø§Ø¨Ùĥ": 19469,
  "Ø§Ø¨ÙĦ": 1722,
  "Ø§Ø¨ÙĦØ§Øª": 10735,
  "Ø§Ø¨ÙĦØ©": 4208,
  "Ø§Ø¨ÙĦØ³": 5251,
  "Ø§Ø¨ÙĦØºØ§Ø±ÙĬ": 45935,
  "Ø§Ø¨ÙĦÙĩ": 31590,
  "Ø§Ø¨ÙĦÙĩØ§": 40006,
  "Ø§Ø¨ÙĦÙĬØ©": 44017,
  "Ø§Ø¨ÙĨ": 44592,
  "Ø§Ø¨ÙĨØº": 51467,
  "Ø§Ø¨ÙĨØºÙĦØ§Ø¯ÙĬØ´Ø¨ÙĨÙħØ§Ø¨": 53062,
  "Ø§Ø¨ÙĨØºÙĦØ§Ø¯ÙĬØ´Ø¨ÙĨÙħØ§Ø¨ÙĪØªØ³ÙĪØ§ÙĨ": 59655,
  "Ø§Ø¨Ùĩ": 3324,
  "Ø§Ø¨ÙĩØ§": 9760,
  "Ø§Ø¨ÙĩØ©": 12508,
  "Ø§Ø¨ÙĩÙħ": 35321,
  "Ø§Ø¨ÙĪ": 37178,
  "Ø§Ø¨ÙĪØ§": 32889,
  "Ø§Ø¨ÙĪØ±": 30930,
  "Ø§Ø¨ÙĪØ±ÙĬ": 60914,
  "Ø§Ø¨ÙĪÙĥØ³": 47716,
  "Ø§Ø¨ÙĪÙĦÙĬ": 63353,
  "Ø§Ø¨ÙĪÙĦÙĬØ³": 57182,
  "Ø§Ø¨ÙĪÙĨ": 9093,
  "Ø§Ø¨Ùī": 19618,
  "Ø§Ø¨ÙĬ": 2078,
  "Ø§Ø¨ÙĬØ§": 13634,
  "Ø§Ø¨ÙĬØ§Øª": 21225,
  "Ø§Ø¨ÙĬØ§ÙĨ": 49690,
  "Ø§Ø¨ÙĬØ¨": 11744,
  "Ø§Ø¨ÙĬØ©": 1978,
  "Ø§Ø¨ÙĬØ«": 31800,
  "Ø§Ø¨ÙĬØ±": 9686,
  "Ø§Ø¨ÙĬØ¹": 5454,
  "Ø§Ø¨ÙĬØŃ": 56066,
  "Ø§Ø¨ÙĬÙĥ": 61513,
  "Ø§Ø¨ÙĬÙĥØ§": 59733,
  "Ø§Ø¨ÙĬÙĦ": 27547,
  "Ø§Ø¨ÙĬÙĦØ§": 60447,
  "Ø§Ø¨ÙĬÙĨ": 4964,
  "Ø§Ø¨ÙĬÙĩ": 25296,
  "Ø§Ø¨ÙĬÙĪ": 38487,
  "Ø§Ø¨ÙĬÙĬÙĨ": 7228,
  "Ø§Ø©": 626,
  "Ø§Øª": 296,
  "Ø§ØªØ§": 11920,
  "Ø§ØªØ§ÙĨ": 42002,
  "Ø§ØªØ¨": 1461,
  "Ø§ØªØ¨Ø§Ø¹": 20069,
  "Ø§ØªØ¨Ø©": 28418,
  "Ø§ØªØ¨Ùĩ": 55546,
  "Ø§ØªØ©": 26214,
  "Ø§ØªØ°": 51383,
  "Ø§ØªØ°Ø©": 8081,
  "Ø§ØªØ³": 60067,
  "Ø§ØªØ³ÙĪ": 60441,
  "Ø§ØªØ´": 30242,
  "Ø§ØªØ´ÙĬ": 58752,
  "Ø§ØªÙ": 1854,
  "Ø§ØªÙģ": 2035,
  "Ø§ØªÙĥ": 12896,
  "Ø§ØªÙĥÙħ": 39140,
  "Ø§ØªÙĦ": 6107,
  "Ø§ØªÙĦÙĪÙĨ": 20311,
  "Ø§ØªÙħ": 7417,
  "Ø§ØªÙħØ©": 37783,
  "Ø§ØªÙħÙĬ": 62541,
  "Ø§ØªÙĨØ§": 10154,
  "Ø§ØªÙĩ": 1415,
  "Ø§ØªÙĩØ§": 2042,
  "Ø§ØªÙĩÙħ": 3896,
  "Ø§ØªÙĩÙĨ": 31292,
  "Ø§ØªÙĪ": 26044,
  "Ø§ØªÙĪØ±": 28014,
  "Ø§ØªÙĪØ±Ùĥ": 44240,
  "Ø§ØªÙī": 48444,
  "Ø§ØªÙĬ": 2552,
  "Ø§ØªÙĬØ©": 23669,
  "Ø§ØªÙĬØ¬ÙĬØ§Øª": 32939,
  "Ø§ØªÙĬØ±": 10792,
  "Ø§ØªÙĬØŃ": 11195,
  "Ø§ØªÙĬÙĦ": 24746,
  "Ø§ØªÙĬÙĦØ§": 47492,
  "Ø§ØªÙĬÙĨ": 13574,
  "Ø§Ø«": 741,
  "Ø§Ø«Ø§": 31249,
  "Ø§Ø«Ø§ÙĨ": 23800,
  "Ø§Ø«Ø©": 6164,
  "Ø§Ø«Ø±": 14312,
  "Ø§Ø«Ø±Ø©": 38115,
  "Ø§Ø«Ø±Øª": 54392,
  "Ø§Ø«Ù": 8028,
  "Ø§Ø«ÙĦ": 13177,
  "Ø§Ø«ÙĦØ©": 9335,
  "Ø§Ø«ÙĪÙĦÙĬ": 12604,
  "Ø§Ø«ÙĪÙĨ": 29206,
  "Ø§Ø«ÙĬ": 13613,
  "Ø§Ø«ÙĬØ§": 48154,
  "Ø§Ø«ÙĬØ©": 10087,
  "Ø§Ø«ÙĬØ±": 28446,
  "Ø§Ø«ÙĬÙĤ": 22519,
  "Ø§Ø«ÙĬÙĦ": 26739,
  "Ø§Ø«ÙĬÙħ": 19755,
  "Ø§Ø¬": 425,
  "Ø§Ø¬Ø¢Øª": 61957,
  "Ø§Ø¬Ø£": 18150,
  "Ø§Ø¬Ø£Ø©": 50566,
  "Ø§Ø¬Ø¦": 22799,
  "Ø§Ø¬Ø§": 7730,
  "Ø§Ø¬Ø§Ø©": 35864,
  "Ø§Ø¬Ø§Øª": 2436,
  "Ø§Ø¬Ø§ØªÙĩÙħ": 53337,
  "Ø§Ø¬Ø§Ø²": 35065,
  "Ø§Ø¬Ø©": 2081,
  "Ø§Ø¬Ø¯": 3271,
  "Ø§Ø¬Ø±": 4281,
  "Ø§Ø¬Ø±Ø§Øª": 36209,
  "Ø§Ø¬Ø±Ø©": 10805,
  "Ø§Ø¬Ø±ÙĪÙĨ": 55058,
  "Ø§Ø¬Ø±ÙĬÙĨ": 8178,
  "Ø§Ø¬Ø²": 43103,
  "Ø§Ø¬Ø²Ø±": 62776,
  "Ø§Ø¬Ø³": 38932,
  "Ø§Ø¬Ø³ØªÙĬØ±": 7777,
  "Ø§Ø¬Ø¹": 2431,
  "Ø§Ø¬Ø¹Ø§Øª": 11680,
  "Ø§Ø¬Ø¹Ø©": 4562,
  "Ø§Ø¬Ø¹Øª": 36751,
  "Ø§Ø¬Ù": 2060,
  "Ø§Ø¬ÙĦ": 5650,
  "Ø§Ø¬Ùħ": 3763,
  "Ø§Ø¬ÙħØ©": 26197,
  "Ø§Ø¬ÙħÙĩ": 60652,
  "Ø§Ø¬ÙħÙĪÙĨ": 41143,
  "Ø§Ø¬ÙħÙĬÙĨ": 23628,
  "Ø§Ø¬ÙĨ": 15989,
  "Ø§Ø¬ÙĨØ©": 24899,
  "Ø§Ø¬ÙĨÙĪØ¨": 53684,
  "Ø§Ø¬Ùĩ": 1941,
  "Ø§Ø¬ÙĩØ§": 57027,
  "Ø§Ø¬ÙĩØ§Øª": 8464,
  "Ø§Ø¬ÙĩØ©": 2626,
  "Ø§Ø¬ÙĪ": 26057,
  "Ø§Ø¬ÙĪØ§": 62032,
  "Ø§Ø¬ÙĪØ§ÙĬØ§": 59542,
  "Ø§Ø¬ÙĪØ§ÙĬØ§ÙĦÙĥÙĪÙĬØªØ§ÙĦØµÙĪÙħØ§ÙĦØ¨": 59784,
  "Ø§Ø¬ÙĪØª": 55154,
  "Ø§Ø¬ÙĪØ±": 25141,
  "Ø§Ø¬ÙĪÙĨ": 26578,
  "Ø§Ø¬Ùī": 43732,
  "Ø§Ø¬ÙĬ": 5166,
  "Ø§Ø¬ÙĬØ©": 7382,
  "Ø§Ø¬ÙĬÙĥÙĬ": 22836,
  "Ø§Ø¬ÙĬÙĦ": 43482,
  "Ø§Ø¬ÙĬÙĨ": 12739,
  "Ø§Ø®": 525,
  "Ø§Ø®Ø§Øª": 63240,
  "Ø§Ø®Ø¨": 47091,
  "Ø§Ø®Ø¨Ø§Ø±": 23988,
  "Ø§Ø®Ø¨Ø©": 35721,
  "Ø§Ø®Ø¨ÙĬÙĨ": 50244,
  "Ø§Ø®Øª": 45542,
  "Ø§Ø®Ø°": 19048,
  "Ø§Ø®Ø±": 5035,
  "Ø§Ø®Ø±Ø©": 8977,
  "Ø§Ø®Ù": 1356,
  "Ø§Ø®ÙĦ": 1412,
  "Ø§Ø®ÙĦØ§Øª": 35095,
  "Ø§Ø®ÙĦØ©": 23979,
  "Ø§Ø®ÙĦÙĩ": 61476,
  "Ø§Ø®ÙĦÙĩØ§": 48334,
  "Ø§Ø®ÙĦÙĬØ©": 19670,
  "Ø§Ø®ÙħØ©": 47042,
  "Ø§Ø®ÙĬ": 18635,
  "Ø§Ø®ÙĬØµ": 14940,
  "Ø§Ø®ÙĬÙĦ": 53513,
  "Ø§Ø®ÙĬÙħ": 48535,
  "Ø§Ø¯": 341,
  "Ø§Ø¯Ø¦": 4359,
  "Ø§Ø¯Ø¦Ø©": 28331,
  "Ø§Ø¯Ø§": 5177,
  "Ø§Ø¯Ø§Ø©": 41018,
  "Ø§Ø¯Ø§Øª": 1448,
  "Ø§Ø¯Ø§ØªÙĩ": 49724,
  "Ø§Ø¯Ø§ØªÙĩØ§": 60144,
  "Ø§Ø¯Ø§ØªÙĩÙħ": 62409,
  "Ø§Ø¯Ø©": 596,
  "Ø§Ø¯Øª": 2740,
  "Ø§Ø¯ØªÙĥ": 53893,
  "Ø§Ø¯ØªÙĥÙħ": 29721,
  "Ø§Ø¯ØªÙĨØ§": 48670,
  "Ø§Ø¯ØªÙĩ": 6025,
  "Ø§Ø¯ØªÙĩØ§": 11493,
  "Ø§Ø¯ØªÙĩÙħ": 30136,
  "Ø§Ø¯ØªÙĬ": 48213,
  "Ø§Ø¯ØªÙĬÙĨ": 30265,
  "Ø§Ø¯Ø«": 1929,
  "Ø§Ø¯Ø«Ø§Øª": 7021,
  "Ø§Ø¯Ø«Ø©": 14845,
  "Ø§Ø¯Ø¬ÙĬ": 27610,
  "Ø§Ø¯Ø±": 1045,
  "Ø§Ø¯Ø±Ø§": 38408,
  "Ø§Ø¯Ø±Ø§Øª": 5366,
  "Ø§Ø¯Ø±Ø©": 1939,
  "Ø§Ø¯Ø±Øª": 62327,
  "Ø§Ø¯Ø±ÙĪØ§": 29740,
  "Ø§Ø¯Ø±ÙĬØ©": 30726,
  "Ø§Ø¯Ø±ÙĬÙĨ": 39916,
  "Ø§Ø¯Ø³": 31340,
  "Ø§Ø¯Ø³ÙĬØ©": 45332,
  "Ø§Ø¯Ø¹": 51424,
  "Ø§Ø¯Ø¹Ø©": 58116,
  "Ø§Ø¯Ù": 629,
  "Ø§Ø¯Ùģ": 9217,
  "Ø§Ø¯ÙģØ©": 13337,
  "Ø§Ø¯ÙĤ": 2736,
  "Ø§Ø¯ÙĤØ©": 8967,
  "Ø§Ø¯ÙĦ": 1879,
  "Ø§Ø¯ÙĦØ§Øª": 18438,
  "Ø§Ø¯ÙĦØ©": 5837,
  "Ø§Ø¯ÙĦÙĪØ¨": 55617,
  "Ø§Ø¯ÙĦÙĪÙĨ": 54230,
  "Ø§Ø¯Ùħ": 2347,
  "Ø§Ø¯ÙħØ§Øª": 55342,
  "Ø§Ø¯ÙħØ©": 3639,
  "Ø§Ø¯ÙħÙĩ": 39772,
  "Ø§Ø¯ÙħÙĬÙĨ": 15250,
  "Ø§Ø¯ÙĨ": 7903,
  "Ø§Ø¯ÙĨØ§": 46215,
  "Ø§Ø¯ÙĨÙĬ": 55230,
  "Ø§Ø¯Ùĩ": 3732,
  "Ø§Ø¯ÙĩØ§": 7232,
  "Ø§Ø¯ÙĩÙħ": 21023,
  "Ø§Ø¯ÙĪ": 16924,
  "Ø§Ø¯ÙĪØ§": 14788,
  "Ø§Ø¯ÙĪØ±": 9108,
  "Ø§Ø¯ÙĪØ³": 50275,
  "Ø§Ø¯ÙĪÙĦ": 40813,
  "Ø§Ø¯ÙĪÙĨ": 32534,
  "Ø§Ø¯ÙĪÙĨØ§": 31928,
  "Ø§Ø¯Ùī": 2889,
  "Ø§Ø¯ÙīØ¡": 33389,
  "Ø§Ø¯ÙĬ": 855,
  "Ø§Ø¯ÙĬØ§": 6167,
  "Ø§Ø¯ÙĬØ§Øª": 19782,
  "Ø§Ø¯ÙĬØ§ÙĨ": 57128,
  "Ø§Ø¯ÙĬØ¨": 51812,
  "Ø§Ø¯ÙĬØ©": 1248,
  "Ø§Ø¯ÙĬØ«": 5793,
  "Ø§Ø¯ÙĬØ¯": 39863,
  "Ø§Ø¯ÙĬØ±": 16204,
  "Ø§Ø¯ÙĬØ³": 59385,
  "Ø§Ø¯ÙĬØ´": 38712,
  "Ø§Ø¯ÙĬÙĤ": 7690,
  "Ø§Ø¯ÙĬÙĦ": 16820,
  "Ø§Ø¯ÙĬÙĦØ§Ùĥ": 46389,
  "Ø§Ø¯ÙĬÙħ": 52260,
  "Ø§Ø¯ÙĬÙĨ": 10509,
  "Ø§Ø¯ÙĬÙĩ": 10541,
  "Ø§Ø¯ÙĬÙĪ": 11419,
  "Ø§Ø¯ÙĬÙĪÙĨ": 24962,
  "Ø§Ø¯ÙĬÙĬÙĨ": 19422,
  "Ø§Ø°": 747,
  "Ø§Ø°Ø§": 1321,
  "Ø§Ø°Ø§Ø©": 40513,
  "Ø§Ø°Ø¨": 18843,
  "Ø§Ø°Ø¨Ø§Øª": 35978,
  "Ø§Ø°Ø¨Ø©": 14256,
  "Ø§Ø°Ø¨ÙĬØ©": 15238,
  "Ø§Ø°Ø©": 26138,
  "Ø§Ø°Ø¬": 7403,
  "Ø§Ø°Ø¬Ø©": 58063,
  "Ø§Ø°Ø±": 49126,
  "Ø§Ø°Ù": 28329,
  "Ø§Ø°ÙĦ": 57447,
  "Ø§Ø°ÙĨ": 18332,
  "Ø§Ø°ÙĨØ¬Ø§ÙĨ": 50446,
  "Ø§Ø°ÙĬ": 39425,
  "Ø§Ø°ÙĬØ¨": 18837,
  "Ø§Ø°ÙĬØ©": 31465,
  "Ø§Ø°ÙĬØ±": 58373,
  "Ø§Ø±": 304,
  "Ø§Ø±Ø¦": 5384,
  "Ø§Ø±Ø¦Ø©": 14655,
  "Ø§Ø±Ø§": 3966,
  "Ø§Ø±Ø§Ø¡": 63660,
  "Ø§Ø±Ø§Øª": 616,
  "Ø§Ø±Ø§ØªÙĩ": 31083,
  "Ø§Ø±Ø§ØªÙĩØ§": 20034,
  "Ø§Ø±Ø§ØªÙĬØ©": 50917,
  "Ø§Ø±Ø§ØªÙĬÙĩ": 45584,
  "Ø§Ø±Ø¨": 2033,
  "Ø§Ø±Ø¨Ø§": 56588,
  "Ø§Ø±Ø¨Ø§Øª": 36166,
  "Ø§Ø±Ø¨Ø©": 3870,
  "Ø§Ø±Ø¨Ùĩ": 26244,
  "Ø§Ø±Ø¨ÙĩØ§": 42174,
  "Ø§Ø±Ø¨ÙĩÙħ": 49923,
  "Ø§Ø±Ø¨ÙĪÙĨ": 63775,
  "Ø§Ø±Ø¨ÙĬ": 46400,
  "Ø§Ø±Ø¨ÙĬÙĨ": 18310,
  "Ø§Ø±Ø©": 496,
  "Ø§Ø±Øª": 2180,
  "Ø§Ø±ØªØ§": 48960,
  "Ø§Ø±ØªÙĨØ§": 27756,
  "Ø§Ø±ØªÙĩ": 6682,
  "Ø§Ø±ØªÙĩØ§": 12196,
  "Ø§Ø±ØªÙĩÙħ": 47964,
  "Ø§Ø±ØªÙĬ": 35523,
  "Ø§Ø±ØªÙĬÙĨ": 28827,
  "Ø§Ø±Ø«": 22653,
  "Ø§Ø±Ø«Ø©": 54998,
  "Ø§Ø±Ø¬": 1115,
  "Ø§Ø±Ø¬ÙĬ": 6272,
  "Ø§Ø±Ø¯": 2106,
  "Ø§Ø±Ø¯Ø©": 5221,
  "Ø§Ø±Ø¯Ùĩ": 40183,
  "Ø§Ø±Ø¯ÙĪ": 18649,
  "Ø§Ø±Ø¯ÙĪÙĬØ±": 21084,
  "Ø§Ø±Ø¯ÙĬÙĨ": 29784,
  "Ø§Ø±Ø¯ÙĬÙĨØ§ÙĦ": 37641,
  "Ø§Ø±Ø³": 1536,
  "Ø§Ø±Ø³Ø§": 44104,
  "Ø§Ø±Ø³Ø©": 42598,
  "Ø§Ø±Ø³ÙĬØ©": 34866,
  "Ø§Ø±Ø³ÙĬÙĨ": 26523,
  "Ø§Ø±Ø¶": 4570,
  "Ø§Ø±Ø¶Ø©": 7073,
  "Ø§Ø±Ø¹": 2041,
  "Ø§Ø±Ø¹Ø¨Ø±": 63102,
  "Ø§Ø±Ø¹Ø©": 12752,
  "Ø§Ø±Ø¹ÙĬÙĨ": 29484,
  "Ø§Ø±Øº": 45819,
  "Ø§Ø±ØŃ": 52756,
  "Ø§Ø±ØŃØ©": 52567,
  "Ø§Ø±Ù": 600,
  "Ø§Ø±Ùģ": 3664,
  "Ø§Ø±ÙģÙĪØ±": 25632,
  "Ø§Ø±ÙĤ": 2986,
  "Ø§Ø±ÙĤØ©": 4651,
  "Ø§Ø±ÙĤÙĬÙĨ": 46270,
  "Ø§Ø±Ùĥ": 727,
  "Ø§Ø±ÙĥØ§Øª": 3599,
  "Ø§Ø±ÙĥØ©": 1217,
  "Ø§Ø±ÙĥØª": 5439,
  "Ø§Ø±ÙĥØªÙĩ": 39016,
  "Ø§Ø±ÙĥÙĩ": 38947,
  "Ø§Ø±ÙĥÙĪÙħ": 20849,
  "Ø§Ø±ÙĥÙĬØ©": 41493,
  "Ø§Ø±ÙĥÙĬÙĨ": 21245,
  "Ø§Ø±Ùħ": 8672,
  "Ø§Ø±ÙħØ©": 12947,
  "Ø§Ø±ÙħÙĦÙģ": 44419,
  "Ø§Ø±ÙĨ": 16878,
  "Ø§Ø±ÙĨØ©": 3602,
  "Ø§Ø±Ùĩ": 4185,
  "Ø§Ø±ÙĩØ§": 15313,
  "Ø§Ø±ÙĪ": 18013,
  "Ø§Ø±ÙĪØ®": 58587,
  "Ø§Ø±ÙĪÙģØ§": 58169,
  "Ø§Ø±ÙĪÙĨ": 21403,
  "Ø§Ø±Ùī": 4965,
  "Ø§Ø±ÙīØ¡": 41731,
  "Ø§Ø±ÙĬ": 948,
  "Ø§Ø±ÙĬØ¡": 58145,
  "Ø§Ø±ÙĬØ§": 4993,
  "Ø§Ø±ÙĬØ§Øª": 14869,
  "Ø§Ø±ÙĬØ§Ø³": 50394,
  "Ø§Ø±ÙĬØ§Ø³ÙĪØ±ÙĬØ§Ø´ÙĬÙĦÙĬ": 59726,
  "Ø§Ø±ÙĬØ§ÙĦ": 45020,
  "Ø§Ø±ÙĬØ§ÙĨ": 24407,
  "Ø§Ø±ÙĬØ¨": 35320,
  "Ø§Ø±ÙĬØ¨ÙĬ": 18010,
  "Ø§Ø±ÙĬØ©": 1039,
  "Ø§Ø±ÙĬØ«": 34697,
  "Ø§Ø±ÙĬØ¬": 32236,
  "Ø§Ø±ÙĬØ®": 956,
  "Ø§Ø±ÙĬØ±": 3414,
  "Ø§Ø±ÙĬØ²": 23250,
  "Ø§Ø±ÙĬØ³": 24474,
  "Ø§Ø±ÙĬØ³Øª": 55366,
  "Ø§Ø±ÙĬØ´": 63951,
  "Ø§Ø±ÙĬØ¹": 2464,
  "Ø§Ø±ÙĬØŃ": 20320,
  "Ø§Ø±ÙĬÙģ": 8607,
  "Ø§Ø±ÙĬÙĥ": 6274,
  "Ø§Ø±ÙĬÙĥØ§": 13994,
  "Ø§Ø±ÙĬÙĥØ§ØªÙĬØ±": 12632,
  "Ø§Ø±ÙĬÙħ": 34617,
  "Ø§Ø±ÙĬÙĨ": 9575,
  "Ø§Ø±ÙĬÙĩ": 10461,
  "Ø§Ø±ÙĬÙĪ": 5463,
  "Ø§Ø±ÙĬÙĪØ³": 52297,
  "Ø§Ø±ÙĬÙĪÙĨ": 14588,
  "Ø§Ø±ÙĬÙĬÙĨ": 12371,
  "Ø§Ø²": 523,
  "Ø§Ø²Ø§": 24601,
  "Ø§Ø²Ø§Ø©": 45874,
  "Ø§Ø²Ø§Øª": 3937,
  "Ø§Ø²Ø§Ø®": 10902,
  "Ø§Ø²Ø§Ø®Ø³ØªØ§ÙĨ": 15594,
  "Ø§Ø²Ø§ÙĨ": 22558,
  "Ø§Ø²Ø©": 5173,
  "Ø§Ø²Øª": 32900,
  "Ø§Ø²ØªÙĩ": 35054,
  "Ø§Ø²ØªÙĩØ§": 62210,
  "Ø§Ø²Ø±": 14804,
  "Ø§Ø²Ø±Ø©": 29712,
  "Ø§Ø²Ø¹": 18886,
  "Ø§Ø²Ø¹Ø§Øª": 29613,
  "Ø§Ø²Ø¹Ø©": 54262,
  "Ø§Ø²ØŃÙĬÙĨ": 31345,
  "Ø§Ø²Ù": 1421,
  "Ø§Ø²Ùģ": 43695,
  "Ø§Ø²ÙĤ": 23863,
  "Ø§Ø²ÙĦ": 3174,
  "Ø§Ø²ÙĦØ©": 61615,
  "Ø§Ø²ÙĦÙĨØ§": 30559,
  "Ø§Ø²Ùħ": 8129,
  "Ø§Ø²ÙĨ": 4257,
  "Ø§Ø²ÙĨØ§Øª": 28349,
  "Ø§Ø²ÙĨØ©": 6491,
  "Ø§Ø²Ùĩ": 38966,
  "Ø§Ø²ÙĪØ±": 51779,
  "Ø§Ø²ÙĪÙĨ": 20628,
  "Ø§Ø²Ùī": 15327,
  "Ø§Ø²ÙĬ": 2124,
  "Ø§Ø²ÙĬØ§": 22229,
  "Ø§Ø²ÙĬØ©": 8592,
  "Ø§Ø²ÙĬØ±": 55986,
  "Ø§Ø²ÙĬØº": 13060,
  "Ø§Ø²ÙĬØºÙĬ": 36025,
  "Ø§Ø²ÙĬØºÙĬØ©": 17319,
  "Ø§Ø²ÙĬÙĤ": 14419,
  "Ø§Ø²ÙĬÙĦ": 7338,
  "Ø§Ø²ÙĬÙĦÙĬ": 7454,
  "Ø§Ø²ÙĬÙħ": 46367,
  "Ø§Ø²ÙĬÙĨ": 7879,
  "Ø§Ø²ÙĬÙĨÙĪ": 22092,
  "Ø§Ø²ÙĬÙĩ": 42317,
  "Ø§Ø²ÙĬÙĬÙĨ": 32452,
  "Ø§Ø³": 354,
  "Ø§Ø³Ø§": 11644,
  "Ø§Ø³Ø§Ø©": 21422,
  "Ø§Ø³Ø§Øª": 2223,
  "Ø§Ø³Ø§ØªÙĩ": 44266,
  "Ø§Ø³Ø§ÙĨ": 30102,
  "Ø§Ø³Ø§ÙĨÙĬ": 61676,
  "Ø§Ø³Ø¨": 1927,
  "Ø§Ø³Ø¨Ø§Øª": 3998,
  "Ø§Ø³Ø¨Ø©": 1850,
  "Ø§Ø³Ø¨Ùĩ": 25844,
  "Ø§Ø³Ø¨ÙĬÙĨ": 43877,
  "Ø§Ø³Ø©": 1162,
  "Ø§Ø³Øª": 12720,
  "Ø§Ø³ØªØ±": 35819,
  "Ø§Ø³ØªÙĩ": 19223,
  "Ø§Ø³ØªÙĩØ§": 26912,
  "Ø§Ø³ØªÙĬØ§ÙĨ": 44664,
  "Ø§Ø³Ø¯": 38034,
  "Ø§Ø³Ø±": 11350,
  "Ø§Ø³Ø±Ø©": 30855,
  "Ø§Ø³Ø·": 25593,
  "Ø§Ø³Ø¹": 5876,
  "Ø§Ø³Ø¹Ø©": 4358,
  "Ø§Ø³Ù": 1001,
  "Ø§Ø³ÙĤ": 33023,
  "Ø§Ø³ÙĤØ©": 54444,
  "Ø§Ø³Ùĥ": 9074,
  "Ø§Ø³ÙĥÙĪÙħ": 34438,
  "Ø§Ø³ÙĦ": 5985,
  "Ø§Ø³ÙĦØ©": 36611,
  "Ø§Ø³ÙĦÙĨØ§": 32424,
  "Ø§Ø³ÙĦÙĪÙĨ": 40154,
  "Ø§Ø³Ùħ": 1654,
  "Ø§Ø³ÙħØ©": 59986,
  "Ø§Ø³ÙħÙĬ": 18465,
  "Ø§Ø³ÙĨØ¬Ø±": 40247,
  "Ø§Ø³Ùĩ": 15177,
  "Ø§Ø³ÙĩØ§": 29893,
  "Ø§Ø³ÙĪ": 35347,
  "Ø§Ø³ÙĪØ¨": 8384,
  "Ø§Ø³ÙĪÙĨÙĬÙĥ": 63636,
  "Ø§Ø³ÙĪÙĬØ³Ø±": 54925,
  "Ø§Ø³ÙĪÙĬØ³Ø±Ø§Ø§ÙĦØ§ØªØŃØ§Ø¯": 59668,
  "Ø§Ø³Ùī": 11595,
  "Ø§Ø³ÙĬ": 1901,
  "Ø§Ø³ÙĬØ§": 14132,
  "Ø§Ø³ÙĬØ§Øª": 38517,
  "Ø§Ø³ÙĬØ§ÙĨ": 59634,
  "Ø§Ø³ÙĬØ©": 1565,
  "Ø§Ø³ÙĬØ±": 11908,
  "Ø§Ø³ÙĬØ±ÙĬØª": 50526,
  "Ø§Ø³ÙĬØ³": 14762,
  "Ø§Ø³ÙĬÙĦÙĬ": 49687,
  "Ø§Ø³ÙĬÙħ": 32057,
  "Ø§Ø³ÙĬÙĨ": 35513,
  "Ø§Ø³ÙĬÙĩ": 23449,
  "Ø§Ø³ÙĬÙĪÙħ": 27821,
  "Ø§Ø³ÙĬÙĪÙĨ": 20574,
  "Ø§Ø³ÙĬÙĬÙĨ": 12359,
  "Ø§Ø´": 571,
  "Ø§Ø´Ø§": 5656,
  "Ø§Ø´Ø§Øª": 4464,
  "Ø§Ø´Ø©": 3954,
  "Ø§Ø´Ø¯": 4706,
  "Ø§Ø´Ø¯Ø©": 18194,
  "Ø§Ø´Ø±": 3244,
  "Ø§Ø´Ø±Ø©": 4794,
  "Ø§Ø´Ø·": 40901,
  "Ø§Ø´Ù": 3919,
  "Ø§Ø´Ùģ": 31806,
  "Ø§Ø´ÙĤ": 4724,
  "Ø§Ø´ÙĤØ¬ÙĬ": 5795,
  "Ø§Ø´ÙĦ": 30151,
  "Ø§Ø´Ùħ": 8637,
  "Ø§Ø´ÙħØ¹": 56029,
  "Ø§Ø´ÙħÙĬØ©": 22214,
  "Ø§Ø´ÙĨØ·ÙĨ": 18344,
  "Ø§Ø´Ùĩ": 43686,
  "Ø§Ø´Ùī": 14721,
  "Ø§Ø´ÙĬ": 6691,
  "Ø§Ø´ÙĬØ§": 22509,
  "Ø§Ø´ÙĬØ§ÙĨ": 55588,
  "Ø§Ø´ÙĬØ©": 12988,
  "Ø§Ø´ÙĬØ¯": 9490,
  "Ø§Ø´ÙĬØ±": 37912,
  "Ø§Ø´ÙĬÙģ": 50447,
  "Ø§Ø´ÙĬÙĦÙĬ": 54113,
  "Ø§Ø´ÙĬÙħ": 34070,
  "Ø§Ø´ÙĬÙĨ": 42414,
  "Ø§Øµ": 450,
  "Ø§ØµØ§Øª": 23182,
  "Ø§ØµØ¨": 7892,
  "Ø§ØµØ©": 823,
  "Ø§ØµØ¯": 13619,
  "Ø§ØµØ±": 1631,
  "Ø§ØµØ±Ø§": 56836,
  "Ø§ØµØ±Ø¨ÙĬ": 58907,
  "Ø§ØµØ±Ø©": 5697,
  "Ø§ØµØ±ÙĬÙĨ": 24621,
  "Ø§ØµØµØ©": 34599,
  "Ø§ØµÙ": 1235,
  "Ø§ØµÙģ": 18946,
  "Ø§ØµÙģØ§Øª": 6553,
  "Ø§ØµÙģØ©": 9677,
  "Ø§ØµÙĦ": 1382,
  "Ø§ØµÙĦØ§": 44269,
  "Ø§ØµÙĦØ§Øª": 11121,
  "Ø§ØµÙĦØ©": 4383,
  "Ø§ØµÙĦØª": 41445,
  "Ø§ØµÙĦÙĬÙĨ": 23656,
  "Ø§ØµÙħ": 10773,
  "Ø§ØµÙħØ©": 2356,
  "Ø§ØµÙĨØ©": 23134,
  "Ø§ØµÙĬ": 6001,
  "Ø§ØµÙĬØ©": 40976,
  "Ø§ØµÙĬØ±": 15477,
  "Ø§ØµÙĬØµ": 49336,
  "Ø§ØµÙĬÙĦ": 2335,
  "Ø§ØµÙĬÙĦÙĩØ§": 61125,
  "Ø§ØµÙĬÙĩ": 48436,
  "Ø§ØµÙĬÙĬÙĨ": 51843,
  "Ø§Ø¶": 455,
  "Ø§Ø¶Ø§Ø©": 40153,
  "Ø§Ø¶Ø§Øª": 56721,
  "Ø§Ø¶Ø©": 6833,
  "Ø§Ø¶Øª": 62235,
  "Ø§Ø¶Ø¯": 40612,
  "Ø§Ø¶Ø¯ÙĬØ©": 51819,
  "Ø§Ø¶Ø±": 5321,
  "Ø§Ø¶Ø±Ø§Øª": 6039,
  "Ø§Ø¶Ø±Ø©": 7014,
  "Ø§Ø¶Ø±ÙĬÙĨ": 39406,
  "Ø§Ø¶Ø¹": 9481,
  "Ø§Ø¶Ø¹Ø©": 13893,
  "Ø§Ø¶Ø¹Ùĩ": 60738,
  "Ø§Ø¶ØŃ": 8445,
  "Ø§Ø¶ØŃØ©": 16382,
  "Ø§Ø¶Ù": 1013,
  "Ø§Ø¶ÙĦ": 6896,
  "Ø§Ø¶ÙĦØ©": 17201,
  "Ø§Ø¶ÙĦÙĬÙĨ": 33061,
  "Ø§Ø¶ÙĪÙĦ": 19645,
  "Ø§Ø¶Ùī": 4354,
  "Ø§Ø¶ÙĬ": 1101,
  "Ø§Ø¶ÙĬØ©": 2236,
  "Ø§Ø¶ÙĬØ±": 32218,
  "Ø§Ø¶ÙĬØ¹": 1656,
  "Ø§Ø¶ÙĬÙĩ": 21244,
  "Ø§Ø¶ÙĬÙĬÙĨ": 13280,
  "Ø§Ø·": 479,
  "Ø§Ø·Ø¤": 18689,
  "Ø§Ø·Ø¦": 5194,
  "Ø§Ø·Ø§": 13110,
  "Ø§Ø·Ø§Øª": 18906,
  "Ø§Ø·Ø¨": 11107,
  "Ø§Ø·Ø¨Ø©": 17458,
  "Ø§Ø·Ø©": 3683,
  "Ø§Ø·Ø±": 2618,
  "Ø§Ø·Ø±Ø©": 14674,
  "Ø§Ø·Ø³": 21519,
  "Ø§Ø·Ø¹": 5094,
  "Ø§Ø·Ø¹Ø§Øª": 28461,
  "Ø§Ø·Ø¹Ø©": 6358,
  "Ø§Ø·Ø¹Ùĩ": 61242,
  "Ø§Ø·Ù": 3196,
  "Ø§Ø·Ùģ": 7055,
  "Ø§Ø·ÙģØ§ÙĦ": 43683,
  "Ø§Ø·ÙģØ©": 47369,
  "Ø§Ø·ÙģÙĬÙĨ": 61908,
  "Ø§Ø·ÙĤ": 1613,
  "Ø§Ø·ÙĦ": 8260,
  "Ø§Ø·ÙĦØ©": 45016,
  "Ø§Ø·Ùħ": 18805,
  "Ø§Ø·ÙħØ©": 32862,
  "Ø§Ø·ÙħÙĬØ©": 45936,
  "Ø§Ø·ÙĨ": 3726,
  "Ø§Ø·ÙĨØ©": 26019,
  "Ø§Ø·ÙĨÙĬÙĨ": 5539,
  "Ø§Ø·Ùĩ": 43184,
  "Ø§Ø·ÙĪÙĨ": 52805,
  "Ø§Ø·Ùī": 20799,
  "Ø§Ø·ÙĬ": 4798,
  "Ø§Ø·ÙĬØ¡": 44355,
  "Ø§Ø·ÙĬØ©": 29173,
  "Ø§Ø·ÙĬØ±": 17923,
  "Ø§Ø·ÙĬØ³": 61668,
  "Ø§Ø·ÙĬØ³ÙĬ": 25438,
  "Ø§Ø·ÙĬØ³ÙĬØ©": 40527,
  "Ø§Ø·ÙĬÙĦ": 44124,
  "Ø§Ø·ÙĬÙĨ": 21445,
  "Ø§Ø·ÙĬÙĬÙĨ": 57298,
  "Ø§Ø¸": 1782,
  "Ø§Ø¸Ø¨Ø©": 58064,
  "Ø§Ø¸Ø©": 32280,
  "Ø§Ø¸Ø±": 9738,
  "Ø§Ø¸Ø±Ø§Øª": 32465,
  "Ø§Ø¸Ø±Ø©": 21549,
  "Ø§Ø¸Ù": 11323,
  "Ø§Ø¸Ùħ": 12446,
  "Ø§Ø¸ÙħØ©": 30812,
  "Ø§Ø¸ÙħÙĬØ©": 53567,
  "Ø§Ø¸ÙĪØ±": 27382,
  "Ø§Ø¸ÙĬØ±": 53480,
  "Ø§Ø¹": 361,
  "Ø§Ø¹Ø§": 9908,
  "Ø§Ø¹Ø§Ø©": 10028,
  "Ø§Ø¹Ø§Øª": 1506,
  "Ø§Ø¹Ø§ØªÙĩØ§": 46753,
  "Ø§Ø¹Ø¨": 14480,
  "Ø§Ø¹Ø©": 791,
  "Ø§Ø¹Øª": 19040,
  "Ø§Ø¹ØªÙĩ": 18284,
  "Ø§Ø¹ØªÙĩØ§": 25767,
  "Ø§Ø¹ØªÙĬÙĨ": 48186,
  "Ø§Ø¹Ø¯": 1024,
  "Ø§Ø¹Ø¯Ø§": 18201,
  "Ø§Ø¹Ø¯Ø§Øª": 21473,
  "Ø§Ø¹Ø¯Ø©": 1701,
  "Ø§Ø¹Ø¯Ùĥ": 24691,
  "Ø§Ø¹Ø¯Ùĩ": 40209,
  "Ø§Ø¹Ø¯ÙĬ": 13935,
  "Ø§Ø¹Ø¯ÙĬÙĨ": 15414,
  "Ø§Ø¹Ø±": 2152,
  "Ø§Ø¹Ø±Ø©": 16908,
  "Ø§Ø¹Ø²": 38656,
  "Ø§Ø¹Ø³": 33501,
  "Ø§Ø¹Ø´": 21304,
  "Ø§Ø¹Ø¸": 37598,
  "Ø§Ø¹Ù": 1467,
  "Ø§Ø¹Ùģ": 18118,
  "Ø§Ø¹ÙĤØ©": 34131,
  "Ø§Ø¹ÙĦ": 9872,
  "Ø§Ø¹Ùħ": 5412,
  "Ø§Ø¹ÙħØ©": 9765,
  "Ø§Ø¹ÙħÙĬÙĨ": 33510,
  "Ø§Ø¹ÙĨ": 41043,
  "Ø§Ø¹ÙĨØ©": 19604,
  "Ø§Ø¹Ùĩ": 6650,
  "Ø§Ø¹ÙĩØ§": 27245,
  "Ø§Ø¹ÙĪØ§": 60260,
  "Ø§Ø¹ÙĪÙĨ": 31363,
  "Ø§Ø¹Ùī": 9321,
  "Ø§Ø¹ÙĬ": 1842,
  "Ø§Ø¹ÙĬØ§": 25133,
  "Ø§Ø¹ÙĬØ§Øª": 9906,
  "Ø§Ø¹ÙĬØ©": 1806,
  "Ø§Ø¹ÙĬØ¯": 7306,
  "Ø§Ø¹ÙĬÙĦ": 4774,
  "Ø§Ø¹ÙĬÙĦÙĬØ©": 55489,
  "Ø§Ø¹ÙĬÙħ": 53972,
  "Ø§Ø¹ÙĬÙĨ": 30304,
  "Ø§Ø¹ÙĬÙĩ": 23129,
  "Ø§Ø¹ÙĬÙĩØ§": 49203,
  "Ø§Ø¹ÙĬÙĬÙĨ": 23173,
  "Ø§Øº": 1098,
  "Ø§ØºØ§": 50400,
  "Ø§ØºØ§ÙĨ": 31387,
  "Ø§ØºØ§ÙĨÙĬ": 31171,
  "Ø§ØºØ¨": 19683,
  "Ø§ØºØ¨Ø©": 58178,
  "Ø§ØºØ¨ÙĬÙĨ": 26544,
  "Ø§ØºØ©": 8084,
  "Ø§ØºØª": 56989,
  "Ø§ØºØ±": 28295,
  "Ø§ØºØ±Ø©": 13811,
  "Ø§ØºØ·": 42718,
  "Ø§ØºØ·Ø©": 49116,
  "Ø§ØºÙ": 7589,
  "Ø§ØºÙĦ": 22624,
  "Ø§ØºÙħ": 22652,
  "Ø§ØºÙħØ©": 54011,
  "Ø§ØºÙĨ": 32467,
  "Ø§ØºÙĨØ©": 50380,
  "Ø§ØºÙĪ": 7445,
  "Ø§ØºÙĪØ§": 18448,
  "Ø§ØºÙĪØ§ÙĬ": 15352,
  "Ø§ØºÙĪØª": 49147,
  "Ø§ØºÙĪØ¬ÙĬØ©": 61031,
  "Ø§ØºÙĪÙĨ": 19349,
  "Ø§ØºÙĬ": 11217,
  "Ø§ØºÙĬØ©": 18228,
  "Ø§ØºÙĬØ¯": 55509,
  "Ø§ØŃ": 409,
  "Ø§ØŃØ§": 23189,
  "Ø§ØŃØ§Øª": 2791,
  "Ø§ØŃØ¨": 2009,
  "Ø§ØŃØ¨Ø§Øª": 43494,
  "Ø§ØŃØ¨Ø©": 16504,
  "Ø§ØŃØ¨Ùĩ": 24951,
  "Ø§ØŃØ©": 933,
  "Ø§ØŃØª": 15601,
  "Ø§ØŃØªÙĩ": 37583,
  "Ø§ØŃØªÙĩØ§": 43287,
  "Ø§ØŃØ«": 2432,
  "Ø§ØŃØ«ÙĬÙĨ": 14818,
  "Ø§ØŃØ¯": 14781,
  "Ø§ØŃØ¯Ø©": 25261,
  "Ø§ØŃØ±": 39326,
  "Ø§ØŃØ±Ø©": 56090,
  "Ø§ØŃØ¸": 53002,
  "Ø§ØŃÙ": 1692,
  "Ø§ØŃÙģ": 10366,
  "Ø§ØŃÙģØ©": 41520,
  "Ø§ØŃÙĦ": 2385,
  "Ø§ØŃÙĦØ©": 25543,
  "Ø§ØŃÙħ": 23318,
  "Ø§ØŃÙħØ¯": 43278,
  "Ø§ØŃÙĨ": 17249,
  "Ø§ØŃÙĨØ§Øª": 11032,
  "Ø§ØŃÙĨØ©": 11553,
  "Ø§ØŃÙĩ": 5905,
  "Ø§ØŃÙī": 48757,
  "Ø§ØŃÙĬ": 3623,
  "Ø§ØŃÙĬØ©": 2036,
  "Ø§ØŃÙĬØµØ§": 29031,
  "Ø§ØŃÙĬÙĤ": 60817,
  "Ø§ØŃÙĬÙĨ": 36244,
  "Ø§ØŃÙĬÙĩ": 42227,
  "Ø§ØŃÙĬÙĩØ§": 36990,
  "Ø§Ù": 298,
  "Ø§Ùģ": 380,
  "Ø§ÙģØ¢Øª": 47184,
  "Ø§ÙģØ£Ø©": 45023,
  "Ø§ÙģØ¤": 24504,
  "Ø§ÙģØ¦": 9470,
  "Ø§ÙģØ¦Ø©": 25173,
  "Ø§ÙģØ§": 6610,
  "Ø§ÙģØ§Øª": 4845,
  "Ø§ÙģØ©": 700,
  "Ø§ÙģØª": 11923,
  "Ø§ÙģØªÙĩ": 45022,
  "Ø§ÙģØªÙĩØ§": 45478,
  "Ø§ÙģØ¯": 15805,
  "Ø§ÙģØ¯ÙĬÙĨ": 50001,
  "Ø§ÙģØ°": 11857,
  "Ø§ÙģØ±": 3072,
  "Ø§ÙģØ±Ø©": 14243,
  "Ø§ÙģØ±ÙĬÙĨ": 9704,
  "Ø§ÙģØ²": 12842,
  "Ø§ÙģØ³": 8871,
  "Ø§ÙģØ³Ø§Øª": 40800,
  "Ø§ÙģØ³Ø©": 15784,
  "Ø§ÙģØ³Ùĩ": 53873,
  "Ø§ÙģØ³ÙĬ": 59823,
  "Ø§ÙģØ³ÙĬØ©": 13925,
  "Ø§ÙģØ¶": 48271,
  "Ø§ÙģØ¶ÙĦ": 57740,
  "Ø§ÙģØ¸": 1031,
  "Ø§ÙģØ¸Ø§Øª": 13031,
  "Ø§ÙģØ¸Ø©": 1524,
  "Ø§ÙģØ¹": 2778,
  "Ø§ÙģØ¹Ø§Øª": 32228,
  "Ø§ÙģØ¹Ø©": 21714,
  "Ø§ÙģØ¹ÙĬ": 12749,
  "Ø§ÙģØ¹ÙĬØ©": 54445,
  "Ø§ÙģØ¹ÙĬÙĨ": 37495,
  "Ø§ÙģØŃ": 18733,
  "Ø§ÙģØŃØ©": 2798,
  "Ø§ÙģÙ": 1454,
  "Ø§ÙģÙĤ": 1605,
  "Ø§ÙģÙĤØ§": 60503,
  "Ø§ÙģÙĤØ§Øª": 35748,
  "Ø§ÙģÙĤØ©": 3553,
  "Ø§ÙģÙĤØª": 31196,
  "Ø§ÙģÙĤÙĩ": 15007,
  "Ø§ÙģÙĤÙĪÙĨ": 55169,
  "Ø§ÙģÙĤÙĬÙĨ": 46488,
  "Ø§ÙģÙĦ": 6827,
  "Ø§ÙģÙĦØ§Øª": 22018,
  "Ø§ÙģÙĦØ§Ùħ": 32300,
  "Ø§ÙģÙĦØ©": 6719,
  "Ø§ÙģÙĨ": 53434,
  "Ø§ÙģÙĨÙĦÙĨØ¯": 57393,
  "Ø§ÙģÙĩ": 8099,
  "Ø§ÙģÙĩØ§": 34979,
  "Ø§ÙģÙĩØ©": 62684,
  "Ø§ÙģÙĪÙĨ": 32694,
  "Ø§ÙģÙī": 9134,
  "Ø§ÙģÙĬ": 1695,
  "Ø§ÙģÙĬØ§": 4403,
  "Ø§ÙģÙĬØ©": 1600,
  "Ø§ÙģÙĬØ±": 15923,
  "Ø§ÙģÙĬØ²": 38262,
  "Ø§ÙģÙĬÙĥ": 13903,
  "Ø§ÙģÙĬÙĦ": 58579,
  "Ø§ÙģÙĬÙħ": 34022,
  "Ø§ÙģÙĬÙĨ": 28948,
  "Ø§ÙģÙĬÙĩ": 13104,
  "Ø§ÙģÙĬÙĪÙĨ": 35053,
  "Ø§ÙģÙĬÙĬÙĨ": 8848,
  "Ø§ÙĤ": 453,
  "Ø§ÙĤØ§": 19132,
  "Ø§ÙĤØ§Øª": 3333,
  "Ø§ÙĤØ¨": 4669,
  "Ø§ÙĤØ¨Ø©": 3423,
  "Ø§ÙĤØ¨ØªÙĩ": 46858,
  "Ø§ÙĤØ¨Ùĩ": 51936,
  "Ø§ÙĤØ¨ÙĬÙĨ": 12843,
  "Ø§ÙĤØ©": 1416,
  "Ø§ÙĤØª": 23738,
  "Ø§ÙĤØªØµØ§Ø¯": 37944,
  "Ø§ÙĤØªÙĩ": 28553,
  "Ø§ÙĤØªÙĩØ§": 46011,
  "Ø§ÙĤØ¯": 4896,
  "Ø§ÙĤØ¯Ø©": 39954,
  "Ø§ÙĤØ¯ÙĬÙĨ": 23412,
  "Ø§ÙĤØ±Ø©": 62438,
  "Ø§ÙĤØ´": 4884,
  "Ø§ÙĤØ´Ø§Øª": 34147,
  "Ø§ÙĤØ´Ø©": 4697,
  "Ø§ÙĤØµ": 44180,
  "Ø§ÙĤØµØ§Øª": 41658,
  "Ø§ÙĤØµØ©": 20050,
  "Ø§ÙĤØ¶": 44928,
  "Ø§ÙĤØ·": 11541,
  "Ø§ÙĤØ¹": 1141,
  "Ø§ÙĤØ¹Ø©": 47979,
  "Ø§ÙĤÙģ": 3791,
  "Ø§ÙĤÙģØ©": 27482,
  "Ø§ÙĤÙĦ": 14019,
  "Ø§ÙĤÙħ": 7933,
  "Ø§ÙĤÙĩ": 9876,
  "Ø§ÙĤÙĩØ§": 27456,
  "Ø§ÙĤÙī": 27203,
  "Ø§ÙĤÙĬ": 2229,
  "Ø§ÙĤÙĬØ©": 4597,
  "Ø§ÙĤÙĬØª": 18588,
  "Ø§ÙĤÙĬØ±": 18748,
  "Ø§ÙĤÙĬÙĨ": 13423,
  "Ø§Ùĥ": 697,
  "Ø§ÙĥØ§": 8686,
  "Ø§ÙĥØ§Ø©": 20753,
  "Ø§ÙĥØ§Øª": 18899,
  "Ø§ÙĥØ§ÙĪ": 36315,
  "Ø§ÙĥØ¨": 12209,
  "Ø§ÙĥØ¨Ø©": 16242,
  "Ø§ÙĥØ©": 5410,
  "Ø§ÙĥØª": 14247,
  "Ø§ÙĥØ¯": 25364,
  "Ø§ÙĥØ±": 6385,
  "Ø§ÙĥØ±Ø©": 5974,
  "Ø§ÙĥØ±ØªØ§": 37822,
  "Ø§ÙĥØ±ÙĬÙĨ": 45340,
  "Ø§ÙĥØ²": 3023,
  "Ø§ÙĥØ³": 10886,
  "Ø§ÙĥØ³Ø©": 42857,
  "Ø§ÙĥØ³Øª": 47912,
  "Ø§ÙĥØ³ØªØ§ÙĨ": 13372,
  "Ø§ÙĥØ³ØªØ§ÙĨØ£": 53006,
  "Ø§ÙĥØ³ØªØ§ÙĨØ£ÙģØºØ§ÙĨØ³ØªØ§ÙĨ": 59629,
  "Ø§ÙĥØ´": 11706,
  "Ø§ÙĥÙĦ": 2243,
  "Ø§ÙĥÙħ": 2616,
  "Ø§ÙĥÙħØ§Øª": 43337,
  "Ø§ÙĥÙħØ©": 5168,
  "Ø§ÙĥÙĨ": 6710,
  "Ø§ÙĥÙĨØ©": 15720,
  "Ø§ÙĥÙĩ": 54797,
  "Ø§ÙĥÙĩØ©": 13282,
  "Ø§ÙĥÙĪ": 10300,
  "Ø§ÙĥÙĪØ§": 41012,
  "Ø§ÙĥÙĪÙĦØ§": 63291,
  "Ø§ÙĥÙĪÙĨ": 57113,
  "Ø§ÙĥÙī": 58644,
  "Ø§ÙĥÙĬ": 10784,
  "Ø§ÙĥÙĬØ§Øª": 40387,
  "Ø§ÙĥÙĬØ©": 12833,
  "Ø§ÙĥÙĬØª": 53112,
  "Ø§ÙĥÙĬØ¯": 30425,
  "Ø§ÙĥÙĬØ±": 40170,
  "Ø§ÙĥÙĬÙĨ": 14289,
  "Ø§ÙĦ": 356,
  "Ø§ÙĦØ": 267,
  "Ø§ÙĦØ¢": 22039,
  "Ø§ÙĦØ£": 3917,
  "Ø§ÙĦØ£Ø±": 51739,
  "Ø§ÙĦØ£Ø±Ø¬ÙĨØªÙĬÙĨ": 55272,
  "Ø§ÙĦØ£Ø±Ø¯ÙĬØ©": 58519,
  "Ø§ÙĦØ£Ø±Ø¯ÙĬØ©Ø§ÙĦØ§Ø³ØªÙĪÙĨÙĬØ©": 60338,
  "Ø§ÙĦØ£Ø±Ø¯ÙĬØ©Ø§ÙĦØ§Ø³ØªÙĪÙĨÙĬØ©Ø§ÙĦÙģÙĬØªÙĨØ§ÙħÙĬØ©Ø§ÙĦÙĬÙĪÙĨØ§ÙĨÙĬØ©Ø§ÙĦØ£ÙĪÙĥØ±Ø§ÙĨÙĬØ©Ø§ÙĦÙħ": 61385,
  "Ø§ÙĦØ£Ø±ÙħÙĨÙĬØ©": 59743,
  "Ø§ÙĦØ£Ø±ÙħÙĨÙĬØ©Ø§ÙĦÙĥØ±Ø¯ÙĬØ©": 60212,
  "Ø§ÙĦØ£Ø¹Ø±Ø§Ùģ": 44088,
  "Ø§ÙĦØ£ØŃ": 44087,
  "Ø§ÙĦØ£ØŃØ²Ø§Ø¨": 51353,
  "Ø§ÙĦØ£Ùģ": 56404,
  "Ø§ÙĦØ£ÙģØ±ÙĬÙĥØ§ÙĨÙĬØ©": 59327,
  "Ø§ÙĦØ£ÙĦØ¨Ø§ÙĨÙĬØ©": 58749,
  "Ø§ÙĦØ£ÙĨ": 52976,
  "Ø§ÙĦØ£ÙĨØ¹Ø§Ùħ": 62679,
  "Ø§ÙĦØ£ÙĪÙĥØ±Ø§ÙĨÙĬØ©": 58580,
  "Ø§ÙĦØ£ÙĪÙĥØ±Ø§ÙĨÙĬØ©Ø§ÙĦÙħ": 59381,
  "Ø§ÙĦØ¥": 6690,
  "Ø§ÙĦØ¥Ø³": 52195,
  "Ø§ÙĦØ¥Ø³Ø¨Ø§ÙĨÙĬØ©": 57267,
  "Ø§ÙĦØ¥Ø³Ø¨Ø§ÙĨÙĬØ©Ø§ÙĦÙħØ§ÙĨØ¯Ø±ÙĬÙĨ": 59529,
  "Ø§ÙĦØ¥Ø³Ø¨Ø§ÙĨÙĬØ©Ø§ÙĦÙħØ§ÙĨØ¯Ø±ÙĬÙĨØ§ÙĦØ§ÙĬØ·Ø§ÙĦÙĬØ©": 59718,
  "Ø§ÙĦØ¥Ø³Ø¨Ø§ÙĨÙĬØ©Ø§ÙĦÙħØ§ÙĨØ¯Ø±ÙĬÙĨØ§ÙĦØ§ÙĬØ·Ø§ÙĦÙĬØ©Ø§ÙĦÙĥØ§ÙĨØªÙĪÙĨÙĬØ©": 60342,
  "Ø§ÙĦØ¥Ø³Ø¨Ø§ÙĨÙĬØ©Ø§ÙĦÙħØ§ÙĨØ¯Ø±ÙĬÙĨØ§ÙĦØ§ÙĬØ·Ø§ÙĦÙĬØ©Ø§ÙĦÙĥØ§ÙĨØªÙĪÙĨÙĬØ©Ø§ÙĦØ§ÙĦÙħØ§ÙĨÙĬØ©Ø§ÙĦØ±ÙĪØ³ÙĬØ©Ø§ÙĦØ³ÙĪÙĬØ¯ÙĬØ©Ø§ÙĦØªØ±ÙĥÙĬØ©": 62414,
  "Ø§ÙĦØ¥Ø³Øª": 62401,
  "Ø§ÙĦØ¥ÙħØ§Ø±Ø§Øª": 54483,
  "Ø§ÙĦØ§": 1762,
  "Ø§ÙĦØ§Ø": 4922,
  "Ø§ÙĦØ§Ø¨": 21779,
  "Ø§ÙĦØ§Ø¨ØµØ§Ø±": 29259,
  "Ø§ÙĦØ§Ø©": 18025,
  "Ø§ÙĦØ§Øª": 907,
  "Ø§ÙĦØ§ØªÙĩ": 52001,
  "Ø§ÙĦØ§ØªÙĩØ§": 54336,
  "Ø§ÙĦØ§ØªÙĩÙħ": 56909,
  "Ø§ÙĦØ§Ø¬": 54946,
  "Ø§ÙĦØ§Ø®": 38252,
  "Ø§ÙĦØ§Ø®ÙĪØ©": 55384,
  "Ø§ÙĦØ§Ø¯": 37402,
  "Ø§ÙĦØ§Ø±": 30118,
  "Ø§ÙĦØ§Ø³": 16940,
  "Ø§ÙĦØ§Ø³Øª": 37656,
  "Ø§ÙĦØ§Ø³ØªÙĪÙĨÙĬØ©": 59801,
  "Ø§ÙĦØ§Ø³Ø±ÙĬÙĦØ§ÙĨÙĥØ§Øª": 59599,
  "Ø§ÙĦØ§Ø³Ù": 61544,
  "Ø§ÙĦØ§Ø³Ùħ": 62742,
  "Ø§ÙĦØ§ØŃ": 59990,
  "Ø§ÙĦØ§Ù": 29111,
  "Ø§ÙĦØ§ÙĥØ³ÙĬ": 26338,
  "Ø§ÙĦØ§ÙĦØ": 30971,
  "Ø§ÙĦØ§ÙĦÙħ": 22451,
  "Ø§ÙĦØ§ÙĦÙħØ§ÙĨÙĬØ©": 58333,
  "Ø§ÙĦØ§ÙĦÙħØ§ÙĨÙĬØ©Ø§ÙĦØ±ÙĪØ³ÙĬØ©": 60234,
  "Ø§ÙĦØ§ÙĦÙħØ§ÙĨÙĬØ©Ø§ÙĦØ±ÙĪØ³ÙĬØ©Ø§ÙĦØ³ÙĪÙĬØ¯ÙĬØ©Ø§ÙĦØªØ±ÙĥÙĬØ©": 61238,
  "Ø§ÙĦØ§ÙĦÙħØ¨ÙĪØ±": 25902,
  "Ø§ÙĦØ§ÙħÙĬØ©": 57374,
  "Ø§ÙĦØ§ÙĨ": 32874,
  "Ø§ÙĦØ§ÙĨØ¯": 47346,
  "Ø§ÙĦØ§ÙĨØ¯ÙĪÙĨÙĬØ³ÙĬØ©": 59672,
  "Ø§ÙĦØ§ÙĨØ¯ÙĪÙĨÙĬØ³ÙĬØ©Ø§ÙĦØªØ´ÙĬÙĥÙĬØ©": 60557,
  "Ø§ÙĦØ§ÙĨØ¯ÙĪÙĨÙĬØ³ÙĬØ©Ø§ÙĦØªØ´ÙĬÙĥÙĬØ©Ø§ÙĦØ¨ÙĨØºØ§ÙĦÙĬØ©Ø§ÙĦØµØ±Ø¨ÙĬØ©Ø§ÙĦØ§ÙĬØ³ÙĦÙĨØ¯ÙĬØ©Ø§ÙĦØ¨ÙĪØ³ÙĨÙĬØ©Ø§ÙĦØ¬ÙĪØ±Ø¬ÙĬØ©": 62288,
  "Ø§ÙĦØ§ÙĬ": 31662,
  "Ø§ÙĦØ§ÙĬØ§ÙĦØ§ÙħÙĬØ©": 57936,
  "Ø§ÙĦØ§ÙĬØª": 17324,
  "Ø§ÙĦØ§ÙĬØ³ÙĦÙĨØ¯ÙĬØ©": 59423,
  "Ø§ÙĦØ§ÙĬØ³ÙĦÙĨØ¯ÙĬØ©Ø§ÙĦØ¨ÙĪØ³ÙĨÙĬØ©Ø§ÙĦØ¬ÙĪØ±Ø¬ÙĬØ©": 60003,
  "Ø§ÙĦØ§ÙĬØ·Ø§ÙĦÙĬØ©": 58131,
  "Ø§ÙĦØ¨": 874,
  "Ø§ÙĦØ¨Ø§": 14365,
  "Ø§ÙĦØ¨Ø§Øª": 12864,
  "Ø§ÙĦØ¨Ø§Ø±": 55598,
  "Ø§ÙĦØ¨Ø§Ø±Ø¯": 52583,
  "Ø§ÙĦØ¨Ø§Ø³Ùĥ": 59358,
  "Ø§ÙĦØ¨Ø§Ø³ÙĥØ§ÙĦØ£ÙĦØ¨Ø§ÙĨÙĬØ©": 59792,
  "Ø§ÙĦØ¨Ø©": 6226,
  "Ø§ÙĦØ¨Ø±ØªØºØ§ÙĦÙĬØ©": 57180,
  "Ø§ÙĦØ¨Ø±ØªØºØ§ÙĦÙĬØ©Ø§ÙĦØªÙĬÙĦØ¬": 59620,
  "Ø§ÙĦØ¨ØŃØ±": 41875,
  "Ø§ÙĦØ¨Ù": 42908,
  "Ø§ÙĦØ¨ÙĤØ±Ø©": 17191,
  "Ø§ÙĦØ¨ÙĦØºØ§Ø±ÙĬØ©": 58591,
  "Ø§ÙĦØ¨ÙĦØºØ§Ø±ÙĬØ©Ø§ÙĦØ¨ÙĬÙĦØ§Ø±ÙĪØ³ÙĬØ©": 59787,
  "Ø§ÙĦØ¨ÙĦØºØ§Ø±ÙĬØ©Ø§ÙĦØ¨ÙĬÙĦØ§Ø±ÙĪØ³ÙĬØ©Ø§ÙĦØ£Ø±ÙħÙĨÙĬØ©Ø§ÙĦÙĥØ±Ø¯ÙĬØ©": 60893,
  "Ø§ÙĦØ¨ÙĨØ¬Ø§Ø¨ÙĬØ©": 59151,
  "Ø§ÙĦØ¨ÙĨØºØ§ÙĦÙĬØ©": 58919,
  "Ø§ÙĦØ¨ÙĨØºØ§ÙĦÙĬØ©Ø§ÙĦØµØ±Ø¨ÙĬØ©": 60058,
  "Ø§ÙĦØ¨ÙĨØºØ§ÙĦÙĬØ©Ø§ÙĦØµØ±Ø¨ÙĬØ©Ø§ÙĦØ§ÙĬØ³ÙĦÙĨØ¯ÙĬØ©Ø§ÙĦØ¨ÙĪØ³ÙĨÙĬØ©Ø§ÙĦØ¬ÙĪØ±Ø¬ÙĬØ©": 60924,
  "Ø§ÙĦØ¨ÙĪØ³ÙĨØ©": 57351,
  "Ø§ÙĦØ¨ÙĪØ³ÙĨÙĬØ©": 58973,
  "Ø§ÙĦØ¨ÙĪØ³ÙĨÙĬØ©Ø§ÙĦØ¬ÙĪØ±Ø¬ÙĬØ©": 59616,
  "Ø§ÙĦØ¨ÙĪÙĦÙĨØ¯ÙĬØ©": 58748,
  "Ø§ÙĦØ¨ÙĪÙĦÙĨØ¯ÙĬØ©Ø§ÙĦÙģÙĨÙĦÙĨØ¯ÙĬØ©": 59820,
  "Ø§ÙĦØ¨ÙĪÙĦÙĨØ¯ÙĬØ©Ø§ÙĦÙģÙĨÙĦÙĨØ¯ÙĬØ©Ø§ÙĦØµÙĬÙĨÙĬØ©": 60510,
  "Ø§ÙĦØ¨ÙĪÙĦÙĨØ¯ÙĬØ©Ø§ÙĦÙģÙĨÙĦÙĨØ¯ÙĬØ©Ø§ÙĦØµÙĬÙĨÙĬØ©Ø§ÙĦØªØ§ÙħÙĬÙĦØ§ÙĦÙĩÙĨØºØ§Ø±ÙĬØ©Ø§ÙĦØ±ÙĪÙħØ§ÙĨÙĬØ©": 61414,
  "Ø§ÙĦØ¨ÙĪÙħ": 44151,
  "Ø§ÙĦØ¨ÙĬ": 43061,
  "Ø§ÙĦØ¨ÙĬØ©": 30010,
  "Ø§ÙĦØ¨ÙĬØ¶Ø§Ø¡": 55944,
  "Ø§ÙĦØ¨ÙĬÙĦØ§Ø±ÙĪØ³ÙĬØ©": 58386,
  "Ø§ÙĦØ©": 710,
  "Ø§ÙĦØª": 947,
  "Ø§ÙĦØªØ§ÙħÙĬ": 59063,
  "Ø§ÙĦØªØ§ÙħÙĬÙĦØ§ÙĦÙĩÙĨØºØ§Ø±ÙĬØ©": 59569,
  "Ø§ÙĦØªØ§ÙħÙĬÙĦØ§ÙĦÙĩÙĨØºØ§Ø±ÙĬØ©Ø§ÙĦØ±ÙĪÙħØ§ÙĨÙĬØ©": 60072,
  "Ø§ÙĦØªØ§ÙĬÙĦØ§ÙĨØ¯ÙĬØ©": 58593,
  "Ø§ÙĦØªØ±Ø¨ÙĬØ©": 56858,
  "Ø§ÙĦØªØ±ÙĥÙĬØ©": 55168,
  "Ø§ÙĦØªØ´": 40693,
  "Ø§ÙĦØªØ´ÙĬÙĥÙĬØ©": 58646,
  "Ø§ÙĦØªØµ": 42878,
  "Ø§ÙĦØªØŃ": 39653,
  "Ø§ÙĦØªÙ": 13321,
  "Ø§ÙĦØªÙĥ": 31124,
  "Ø§ÙĦØªÙĨØ§": 40064,
  "Ø§ÙĦØªÙĩ": 5566,
  "Ø§ÙĦØªÙĩØ§": 9655,
  "Ø§ÙĦØªÙĩÙħ": 21568,
  "Ø§ÙĦØªÙĪØ¨Ø©": 47968,
  "Ø§ÙĦØªÙĬ": 13479,
  "Ø§ÙĦØªÙĬÙĦØ¬": 59267,
  "Ø§ÙĦØªÙĬÙĨ": 24086,
  "Ø§ÙĦØ«": 1362,
  "Ø§ÙĦØ¬": 1882,
  "Ø§ÙĦØ¬Ø©": 3706,
  "Ø§ÙĦØ¬Ø²Ø±": 50213,
  "Ø§ÙĦØ¬ÙĪØ±Ø¬ÙĬØ©": 58327,
  "Ø§ÙĦØ¬ÙĬØ²Ø©": 58493,
  "Ø§ÙĦØ®": 7636,
  "Ø§ÙĦØ®Ø§ÙĦÙĤ": 51654,
  "Ø§ÙĦØ®ÙħÙĬØ±": 59139,
  "Ø§ÙĦØ®ÙħÙĬØ±Ø®ÙĪØ²": 59415,
  "Ø§ÙĦØ®ÙĬØ§ÙĦ": 59468,
  "Ø§ÙĦØ®ÙĬÙħØ©": 21639,
  "Ø§ÙĦØ¯": 1393,
  "Ø§ÙĦØ¯Ø§ÙĨ": 52192,
  "Ø§ÙĦØ¯Ø§ÙĨÙħØ±ÙĥÙĬØ©": 58565,
  "Ø§ÙĦØ¯Ø±": 52958,
  "Ø§ÙĦØ¯Ø±Ø³": 35489,
  "Ø§ÙĦØ¯Ù": 59427,
  "Ø§ÙĦØ¯ÙĪ": 56630,
  "Ø§ÙĦØ¯ÙĪØ±ÙĬ": 51217,
  "Ø§ÙĦØ¯ÙĬ": 62837,
  "Ø§ÙĦØ¯ÙĬÙģ": 15288,
  "Ø§ÙĦØ¯ÙĬÙĨ": 10145,
  "Ø§ÙĦØ°": 12423,
  "Ø§ÙĦØ°Ø§Øª": 34449,
  "Ø§ÙĦØ°Ù": 22403,
  "Ø§ÙĦØ°ÙĬ": 22500,
  "Ø§ÙĦØ±": 2785,
  "Ø§ÙĦØ±Ø¯ÙĪØ¯": 14512,
  "Ø§ÙĦØ±ØŃÙħÙĨ": 39165,
  "Ø§ÙĦØ±ÙĪØ³ÙĬØ©": 56465,
  "Ø§ÙĦØ±ÙĪÙħØ§ÙĨÙĬØ©": 58863,
  "Ø§ÙĦØ±ÙĬØ§Ø¶": 39800,
  "Ø§ÙĦØ±ÙĬØ§Ø¶Ø©": 63747,
  "Ø§ÙĦØ²": 8603,
  "Ø§ÙĦØ²ÙĪØ§Ø±": 15109,
  "Ø§ÙĦØ²ÙĪÙĦÙĪ": 59414,
  "Ø§ÙĦØ²ÙĪÙĦÙĪØ§ÙĦØ¨ÙĨØ¬Ø§Ø¨ÙĬØ©": 60021,
  "Ø§ÙĦØ²ÙĪÙĦÙĪØ§ÙĦØ¨ÙĨØ¬Ø§Ø¨ÙĬØ©Ø§ÙĦÙħÙĩØ§Ø±Ø§ØªÙĬØ©Ø§ÙĦÙħÙĨØºÙĪÙĦÙĬØ©Ø§ÙĦÙħÙĤØ¯ÙĪÙĨÙĬØ©Ø§ÙĦØ®ÙħÙĬØ±Ø®ÙĪØ²": 61144,
  "Ø§ÙĦØ³": 2460,
  "Ø§ÙĦØ³Øª": 39850,
  "Ø§ÙĦØ³ÙĦØ§Ø·ÙĬÙĨ": 51244,
  "Ø§ÙĦØ³ÙĦØ§Ùħ": 21993,
  "Ø§ÙĦØ³ÙĦÙĪÙģØ§ÙĥÙĬØ©": 58881,
  "Ø§ÙĦØ³ÙĦÙĪÙģØ§ÙĥÙĬØ©Ø§ÙĦÙħØ§ÙĪØ±ÙĬØ§ÙĦØ³ÙĪØ§ØŃÙĬÙĦÙĬØ©": 59746,
  "Ø§ÙĦØ³ÙĪØ§ØŃÙĬÙĦÙĬØ©": 58952,
  "Ø§ÙĦØ³ÙĪÙĬØ¯": 31664,
  "Ø§ÙĦØ³ÙĪÙĬØ¯ÙĬØ©": 58122,
  "Ø§ÙĦØ³ÙĪÙĬØ¯ÙĬØ©Ø§ÙĦØªØ±ÙĥÙĬØ©": 60183,
  "Ø§ÙĦØ³ÙĬØ§Ø³Ø©": 61509,
  "Ø§ÙĦØ³ÙĬÙĪÙħ": 18820,
  "Ø§ÙĦØ´": 6885,
  "Ø§ÙĦØ´ÙĬØ®": 37796,
  "Ø§ÙĦØµ": 4881,
  "Ø§ÙĦØµØ±Ø¨ÙĬØ©": 59341,
  "Ø§ÙĦØµØŃØ§ÙģØ©": 60772,
  "Ø§ÙĦØµØŃØ©": 54171,
  "Ø§ÙĦØµÙĨØ§Ø¹Ø©": 53554,
  "Ø§ÙĦØµÙĪÙħ": 42700,
  "Ø§ÙĦØµÙĪÙħØ§ÙĦØ¨": 58924,
  "Ø§ÙĦØµÙĪÙħØ§ÙĦÙĬØ©": 59294,
  "Ø§ÙĦØµÙĬÙĨÙĬØ©": 51057,
  "Ø§ÙĦØ¶": 29324,
  "Ø§ÙĦØ·": 5738,
  "Ø§ÙĦØ·Ø§Øª": 45872,
  "Ø§ÙĦØ·Ø¨": 55382,
  "Ø§ÙĦØ·Ø©": 40625,
  "Ø§ÙĦØ¸": 41070,
  "Ø§ÙĦØ¹": 2003,
  "Ø§ÙĦØ¹Ø§Ø¨": 32528,
  "Ø§ÙĦØ¹Ø©": 21504,
  "Ø§ÙĦØ¹Ø±Ø¨ÙĬØ©": 44742,
  "Ø§ÙĦØ¹Ø²ÙĬØ²": 43272,
  "Ø§ÙĦØ¹ÙĦØ§ÙĤØ§Øª": 59107,
  "Ø§ÙĦØ¹ÙħÙĦ": 52427,
  "Ø§ÙĦØ¹ÙĨÙĪØ§ÙĨ": 58430,
  "Ø§ÙĦØ¹ÙĬÙĨ": 35727,
  "Ø§ÙĦØº": 2805,
  "Ø§ÙĦØºØ©": 50023,
  "Ø§ÙĦØºÙĬÙĨ": 33078,
  "Ø§ÙĦØŃ": 1168,
  "Ø§ÙĦØŃØ©": 5228,
  "Ø§ÙĦØŃØ±ÙĥØ©": 63990,
  "Ø§ÙĦØŃÙĬÙĨ": 37310,
  "Ø§ÙĦÙ": 429,
  "Ø§ÙĦÙģ": 1409,
  "Ø§ÙĦÙģØ§Øª": 21252,
  "Ø§ÙĦÙģØ§Ø±Ø³ÙĬØ©": 57833,
  "Ø§ÙĦÙģØ§Ø±Ø³ÙĬØ©Ø§ÙĦØ¨Ø±ØªØºØ§ÙĦÙĬØ©Ø§ÙĦØªÙĬÙĦØ¬": 59923,
  "Ø§ÙĦÙģØ§Ø±Ø³ÙĬØ©Ø§ÙĦØ¨Ø±ØªØºØ§ÙĦÙĬØ©Ø§ÙĦØªÙĬÙĦØ¬ÙĪØ§ÙĦÙĩÙĪÙĦÙĨØ¯ÙĬØ©": 60276,
  "Ø§ÙĦÙģØ©": 11815,
  "Ø§ÙĦÙģØª": 55187,
  "Ø§ÙĦÙģØ±ÙĨØ³ÙĬØ©": 50951,
  "Ø§ÙĦÙģÙĦØ¨ÙĬÙĨ": 48214,
  "Ø§ÙĦÙģÙĦØ¨ÙĬÙĨÙģÙĨØ²ÙĪÙĬÙĦØ§ÙĥÙĪÙĦÙĪÙħØ¨ÙĬ": 59860,
  "Ø§ÙĦÙģÙĨÙĦÙĨØ¯ÙĬØ©": 58928,
  "Ø§ÙĦÙģÙĩ": 33816,
  "Ø§ÙĦÙģÙĪÙĨ": 47780,
  "Ø§ÙĦÙģÙĬØªÙĨØ§ÙħÙĬØ©": 58261,
  "Ø§ÙĦÙģÙĬØªÙĨØ§ÙħÙĬØ©Ø§ÙĦÙĬÙĪÙĨØ§ÙĨÙĬØ©Ø§ÙĦØ£ÙĪÙĥØ±Ø§ÙĨÙĬØ©Ø§ÙĦÙħ": 60236,
  "Ø§ÙĦÙģÙĬÙĨ": 46854,
  "Ø§ÙĦÙĤ": 3498,
  "Ø§ÙĦÙĤØ©": 16775,
  "Ø§ÙĦÙĤØ±ÙĨÙĬØ©": 45642,
  "Ø§ÙĦÙĤØ¶ÙĬØ©": 43594,
  "Ø§ÙĦÙĥ": 1018,
  "Ø§ÙĦÙĥØ§ÙĨØªÙĪÙĨÙĬØ©": 59678,
  "Ø§ÙĦÙĥØ±Ø¯ÙĬØ©": 59265,
  "Ø§ÙĦÙĥØ±ÙĬÙħ": 17927,
  "Ø§ÙĦÙĥØ³ÙĬ": 29724,
  "Ø§ÙĦÙĥÙ": 18037,
  "Ø§ÙĦÙĥÙħ": 20725,
  "Ø§ÙĦÙĥÙĩ": 30643,
  "Ø§ÙĦÙĥÙĪØ±ÙĬØ©": 58912,
  "Ø§ÙĦÙĥÙĪÙĬØª": 60796,
  "Ø§ÙĦÙĥÙĬ": 62647,
  "Ø§ÙĦÙĦÙ": 39298,
  "Ø§ÙĦÙĦÙĩ": 1852,
  "Ø§ÙĦÙĦÙĬØ²Ø±": 45243,
  "Ø§ÙĦÙĦÙĬØ²Ùĥ": 29263,
  "Ø§ÙĦÙħ": 417,
  "Ø§ÙĦÙħØ¤": 51761,
  "Ø§ÙĦÙħØ§": 6214,
  "Ø§ÙĦÙħØ§Ø¦Ø¯Ø©": 51184,
  "Ø§ÙĦÙħØ§Øª": 16041,
  "Ø§ÙĦÙħØ§ÙĨ": 53305,
  "Ø§ÙĦÙħØ§ÙĨØ¯Ø±ÙĬÙĨ": 59330,
  "Ø§ÙĦÙħØ§ÙĪØ±ÙĬ": 59006,
  "Ø§ÙĦÙħØ§ÙĪØ±ÙĬØ§ÙĦØ³ÙĪØ§ØŃÙĬÙĦÙĬØ©": 59300,
  "Ø§ÙĦÙħØ©": 12516,
  "Ø§ÙĦÙħØ¬ØªÙħØ¹": 61703,
  "Ø§ÙĦÙħØ³": 43136,
  "Ø§ÙĦÙħØ³Øª": 61299,
  "Ø§ÙĦÙħØ¹": 42191,
  "Ø§ÙĦÙħØºØ±Ø¨": 53969,
  "Ø§ÙĦÙħÙĤØ¯": 55093,
  "Ø§ÙĦÙħÙĤØ¯ÙĪÙĨÙĬØ©": 58114,
  "Ø§ÙĦÙħÙĤØ¯ÙĪÙĨÙĬØ©Ø§ÙĦØ®ÙħÙĬØ±Ø®ÙĪØ²": 59732,
  "Ø§ÙĦÙħÙħÙĦÙĥØ©": 29863,
  "Ø§ÙĦÙħÙĨ": 8106,
  "Ø§ÙĦÙħÙĨØ§": 21883,
  "Ø§ÙĦÙħÙĨØºÙĪÙĦÙĬØ©": 58971,
  "Ø§ÙĦÙħÙĨÙĤÙĪÙĦØ©": 57954,
  "Ø§ÙĦÙħÙĩ": 39602,
  "Ø§ÙĦÙħÙĩØ§Ø±Ø§ØªÙĬØ©": 59269,
  "Ø§ÙĦÙħÙĩØ§Ø±Ø§ØªÙĬØ©Ø§ÙĦÙħÙĨØºÙĪÙĦÙĬØ©": 59598,
  "Ø§ÙĦÙħÙĩØ§Ø±Ø§ØªÙĬØ©Ø§ÙĦÙħÙĨØºÙĪÙĦÙĬØ©Ø§ÙĦÙħÙĤØ¯ÙĪÙĨÙĬØ©Ø§ÙĦØ®ÙħÙĬØ±Ø®ÙĪØ²": 60292,
  "Ø§ÙĦÙħÙĪÙĨ": 44935,
  "Ø§ÙĦÙħÙĬÙĨ": 41626,
  "Ø§ÙĦÙĨ": 5549,
  "Ø§ÙĦÙĨØ±ÙĪÙĬ": 44681,
  "Ø§ÙĦÙĨØ±ÙĪÙĬØ¬Ø¨": 59295,
  "Ø§ÙĦÙĨØ±ÙĪÙĬØ¬Ø¨ÙĦØ¬ÙĬÙĥ": 59362,
  "Ø§ÙĦÙĨØ±ÙĪÙĬØ¬ÙĬØ©": 58146,
  "Ø§ÙĦÙĨØ±ÙĪÙĬØ¬ÙĬØ©Ø§ÙĦØ¯Ø§ÙĨÙħØ±ÙĥÙĬØ©": 59927,
  "Ø§ÙĦÙĨØ±ÙĪÙĬØ¬ÙĬØ©Ø§ÙĦØ¯Ø§ÙĨÙħØ±ÙĥÙĬØ©Ø§ÙĦØªØ§ÙĬÙĦØ§ÙĨØ¯ÙĬØ©": 60531,
  "Ø§ÙĦÙĨØ±ÙĪÙĬØ¬ÙĬØ©Ø§ÙĦØ¯Ø§ÙĨÙħØ±ÙĥÙĬØ©Ø§ÙĦØªØ§ÙĬÙĦØ§ÙĨØ¯ÙĬØ©Ø§ÙĦÙģØ§Ø±Ø³ÙĬØ©Ø§ÙĦØ¨Ø±ØªØºØ§ÙĦÙĬØ©Ø§ÙĦØªÙĬÙĦØ¬ÙĪØ§ÙĦÙĩÙĪÙĦÙĨØ¯ÙĬØ©": 61639,
  "Ø§ÙĦÙĨØ³Ø§Ø¡": 30616,
  "Ø§ÙĦÙĨØ¸Ø±": 28237,
  "Ø§ÙĦÙĨÙĪØ±": 52204,
  "Ø§ÙĦÙĨÙĬ": 60722,
  "Ø§ÙĦÙĩ": 1495,
  "Ø§ÙĦÙĩØ§": 3772,
  "Ø§ÙĦÙĩØ§Ø¯ÙĬ": 33009,
  "Ø§ÙĦÙĩÙ": 5583,
  "Ø§ÙĦÙĩÙħ": 5599,
  "Ø§ÙĦÙĩÙħØ§": 48020,
  "Ø§ÙĦÙĩÙĨØ¯ÙĬØ©": 57795,
  "Ø§ÙĦÙĩÙĨØ¯ÙĬØ©Ø§ÙĦÙģØ±ÙĨØ³ÙĬØ©": 60273,
  "Ø§ÙĦÙĪ": 7350,
  "Ø§ÙĦÙĪØ§": 18216,
  "Ø§ÙĦÙĪØª": 44139,
  "Ø§ÙĦÙĪØ«": 46690,
  "Ø§ÙĦÙĪØ¬": 51520,
  "Ø§ÙĦÙĪØ±ÙĬØ§": 39691,
  "Ø§ÙĦÙĪØ¸Ø§Ø¦Ùģ": 52099,
  "Ø§ÙĦÙĪÙĥØ§ÙĦØ©": 46804,
  "Ø§ÙĦÙĪÙĦØ§ÙĬØ§Øª": 51908,
  "Ø§ÙĦÙĪÙĨ": 6984,
  "Ø§ÙĦÙĪÙĨØ§Øª": 24277,
  "Ø§ÙĦÙĪÙĨÙĬ": 28732,
  "Ø§ÙĦÙĪÙĨÙĬØ§": 38594,
  "Ø§ÙĦÙĪÙĨÙĬØ©": 57811,
  "Ø§ÙĦÙī": 1582,
  "Ø§ÙĦÙĬ": 605,
  "Ø§ÙĦÙĬØ§": 1764,
  "Ø§ÙĦÙĬØ§Ø¨Ø§ÙĨ": 58249,
  "Ø§ÙĦÙĬØ§Ø¨Ø§ÙĨÙĬØ©": 57765,
  "Ø§ÙĦÙĬØ§Ø¨Ø§ÙĨÙĬØ©Ø§ÙĦÙĥÙĪØ±ÙĬØ©": 61230,
  "Ø§ÙĦÙĬØ§Øª": 2761,
  "Ø§ÙĦÙĬØ¨": 5983,
  "Ø§ÙĦÙĬØ©": 851,
  "Ø§ÙĦÙĬØª": 61619,
  "Ø§ÙĦÙĬØªÙĬÙĨ": 38644,
  "Ø§ÙĦÙĬØ¯": 5172,
  "Ø§ÙĦÙĬØ³": 37253,
  "Ø§ÙĦÙĬØ³Ø§Ø±": 28421,
  "Ø§ÙĦÙĬÙ": 5491,
  "Ø§ÙĦÙĬÙģ": 6995,
  "Ø§ÙĦÙĬÙĤ": 38100,
  "Ø§ÙĦÙĬÙĥ": 62842,
  "Ø§ÙĦÙĬÙĦ": 13585,
  "Ø§ÙĦÙĬÙħ": 7003,
  "Ø§ÙĦÙĬÙħÙĨ": 40179,
  "Ø§ÙĦÙĬÙħÙĨÙĦÙĪÙĥ": 59685,
  "Ø§ÙĦÙĬÙĨ": 7278,
  "Ø§ÙĦÙĬÙĨØ§": 38436,
  "Ø§ÙĦÙĬÙĩ": 14819,
  "Ø§ÙĦÙĬÙĩØ§Øª": 42957,
  "Ø§ÙĦÙĬÙĪÙĨ": 14569,
  "Ø§ÙĦÙĬÙĪÙĨØ§ÙĨ": 47147,
  "Ø§ÙĦÙĬÙĪÙĨØ§ÙĨØ£ÙĬØ³ÙĦÙĨØ¯Ø§ØªØ§ÙĬÙĪØ§ÙĨ": 59998,
  "Ø§ÙĦÙĬÙĪÙĨØ§ÙĨÙĬØ©": 57958,
  "Ø§ÙĦÙĬÙĪÙĨØ§ÙĨÙĬØ©Ø§ÙĦØ£ÙĪÙĥØ±Ø§ÙĨÙĬØ©Ø§ÙĦÙħ": 59863,
  "Ø§ÙĦÙĬÙĪÙĨÙĬ": 22753,
  "Ø§ÙĦÙĬÙĬÙĨ": 15701,
  "Ø§Ùħ": 322,
  "Ø§ÙħØ§": 1485,
  "Ø§ÙħØ§Ø©": 51508,
  "Ø§ÙħØ§Øª": 4661,
  "Ø§ÙħØ§Ø³": 35548,
  "Ø§ÙħØ§ÙĦØ·": 56990,
  "Ø§ÙħØ§ÙĦÙĬ": 45367,
  "Ø§ÙħØ§ÙĦÙĬØ²ÙĬ": 57206,
  "Ø§ÙħØ§ÙĦÙĬØ²ÙĬØ§Ø£ÙĪÙĥØ±Ø§ÙĨÙĬØ§Ø³ÙĨØºØ§ÙģÙĪØ±Ø©ÙĥÙħØ¨ÙĪØ¯ÙĬ": 60188,
  "Ø§ÙħØ¨": 2948,
  "Ø§ÙħØ¨ÙĬØ§": 9153,
  "Ø§ÙħØ©": 1082,
  "Ø§ÙħØª": 4648,
  "Ø§ÙħØªÙĩ": 12782,
  "Ø§ÙħØªÙĩØ§": 19589,
  "Ø§ÙħØªÙĩÙħ": 23291,
  "Ø§ÙħØ¬": 785,
  "Ø§ÙħØ¯": 34032,
  "Ø§ÙħØ±": 5438,
  "Ø§ÙħØ±Ø§Øª": 9949,
  "Ø§ÙħØ±Ø©": 7104,
  "Ø§ÙħØ±Ùĩ": 39177,
  "Ø§ÙħØ³": 21623,
  "Ø§ÙħØ³Ø©": 47582,
  "Ø§ÙħØ´": 19564,
  "Ø§ÙħØ´ÙĦÙĬ": 38806,
  "Ø§ÙħØ¹": 12113,
  "Ø§ÙħØ¹Ø§Øª": 10508,
  "Ø§ÙħØ¹Ø©": 1243,
  "Ø§ÙħØ¹Ùĩ": 61747,
  "Ø§ÙħØºØ§ÙħØ±Ø©": 60220,
  "Ø§ÙħØŃ": 12131,
  "Ø§ÙħÙ": 837,
  "Ø§ÙħÙĤØ¯ÙĪÙĨÙĬ": 59611,
  "Ø§ÙħÙĤØ¯ÙĪÙĨÙĬØ§Ø¨Ø§ÙĥØ³ØªØ§ÙĨØ£ÙģØºØ§ÙĨØ³ØªØ§ÙĨØ§ÙĦØ¨ÙĪØ³ÙĨØ©": 60901,
  "Ø§ÙħÙĥØ³": 45245,
  "Ø§ÙħÙĥÙĪ": 18558,
  "Ø§ÙħÙĦ": 1007,
  "Ø§ÙħÙĦØ§Øª": 5394,
  "Ø§ÙħÙĦØ©": 1843,
  "Ø§ÙħÙĦÙģ": 34210,
  "Ø§ÙħÙĦÙĪÙĨ": 33581,
  "Ø§ÙħÙĦÙĬÙĨ": 12356,
  "Ø§ÙħÙĨ": 1829,
  "Ø§ÙħÙĨØ¦ÙĬ": 20183,
  "Ø§ÙħÙĨØ§": 5882,
  "Ø§ÙħÙĨØ©": 14420,
  "Ø§ÙħÙĩ": 5745,
  "Ø§ÙħÙĩØ§": 14299,
  "Ø§ÙħÙĪ": 22095,
  "Ø§ÙħÙĪØ±ÙĬØª": 48379,
  "Ø§ÙħÙĪØ³": 14475,
  "Ø§ÙħÙĪÙĨ": 48044,
  "Ø§ÙħÙī": 10235,
  "Ø§ÙħÙĬ": 1881,
  "Ø§ÙħÙĬØ§Øª": 45172,
  "Ø§ÙħÙĬØ§ÙĨ": 53070,
  "Ø§ÙħÙĬØ©": 2821,
  "Ø§ÙħÙĬØ¯": 58747,
  "Ø§ÙħÙĬØ±": 17557,
  "Ø§ÙħÙĬØ±Ø§": 36010,
  "Ø§ÙħÙĬØ±Ø§Øª": 35643,
  "Ø§ÙħÙĬØ±ÙĪÙĨ": 41808,
  "Ø§ÙħÙĬØ³": 62433,
  "Ø§ÙħÙĬØ¹": 38205,
  "Ø§ÙħÙĬÙĥ": 15708,
  "Ø§ÙħÙĬÙĥÙĬ": 53225,
  "Ø§ÙħÙĬÙĥÙĬØ©": 27697,
  "Ø§ÙħÙĬÙĦ": 24698,
  "Ø§ÙħÙĬÙĦØªÙĪÙĨ": 45353,
  "Ø§ÙħÙĬÙħ": 4149,
  "Ø§ÙħÙĬÙĨ": 3250,
  "Ø§ÙħÙĬÙĨØ§": 46716,
  "Ø§ÙħÙĬÙĨØ§Øª": 15983,
  "Ø§ÙħÙĬÙĩ": 28671,
  "Ø§ÙħÙĬÙĬÙĨ": 31656,
  "Ø§ÙĨ": 307,
  "Ø§ÙĨØ¦": 13973,
  "Ø§ÙĨØ§": 1868,
  "Ø§ÙĨØ§Ø©": 7250,
  "Ø§ÙĨØ§Øª": 1706,
  "Ø§ÙĨØ§ØªÙĩÙħ": 56832,
  "Ø§ÙĨØ¨": 1360,
  "Ø§ÙĨØ¨Ø§": 26788,
  "Ø§ÙĨØ©": 1840,
  "Ø§ÙĨØª": 5504,
  "Ø§ÙĨØªÙĩ": 20518,
  "Ø§ÙĨØªÙĩØ§": 48879,
  "Ø§ÙĨØªÙĩÙħ": 62891,
  "Ø§ÙĨØªÙĪÙħ": 31879,
  "Ø§ÙĨØªÙĪÙĨÙĬØ©": 57647,
  "Ø§ÙĨØªÙĬ": 45822,
  "Ø§ÙĨØ¬": 21237,
  "Ø§ÙĨØ®": 55247,
  "Ø§ÙĨØ¯": 6005,
  "Ø§ÙĨØ¯Ø§": 47129,
  "Ø§ÙĨØ¯Ø©": 9817,
  "Ø§ÙĨØ¯Ø±ÙĪ": 63595,
  "Ø§ÙĨØ¯Ùĩ": 53092,
  "Ø§ÙĨØ¯ÙĪÙĨÙĬØ³ÙĬ": 55120,
  "Ø§ÙĨØ¯ÙĪÙĨÙĬØ³ÙĬØ§Ø¨ÙĦØºØ§Ø±ÙĬ": 59453,
  "Ø§ÙĨØ²": 23270,
  "Ø§ÙĨØ³": 9650,
  "Ø§ÙĨØ³ÙĬØ±": 60558,
  "Ø§ÙĨØ´ÙĩØ±": 55264,
  "Ø§ÙĨØ·Ø§ÙĨ": 33065,
  "Ø§ÙĨØ¹": 4919,
  "Ø§ÙĨØº": 27517,
  "Ø§ÙĨÙ": 484,
  "Ø§ÙĨÙĤ": 28643,
  "Ø§ÙĨÙĥ": 37592,
  "Ø§ÙĨÙħ": 9608,
  "Ø§ÙĨÙħØ§Ø±": 13334,
  "Ø§ÙĨÙħØ§Ø±Ùĥ": 17888,
  "Ø§ÙĨÙĩ": 3090,
  "Ø§ÙĨÙĩØ§": 11943,
  "Ø§ÙĨÙĩÙħ": 24793,
  "Ø§ÙĨÙĪ": 6243,
  "Ø§ÙĨÙĪØ§": 54362,
  "Ø§ÙĨÙĪØ³": 39687,
  "Ø§ÙĨÙĪØ³ÙĬØ§": 60818,
  "Ø§ÙĨÙĪÙģ": 36558,
  "Ø§ÙĨÙĪÙĨ": 958,
  "Ø§ÙĨÙĪÙĬ": 2949,
  "Ø§ÙĨÙĪÙĬØ©": 3814,
  "Ø§ÙĨÙī": 2540,
  "Ø§ÙĨÙĬ": 528,
  "Ø§ÙĨÙĬØ§": 1376,
  "Ø§ÙĨÙĬØ§Ø§ÙĦØ": 54670,
  "Ø§ÙĨÙĬØ§Ø§ÙĦØµÙĬÙĨ": 59695,
  "Ø§ÙĨÙĬØ§Øª": 4470,
  "Ø§ÙĨÙĬØ§Ø³": 27839,
  "Ø§ÙĨÙĬØ§Ø³ÙĦÙĪÙģØ§ÙĥÙĬ": 59072,
  "Ø§ÙĨÙĬØ§Ø³ÙĨØºØ§ÙģÙĪØ±Ø©": 58725,
  "Ø§ÙĨÙĬØ§ÙĦ": 43019,
  "Ø§ÙĨÙĬØ§ÙĨ": 54494,
  "Ø§ÙĨÙĬØ©": 622,
  "Ø§ÙĨÙĬØª": 7292,
  "Ø§ÙĨÙĬØªØ§": 53448,
  "Ø§ÙĨÙĬØªÙĩ": 28692,
  "Ø§ÙĨÙĬØªÙĩØ§": 35568,
  "Ø§ÙĨÙĬØªÙĬÙĨ": 57712,
  "Ø§ÙĨÙĬØ¯": 28149,
  "Ø§ÙĨÙĬØ±": 53214,
  "Ø§ÙĨÙĬØ²": 9429,
  "Ø§ÙĨÙĬØ³": 25337,
  "Ø§ÙĨÙĬÙģ": 44062,
  "Ø§ÙĨÙĬÙĥ": 8590,
  "Ø§ÙĨÙĬÙĥØ§": 29756,
  "Ø§ÙĨÙĬÙĥÙĬ": 27342,
  "Ø§ÙĨÙĬÙĥÙĬØ©": 14640,
  "Ø§ÙĨÙĬÙħ": 16652,
  "Ø§ÙĨÙĬÙĨ": 12641,
  "Ø§ÙĨÙĬÙĨØ§": 54790,
  "Ø§ÙĨÙĬÙĩ": 6608,
  "Ø§ÙĨÙĬÙĩØ§": 38054,
  "Ø§ÙĨÙĬÙĪ": 50590,
  "Ø§ÙĨÙĬÙĪØ²ÙĬÙĦÙĨØ¯": 54850,
  "Ø§ÙĨÙĬÙĪØ²ÙĬÙĦÙĨØ¯Ø§ÙģÙĨÙĦÙĨØ¯": 59591,
  "Ø§ÙĨÙĬÙĪØ²ÙĬÙĦÙĨØ¯Ø§ÙģÙĨÙĦÙĨØ¯Ø§Ø¬ÙĨÙĪØ¨": 60090,
  "Ø§ÙĨÙĬÙĪØ³": 61503,
  "Ø§ÙĨÙĬÙĪØ³Ø§Øª": 56557,
  "Ø§ÙĨÙĬÙĪÙħ": 18542,
  "Ø§ÙĨÙĬÙĪÙĨ": 17663,
  "Ø§ÙĨÙĬÙĬÙĨ": 4641,
  "Ø§Ùĩ": 541,
  "Ø§ÙĩØ§": 4142,
  "Ø§ÙĩØ§Øª": 31541,
  "Ø§ÙĩØ§Ùħ": 38744,
  "Ø§ÙĩØ¨": 7066,
  "Ø§ÙĩØ¨Ùĩ": 56987,
  "Ø§ÙĩØ©": 8169,
  "Ø§ÙĩØ¬": 10037,
  "Ø§ÙĩØ¯": 1427,
  "Ø§ÙĩØ¯Ø§": 47853,
  "Ø§ÙĩØ¯Ø§Øª": 42193,
  "Ø§ÙĩØ¯Ø©": 2399,
  "Ø§ÙĩØ¯Ùĩ": 60251,
  "Ø§ÙĩØ¯ÙĪØ§": 42904,
  "Ø§ÙĩØ¯ÙĪÙĨ": 60000,
  "Ø§ÙĩØ¯ÙĬ": 36792,
  "Ø§ÙĩØ¯ÙĬÙĨ": 8729,
  "Ø§ÙĩØ±": 2666,
  "Ø§ÙĩØ±Ø§Øª": 62819,
  "Ø§ÙĩØ±Ø©": 1543,
  "Ø§ÙĩØ±ÙĬÙĨ": 36055,
  "Ø§ÙĩØ²": 19568,
  "Ø§ÙĩØ¶Ø©": 16684,
  "Ø§ÙĩÙĦ": 6444,
  "Ø§ÙĩÙħ": 2302,
  "Ø§ÙĩÙħØ§Øª": 32953,
  "Ø§ÙĩÙħØ©": 5144,
  "Ø§ÙĩÙħÙĬÙĨ": 39806,
  "Ø§ÙĩÙĨ": 11202,
  "Ø§ÙĩÙĪ": 32732,
  "Ø§ÙĩÙĪÙĦÙĨØ¯": 59559,
  "Ø§ÙĩÙĪÙĨØ¬": 54221,
  "Ø§ÙĩÙĬ": 10797,
  "Ø§ÙĩÙĬØ©": 6744,
  "Ø§ÙĩÙĬØ±": 8936,
  "Ø§ÙĩÙĬÙĦ": 43267,
  "Ø§ÙĩÙĬÙĨ": 30603,
  "Ø§ÙĪ": 1606,
  "Ø§ÙĪØ§": 32041,
  "Ø§ÙĪØ§Ø©": 7495,
  "Ø§ÙĪØ§Ø·": 49477,
  "Ø§ÙĪØ¨": 17936,
  "Ø§ÙĪØ©": 32491,
  "Ø§ÙĪØ¬": 61026,
  "Ø§ÙĪØ¯": 14269,
  "Ø§ÙĪØ±": 3588,
  "Ø§ÙĪØ±Ø§Øª": 10993,
  "Ø§ÙĪØ±Ø©": 6849,
  "Ø§ÙĪØ±Ùĩ": 34306,
  "Ø§ÙĪØ±ÙĬ": 35273,
  "Ø§ÙĪØ²": 3692,
  "Ø§ÙĪØ³": 36459,
  "Ø§ÙĪØ¶": 63416,
  "Ø§ÙĪØ¹": 55030,
  "Ø§ÙĪØŃ": 33456,
  "Ø§ÙĪÙģ": 8202,
  "Ø§ÙĪÙĦ": 1831,
  "Ø§ÙĪÙĦØ§": 48053,
  "Ø§ÙĪÙĦØ§Øª": 4118,
  "Ø§ÙĪÙĦØ©": 2474,
  "Ø§ÙĪÙĦØª": 7904,
  "Ø§ÙĪÙĦØªÙĩ": 60886,
  "Ø§ÙĪÙĦÙĪÙĨ": 18314,
  "Ø§ÙĪÙĦÙĬ": 32274,
  "Ø§ÙĪÙĦÙĬÙĨ": 21103,
  "Ø§ÙĪÙħ": 8314,
  "Ø§ÙĪÙħØ©": 3230,
  "Ø§ÙĪÙĨ": 1763,
  "Ø§ÙĪÙĨØ©": 35517,
  "Ø§ÙĪÙĨØ¯": 32769,
  "Ø§ÙĪÙĨÙĦØ§ÙĬÙĨ": 15693,
  "Ø§ÙĪÙĨÙĩ": 45161,
  "Ø§ÙĪÙĨÙĬ": 20281,
  "Ø§ÙĪÙĪØ³": 39836,
  "Ø§ÙĪÙī": 5457,
  "Ø§ÙĪÙĬ": 2380,
  "Ø§ÙĪÙĬØ§": 43835,
  "Ø§ÙĪÙĬØ§Øª": 21209,
  "Ø§ÙĪÙĬØ©": 3487,
  "Ø§ÙĪÙĬØ±": 20838,
  "Ø§ÙĪÙĬØ´": 33684,
  "Ø§ÙĪÙĬØŃ": 29137,
  "Ø§ÙĪÙĬÙĨ": 11366,
  "Ø§ÙĪÙĬÙĩ": 34492,
  "Ø§ÙĪÙĬÙĬÙĨ": 36375,
  "Ø§Ùī": 6111,
  "Ø§ÙĬ": 1060,
  "Ø§ÙĬØ§": 1302,
  "Ø§ÙĬØ§Ø§ÙĦÙħ": 57254,
  "Ø§ÙĬØ§Ø§ÙĦÙħØ§ÙĦØ§ÙĬØ§ÙĦØ§ÙħÙĬØ©": 59602,
  "Ø§ÙĬØ§Ø§ÙĦÙħØ§ÙĦØ§ÙĬØ§ÙĦØ§ÙħÙĬØ©Ø§ÙĦØ£ÙģØ±ÙĬÙĥØ§ÙĨÙĬØ©": 60008,
  "Ø§ÙĬØ§Ø§ÙĦÙħØ§ÙĦØ§ÙĬØ§ÙĦØ§ÙħÙĬØ©Ø§ÙĦØ£ÙģØ±ÙĬÙĥØ§ÙĨÙĬØ©Ø§ÙĦØ¨Ø§Ø³ÙĥØ§ÙĦØ£ÙĦØ¨Ø§ÙĨÙĬØ©": 60697,
  "Ø§ÙĬØ§Ø§ÙĦÙħØ§ÙĦØ§ÙĬØ§ÙĦØ§ÙħÙĬØ©Ø§ÙĦØ£ÙģØ±ÙĬÙĥØ§ÙĨÙĬØ©Ø§ÙĦØ¨Ø§Ø³ÙĥØ§ÙĦØ£ÙĦØ¨Ø§ÙĨÙĬØ©Ø§ÙĦØ²ÙĪÙĦÙĪØ§ÙĦØ¨ÙĨØ¬Ø§Ø¨ÙĬØ©Ø§ÙĦÙħÙĩØ§Ø±Ø§ØªÙĬØ©Ø§ÙĦÙħÙĨØºÙĪÙĦÙĬØ©Ø§ÙĦÙħÙĤØ¯ÙĪÙĨÙĬØ©Ø§ÙĦØ®ÙħÙĬØ±Ø®ÙĪØ²": 62707,
  "Ø§ÙĬØ§Øª": 2170,
  "Ø§ÙĬØ§ÙĨ": 19964,
  "Ø§ÙĬØ§ÙĨØ§": 38665,
  "Ø§ÙĬØ§Ùĩ": 28992,
  "Ø§ÙĬØ§ÙĩØ§": 32217,
  "Ø§ÙĬØ¨": 8928,
  "Ø§ÙĬØ¨Ø±": 37629,
  "Ø§ÙĬØ©": 2165,
  "Ø§ÙĬØª": 2372,
  "Ø§ÙĬØªØ¯": 10232,
  "Ø§ÙĬØªÙĥ": 36659,
  "Ø§ÙĬØªÙĨØ§": 41271,
  "Ø§ÙĬØªÙĩ": 7366,
  "Ø§ÙĬØªÙĩØ§": 9322,
  "Ø§ÙĬØªÙĩÙħ": 20745,
  "Ø§ÙĬØªÙĬ": 29820,
  "Ø§ÙĬØªÙĬÙĨ": 60630,
  "Ø§ÙĬØ¬": 7989,
  "Ø§ÙĬØ¬Ø§Ø±": 45491,
  "Ø§ÙĬØ¬Ø±": 11324,
  "Ø§ÙĬØ®": 13304,
  "Ø§ÙĬØ¯": 2386,
  "Ø§ÙĬØ¯Ø§Øª": 44306,
  "Ø§ÙĬØ¯Ø©": 12897,
  "Ø§ÙĬØ¯Ø±": 24500,
  "Ø§ÙĬØ¯ÙĬ": 34350,
  "Ø§ÙĬØ±": 1431,
  "Ø§ÙĬØ±Ø§": 19956,
  "Ø§ÙĬØ±Ø©": 16715,
  "Ø§ÙĬØ±ÙĦÙĨ": 58277,
  "Ø§ÙĬØ±ÙĦÙĨØ¯Ø§Ø±ÙĪØ³ÙĬ": 59902,
  "Ø§ÙĬØ±ÙĨ": 42390,
  "Ø§ÙĬØ±Ùĩ": 45103,
  "Ø§ÙĬØ±ÙĪ": 52858,
  "Ø§ÙĬØ²": 7078,
  "Ø§ÙĬØ²Ø±": 63323,
  "Ø§ÙĬØ³": 7344,
  "Ø§ÙĬØ³Ø¨ÙĪÙĥ": 25332,
  "Ø§ÙĬØ³ØªØ±ÙĪ": 50758,
  "Ø§ÙĬØ³ÙĦØ±": 45938,
  "Ø§ÙĬØ´": 6805,
  "Ø§ÙĬØ´Ø©": 52426,
  "Ø§ÙĬØ¶": 17091,
  "Ø§ÙĬØ¶Ø©": 37920,
  "Ø§ÙĬØ¹": 10177,
  "Ø§ÙĬØ¹Ø©": 37182,
  "Ø§ÙĬØº": 27471,
  "Ø§ÙĬØºØ±": 59359,
  "Ø§ÙĬØŃ": 21576,
  "Ø§ÙĬØŃÙĬÙĨ": 53979,
  "Ø§ÙĬÙ": 5426,
  "Ø§ÙĬÙģ": 5936,
  "Ø§ÙĬÙĤ": 11041,
  "Ø§ÙĬÙĤØ§Øª": 32215,
  "Ø§ÙĬÙĤØ©": 42958,
  "Ø§ÙĬÙĥ": 7785,
  "Ø§ÙĬÙĥØ§": 24770,
  "Ø§ÙĬÙĥÙĦ": 57074,
  "Ø§ÙĬÙĥÙĪØ³": 46541,
  "Ø§ÙĬÙĥÙĪÙĨ": 41103,
  "Ø§ÙĬÙĥÙĬ": 20984,
  "Ø§ÙĬÙĦ": 2953,
  "Ø§ÙĬÙĦØ§Øª": 11001,
  "Ø§ÙĬÙĦØ§ÙĨØ¯": 32825,
  "Ø§ÙĬÙĦØ§ÙĨØ¯ÙĬØ©": 33916,
  "Ø§ÙĬÙĦÙĬ": 17820,
  "Ø§ÙĬÙħ": 4293,
  "Ø§ÙĬÙħØ§": 36164,
  "Ø§ÙĬÙħØ§ÙĨ": 16692,
  "Ø§ÙĬÙħØ©": 47941,
  "Ø§ÙĬÙħØ±": 23816,
  "Ø§ÙĬÙĨ": 2662,
  "Ø§ÙĬÙĨØ§": 55222,
  "Ø§ÙĬÙĨØ©": 5534,
  "Ø§ÙĬÙĨÙ": 41096,
  "Ø§ÙĬÙĨÙĬ": 42833,
  "Ø§ÙĬÙĩ": 7526,
  "Ø§ÙĬÙĪ": 6542,
  "Ø§ÙĬÙĪØ§ÙĨ": 11459,
  "Ø§ÙĬÙĪØ³": 61873,
  "Ø§ÙĬÙĪÙĨ": 33317,
  "Ø§ÙĬÙĬ": 41781,
  "Ø§ÙĬÙĬØ±": 4793,
  "Ø§ÙĬÙĬØ³": 14040,
  "Ø§ÙĬÙĬÙģ": 38399,
  "Ø§ÙĬÙĬÙĥ": 56229,
  "Ø§ÙĬÙĬÙĦ": 57396,
  "Ø§ÙĬÙĬÙħ": 19688,
  "Ø§ÙĬÙĬÙĨ": 10361,
  "Ø¨": 275,
  "Ø¨Ø£": 16454,
  "Ø¨Ø£Ø©": 37512,
  "Ø¨Ø¤": 19682,
  "Ø¨Ø¦": 25070,
  "Ø¨Ø¦Ø©": 10051,
  "Ø¨Ø§": 1637,
  "Ø¨Ø§Ø¡": 1851,
  "Ø¨Ø§Ø¦ÙĨ": 36858,
  "Ø¨Ø§Ø¦ÙĬ": 35094,
  "Ø¨Ø§Ø¨": 2391,
  "Ø¨Ø§Ø¨Ø§Øª": 33380,
  "Ø¨Ø§Ø¨Ø©": 42501,
  "Ø¨Ø§Ø¨ÙĬØ©": 22532,
  "Ø¨Ø§Øª": 973,
  "Ø¨Ø§ØªØ§Øª": 20696,
  "Ø¨Ø§ØªÙĩ": 36613,
  "Ø¨Ø§ØªÙĩØ§": 30606,
  "Ø¨Ø§Ø®": 51927,
  "Ø¨Ø§Ø¯": 11336,
  "Ø¨Ø§Ø¯Ø©": 22066,
  "Ø¨Ø§Ø±": 568,
  "Ø¨Ø§Ø±Ø§Ø©": 29977,
  "Ø¨Ø§Ø±Ø§Øª": 8933,
  "Ø¨Ø§Ø±Øª": 56064,
  "Ø¨Ø§Ø±Ø¯": 47359,
  "Ø¨Ø§Ø±Ù": 11853,
  "Ø¨Ø§Ø±Ùĥ": 7958,
  "Ø¨Ø§Ø±Ùĩ": 21196,
  "Ø¨Ø§Ø±ÙĪ": 44630,
  "Ø¨Ø§Ø±Ùī": 37572,
  "Ø¨Ø§Ø±ÙĬ": 11874,
  "Ø¨Ø§Ø±ÙĬØ§Øª": 32294,
  "Ø¨Ø§Ø±ÙĬØ©": 7897,
  "Ø¨Ø§Ø³": 11933,
  "Ø¨Ø§Ø´": 62838,
  "Ø¨Ø§Øµ": 34144,
  "Ø¨Ø§Ø·": 3356,
  "Ø¨Ø§Ø·Ø¤": 41578,
  "Ø¨Ø§Ø¹": 7452,
  "Ø¨Ø§Øº": 43275,
  "Ø¨Ø§ØŃ": 1734,
  "Ø¨Ø§ØŃØ©": 26725,
  "Ø¨Ø§ØŃØ«": 21558,
  "Ø¨Ø§ØŃÙĬØ©": 24753,
  "Ø¨Ø§ÙĤ": 11304,
  "Ø¨Ø§ÙĤÙĬ": 28116,
  "Ø¨Ø§Ùĥ": 31270,
  "Ø¨Ø§ÙĦ": 11249,
  "Ø¨Ø§ÙĦØ§Ø©": 41077,
  "Ø¨Ø§ÙĨ": 9040,
  "Ø¨Ø§ÙĨÙĬ": 44533,
  "Ø¨Ø§ÙĨÙĬØ§": 46563,
  "Ø¨Ø§ÙĨÙĬØ©": 54985,
  "Ø¨Ø§Ùĩ": 8905,
  "Ø¨Ø§ÙĩÙĩ": 46324,
  "Ø¨Ø§ÙĩÙī": 55258,
  "Ø¨Ø§ÙĩÙĬ": 55696,
  "Ø¨Ø§ÙĬ": 34673,
  "Ø¨Ø§ÙĬØ§": 54755,
  "Ø¨Ø§ÙĬØ©": 32030,
  "Ø¨Ø§ÙĬÙĦ": 8659,
  "Ø¨Ø¨": 4821,
  "Ø¨Ø©": 491,
  "Ø¨Øª": 962,
  "Ø¨ØªØ§ÙĨ": 57853,
  "Ø¨ØªØ©": 23482,
  "Ø¨ØªØ¯": 7359,
  "Ø¨ØªØ¯Ø§Ø¦ÙĬ": 12537,
  "Ø¨ØªØ¯Ø§Ø¦ÙĬØ©": 22449,
  "Ø¨ØªØ¹Ø¯": 53255,
  "Ø¨ØªÙĥ": 23321,
  "Ø¨ØªÙĨØ§": 31190,
  "Ø¨ØªÙĩ": 15711,
  "Ø¨ØªÙĩØ§": 31890,
  "Ø¨ØªÙĩÙħ": 17616,
  "Ø¨ØªÙĪØ±": 62744,
  "Ø¨ØªÙĪÙĨ": 37368,
  "Ø¨ØªÙĬÙĨ": 22465,
  "Ø¨Ø«": 8762,
  "Ø¨Ø«ÙĤ": 30311,
  "Ø¨Ø«ÙĤØ©": 28123,
  "Ø¨Ø¬": 28172,
  "Ø¨Ø®": 3727,
  "Ø¨Ø¯": 540,
  "Ø¨Ø¯Ø¡": 60935,
  "Ø¨Ø¯Ø£": 1783,
  "Ø¨Ø¯Ø§": 4533,
  "Ø¨Ø¯Ø§Ø¡": 49092,
  "Ø¨Ø¯Ø§Ø¯": 15494,
  "Ø¨Ø¯Ø§Ø¹": 5396,
  "Ø¨Ø¯Ø§ÙĦ": 10383,
  "Ø¨Ø¯Ø©": 28124,
  "Ø¨Ø¯Ø¯": 55206,
  "Ø¨Ø¯Ø¹": 32509,
  "Ø¨Ø¯Ø¹ÙĬÙĨ": 37928,
  "Ø¨Ø¯ÙĦ": 29638,
  "Ø¨Ø¯ÙĪ": 2659,
  "Ø¨Ø¯ÙĪØ§": 56627,
  "Ø¨Ø°": 19100,
  "Ø¨Ø±": 442,
  "Ø¨Ø±Ø£": 39868,
  "Ø¨Ø±Ø§": 2300,
  "Ø¨Ø±Ø§Ø¡": 12950,
  "Ø¨Ø±Ø§Øª": 11812,
  "Ø¨Ø±Ø§Ø¬": 49566,
  "Ø¨Ø±Ø§Ø²": 24283,
  "Ø¨Ø±Ø§Ø³": 61421,
  "Ø¨Ø±Ø§Ùħ": 47790,
  "Ø¨Ø±Ø§ÙħØ¬": 21886,
  "Ø¨Ø±Ø§ÙĨÙĬ": 23235,
  "Ø¨Ø±Ø§ÙĩÙĬÙħ": 2987,
  "Ø¨Ø±Ø©": 2734,
  "Ø¨Ø±Øª": 7938,
  "Ø¨Ø±Ø¬": 24088,
  "Ø¨Ø±Ø¯": 39217,
  "Ø¨Ø±Ø²": 3018,
  "Ø¨Ø±Ø³": 31690,
  "Ø¨Ø±Øµ": 39270,
  "Ø¨Ø±Ø¹": 13588,
  "Ø¨Ø±Øº": 19427,
  "Ø¨Ø±Ùĥ": 26766,
  "Ø¨Ø±ÙĥØ©": 41081,
  "Ø¨Ø±ÙĨØ§": 17096,
  "Ø¨Ø±Ùĩ": 12370,
  "Ø¨Ø±ÙĩØ§": 28130,
  "Ø¨Ø±ÙĪ": 49263,
  "Ø¨Ø±ÙĪØ§": 25339,
  "Ø¨Ø±ÙĪÙĨ": 29414,
  "Ø¨Ø±Ùī": 2974,
  "Ø¨Ø±ÙĬ": 9693,
  "Ø¨Ø±ÙĬØ§Ø¡": 46721,
  "Ø¨Ø±ÙĬØ©": 10368,
  "Ø¨Ø±ÙĬØ¯": 26609,
  "Ø¨Ø±ÙĬØ³": 31883,
  "Ø¨Ø±ÙĬÙĨ": 20418,
  "Ø¨Ø²": 7770,
  "Ø¨Ø³": 7050,
  "Ø¨Ø³Ø©": 46586,
  "Ø¨Ø³Ø·": 62453,
  "Ø¨Ø³Ùĩ": 39823,
  "Ø¨Ø´": 44335,
  "Ø¨Ø¶": 10431,
  "Ø¨Ø·": 1468,
  "Ø¨Ø·Ø§Øª": 55180,
  "Ø¨Ø·Ø§ÙĦ": 10073,
  "Ø¨Ø·Ø©": 38894,
  "Ø¨Ø·Øª": 40491,
  "Ø¨Ø·Ù": 19088,
  "Ø¨Ø·ÙĦ": 58040,
  "Ø¨Ø·ÙĪÙĦØ©": 32021,
  "Ø¨Ø·ÙĬ": 22041,
  "Ø¨Ø·ÙĬØ©": 12243,
  "Ø¨Ø¹": 1005,
  "Ø¨Ø¹Ø§Øª": 15635,
  "Ø¨Ø¹Ø§Ø«": 18290,
  "Ø¨Ø¹Ø§Ø«Ø§Øª": 26255,
  "Ø¨Ø¹Ø§Ø¯": 6591,
  "Ø¨Ø¹Ø§Ø¯Ùĩ": 31933,
  "Ø¨Ø¹Ø§Ø¯ÙĩØ§": 61835,
  "Ø¨Ø¹Ø§Ùħ": 53249,
  "Ø¨Ø¹Ø©": 6775,
  "Ø¨Ø¹Ø«": 19902,
  "Ø¨Ø¹Ø¯": 8902,
  "Ø¨Ø¹Ùĩ": 22065,
  "Ø¨Ø¹ÙĩØ§": 37686,
  "Ø¨Ø¹ÙĪØ«": 14136,
  "Ø¨Ø¹ÙĪÙĨ": 36569,
  "Ø¨Ø¹ÙĬØ©": 21919,
  "Ø¨Ø¹ÙĬÙĨ": 28169,
  "Ø¨Øº": 10714,
  "Ø¨ØºØ§Ø¡": 22225,
  "Ø¨ØºØ©": 52701,
  "Ø¨ØºÙī": 30125,
  "Ø¨ØºÙĬ": 4368,
  "Ø¨ØŃ": 925,
  "Ø¨ØŃØ§Ø«": 6743,
  "Ø¨ØŃØ§Ø±": 40923,
  "Ø¨ØŃØ«": 5309,
  "Ø¨ØŃØ±": 42669,
  "Ø¨Ù": 368,
  "Ø¨ÙĤ": 4516,
  "Ø¨ÙĤØ§Ø¡": 26564,
  "Ø¨ÙĤØ©": 31975,
  "Ø¨ÙĤÙī": 16175,
  "Ø¨Ùĥ": 9033,
  "Ø¨ÙĥØ§Øª": 14346,
  "Ø¨ÙĥØ©": 9935,
  "Ø¨ÙĥØ³ØªØ§ÙĨ": 43623,
  "Ø¨ÙĥØ³ØªØ§ÙĨÙĬ": 22900,
  "Ø¨ÙĥÙĬ": 49901,
  "Ø¨ÙĥÙĬØ©": 35421,
  "Ø¨ÙĦ": 576,
  "Ø¨ÙĦØ§Øª": 40816,
  "Ø¨ÙĦØ§Øº": 20133,
  "Ø¨ÙĦØª": 48906,
  "Ø¨ÙĦÙĦØ©": 61599,
  "Ø¨ÙĦÙĩ": 28686,
  "Ø¨ÙĦÙĩØ§": 36815,
  "Ø¨ÙĦÙĪ": 29087,
  "Ø¨ÙĦÙĪØ§": 21747,
  "Ø¨ÙĦÙĪØ±": 17307,
  "Ø¨ÙĦÙĪØ±Ø±": 40276,
  "Ø¨ÙĦÙĪØ³": 46761,
  "Ø¨ÙĦÙĪÙħ": 3793,
  "Ø¨ÙĦÙĪÙħØ§Øª": 29654,
  "Ø¨ÙĦÙĪÙħØ§Ø³ÙĬ": 33066,
  "Ø¨ÙĦÙĪÙħØ§Ø³ÙĬØ©": 19273,
  "Ø¨ÙĦÙĪÙħØ§Ø³ÙĬÙĬÙĨ": 49127,
  "Ø¨ÙĦÙĬ": 25737,
  "Ø¨ÙĦÙĬÙĨ": 36854,
  "Ø¨ÙħØ§": 26543,
  "Ø¨ÙĨ": 8285,
  "Ø¨ÙĨØ§": 37474,
  "Ø¨ÙĨØ§Ø¡": 12644,
  "Ø¨ÙĨØ¯ÙĨØª": 49582,
  "Ø¨ÙĨÙī": 49392,
  "Ø¨ÙĨÙĬ": 26715,
  "Ø¨Ùĩ": 949,
  "Ø¨ÙĩØ§": 5532,
  "Ø¨ÙĩØ§Øª": 10644,
  "Ø¨ÙĩØ§Ø±": 43185,
  "Ø¨ÙĩØ§Ùħ": 58332,
  "Ø¨ÙĩØ§ÙĨ": 47583,
  "Ø¨ÙĩØ§ÙĨÙĬ": 45282,
  "Ø¨ÙĩØ©": 3759,
  "Ø¨ÙĩÙħ": 45896,
  "Ø¨ÙĪ": 2355,
  "Ø¨ÙĪØ£": 63334,
  "Ø¨ÙĪØ§": 35403,
  "Ø¨ÙĪØ¨": 9406,
  "Ø¨ÙĪØ¨Ø©": 30233,
  "Ø¨ÙĪØ©": 41046,
  "Ø¨ÙĪØª": 10652,
  "Ø¨ÙĪØªÙĩ": 49457,
  "Ø¨ÙĪØ¯": 42609,
  "Ø¨ÙĪØ¯ÙĬØ§": 56637,
  "Ø¨ÙĪØ±": 5838,
  "Ø¨ÙĪØ±ØªÙĬÙģÙĪ": 42544,
  "Ø¨ÙĪØ±Øº": 13559,
  "Ø¨ÙĪØ³": 44431,
  "Ø¨ÙĪØ·": 7538,
  "Ø¨ÙĪØ·Ø©": 33624,
  "Ø¨ÙĪØ¹": 4154,
  "Ø¨ÙĪØ¹Ø§Øª": 18927,
  "Ø¨ÙĪØ¹Ø©": 16323,
  "Ø¨ÙĪØ¹ÙĬ": 40277,
  "Ø¨ÙĪØº": 46727,
  "Ø¨ÙĪÙĤØ©": 18803,
  "Ø¨ÙĪÙĥ": 8707,
  "Ø¨ÙĪÙĥØ³": 55040,
  "Ø¨ÙĪÙĦ": 4456,
  "Ø¨ÙĪÙĦØ§": 21186,
  "Ø¨ÙĪÙĦÙĨØ¯": 47619,
  "Ø¨ÙĪÙĦÙĨØ¯Ø§Ø§ÙĦØ¨Ø±Ø§Ø²ÙĬÙĦØ¬ÙħÙĩÙĪØ±ÙĬØ©": 59728,
  "Ø¨ÙĪÙĦÙĬÙĨ": 22579,
  "Ø¨ÙĪÙĨ": 9203,
  "Ø¨ÙĪÙĨØ©": 36566,
  "Ø¨ÙĪÙĩ": 51489,
  "Ø¨ÙĪÙĩØ§": 42250,
  "Ø¨ÙĪÙĩØ©": 20048,
  "Ø¨ÙĪÙĬÙĨ": 40765,
  "Ø¨ÙĪÙĬÙĨØª": 20690,
  "Ø¨Ùī": 2030,
  "Ø¨ÙĬ": 441,
  "Ø¨ÙĬØ§": 1838,
  "Ø¨ÙĬØ§Ø¡": 6688,
  "Ø¨ÙĬØ§Øª": 12621,
  "Ø¨ÙĬØ§ÙĨ": 7674,
  "Ø¨ÙĬØ¨": 1846,
  "Ø¨ÙĬØ¨Ø©": 9662,
  "Ø¨ÙĬØ©": 976,
  "Ø¨ÙĬØª": 3533,
  "Ø¨ÙĬØªÙĩ": 20875,
  "Ø¨ÙĬØªÙĩØ§": 32288,
  "Ø¨ÙĬØªÙĩÙħ": 49356,
  "Ø¨ÙĬØªÙĬ": 44510,
  "Ø¨ÙĬØªÙĬÙĨ": 41174,
  "Ø¨ÙĬØ¯": 3402,
  "Ø¨ÙĬØ¯Ø§Øª": 9057,
  "Ø¨ÙĬØ¯Ø¬Ø§ÙĨ": 31052,
  "Ø¨ÙĬØ¯ÙĬ": 28457,
  "Ø¨ÙĬØ¯ÙĬØ§": 35115,
  "Ø¨ÙĬØ±": 938,
  "Ø¨ÙĬØ±Ø§": 19433,
  "Ø¨ÙĬØ±Ø©": 1473,
  "Ø¨ÙĬØ±Øº": 38473,
  "Ø¨ÙĬØ±ÙĪ": 29555,
  "Ø¨ÙĬØ±ÙĪØ¨ÙĬ": 52920,
  "Ø¨ÙĬØ±ÙĪØª": 47746,
  "Ø¨ÙĬØ±ÙĬ": 20752,
  "Ø¨ÙĬØ±ÙĬØ§": 48663,
  "Ø¨ÙĬØ³": 34655,
  "Ø¨ÙĬØ¶": 4107,
  "Ø¨ÙĬØ·": 33804,
  "Ø¨ÙĬØ¹": 1065,
  "Ø¨ÙĬØ¹Ø§Øª": 5835,
  "Ø¨ÙĬØ¹Ø©": 7878,
  "Ø¨ÙĬØ¹Ù": 20259,
  "Ø¨ÙĬØ¹ÙĬ": 20278,
  "Ø¨ÙĬØŃ": 11365,
  "Ø¨ÙĬØŃØ©": 16244,
  "Ø¨ÙĬÙ": 12931,
  "Ø¨ÙĬÙĤ": 1791,
  "Ø¨ÙĬÙĤØ§Øª": 3653,
  "Ø¨ÙĬÙĤÙĬ": 15243,
  "Ø¨ÙĬÙĥ": 18120,
  "Ø¨ÙĬÙĥØ§": 34349,
  "Ø¨ÙĬÙĥØ§Øª": 21898,
  "Ø¨ÙĬÙĦ": 1920,
  "Ø¨ÙĬÙĦØ©": 4380,
  "Ø¨ÙĬÙĦÙĬ": 34276,
  "Ø¨ÙĬÙĦÙĬØ©": 24130,
  "Ø¨ÙĬÙħ": 43365,
  "Ø¨ÙĬÙĨ": 1625,
  "Ø¨ÙĬÙĨÙĬ": 60891,
  "Ø¨ÙĬÙĩ": 2811,
  "Ø¨ÙĬÙĩØ§": 15596,
  "Ø¨ÙĬÙĩØ©": 19055,
  "Ø¨ÙĬÙĩÙĬ": 47218,
  "Ø¨ÙĬÙĪ": 60514,
  "Ø¨ÙĬÙĪØªØ±": 2306,
  "Ø¨ÙĬÙĪÙĨ": 26618,
  "Ø¨ÙĬÙĬ": 50106,
  "Ø¨ÙĬÙĬØ¶": 17165,
  "Ø¨ÙĬÙĬÙĨ": 14249,
  "Ø©": 274,
  "Øª": 273,
  "ØªØ§": 4805,
  "ØªØ§Ø¡": 45879,
  "ØªØ§Ø¦Ø¨": 55647,
  "ØªØ§Ø¨": 1204,
  "ØªØ§Ø¨Ø§Øª": 31999,
  "ØªØ§Ø¨Ø©": 8887,
  "ØªØ§Ø¨Ø¹": 53510,
  "ØªØ§Ø¨Ø¹Ø©": 8159,
  "ØªØ§Øª": 14271,
  "ØªØ§Ø¬": 4788,
  "ØªØ§Ø¯": 22605,
  "ØªØ§Ø±": 2789,
  "ØªØ§Ø²": 34228,
  "ØªØ§Øº": 51939,
  "ØªØ§ØŃ": 3163,
  "ØªØ§ØŃØ©": 10220,
  "ØªØ§ØŃÙģ": 46856,
  "ØªØ§ØŃÙĬ": 59199,
  "ØªØ§ØŃÙĬØ©": 16709,
  "ØªØ§Ùģ": 49132,
  "ØªØ§ÙģØ§Øª": 37537,
  "ØªØ§ÙĤ": 41969,
  "ØªØ§ÙĦ": 8981,
  "ØªØ§Ùħ": 5873,
  "ØªØ§ÙĨ": 5713,
  "ØªØ§ÙĨØ§": 50747,
  "ØªØ§ÙĨØ§ÙħÙĪ": 37867,
  "ØªØ§ÙĪÙī": 56031,
  "ØªØ§ÙĬÙĦØ§ÙĨØ¯": 58305,
  "ØªØ§ÙĬÙĦØ§ÙĨØ¯Ø§ÙĦÙĨØ±ÙĪÙĬØ¬Ø¨ÙĦØ¬ÙĬÙĥ": 59739,
  "ØªØ§ÙĬÙĦØ§ÙĨØ¯Ø§ÙĦÙĨØ±ÙĪÙĬØ¬Ø¨ÙĦØ¬ÙĬÙĥØ§ÙĩÙĪÙĦÙĨØ¯": 60553,
  "ØªØ§ÙĬÙĦØ§ÙĨØ¯Ø§ÙĦÙĨØ±ÙĪÙĬØ¬Ø¨ÙĦØ¬ÙĬÙĥØ§ÙĩÙĪÙĦÙĨØ¯Ø§ÙĨÙĬÙĪØ²ÙĬÙĦÙĨØ¯Ø§ÙģÙĨÙĦÙĨØ¯Ø§Ø¬ÙĨÙĪØ¨": 61682,
  "ØªØ§ÙĬÙħ": 48803,
  "ØªØ¨": 815,
  "ØªØ¨Ø¦": 41709,
  "ØªØ¨Ø§Ø¡": 45575,
  "ØªØ¨Ø§Øª": 28059,
  "ØªØ¨Ø§Ø±": 1458,
  "ØªØ¨Ø§Ø±Ø§Øª": 3206,
  "ØªØ¨Ø§Ø³": 31197,
  "ØªØ¨Ø§Ø·": 3538,
  "ØªØ¨Ø§Ø¹": 11679,
  "ØªØ¨Ø§Ø¹Ùĩ": 27737,
  "ØªØ¨Ø§Ùĥ": 6153,
  "ØªØ¨Ø§ÙĥØ§Øª": 8451,
  "ØªØ¨Ø§Ùĩ": 11996,
  "ØªØ¨Ø©": 4262,
  "ØªØ¨Ø±": 1226,
  "ØªØ¨Ø±Ø§Øª": 15822,
  "ØªØ¨Ø±Ø©": 19530,
  "ØªØ¨Ø³": 45468,
  "ØªØ¨Ø·": 4726,
  "ØªØ¨Ø·Ø©": 6877,
  "ØªØ¨Ø¹": 11117,
  "ØªØ¨Ø¹Ø§Ø¯": 36349,
  "ØªØ¨Ùĥ": 41125,
  "ØªØ¨Ùĩ": 6615,
  "ØªØ¨ÙĩØ§": 60671,
  "ØªØ¨Ùī": 48429,
  "ØªØ¨ÙĬÙĨ": 38078,
  "ØªØ©": 8427,
  "ØªØª": 28625,
  "ØªØªÙħ": 10798,
  "ØªØ«Ø§Ø«": 58750,
  "ØªØ¬": 1856,
  "ØªØ¬Ø§Øª": 9162,
  "ØªØ¬Ø§Ø¬": 24000,
  "ØªØ¬Ø§Ø¬Ø§Øª": 29246,
  "ØªØ¬Ø§Ø±": 47815,
  "ØªØ¬Ø§Ø²": 30778,
  "ØªØ¬Ø§Ùĩ": 20462,
  "ØªØ¬Ø§ÙĪØ²": 31914,
  "ØªØ¬ÙħÙĬÙĦ": 39277,
  "ØªØ¬ÙĪÙĨ": 27226,
  "ØªØ¬ÙĬÙĨ": 17934,
  "ØªØ®Ø§Ø°": 51961,
  "ØªØ®Ø¨": 7649,
  "ØªØ¯": 1426,
  "ØªØ¯Ø¦ÙĬÙĨ": 19456,
  "ØªØ¯Ø§Ø¡": 3534,
  "ØªØ¯Ø§Ø¡Ø§Øª": 11004,
  "ØªØ¯Ø§Ø¯": 18254,
  "ØªØ¯Ø§Ø±": 54912,
  "ØªØ¯Ø§ÙĦ": 16767,
  "ØªØ¯Øª": 13966,
  "ØªØ¯Ø®ÙĦ": 54393,
  "ØªØ¯ÙĦØ©": 18002,
  "ØªØ¯ÙĪØ§": 47987,
  "ØªØ¯ÙĪÙĨ": 21039,
  "ØªØ¯Ùī": 3130,
  "ØªØ¯ÙĬ": 9861,
  "ØªØ¯ÙĬØ§Øª": 9355,
  "ØªØ¯ÙĬÙĨ": 21436,
  "ØªØ°Ø§Ø±": 16945,
  "ØªØ°Ø¨": 53497,
  "ØªØ°Ø±": 43836,
  "ØªØ±": 446,
  "ØªØ±Ø§": 3610,
  "ØªØ±Ø§Ø¡": 39487,
  "ØªØ±Ø§Ø¨": 18185,
  "ØªØ±Ø§Øª": 3590,
  "ØªØ±Ø§ØªÙĬØ¬ÙĬØ©": 6451,
  "ØªØ±Ø§Ø¶": 6747,
  "ØªØ±Ø§Ø¶ÙĬ": 47509,
  "ØªØ±Ø§Ø·Ø§Øª": 31717,
  "ØªØ±Ø§Ø¹": 16993,
  "ØªØ±Ø§Ø¹Ø§Øª": 24597,
  "ØªØ±Ø§ØŃ": 17904,
  "ØªØ±Ø§ØŃØ§Øª": 7576,
  "ØªØ±Ø§Ùģ": 4028,
  "ØªØ±Ø§ÙģÙĬ": 59643,
  "ØªØ±Ø§ÙģÙĬØ©": 27816,
  "ØªØ±Ø§ÙĤ": 12088,
  "ØªØ±Ø§Ùĥ": 2215,
  "ØªØ±Ø§ÙĥØª": 44178,
  "ØªØ±Ø§ÙĥÙħØ©": 26786,
  "ØªØ±Ø§ÙĥÙĬ": 10367,
  "ØªØ±Ø§ÙĦÙĬ": 53980,
  "ØªØ±Ø§Ùħ": 4005,
  "ØªØ±Ø§ÙĩØ§": 54215,
  "ØªØ±Ø§ÙĪØŃ": 9480,
  "ØªØ±Ø¨": 30337,
  "ØªØ±Ø¨Ø©": 37600,
  "ØªØ±Ø¨ÙĬÙĨ": 12938,
  "ØªØ±Ø©": 13718,
  "ØªØ±Ø«": 39497,
  "ØªØ±Ø¬Ùħ": 35211,
  "ØªØ±Ø¯Ø§Ùħ": 53010,
  "ØªØ±Ø¶": 3952,
  "ØªØ±Ø¶ÙĬÙĨ": 45394,
  "ØªØ±Ø·": 10960,
  "ØªØ±Ø¹": 28456,
  "ØªØ±ØŃ": 8518,
  "ØªØ±ØŃØ§Øª": 12128,
  "ØªØ±Ùģ": 3716,
  "ØªØ±ÙģØª": 56553,
  "ØªØ±ÙģÙĬÙĨ": 8030,
  "ØªØ±ÙģÙĬÙĩ": 42593,
  "ØªØ±ÙĤ": 12311,
  "ØªØ±Ùĥ": 2217,
  "ØªØ±ÙĥØ©": 3893,
  "ØªØ±ÙĥÙĬ": 32510,
  "ØªØ±ÙĥÙĬØ§Ø§ÙĦÙħÙĥØ³ÙĬÙĥ": 59440,
  "ØªØ±ÙĥÙĬØ§Ø§ÙĦÙħÙĥØ³ÙĬÙĥÙĦØ¨ÙĨØ§ÙĨ": 59876,
  "ØªØ±ÙĨ": 17721,
  "ØªØ±ÙĨØ§Ø´": 31229,
  "ØªØ±ÙĨØª": 1925,
  "ØªØ±ÙĨÙĬØª": 20512,
  "ØªØ±Ùĩ": 36175,
  "ØªØ±ÙĪ": 20607,
  "ØªØ±ÙĪÙĥÙĬÙħØ§ÙĪÙĬØ§Øª": 39271,
  "ØªØ±ÙĪÙĦ": 11585,
  "ØªØ±ÙĪÙĨ": 22827,
  "ØªØ±ÙĪÙĨÙĬ": 32312,
  "ØªØ±ÙĪÙĨÙĬØ§Øª": 60398,
  "ØªØ±ÙĪÙĨÙĬØ©": 28294,
  "ØªØ±Ùī": 44661,
  "ØªØ±ÙĬ": 6413,
  "ØªØ±ÙĬØ§Øª": 58083,
  "ØªØ±ÙĬØ§ÙĦ": 51599,
  "ØªØ±ÙĬØ©": 29046,
  "ØªØ±ÙĬÙĥ": 33579,
  "ØªØ±ÙĬÙĨ": 25740,
  "ØªØ²": 3549,
  "ØªØ²Ø§Ø²": 9822,
  "ØªØ²Ø§ÙĦ": 19707,
  "ØªØ²ÙĤØ©": 20070,
  "ØªØ²ÙĪØ¬": 58553,
  "ØªØ³": 5181,
  "ØªØ³Ø§ÙĦ": 62407,
  "ØªØ³Ø§Ùħ": 63324,
  "ØªØ³Ø§ÙħØ©": 16732,
  "ØªØ³ÙĦ": 45816,
  "ØªØ³ÙĬØ±Ø§Øª": 57713,
  "ØªØ´": 6940,
  "ØªØµ": 1723,
  "ØªØµØ§Ø¨": 12064,
  "ØªØµØ§Ø¯": 32058,
  "ØªØµØ§Ø±": 12198,
  "ØªØµØ§Øµ": 9549,
  "ØªØµØ§ØµØ§Øª": 39826,
  "ØªØµØ§ÙĦ": 33657,
  "ØªØµØ§ÙĦØ§Øª": 11652,
  "ØªØµØ§Ùħ": 10303,
  "ØªØµØ§ÙħØ§Øª": 32043,
  "ØªØµØ¨": 29397,
  "ØªØµØ±": 5933,
  "ØªØµØ±Ø©": 50177,
  "ØªØµÙĬÙĨ": 37804,
  "ØªØ·Ø§Ùģ": 33990,
  "ØªØ¹": 5984,
  "ØªØ¹Ø§Ø«": 28235,
  "ØªØ¹Ø§Ø¯": 8752,
  "ØªØ¹Ø§ÙĦ": 24441,
  "ØªØ¹Ø±Ùģ": 26888,
  "ØªØ¹ÙĦØ©": 35248,
  "ØªØ¹ÙĦØª": 38468,
  "ØªØ¹ÙĦÙħ": 34861,
  "ØªØºØ§ÙĦ": 39844,
  "ØªØºÙĦ": 44052,
  "ØªØŃ": 2770,
  "ØªØŃØ§Ø¯": 8473,
  "ØªØŃØ§Ùħ": 39174,
  "ØªØŃØª": 20377,
  "ØªØŃÙģ": 54827,
  "ØªØŃÙĤÙĤ": 48989,
  "ØªØŃÙħÙĦ": 52794,
  "ØªØŃÙĪÙĦ": 19600,
  "ØªÙ": 353,
  "ØªÙģ": 1974,
  "ØªÙģØ§Ø¡": 11654,
  "ØªÙģØ§Ø¸": 25267,
  "ØªÙģØ§Ø¹": 6762,
  "ØªÙģØ§ÙĤ": 45558,
  "ØªÙģØ§ÙĦ": 6989,
  "ØªÙģØ§ÙĦØ§Øª": 25956,
  "ØªÙģØ§ÙĦÙĬØ©": 46077,
  "ØªÙģØ³ÙĬØ±": 60615,
  "ØªÙģØ¸": 11253,
  "ØªÙģØ¹": 7364,
  "ØªÙģØ¹Ø©": 10022,
  "ØªÙģÙĤ": 33713,
  "ØªÙģÙĪØ§": 60437,
  "ØªÙģÙĪÙĨ": 44278,
  "ØªÙģÙī": 17633,
  "ØªÙģÙĬ": 17362,
  "ØªÙĤ": 1544,
  "ØªÙĤØ§Ø¡": 9963,
  "ØªÙĤØ§Øª": 28462,
  "ØªÙĤØ§Ø¯": 12047,
  "ØªÙĤØ§Ø¯ÙĩÙħ": 54462,
  "ØªÙĤØ§Ø±": 40780,
  "ØªÙĤØ§ÙĦ": 8027,
  "ØªÙĤØ§ÙĦØ§Øª": 24240,
  "ØªÙĤØ§ÙĦÙĩ": 61261,
  "ØªÙĤØ§ÙĦÙĬ": 30823,
  "ØªÙĤØ§ÙĨ": 13787,
  "ØªÙĤØ¨Ø©": 19540,
  "ØªÙĤØ¯": 2462,
  "ØªÙĤØ¯Ø§Øª": 25006,
  "ØªÙĤØ¯Ùħ": 24076,
  "ØªÙĤÙĦ": 35009,
  "ØªÙĤÙĦØ§Øª": 40410,
  "ØªÙĤÙĦØª": 25761,
  "ØªÙĤÙĦÙĬ": 54626,
  "ØªÙĤÙĦÙĬÙĨ": 9573,
  "ØªÙĥ": 1239,
  "ØªÙĥØ§Ø¨": 16314,
  "ØªÙĥØ§Ø¨Ùĩ": 58833,
  "ØªÙĥØ§Ø±": 7591,
  "ØªÙĥØ§Ø±Ø§Øª": 17789,
  "ØªÙĥØ§Ø±ÙĬØ©": 45776,
  "ØªÙĥØ§Ø²": 52357,
  "ØªÙĥØ§Ùģ": 48341,
  "ØªÙĥØ§Ùĥ": 21218,
  "ØªÙĥØ§Ùħ": 31852,
  "ØªÙĥØ¨": 15135,
  "ØªÙĥØ±Ø©": 17110,
  "ØªÙĥØ²": 12381,
  "ØªÙĥØ²Ø§Øª": 53091,
  "ØªÙĥØ´Ø§Ùģ": 20390,
  "ØªÙĥÙģ": 49504,
  "ØªÙĥÙĦÙħ": 18496,
  "ØªÙĥÙħ": 9537,
  "ØªÙĥÙĪÙĨ": 20767,
  "ØªÙĥÙī": 29750,
  "ØªÙĥÙĬÙĨ": 44569,
  "ØªÙĦ": 1323,
  "ØªÙĦØ§Ùģ": 3284,
  "ØªÙĦØ§ÙĦ": 2250,
  "ØªÙĦØ©": 35192,
  "ØªÙĦÙģ": 1063,
  "ØªÙĦÙĪ": 18760,
  "ØªÙĦÙĪØ§": 9341,
  "ØªÙĦÙĪØ«": 53274,
  "ØªÙĦÙĪÙĨ": 30825,
  "ØªÙĦÙĪÙĩ": 35091,
  "ØªÙĦÙĪÙĬÙĨ": 58315,
  "ØªÙĦÙī": 54076,
  "ØªÙħ": 489,
  "ØªÙħØ§": 7550,
  "ØªÙħØ§Ø¡": 9370,
  "ØªÙħØ§Ø¡Ø§Øª": 58490,
  "ØªÙħØ§Ø¯": 3240,
  "ØªÙħØ§Ø¯Ø§Øª": 24877,
  "ØªÙħØ§Ø¹": 885,
  "ØªÙħØ§Ø¹Ù": 7036,
  "ØªÙħØ§Ø¹ÙĬ": 7038,
  "ØªÙħØ§Ø¹ÙĬØ©": 4329,
  "ØªÙħØ§ÙĦ": 6156,
  "ØªÙħØ§ÙĦØ§Øª": 12831,
  "ØªÙħØ§ÙĦÙĬØ©": 24478,
  "ØªÙħØ§Ùħ": 7669,
  "ØªÙħØ§ÙĨ": 11751,
  "ØªÙħØ¨Ø±": 2857,
  "ØªÙħØ©": 12629,
  "ØªÙħØª": 2467,
  "ØªÙħØªØ§Ø¹": 10914,
  "ØªÙħØªØ©": 50622,
  "ØªÙħØªØ¹": 3651,
  "ØªÙħØ¯": 1916,
  "ØªÙħØ¯Ø©": 7234,
  "ØªÙħØ¯Ø¯": 38863,
  "ØªÙħØ±": 889,
  "ØªÙħØ±Ø§Øª": 20558,
  "ØªÙħØ±Ø§Ø±": 2550,
  "ØªÙħØ±Ø§Ø±ÙĬØ©": 31121,
  "ØªÙħØ±Ø¯": 62350,
  "ØªÙħØ±Ø¯ÙĬÙĨ": 48882,
  "ØªÙħØ±ÙĥØ²": 34603,
  "ØªÙħØ±ÙĬÙĨ": 31503,
  "ØªÙħØ³": 16262,
  "ØªÙħØ³Ùĥ": 14536,
  "ØªÙħØ¹": 1089,
  "ØªÙħØ¹ÙĨ": 51627,
  "ØªÙħÙ": 9818,
  "ØªÙħÙĥÙĨ": 7783,
  "ØªÙħÙĦ": 3872,
  "ØªÙħÙĦØ§": 50035,
  "ØªÙħÙĦØ©": 10172,
  "ØªÙħÙĦØª": 25855,
  "ØªÙħÙĦÙĬÙĨ": 40366,
  "ØªÙħÙħ": 44609,
  "ØªÙħÙĨ": 49732,
  "ØªÙħÙĩ": 48276,
  "ØªÙħÙĪ": 11986,
  "ØªÙħÙĪØ§": 29566,
  "ØªÙħÙĪÙĨ": 14777,
  "ØªÙħÙĪÙĨØ¯": 22561,
  "ØªÙħÙĪÙĩ": 34483,
  "ØªÙħÙĪÙĩØ§": 52590,
  "ØªÙħÙī": 25243,
  "ØªÙħÙĬ": 7668,
  "ØªÙħÙĬØ§": 61052,
  "ØªÙħÙĬØ©": 17051,
  "ØªÙħÙĬØª": 46797,
  "ØªÙħÙĬØ²": 2051,
  "ØªÙħÙĬØ²Ø©": 4443,
  "ØªÙħÙĬÙĦ": 62827,
  "ØªÙħÙĬÙĨ": 12437,
  "ØªÙĨ": 3614,
  "ØªÙĨØ§": 2438,
  "ØªÙĨØ§Ø¡": 29488,
  "ØªÙĨØ§Ø¨": 51122,
  "ØªÙĨØ§Ø³Ø¨": 43446,
  "ØªÙĨØ§ÙĤ": 18507,
  "ØªÙĨØ§ÙĤØ§Øª": 46036,
  "ØªÙĨØ§Ùħ": 15179,
  "ØªÙĨØ§ÙĪÙĦ": 31579,
  "ØªÙĨØ¨": 60532,
  "ØªÙĨØ¨Ø±": 33361,
  "ØªÙĨØ´ØªØ§ÙĬÙĨ": 43501,
  "ØªÙĨÙĤ": 34358,
  "ØªÙĨÙĬ": 10843,
  "ØªÙĩ": 572,
  "ØªÙĩØ§": 840,
  "ØªÙĩØ§Ø¬": 51423,
  "ØªÙĩØ§Ø¯": 13346,
  "ØªÙĩØ§Ø¯Ø§Øª": 31749,
  "ØªÙĩØ§Ùħ": 54600,
  "ØªÙĩØ§ÙĨ": 52201,
  "ØªÙĩØ¯": 14971,
  "ØªÙĩØ¯Ø§Ùģ": 23963,
  "ØªÙĩØ¯ÙĬÙĨ": 56838,
  "ØªÙĩØ±": 11805,
  "ØªÙĩÙĦØ§Ùĥ": 22829,
  "ØªÙĩÙħ": 1964,
  "ØªÙĩÙħØ§": 11687,
  "ØªÙĩÙĨ": 15830,
  "ØªÙĩÙĬ": 24632,
  "ØªÙĪ": 4848,
  "ØªÙĪØ§": 47156,
  "ØªÙĪØ¨": 26867,
  "ØªÙĪØ«": 20738,
  "ØªÙĪØ±": 33416,
  "ØªÙĪÙĨ": 5955,
  "ØªÙĪÙī": 52887,
  "ØªÙĪÙĬØ¬": 20342,
  "ØªÙī": 713,
  "ØªÙĬ": 543,
  "ØªÙĬØ§": 10387,
  "ØªÙĬØ§Ø¡": 53355,
  "ØªÙĬØ§Øª": 3267,
  "ØªÙĬØ§Ø¬": 12844,
  "ØªÙĬØ§Ø¬Ø§Øª": 4249,
  "ØªÙĬØ§Ø¯": 50093,
  "ØªÙĬØ§Ø¯ÙĬ": 52688,
  "ØªÙĬØ§Ø¯ÙĬØ©": 32539,
  "ØªÙĬØ§Ø±": 2327,
  "ØªÙĬØ§Ø±Ø§Øª": 42767,
  "ØªÙĬØ§Ø²": 8210,
  "ØªÙĬØ§Ø²Ø§Øª": 8090,
  "ØªÙĬØ§Ø·": 8031,
  "ØªÙĬØ§Ø·ÙĬ": 12992,
  "ØªÙĬØ§ØºÙĪ": 39848,
  "ØªÙĬØ§ØŃ": 13000,
  "ØªÙĬØ§ÙĦ": 5588,
  "ØªÙĬØ§ÙĦØ§Øª": 26616,
  "ØªÙĬØ§ÙĦÙĩ": 36671,
  "ØªÙĬØ§ÙĨ": 11851,
  "ØªÙĬØ§ÙĨÙĪ": 17124,
  "ØªÙĬØ¨": 3505,
  "ØªÙĬØ¨Ø§Øª": 15968,
  "ØªÙĬØ¨Ø©": 14186,
  "ØªÙĬØ©": 5571,
  "ØªÙĬØª": 10069,
  "ØªÙĬØªØ´": 63165,
  "ØªÙĬØªÙĩ": 63576,
  "ØªÙĬØ¬": 22275,
  "ØªÙĬØ¬Ø©": 1944,
  "ØªÙĬØ¬Ùĩ": 39480,
  "ØªÙĬØ¯": 17251,
  "ØªÙĬØ±": 12103,
  "ØªÙĬØ±ÙĬ": 39834,
  "ØªÙĬØ±ÙĬØ§": 11731,
  "ØªÙĬØ²": 17585,
  "ØªÙĬØ²ÙĪÙĨ": 34180,
  "ØªÙĬØ³": 14572,
  "ØªÙĬØ³Ø±": 57906,
  "ØªÙĬØ´": 7300,
  "ØªÙĬØ´ÙĨ": 25258,
  "ØªÙĬØ´ÙĬØ©": 43819,
  "ØªÙĬØ·Ø§ÙĨ": 35415,
  "ØªÙĬØ¹": 9324,
  "ØªÙĬØ¹Ø§Ø¨": 12067,
  "ØªÙĬØ¹Ø§Ø¨ÙĬØ©": 34773,
  "ØªÙĬØŃ": 5261,
  "ØªÙĬÙ": 14657,
  "ØªÙĬÙģ": 6780,
  "ØªÙĬÙģØ§Ø¡": 30721,
  "ØªÙĬÙģÙĪ": 39740,
  "ØªÙĬÙĤ": 7392,
  "ØªÙĬÙĤØ§Ø¸": 32136,
  "ØªÙĬÙĤØ¸": 14740,
  "ØªÙĬÙĤÙĨ": 54454,
  "ØªÙĬÙĥ": 4282,
  "ØªÙĬÙĥØ§": 42074,
  "ØªÙĬÙĥØ§Øª": 38862,
  "ØªÙĬÙĥÙĪ": 63089,
  "ØªÙĬÙĥÙĬ": 32034,
  "ØªÙĬÙĥÙĬØ©": 27706,
  "ØªÙĬÙĦ": 5548,
  "ØªÙĬÙĦØ§": 50439,
  "ØªÙĬÙĦØ§Ø¡": 23415,
  "ØªÙĬÙĦÙĬ": 51571,
  "ØªÙĬÙħ": 9062,
  "ØªÙĬÙħØ§": 42771,
  "ØªÙĬÙħØ©": 34500,
  "ØªÙĬÙħÙĪÙĨ": 54531,
  "ØªÙĬÙĨ": 1546,
  "ØªÙĬÙĨØº": 51556,
  "ØªÙĬÙĨÙĨØªØ§ÙĦ": 59130,
  "ØªÙĬÙĨÙĪ": 50576,
  "ØªÙĬÙĩ": 11849,
  "ØªÙĬÙĩØ§": 26840,
  "ØªÙĬÙĩÙħØ§": 47225,
  "ØªÙĬÙĪ": 27965,
  "ØªÙĬÙĪØ§Ø±Øª": 59159,
  "ØªÙĬÙĪØ¨": 5055,
  "ØªÙĬÙĬÙĩ": 59397,
  "Ø«": 342,
  "Ø«Ø§": 15647,
  "Ø«Ø§Ø¡": 30276,
  "Ø«Ø§Ø¦ÙĤ": 23212,
  "Ø«Ø§Øª": 26128,
  "Ø«Ø§Ø«": 15938,
  "Ø«Ø§Ø±": 2981,
  "Ø«Ø§Ø±Ø©": 14853,
  "Ø«Ø§ÙģØ©": 21656,
  "Ø«Ø§ÙĦ": 9443,
  "Ø«Ø§Ùħ": 49436,
  "Ø«Ø¨Ø§Øª": 17453,
  "Ø«Ø¨Øª": 12542,
  "Ø«Ø¨ÙĬØª": 11346,
  "Ø«Ø©": 2964,
  "Ø«Øª": 51970,
  "Ø«Ø«": 21264,
  "Ø«Ø±": 678,
  "Ø«Ø±Ø§": 14714,
  "Ø«Ø±Ø§Ø¡": 43720,
  "Ø«Ø±Ø§Øª": 16579,
  "Ø«Ø±Ø©": 5348,
  "Ø«Ø±Øª": 10102,
  "Ø«Ø±Ùĩ": 43102,
  "Ø«Ø±ÙĪØ§": 29872,
  "Ø«Ø±ÙĬ": 33508,
  "Ø«Ø±ÙĬØ©": 36565,
  "Ø«Ø±ÙĬÙĨ": 34917,
  "Ø«Ù": 627,
  "Ø«Ùģ": 16521,
  "Ø«ÙĤ": 11030,
  "Ø«ÙĤØ§ÙģØ©": 53068,
  "Ø«ÙĤÙĬÙģ": 17929,
  "Ø«ÙĦ": 856,
  "Ø«ÙĦØ§": 58416,
  "Ø«ÙĦØ©": 7957,
  "Ø«ÙĦÙĪ": 25576,
  "Ø«ÙĦÙĪØ§": 49688,
  "Ø«Ùħ": 4072,
  "Ø«ÙħØ§": 41002,
  "Ø«ÙħØ§Ø±": 2260,
  "Ø«ÙħØ§Ø±Ø§Øª": 5353,
  "Ø«ÙħØ§Ø±ÙĬ": 19141,
  "Ø«ÙħØ§ÙĨ": 3972,
  "Ø«ÙħØ§ÙĨÙĬ": 55758,
  "Ø«ÙħØ§ÙĨÙĬØ©": 43901,
  "Ø«ÙħØ©": 19840,
  "Ø«ÙħØ±": 3823,
  "Ø«ÙħØ±ÙĬÙĨ": 6081,
  "Ø«ÙħÙĬÙĨ": 34908,
  "Ø«ÙĨ": 52304,
  "Ø«ÙĨØ§Ø¡": 5082,
  "Ø«ÙĨØ§Ø¦ÙĬØ©": 50203,
  "Ø«ÙĨÙī": 31463,
  "Ø«ÙĨÙĬ": 27468,
  "Ø«Ùĩ": 19319,
  "Ø«ÙĩØ§": 37800,
  "Ø«ÙĪ": 29131,
  "Ø«ÙĪØ§": 61777,
  "Ø«ÙĪØ°": 15862,
  "Ø«ÙĪØ°Ùĥ": 35465,
  "Ø«ÙĪØ°ÙĥØ³": 16496,
  "Ø«ÙĪØ°ÙĥØ³ÙĬ": 43515,
  "Ø«ÙĪØ±": 5776,
  "Ø«ÙĪØ±Ø©": 45510,
  "Ø«ÙĪÙĨ": 35991,
  "Ø«Ùī": 9502,
  "Ø«ÙĬ": 3710,
  "Ø«ÙĬØ§": 38501,
  "Ø«ÙĬØ§Ø¨": 56724,
  "Ø«ÙĬØ§Øª": 26132,
  "Ø«ÙĬØ§ÙĨ": 28054,
  "Ø«ÙĬØ¨": 40801,
  "Ø«ÙĬØ©": 18115,
  "Ø«ÙĬØ«": 17737,
  "Ø«ÙĬØ«Ø©": 28854,
  "Ø«ÙĬØ±": 880,
  "Ø«ÙĬØ±ÙĬ": 45778,
  "Ø«ÙĬÙģ": 9450,
  "Ø«ÙĬÙģØ©": 22928,
  "Ø«ÙĬÙĤ": 3663,
  "Ø«ÙĬÙĤØ©": 6278,
  "Ø«ÙĬÙĦ": 34512,
  "Ø«ÙĬÙĦÙĬ": 46569,
  "Ø«ÙĬÙĦÙĬÙĨ": 60215,
  "Ø«ÙĬÙĨ": 33203,
  "Ø«ÙĬÙĪ": 9800,
  "Ø«ÙĬÙĪØ¨ÙĬØ§": 14910,
  "Ø«ÙĬÙĪÙħ": 61999,
  "Ø«ÙĬÙĪÙĨ": 18063,
  "Ø«ÙĬÙĬÙĨ": 9138,
  "Ø¬": 299,
  "Ø¬Ø§": 2228,
  "Ø¬Ø§Ø¡": 13906,
  "Ø¬Ø§Ø¦Ø¨": 18389,
  "Ø¬Ø§Ø¨": 4860,
  "Ø¬Ø§Ø¨Ø§Øª": 57761,
  "Ø¬Ø§Ø¨Ø©": 6606,
  "Ø¬Ø§Ø¨Ùĩ": 25441,
  "Ø¬Ø§Ø©": 37578,
  "Ø¬Ø§Øª": 2139,
  "Ø¬Ø§Ø¬": 4458,
  "Ø¬Ø§Ø¯": 26683,
  "Ø¬Ø§Ø±": 2696,
  "Ø¬Ø§Ø±Ø§Øª": 25052,
  "Ø¬Ø§Ø±Ø©": 7202,
  "Ø¬Ø§Ø²": 2111,
  "Ø¬Ø§Ø²Ø§Øª": 5989,
  "Ø¬Ø§Ø²Ø©": 10068,
  "Ø¬Ø§Ø¹": 8794,
  "Ø¬Ø§Ø¹Ø©": 11037,
  "Ø¬Ø§ØŃ": 3190,
  "Ø¬Ø§ÙĦ": 1832,
  "Ø¬Ø§ÙĦÙĬ": 59491,
  "Ø¬Ø§Ùħ": 9827,
  "Ø¬Ø§ÙħØ§": 45000,
  "Ø¬Ø§ÙħØ¹Ø©": 60238,
  "Ø¬Ø§ÙĨ": 2163,
  "Ø¬Ø§ÙĨØ³": 59557,
  "Ø¬Ø§ÙĨÙĬ": 25019,
  "Ø¬Ø§Ùĩ": 2827,
  "Ø¬Ø§ÙĩØ§Øª": 34451,
  "Ø¬Ø§ÙĩÙĦ": 17097,
  "Ø¬Ø§ÙĪØ¨": 29382,
  "Ø¬Ø§ÙĪØ²": 3989,
  "Ø¬Ø§ÙĪÙĬ": 44169,
  "Ø¬Ø¨": 2286,
  "Ø¬Ø¨Ø§Øª": 35414,
  "Ø¬Ø¨Øª": 20412,
  "Ø¬Ø¨Ùĥ": 20280,
  "Ø¬Ø¨Ùĩ": 15156,
  "Ø¬Ø¨ÙĬÙĨ": 38090,
  "Ø¬Ø©": 900,
  "Ø¬Øª": 9141,
  "Ø¬ØªÙħØ¹": 33615,
  "Ø¬ØªÙĩ": 40058,
  "Ø¬ØªÙĩØ§": 52704,
  "Ø¬Ø¬": 24624,
  "Ø¬Ø¯": 1054,
  "Ø¬Ø¯Ø§Øª": 9447,
  "Ø¬Ø¯Ø§Ø¯": 26131,
  "Ø¬Ø¯Ø©": 25045,
  "Ø¬Ø¯Ø¯": 14696,
  "Ø¬Ø¯Ø¯Ø©": 10997,
  "Ø¬Ø¯ÙĬ": 41882,
  "Ø¬Ø¯ÙĬØ§": 39523,
  "Ø¬Ø¯ÙĬØ§Øª": 63026,
  "Ø¬Ø¯ÙĬØ©": 22210,
  "Ø¬Ø±": 1129,
  "Ø¬Ø±Ø£": 39893,
  "Ø¬Ø±Ø§": 45222,
  "Ø¬Ø±Ø§Ø¡": 1841,
  "Ø¬Ø±Ø§Ø¡Ø§Øª": 3011,
  "Ø¬Ø±Ø§Øª": 21681,
  "Ø¬Ø±Ø§Ùģ": 42106,
  "Ø¬Ø±Ø§Ùħ": 14874,
  "Ø¬Ø±Ø§ÙĨ": 9911,
  "Ø¬Ø±Ø©": 2963,
  "Ø¬Ø±Øª": 18718,
  "Ø¬Ø±Ø²": 51641,
  "Ø¬Ø±Ø³": 23909,
  "Ø¬Ø±Ùĩ": 39119,
  "Ø¬Ø±ÙĬ": 10618,
  "Ø¬Ø±ÙĬÙħØ©": 51256,
  "Ø¬Ø±ÙĬÙĨ": 38269,
  "Ø¬Ø²": 1647,
  "Ø¬Ø²Ø¡": 18102,
  "Ø¬Ø²Ø£": 24333,
  "Ø¬Ø²Ø¦Ø©": 20296,
  "Ø¬Ø²Ø§Ø¡": 6519,
  "Ø¬Ø²Ø§Øª": 15849,
  "Ø¬Ø²Ø©": 13565,
  "Ø¬Ø²Øª": 31895,
  "Ø¬Ø²Ø±": 18546,
  "Ø¬Ø²Ùĩ": 47087,
  "Ø¬Ø²ÙĬØ±Ø©": 40048,
  "Ø¬Ø²ÙĬÙĨ": 26629,
  "Ø¬Ø³": 20519,
  "Ø¬Ø³ØªÙĬ": 43957,
  "Ø¬Ø³ØªÙĬØ©": 23244,
  "Ø¬Ø¹": 2241,
  "Ø¬Ø¹Ø§ÙĨ": 53507,
  "Ø¬Ø¹Ø©": 19521,
  "Ø¬Ø¹Øª": 60855,
  "Ø¬Ø¹ÙĦ": 40547,
  "Ø¬Ø¹ÙĦÙĥ": 62089,
  "Ø¬Ø¹ÙĦÙĩ": 33328,
  "Ø¬Ø¹ÙĦÙĩØ§": 46935,
  "Ø¬Ø¹ÙĬ": 62908,
  "Ø¬Ø¹ÙĬØ©": 50767,
  "Ø¬Ø¹ÙĬÙĨ": 25433,
  "Ø¬ØŃ": 4541,
  "Ø¬Ù": 477,
  "Ø¬ÙĦ": 795,
  "Ø¬ÙĦØ§": 13074,
  "Ø¬ÙĦØ§Øª": 30094,
  "Ø¬ÙĦØ©": 5116,
  "Ø¬ÙĦØª": 8772,
  "Ø¬ÙĦØªØ±Ø§": 12397,
  "Ø¬ÙĦØ³": 45086,
  "Ø¬ÙĦÙĩ": 40103,
  "Ø¬ÙĦÙĩØ§": 57140,
  "Ø¬ÙĦÙĪ": 28153,
  "Ø¬ÙĦÙĪØ§": 26168,
  "Ø¬ÙĦÙĪØ³": 23462,
  "Ø¬ÙĦÙĪÙĨ": 47784,
  "Ø¬ÙĦÙĬ": 2191,
  "Ø¬ÙĦÙĬØ²ÙĬ": 6676,
  "Ø¬ÙĦÙĬØ²ÙĬØ©": 3152,
  "Ø¬ÙĦÙĬÙĦÙĬØª": 55960,
  "Ø¬ÙĦÙĬÙĨ": 11732,
  "Ø¬ÙĦÙĬÙĩ": 62556,
  "Ø¬Ùħ": 1051,
  "Ø¬ÙħØ§": 16901,
  "Ø¬ÙħØ§Øª": 3558,
  "Ø¬ÙħØ§ØªÙĬØ²Ùħ": 7599,
  "Ø¬ÙħØ§Ø¹": 10599,
  "Ø¬ÙħØ§ÙĦ": 25507,
  "Ø¬ÙħØ§Ùħ": 41945,
  "Ø¬ÙħØ§ÙĨ": 14756,
  "Ø¬ÙħØ©": 2533,
  "Ø¬ÙħØª": 16237,
  "Ø¬ÙħØªÙĩ": 31051,
  "Ø¬ÙħØªÙĩØ§": 56994,
  "Ø¬ÙħØ¯": 13135,
  "Ø¬ÙħØ¯Ø©": 28270,
  "Ø¬ÙħØ¹": 9459,
  "Ø¬ÙħÙĦÙĩØ§": 57611,
  "Ø¬ÙħÙĩ": 9837,
  "Ø¬ÙħÙĩØ±": 33149,
  "Ø¬ÙħÙĩÙĪØ±ÙĬØ©": 23969,
  "Ø¬ÙħÙĬ": 47849,
  "Ø¬ÙĨ": 1561,
  "Ø¬ÙĨØ§Ø¡": 63080,
  "Ø¬ÙĨØ§Øª": 16570,
  "Ø¬ÙĨØ¨": 8585,
  "Ø¬ÙĨØ¨ÙĬ": 47727,
  "Ø¬ÙĨØ¨ÙĬØ©": 4297,
  "Ø¬ÙĨØŃØ©": 56236,
  "Ø¬ÙĨÙĪØ¨": 52483,
  "Ø¬ÙĨÙĬ": 63844,
  "Ø¬Ùĩ": 959,
  "Ø¬ÙĩØ§": 9026,
  "Ø¬ÙĩØ§Ø¯": 24588,
  "Ø¬ÙĩØ§Ø²": 53974,
  "Ø¬ÙĩØ§Ø¶": 22180,
  "Ø¬ÙĩØ©": 7052,
  "Ø¬ÙĩØ²": 18458,
  "Ø¬ÙĩØ²Ø©": 1753,
  "Ø¬ÙĩØ²Ùĩ": 21462,
  "Ø¬ÙĩÙĪØ¯": 47547,
  "Ø¬ÙĪ": 4728,
  "Ø¬ÙĪØ§": 50748,
  "Ø¬ÙĪØ§Ø¨": 15247,
  "Ø¬ÙĪØ§Ø¨Ø§Øª": 50557,
  "Ø¬ÙĪØ§Ø²ÙĬØ©": 35336,
  "Ø¬ÙĪØ¨": 58682,
  "Ø¬ÙĪØ¬": 45439,
  "Ø¬ÙĪØ¯": 2714,
  "Ø¬ÙĪØ¯Ø©": 3506,
  "Ø¬ÙĪØ±": 13719,
  "Ø¬ÙĪØ±Ø©": 32461,
  "Ø¬ÙĪØ²": 53681,
  "Ø¬ÙĪØ¹": 23009,
  "Ø¬ÙĪÙĦ": 50171,
  "Ø¬ÙĪÙĦØ©": 63507,
  "Ø¬ÙĪÙħ": 2680,
  "Ø¬ÙĪÙĨ": 11328,
  "Ø¬Ùī": 5096,
  "Ø¬ÙĬ": 1085,
  "Ø¬ÙĬØ¡": 16075,
  "Ø¬ÙĬØ§": 2224,
  "Ø¬ÙĬØ§Øª": 5640,
  "Ø¬ÙĬØ§ØµØ±Ø¨ÙĬ": 59412,
  "Ø¬ÙĬØ§ØµØ±Ø¨ÙĬØ§Ø§Ø±ÙĪØ¨": 60330,
  "Ø¬ÙĬØ§ØµØ±Ø¨ÙĬØ§Ø§Ø±ÙĪØ¨Ø§Ø§ÙĦØ¬Ø²Ø§Ø¦Ø±ÙģÙĦØ³Ø·ÙĬÙĨØ§ÙĦÙģÙĦØ¨ÙĬÙĨÙģÙĨØ²ÙĪÙĬÙĦØ§ÙĥÙĪÙĦÙĪÙħØ¨ÙĬØ§ÙħØ§ÙĦÙĬØ²ÙĬØ§Ø£ÙĪÙĥØ±Ø§ÙĨÙĬØ§Ø³ÙĨØºØ§ÙģÙĪØ±Ø©ÙĥÙħØ¨ÙĪØ¯ÙĬ": 62907,
  "Ø¬ÙĬØ§ÙĦ": 8388,
  "Ø¬ÙĬØ§ÙĨ": 28802,
  "Ø¬ÙĬØ¨": 3842,
  "Ø¬ÙĬØ¨Ø©": 19632,
  "Ø¬ÙĬØ¨Øª": 54099,
  "Ø¬ÙĬØ©": 3409,
  "Ø¬ÙĬØª": 12269,
  "Ø¬ÙĬØªØ§ÙĦ": 26179,
  "Ø¬ÙĬØªÙĩ": 33137,
  "Ø¬ÙĬØªÙĩØ§": 29856,
  "Ø¬ÙĬØ¬": 13821,
  "Ø¬ÙĬØ¯": 5669,
  "Ø¬ÙĬØ±": 4400,
  "Ø¬ÙĬØ±Ø§Øª": 15144,
  "Ø¬ÙĬØ±Ø©": 62849,
  "Ø¬ÙĬØ±ÙĬ": 14232,
  "Ø¬ÙĬØ±ÙĬØ§": 41831,
  "Ø¬ÙĬØ±ÙĬØ§ÙħÙĪØ±ÙĬØª": 59425,
  "Ø¬ÙĬØ±ÙĬØ§ÙħÙĪØ±ÙĬØªØ§ÙĨÙĬØ§": 59702,
  "Ø¬ÙĬØ±ÙĬØ§ÙħÙĪØ±ÙĬØªØ§ÙĨÙĬØ§ÙĦÙĬØªÙĪØ§ÙĨÙĬØ§Ø³ÙĦÙĪÙģØ§ÙĥÙĬ": 59982,
  "Ø¬ÙĬØ²": 15761,
  "Ø¬ÙĬØ³": 30697,
  "Ø¬ÙĬØ³Øª": 57373,
  "Ø¬ÙĬØ´": 33237,
  "Ø¬ÙĬØ¹": 5506,
  "Ø¬ÙĬØŃ": 16785,
  "Ø¬ÙĬÙģÙĬ": 60662,
  "Ø¬ÙĬÙĥ": 34118,
  "Ø¬ÙĬÙĦ": 1453,
  "Ø¬ÙĬÙĦØ§": 29716,
  "Ø¬ÙĬÙĦØ§Øª": 23232,
  "Ø¬ÙĬÙĦØ©": 40858,
  "Ø¬ÙĬÙĦÙĥ": 54077,
  "Ø¬ÙĬÙĦÙĩ": 25390,
  "Ø¬ÙĬÙĦÙĩØ§": 36226,
  "Ø¬ÙĬÙĦÙĬ": 29915,
  "Ø¬ÙĬÙĦÙĬØ©": 33483,
  "Ø¬ÙĬÙħ": 17141,
  "Ø¬ÙĬÙĨ": 4995,
  "Ø¬ÙĬÙĨÙĬ": 19246,
  "Ø¬ÙĬÙĨÙĬØ§": 50145,
  "Ø¬ÙĬÙĩ": 2855,
  "Ø¬ÙĬÙĩØ§": 58956,
  "Ø¬ÙĬÙĩØ§Øª": 62373,
  "Ø¬ÙĬÙĩÙĬ": 27840,
  "Ø¬ÙĬÙĪ": 23210,
  "Ø¬ÙĬÙĪÙĨ": 46530,
  "Ø¬ÙĬÙĬÙĨ": 18593,
  "Ø®": 318,
  "Ø®Ø§": 17749,
  "Ø®Ø§Ø¡": 9530,
  "Ø®Ø§Ø¦Ø±": 22679,
  "Ø®Ø§Ø¨": 14479,
  "Ø®Ø§Ø¨Ø§Øª": 1751,
  "Ø®Ø§Ø¨ÙĬØ©": 41429,
  "Ø®Ø§Øª": 15531,
  "Ø®Ø§Ø°": 3559,
  "Ø®Ø§Ø±": 11418,
  "Ø®Ø§Ø±Ùģ": 42442,
  "Ø®Ø§Ø±ÙĬ": 47665,
  "Ø®Ø§Øµ": 2343,
  "Ø®Ø§ÙĦ": 6158,
  "Ø®Ø§ÙĦØ¯": 54320,
  "Ø®Ø§Ùħ": 10767,
  "Ø®Ø§ÙħØ©": 20708,
  "Ø®Ø§ÙĨ": 24933,
  "Ø®Ø¨": 1793,
  "Ø®Ø¨Ø§Øª": 9255,
  "Ø®Ø¨Ø§Ø±": 4902,
  "Ø®Ø¨Ø§Ø±Ø§Øª": 8063,
  "Ø®Ø¨Ø§Ø±Ø§ØªÙĬ": 58789,
  "Ø®Ø¨Ø§Ø±ÙĬØ©": 36822,
  "Ø®Ø¨Ø©": 47318,
  "Ø®Ø¨ÙĬÙĦ": 55763,
  "Ø®Ø©": 2531,
  "Ø®Øª": 15501,
  "Ø®ØªØ§Ø±": 62137,
  "Ø®ØªØ±": 45445,
  "Ø®Ø®Ø©": 19967,
  "Ø®Ø¯": 36767,
  "Ø®Ø¯Ø§Ùħ": 1249,
  "Ø®Ø¯Ùħ": 1476,
  "Ø®Ø¯ÙħØ§Øª": 32503,
  "Ø®Ø¯ÙħØ©": 8764,
  "Ø®Ø¯ÙħÙĬ": 50634,
  "Ø®Ø¯ÙħÙĬÙĨ": 12478,
  "Ø®Ø°": 1730,
  "Ø®Ø°Ø©": 24358,
  "Ø®Ø°Ùĩ": 16754,
  "Ø®Ø±": 590,
  "Ø®Ø±Ø§": 3831,
  "Ø®Ø±Ø§Øª": 33130,
  "Ø®Ø±Ø§Ø¬": 4810,
  "Ø®Ø±Ø§Ø¬Ùĩ": 32464,
  "Ø®Ø±Ø§Ø·": 14738,
  "Ø®Ø±Ø©": 5393,
  "Ø®Ø±Øª": 47408,
  "Ø®Ø±Ø¬": 1779,
  "Ø®Ø±Ø¬Ø©": 23717,
  "Ø®Ø±Ø¬Ùĩ": 18600,
  "Ø®Ø±Ø¬ÙĬ": 45756,
  "Ø®Ø±Ø¬ÙĬÙĨ": 51688,
  "Ø®Ø±Ø·": 24643,
  "Ø®Ø±Ùģ": 37761,
  "Ø®Ø±ÙģØ©": 28678,
  "Ø®Ø±ÙĤ": 35878,
  "Ø®Ø±Ùĩ": 57194,
  "Ø®Ø±ÙĪÙĨ": 24975,
  "Ø®Ø±Ùī": 15008,
  "Ø®Ø±ÙĬ": 18678,
  "Ø®Ø±ÙĬØ©": 11295,
  "Ø®Ø±ÙĬÙĨ": 10576,
  "Ø®Øµ": 726,
  "Ø®ØµØ§Ø¨": 41423,
  "Ø®ØµØ©": 6848,
  "Ø®ØµØµ": 2201,
  "Ø®ØµØµØ§Øª": 25766,
  "Ø®ØµØµØ©": 3032,
  "Ø®ØµØµÙĬ": 6184,
  "Ø®ØµØµÙĬÙĨ": 34012,
  "Ø®ØµÙ": 8636,
  "Ø®ØµÙĪØµ": 3956,
  "Ø®ØµÙĬ": 6061,
  "Ø®ØµÙĬØ§Øª": 3654,
  "Ø®ØµÙĬØ©": 13989,
  "Ø®Ø¶": 40143,
  "Ø®Ø·": 35341,
  "Ø®Ù": 1004,
  "Ø®Ùģ": 3380,
  "Ø®ÙģØ§Ø¶": 4616,
  "Ø®ÙģØ§Ùģ": 36400,
  "Ø®ÙģØ¶": 5537,
  "Ø®ÙģØ¶Ø©": 11750,
  "Ø®ÙģÙģ": 41810,
  "Ø®ÙģÙī": 63816,
  "Ø®ÙĦ": 1357,
  "Ø®ÙĦØ§Øª": 22796,
  "Ø®ÙĦØ§Øµ": 22304,
  "Ø®ÙĦØª": 12066,
  "Ø®ÙĦØµ": 6211,
  "Ø®ÙĦÙģ": 54484,
  "Ø®ÙĦÙĩ": 49120,
  "Ø®ÙĦÙĩØ§": 48846,
  "Ø®ÙĦÙĪØ§": 44834,
  "Ø®ÙĦÙī": 35017,
  "Ø®ÙĦÙĬ": 50086,
  "Ø®Ùħ": 4377,
  "Ø®ÙħØ§Ø¯": 36775,
  "Ø®ÙħØ©": 6637,
  "Ø®ÙħÙĬÙĨ": 39413,
  "Ø®ÙĨ": 27381,
  "Ø®Ùĩ": 31603,
  "Ø®ÙĩØ§": 50301,
  "Ø®ÙĪ": 25338,
  "Ø®ÙĪØ§": 39089,
  "Ø®ÙĪØ§ÙĨ": 16835,
  "Ø®ÙĪØ©": 41878,
  "Ø®ÙĪØ°": 35998,
  "Ø®ÙĪØ°Ø©": 35018,
  "Ø®ÙĪØ±": 14554,
  "Ø®ÙĪØ²": 58713,
  "Ø®ÙĪØµ": 39813,
  "Ø®ÙĪÙĦ": 1532,
  "Ø®Ùī": 42768,
  "Ø®ÙĬ": 5001,
  "Ø®ÙĬØ§Ø±": 62745,
  "Ø®ÙĬØ§ÙĦØ®ÙĬØ§ÙĦ": 59875,
  "Ø®ÙĬØ©": 45363,
  "Ø®ÙĬØ±": 6822,
  "Ø®ÙĬØ±Ø§Øª": 63306,
  "Ø®ÙĬØ±Ø©": 19255,
  "Ø®ÙĬØµ": 4595,
  "Ø®ÙĬØµØ©": 17839,
  "Ø®ÙĬÙĦ": 20031,
  "Ø®ÙĬÙĦØ©": 26399,
  "Ø®ÙĬÙħ": 27717,
  "Ø®ÙĬÙĨ": 6696,
  "Ø®ÙĬÙĩ": 27919,
  "Ø¯": 277,
  "Ø¯Ø¡": 10241,
  "Ø¯Ø£": 27897,
  "Ø¯Ø§": 609,
  "Ø¯Ø§Ø¡": 3863,
  "Ø¯Ø§Ø¨": 5492,
  "Ø¯Ø§Ø¨ÙĬØ±": 40771,
  "Ø¯Ø§Ø©": 32793,
  "Ø¯Ø§Øª": 9764,
  "Ø¯Ø§Ø«": 32826,
  "Ø¯Ø§Ø¯": 1579,
  "Ø¯Ø§Ø¯Ø§Øª": 55714,
  "Ø¯Ø§Ø¯Øª": 36574,
  "Ø¯Ø§Ø±": 2705,
  "Ø¯Ø§Ø±Ø§Øª": 17222,
  "Ø¯Ø§Ø±Ø©": 1159,
  "Ø¯Ø§Ø±ØªÙĩ": 43879,
  "Ø¯Ø§Ø±ÙĪØ³ÙĬ": 48731,
  "Ø¯Ø§Ø±ÙĬÙĨ": 35327,
  "Ø¯Ø§Ø¹": 6734,
  "Ø¯Ø§Ø¹Ø§Øª": 54261,
  "Ø¯Ø§Ø¹ÙĬØ§Øª": 60823,
  "Ø¯Ø§Ùģ": 6463,
  "Ø¯Ø§ÙĤÙĬØ©": 22927,
  "Ø¯Ø§Ùĥ": 16446,
  "Ø¯Ø§ÙĥÙħ": 55839,
  "Ø¯Ø§ÙĦ": 35111,
  "Ø¯Ø§ÙĦØ©": 9423,
  "Ø¯Ø§Ùħ": 1145,
  "Ø¯Ø§ÙħØ©": 9396,
  "Ø¯Ø§ÙħÙī": 24067,
  "Ø¯Ø§ÙĨ": 18236,
  "Ø¯Ø§ÙĨØ©": 34611,
  "Ø¯Ø§ÙĩØ§": 18840,
  "Ø¯Ø§ÙĩÙħØ§": 27257,
  "Ø¯Ø§ÙĪØ©": 33194,
  "Ø¯Ø§ÙĪÙĦ": 3013,
  "Ø¯Ø§ÙĪÙĦØ§Øª": 22492,
  "Ø¯Ø§ÙĪÙĬ": 17277,
  "Ø¯Ø§ÙĬØ©": 1796,
  "Ø¯Ø¨": 6684,
  "Ø¯Ø¨Ø©": 29341,
  "Ø¯Ø©": 487,
  "Ø¯Øª": 2755,
  "Ø¯Ø«": 1216,
  "Ø¯Ø®": 16469,
  "Ø¯Ø®Ø§ÙĦ": 18736,
  "Ø¯Ø®ÙĦ": 5683,
  "Ø¯Ø¯": 705,
  "Ø¯Ø¯Ø§": 4809,
  "Ø¯Ø¯Ø§Øª": 24381,
  "Ø¯Ø¯Ø©": 12712,
  "Ø¯Ø¯Øª": 11142,
  "Ø¯Ø¯ÙĩØ§": 19522,
  "Ø¯Ø¯ÙĪÙĨ": 42966,
  "Ø¯Ø¯ÙĬÙĨ": 12888,
  "Ø¯Ø±": 583,
  "Ø¯Ø±Ø§": 15259,
  "Ø¯Ø±Ø§Ø¡": 36173,
  "Ø¯Ø±Ø§Ø¦ÙĬØ©": 26899,
  "Ø¯Ø±Ø§Øª": 3782,
  "Ø¯Ø±Ø§Ø¬": 15350,
  "Ø¯Ø±Ø§Ø³Ø§Øª": 39960,
  "Ø¯Ø±Ø§Ùĥ": 15275,
  "Ø¯Ø±Ø§ÙĦÙĬ": 29279,
  "Ø¯Ø±Ø§ÙĦÙĬØ©": 16834,
  "Ø¯Ø±Ø§ÙĨ": 8763,
  "Ø¯Ø±Ø¨": 62007,
  "Ø¯Ø±Ø©": 7091,
  "Ø¯Ø±Øª": 17035,
  "Ø¯Ø±Ø¬": 7742,
  "Ø¯Ø±Ø¬Ø©": 48786,
  "Ø¯Ø±Ø¯": 37427,
  "Ø¯Ø±Ø²": 45289,
  "Ø¯Ø±Ø³": 9998,
  "Ø¯Ø±Ø³Ø©": 13824,
  "Ø¯Ø±Ùĥ": 20108,
  "Ø¯Ø±ÙĦØ§ÙĨØ¯": 63797,
  "Ø¯Ø±ÙĨ": 25699,
  "Ø¯Ø±Ùĩ": 39457,
  "Ø¯Ø±ÙĪØ§": 50428,
  "Ø¯Ø±ÙĪÙĨ": 53515,
  "Ø¯Ø±ÙĪÙĬØ¯": 4623,
  "Ø¯Ø±Ùī": 46241,
  "Ø¯Ø±ÙĬ": 23076,
  "Ø¯Ø±ÙĬØ¨": 6240,
  "Ø¯Ø±ÙĬØ©": 49077,
  "Ø¯Ø±ÙĬÙĨ": 23078,
  "Ø¯Ø²": 54973,
  "Ø¯Ø³": 7717,
  "Ø¯Ø³Ø§Øª": 12319,
  "Ø¯Ø´": 33308,
  "Ø¯Ø¹": 10534,
  "Ø¯Ø¹Ø§Ø¡": 47428,
  "Ø¯Ø¹Ùī": 41920,
  "Ø¯Ø¹ÙĬ": 12920,
  "Ø¯ØŃ": 21723,
  "Ø¯ØŃØ§Ùħ": 24342,
  "Ø¯Ù": 319,
  "Ø¯Ù±": 55615,
  "Ø¯Ùģ": 1811,
  "Ø¯ÙģØ¦Ø©": 54048,
  "Ø¯ÙģØª": 11838,
  "Ø¯ÙģØ¹": 21884,
  "Ø¯ÙģÙĤ": 21387,
  "Ø¯ÙģÙĬØ©": 18509,
  "Ø¯ÙĤ": 3860,
  "Ø¯ÙĤØ§Ø¡": 8523,
  "Ø¯ÙĦ": 1419,
  "Ø¯ÙĦØ§Ø¡": 43456,
  "Ø¯ÙĦØ§Øª": 33716,
  "Ø¯ÙĦØ§ÙĦ": 61372,
  "Ø¯ÙĦØ¨": 61146,
  "Ø¯ÙĦÙĪ": 25497,
  "Ø¯ÙĦÙĪØ§": 28055,
  "Ø¯ÙĦÙĪÙĦ": 49089,
  "Ø¯Ùħ": 492,
  "Ø¯ÙħØ§": 1118,
  "Ø¯ÙħØ§Øª": 1325,
  "Ø¯ÙħØ§Ø¬": 10783,
  "Ø¯ÙħØ§ÙĨ": 13348,
  "Ø¯ÙħØ©": 1185,
  "Ø¯ÙħØª": 2505,
  "Ø¯ÙħØªÙĩ": 51381,
  "Ø¯ÙħØ¬": 19828,
  "Ø¯ÙħØ¬Ø©": 25149,
  "Ø¯ÙħØ±": 5533,
  "Ø¯ÙħØ±Ø©": 17373,
  "Ø¯ÙħØ¹": 39631,
  "Ø¯ÙħÙ": 9070,
  "Ø¯ÙħÙĩ": 12985,
  "Ø¯ÙħÙĪ": 5022,
  "Ø¯ÙħÙĪØ§": 7833,
  "Ø¯ÙħÙĪÙĨ": 55544,
  "Ø¯ÙħÙĪÙĩ": 35805,
  "Ø¯ÙħÙĪÙĩØ§": 53213,
  "Ø¯ÙħÙī": 24542,
  "Ø¯ÙħÙĬ": 4754,
  "Ø¯ÙħÙĬØ§Ø·": 13473,
  "Ø¯ÙħÙĬØ©": 13461,
  "Ø¯ÙħÙĬØ±": 6342,
  "Ø¯ÙħÙĬØ¹": 45122,
  "Ø¯ÙħÙĬÙĥ": 57068,
  "Ø¯ÙħÙĬÙĨ": 42147,
  "Ø¯ÙħÙĬÙĩ": 19677,
  "Ø¯ÙĨ": 2834,
  "Ø¯ÙĨØ§": 38283,
  "Ø¯ÙĨØ©": 51232,
  "Ø¯Ùĩ": 2735,
  "Ø¯ÙĩØ§": 15043,
  "Ø¯ÙĩØ§Ø±": 13437,
  "Ø¯ÙĩØ±": 29018,
  "Ø¯ÙĩØ±Ø©": 52336,
  "Ø¯ÙĩØ´": 46589,
  "Ø¯ÙĪ": 5541,
  "Ø¯ÙĪØ§": 20623,
  "Ø¯ÙĪØ§Ø¬": 19109,
  "Ø¯ÙĪØ§Ø¬ÙĬØ©": 23038,
  "Ø¯ÙĪØ§ÙĨ": 19298,
  "Ø¯ÙĪØ©": 48783,
  "Ø¯ÙĪØ¯": 1522,
  "Ø¯ÙĪØ¯Ø©": 44807,
  "Ø¯ÙĪØ¯ÙĬØ©": 62903,
  "Ø¯ÙĪØ±": 14779,
  "Ø¯ÙĪØ±Ø§Øª": 34444,
  "Ø¯ÙĪØ±Ø©": 61482,
  "Ø¯ÙĪØ±ÙĬ": 40962,
  "Ø¯ÙĪØ²": 7194,
  "Ø¯ÙĪØ³": 57889,
  "Ø¯ÙĪØºØ§ÙĨ": 24383,
  "Ø¯ÙĪÙĦ": 31149,
  "Ø¯ÙĪÙħ": 49635,
  "Ø¯ÙĪÙĨ": 2564,
  "Ø¯ÙĪÙĨÙĬØ§": 37987,
  "Ø¯ÙĪÙī": 38418,
  "Ø¯ÙĪÙĬØ©": 17694,
  "Ø¯Ùī": 532,
  "Ø¯ÙĬ": 430,
  "Ø¯ÙĬØ§": 2836,
  "Ø¯ÙĬØ§Øª": 1260,
  "Ø¯ÙĬØ§Ø¯": 16560,
  "Ø¯ÙĬØ§ÙĦ": 7029,
  "Ø¯ÙĬØ§ÙĨ": 5735,
  "Ø¯ÙĬØ§ÙĨØ§": 52775,
  "Ø¯ÙĬØ¨": 9836,
  "Ø¯ÙĬØ¨Ø©": 50357,
  "Ø¯ÙĬØ¨ÙĬØ©": 36994,
  "Ø¯ÙĬØ©": 2019,
  "Ø¯ÙĬØª": 8638,
  "Ø¯ÙĬØªÙĩ": 33894,
  "Ø¯ÙĬØªÙĩØ§": 38664,
  "Ø¯ÙĬØªÙĩÙħ": 45430,
  "Ø¯ÙĬØªÙĬÙĨ": 41341,
  "Ø¯ÙĬØ«": 1106,
  "Ø¯ÙĬØ¯": 544,
  "Ø¯ÙĬØ¯Ø§": 38897,
  "Ø¯ÙĬØ¯Ø§Øª": 18963,
  "Ø¯ÙĬØ¯Ø©": 953,
  "Ø¯ÙĬØ±": 866,
  "Ø¯ÙĬØ±Ø§": 63304,
  "Ø¯ÙĬØ±Ø©": 16996,
  "Ø¯ÙĬØ±ÙĪØª": 52503,
  "Ø¯ÙĬØ±ÙĬ": 13319,
  "Ø¯ÙĬØ±ÙĬØ§Øª": 44874,
  "Ø¯ÙĬØ²": 23348,
  "Ø¯ÙĬØ³": 7508,
  "Ø¯ÙĬØ¹": 6839,
  "Ø¯ÙĬØ¹Ø©": 19113,
  "Ø¯ÙĬØ¹ÙĪØª": 26257,
  "Ø¯ÙĬØ¹ÙĬÙĨ": 26028,
  "Ø¯ÙĬÙ": 2309,
  "Ø¯ÙĬÙģ": 16721,
  "Ø¯ÙĬÙĤ": 3898,
  "Ø¯ÙĬÙĤØ©": 5041,
  "Ø¯ÙĬÙĤÙĩ": 33430,
  "Ø¯ÙĬÙĥ": 24555,
  "Ø¯ÙĬÙĦ": 1747,
  "Ø¯ÙĬÙĦØ§": 26603,
  "Ø¯ÙĬÙĦØ§Øª": 5270,
  "Ø¯ÙĬÙĦÙĩØ§": 63000,
  "Ø¯ÙĬÙħ": 1300,
  "Ø¯ÙĬÙħØ§": 12469,
  "Ø¯ÙĬÙħØ©": 3485,
  "Ø¯ÙĬÙħÙĪ": 33363,
  "Ø¯ÙĬÙħÙĪØª": 55980,
  "Ø¯ÙĬÙħÙĬ": 46599,
  "Ø¯ÙĬÙĨ": 2934,
  "Ø¯ÙĬÙĨØ©": 4639,
  "Ø¯ÙĬÙĨÙĩ": 26366,
  "Ø¯ÙĬÙĩ": 6753,
  "Ø¯ÙĬÙĩØ§": 20801,
  "Ø¯ÙĬÙĩÙħ": 59323,
  "Ø¯ÙĬÙĩÙĬØ©": 55634,
  "Ø¯ÙĬÙĪ": 1738,
  "Ø¯ÙĬÙĪÙĦØ§": 30255,
  "Ø¯ÙĬÙĪÙĨ": 62552,
  "Ø¯ÙĬÙĪÙĩØ§Øª": 9585,
  "Ø¯ÙĬÙĬØ§Øª": 58540,
  "Ø¯ÙĬÙĬÙĨ": 31929,
  "Ø¯ÙĬÙĬÙĩ": 63861,
  "Ø°": 333,
  "Ø°Ø§": 608,
  "Ø°Ø§Ø¡": 11638,
  "Ø°Ø§Ø¦Ùģ": 28183,
  "Ø°Ø§Ø¦ÙĬØ©": 43522,
  "Ø°Ø§Ø¨": 6489,
  "Ø°Ø§Ø¨ØŃ": 46877,
  "Ø°Ø§Ø¬Ø©": 43459,
  "Ø°Ø§Ø°": 32526,
  "Ø°Ø§Ø±": 3518,
  "Ø°Ø§Ø±Ø§Øª": 31971,
  "Ø°Ø§Ø±ÙĪÙĨ": 55708,
  "Ø°Ø§Ø¹Ø©": 24512,
  "Ø°Ø§ÙģÙĬ": 58387,
  "Ø°Ø§Ùĥ": 6977,
  "Ø°Ø§ÙĥØ±": 10505,
  "Ø°Ø§ÙĥØ±Ø©": 22695,
  "Ø°Ø§ÙĦ": 62683,
  "Ø°Ø§ÙĨ": 12259,
  "Ø°Ø§ÙĨØ§": 43207,
  "Ø°Ø¨": 2774,
  "Ø°Ø¨Ø©": 32414,
  "Ø°Ø¨Øª": 57654,
  "Ø°Ø¨Ø°Ø¨": 30608,
  "Ø°Ø¨ØŃ": 52542,
  "Ø°Ø¨ØŃØ©": 24326,
  "Ø°Ø¨Ùĩ": 42419,
  "Ø°Ø¨ÙĬÙĨ": 52466,
  "Ø°Ø©": 3266,
  "Ø°Ø¬": 4827,
  "Ø°Ø¬Ø§": 49194,
  "Ø°Ø±": 2389,
  "Ø°Ø±Ø§": 45945,
  "Ø°Ø±Ø©": 28889,
  "Ø°Ø±Øª": 21934,
  "Ø°Ø±Ø¹": 40367,
  "Ø°Ø±ÙĪØ§": 34325,
  "Ø°Ø±ÙĬ": 52313,
  "Ø°Ù": 3201,
  "Ø°Ùģ": 4679,
  "Ø°Ùĥ": 3213,
  "Ø°ÙĥØ§Ø±": 27733,
  "Ø°ÙĥØ±": 1439,
  "Ø°ÙĥØ±Ø§Øª": 21481,
  "Ø°ÙĥØ±Ø©": 24724,
  "Ø°ÙĥØ±Ùĥ": 57588,
  "Ø°ÙĥØ±ÙĪØ§": 37450,
  "Ø°ÙĥÙī": 62815,
  "Ø°ÙĥÙĬØ±": 14981,
  "Ø°ÙĦ": 5472,
  "Ø°ÙĦØ©": 58245,
  "Ø°ÙĦÙĥ": 831,
  "Ø°ÙĦÙĩ": 37033,
  "Ø°ÙĦÙĩØ§": 23271,
  "Ø°ÙĦÙĪÙĨ": 37459,
  "Ø°Ùħ": 29995,
  "Ø°ÙħØ©": 62940,
  "Ø°ÙħØ±": 34925,
  "Ø°ÙĨ": 4349,
  "Ø°ÙĨÙĩ": 40423,
  "Ø°Ùĩ": 1043,
  "Ø°ÙĩØ§ÙĨ": 18497,
  "Ø°ÙĩØ¨": 3219,
  "Ø°ÙĩØ¨ÙĬ": 57656,
  "Ø°ÙĩØ¨ÙĬØ©": 24314,
  "Ø°ÙĪØ§": 47744,
  "Ø°ÙĪØ¨": 37199,
  "Ø°ÙĪØ¨Ø©": 36753,
  "Ø°ÙĪØ°": 36663,
  "Ø°ÙĪØ±": 11425,
  "Ø°ÙĪÙĤ": 25297,
  "Ø°ÙĪÙĨ": 31194,
  "Ø°Ùī": 9801,
  "Ø°ÙĬ": 6152,
  "Ø°ÙĬØ§Øª": 39123,
  "Ø°ÙĬØ¨": 6030,
  "Ø°ÙĬØ©": 3431,
  "Ø°ÙĬØ±": 8510,
  "Ø°ÙĬØ±Ø§Øª": 34086,
  "Ø°ÙĬÙĦØ©": 38859,
  "Ø°ÙĬÙĨ": 34863,
  "Ø°ÙĬÙĩ": 30058,
  "Ø±": 269,
  "Ø±Ø¢ÙĨ": 10728,
  "Ø±Ø£": 5527,
  "Ø±Ø£Ø©": 35037,
  "Ø±Ø§": 1311,
  "Ø±Ø§Ø¡": 653,
  "Ø±Ø§Ø¡Ø§Øª": 4859,
  "Ø±Ø§Ø¡Ø©": 2585,
  "Ø±Ø§Ø¦Ø¨": 5513,
  "Ø±Ø§Ø¦ÙĬ": 3450,
  "Ø±Ø§Ø¦ÙĬÙĦ": 19845,
  "Ø±Ø§Ø¨": 8353,
  "Ø±Ø§Ø¨Ø·": 2258,
  "Ø±Ø§Øª": 1388,
  "Ø±Ø§ØªØ³": 51291,
  "Ø±Ø§ØªÙ": 20640,
  "Ø±Ø§ØªÙĬ": 20648,
  "Ø±Ø§ØªÙĬØ¬ÙĬ": 35265,
  "Ø±Ø§ØªÙĬØ¬ÙĬØ§Øª": 47407,
  "Ø±Ø§ØªÙĬØ¬ÙĬØ©": 10606,
  "Ø±Ø§Ø¬": 8769,
  "Ø±Ø§Ø¯": 19331,
  "Ø±Ø§Ø¯Ø©": 20266,
  "Ø±Ø§Ø±": 867,
  "Ø±Ø§Ø±Ø§Øª": 12603,
  "Ø±Ø§Ø±Ø©": 20806,
  "Ø±Ø§Ø±Ùĩ": 29742,
  "Ø±Ø§Ø±Ùī": 60011,
  "Ø±Ø§Ø±ÙĬØ©": 13099,
  "Ø±Ø§Ø²": 19296,
  "Ø±Ø§Ø²ÙĬ": 42082,
  "Ø±Ø§Ø³": 26373,
  "Ø±Ø§Ø³Ø§Øª": 7484,
  "Ø±Ø§Ø³Ø©": 10959,
  "Ø±Ø§Ø¶": 10463,
  "Ø±Ø§Ø¶ÙĬ": 25944,
  "Ø±Ø§Ø·": 8944,
  "Ø±Ø§Ø·ÙĬØ©": 11567,
  "Ø±Ø§Ø¹": 3067,
  "Ø±Ø§Ø¹Ø§Øª": 55460,
  "Ø±Ø§Ø¹Ø©": 10010,
  "Ø±Ø§Ø¹Ùĩ": 50433,
  "Ø±Ø§ØŃ": 40501,
  "Ø±Ø§Ùģ": 3760,
  "Ø±Ø§ÙģØ§Øª": 30072,
  "Ø±Ø§ÙģØ©": 45310,
  "Ø±Ø§ÙĤ": 5561,
  "Ø±Ø§ÙĤÙĬ": 51776,
  "Ø±Ø§ÙĤÙĬÙĬÙĨ": 44543,
  "Ø±Ø§Ùĥ": 15075,
  "Ø±Ø§ÙĥÙħ": 42484,
  "Ø±Ø§ÙĦ": 8014,
  "Ø±Ø§ÙĦØ§Øª": 42043,
  "Ø±Ø§ÙĦÙĬØ©": 44406,
  "Ø±Ø§Ùħ": 13087,
  "Ø±Ø§ÙħØ©": 29187,
  "Ø±Ø§ÙħØ¬": 53856,
  "Ø±Ø§ÙĨ": 17280,
  "Ø±Ø§Ùĩ": 19680,
  "Ø±Ø§ÙĩØ§": 15319,
  "Ø±Ø§ÙĩÙħ": 27720,
  "Ø±Ø§ÙĩÙĬÙħ": 4662,
  "Ø±Ø§ÙĩÙĬÙħÙĬ": 59606,
  "Ø±Ø§ÙĪØ§Øª": 24629,
  "Ø±Ø§ÙĪØ©": 46959,
  "Ø±Ø§ÙĪØŃ": 16931,
  "Ø±Ø§ÙĪÙĬ": 27078,
  "Ø±Ø§ÙĪÙĬÙĦ": 60988,
  "Ø±Ø§ÙĬØ©": 62900,
  "Ø±Ø¨": 422,
  "Ø±Ø¨Ø§": 8951,
  "Ø±Ø¨Ø§Øª": 4668,
  "Ø±Ø¨Ø§ØŃ": 6627,
  "Ø±Ø¨Ø©": 1624,
  "Ø±Ø¨Øª": 5845,
  "Ø±Ø¨ØªØ§Øª": 60164,
  "Ø±Ø¨ØªÙĩ": 54937,
  "Ø±Ø¨Ø±": 61875,
  "Ø±Ø¨Øµ": 40907,
  "Ø±Ø¨Ø·": 48736,
  "Ø±Ø¨Ø¹": 1863,
  "Ø±Ø¨Ø¹Ø©": 3334,
  "Ø±Ø¨ØŃ": 61929,
  "Ø±Ø¨Ùĩ": 8376,
  "Ø±Ø¨ÙĩØ§": 18167,
  "Ø±Ø¨ÙĩÙħ": 62501,
  "Ø±Ø¨ÙĪØ§": 16530,
  "Ø±Ø¨ÙĪÙĦ": 9889,
  "Ø±Ø¨ÙĪÙĨ": 8524,
  "Ø±Ø¨ÙĪÙĨØ§Øª": 57631,
  "Ø±Ø¨ÙĬ": 1769,
  "Ø±Ø¨ÙĬØ©": 677,
  "Ø±Ø¨ÙĬØ¬Ø§ÙĨ": 12861,
  "Ø±Ø¨ÙĬØ±": 52498,
  "Ø±Ø¨ÙĬÙĨ": 4582,
  "Ø±Ø¨ÙĬÙĩ": 39535,
  "Ø±Ø©": 431,
  "Ø±Øª": 1684,
  "Ø±ØªØ¨Ø©": 34401,
  "Ø±ØªØ²": 30516,
  "Ø±ØªØ²ÙĤØ©": 46559,
  "Ø±ØªØ³": 16499,
  "Ø±ØªØº": 42136,
  "Ø±ØªØºØ§ÙĦÙĬØ©": 53955,
  "Ø±ØªÙģØ§Ø¹": 24701,
  "Ø±ØªÙģØ¹": 27937,
  "Ø±ØªÙĨØ§": 55600,
  "Ø±ØªÙĩÙħ": 57509,
  "Ø±ØªÙĪÙĨ": 9520,
  "Ø±Ø¬": 1700,
  "Ø±Ø¬Ø§Ø¡": 36098,
  "Ø±Ø¬Ø§Øª": 35019,
  "Ø±Ø¬Ø§Ø¹": 22373,
  "Ø±Ø¬Ø©": 11847,
  "Ø±Ø¬Ø³": 25706,
  "Ø±Ø¬Ø¹": 17087,
  "Ø±Ø¬ØŃ": 29987,
  "Ø±Ø¬ÙĨØªÙĬÙĨ": 29826,
  "Ø±Ø¬ÙĪ": 10806,
  "Ø±Ø¬ÙĪØ§": 30798,
  "Ø±Ø¬ÙĬ": 53504,
  "Ø±Ø®": 9774,
  "Ø±Ø®Ø©": 56136,
  "Ø±Ø®ÙĬÙĨ": 26663,
  "Ø±Ø¯": 879,
  "Ø±Ø¯Ø§Ø³": 60351,
  "Ø±Ø¯Ø§Ùħ": 27678,
  "Ø±Ø¯Ø§ÙĨ": 56649,
  "Ø±Ø¯Øª": 53188,
  "Ø±Ø¯Ø´Ø©": 10474,
  "Ø±Ø¯ÙĤØ©": 22103,
  "Ø±Ø¯ÙĨ": 11630,
  "Ø±Ø¯ÙĨÙĤØ·Ø±ÙĥØ§Ø²Ø§Ø®Ø³ØªØ§ÙĨ": 59731,
  "Ø±Ø¯ÙĪØºØ§ÙĨ": 37947,
  "Ø±Ø¯ÙĪÙĨ": 48913,
  "Ø±Ø¯ÙĬØ©": 5361,
  "Ø±Ø¯ÙĬÙĨ": 42500,
  "Ø±Ø±": 2222,
  "Ø±Ø²": 3640,
  "Ø±Ø³": 1774,
  "Ø±Ø³Ø§ÙĦ": 4324,
  "Ø±Ø³Ø§ÙĦÙĩØ§": 46171,
  "Ø±Ø³Ø§ÙĨ": 48077,
  "Ø±Ø³Ø§ÙĨØ©": 63815,
  "Ø±Ø³Ø©": 11871,
  "Ø±Ø³Ùĥ": 12249,
  "Ø±Ø³ÙĪÙħ": 24762,
  "Ø±Ø³ÙĪÙĨ": 36509,
  "Ø±Ø³ÙĬ": 51899,
  "Ø±Ø´": 8960,
  "Ø±Ø´Ø§Ø¯Ø§Øª": 43066,
  "Ø±Ø´ÙģØ©": 51230,
  "Ø±Øµ": 4581,
  "Ø±ØµØ§Ø¯": 25541,
  "Ø±ØµÙĨØ©": 63321,
  "Ø±Ø¶": 613,
  "Ø±Ø¶Ø§Ø¡": 23677,
  "Ø±Ø¶Ø©": 31369,
  "Ø±Ø¶Ùī": 13577,
  "Ø±Ø¶ÙĬÙĨ": 48968,
  "Ø±Ø·": 25723,
  "Ø±Ø·Ø§ÙĨ": 15417,
  "Ø±Ø·Ø©": 8410,
  "Ø±Ø·ÙĪÙħ": 28485,
  "Ø±Ø¹": 5369,
  "Ø±Ø¹Ø©": 6464,
  "Ø±Ø¹Ùĩ": 59363,
  "Ø±ØŃ": 1237,
  "Ø±ØŃØ§Ùħ": 38124,
  "Ø±ØŃØ¨": 15826,
  "Ø±ØŃÙĦØ©": 13456,
  "Ø±ØŃÙī": 8877,
  "Ø±ØŃÙĬÙĦ": 60581,
  "Ø±Ù": 317,
  "Ø±Ùģ": 524,
  "Ø±ÙģØ§": 31091,
  "Ø±ÙģØ§Øª": 20199,
  "Ø±ÙģØ§ÙĤ": 56793,
  "Ø±ÙģØ§ÙĨ": 30641,
  "Ø±ÙģØ©": 1337,
  "Ø±ÙģØª": 25130,
  "Ø±ÙģØªÙĩ": 36321,
  "Ø±ÙģØ±": 34646,
  "Ø±ÙģØ³": 40947,
  "Ø±ÙģØ´Ø©": 27427,
  "Ø±ÙģØ´Ùĩ": 44372,
  "Ø±ÙģØ¶": 4887,
  "Ø±ÙģØ¹": 3986,
  "Ø±ÙģÙĤ": 60059,
  "Ø±ÙģÙĥØ³": 45352,
  "Ø±ÙģÙĩ": 20667,
  "Ø±ÙģÙĩØ§": 51502,
  "Ø±ÙģÙĪØ§": 40657,
  "Ø±ÙģÙĪÙĨ": 33126,
  "Ø±ÙģÙĬ": 11073,
  "Ø±ÙģÙĬØ©": 5118,
  "Ø±ÙģÙĬÙĨ": 4097,
  "Ø±ÙĤ": 690,
  "Ø±ÙĤØ§Ø¡": 4009,
  "Ø±ÙĤØ§Øª": 31016,
  "Ø±ÙĤØ§Ùħ": 5600,
  "Ø±ÙĤØ¨": 18940,
  "Ø±ÙĤØ©": 8086,
  "Ø±ÙĤØ¹Ø©": 60486,
  "Ø±ÙĤÙĦ": 27133,
  "Ø±ÙĤÙĦØ©": 32364,
  "Ø±ÙĤÙħ": 7604,
  "Ø±ÙĤÙĩ": 46718,
  "Ø±ÙĤÙĪØ§": 43254,
  "Ø±ÙĤÙī": 15919,
  "Ø±ÙĤÙĬØ©": 6073,
  "Ø±Ùĥ": 473,
  "Ø±ÙĥØ§Ø¡": 41896,
  "Ø±ÙĥØ§Øª": 1220,
  "Ø±ÙĥØ§ÙĨ": 6619,
  "Ø±ÙĥØ¨": 57685,
  "Ø±ÙĥØ©": 676,
  "Ø±ÙĥØª": 24431,
  "Ø±ÙĥØªÙĨØ§": 43230,
  "Ø±ÙĥØ²": 5947,
  "Ø±ÙĥØ³": 26591,
  "Ø±ÙĥÙĩ": 14866,
  "Ø±ÙĥÙĪØ§": 43329,
  "Ø±ÙĥÙĪØ²ÙĨ": 45206,
  "Ø±ÙĥÙĪÙĨ": 19587,
  "Ø±ÙĥÙĬ": 41607,
  "Ø±ÙĥÙĬØ©": 4008,
  "Ø±ÙĥÙĬÙĨ": 16574,
  "Ø±ÙĥÙĬÙĩ": 57574,
  "Ø±ÙĦ": 15972,
  "Ø±ÙĦÙĨ": 36392,
  "Ø±ÙĦÙĨØ¯Ø§": 14570,
  "Ø±ÙĦÙĪ": 36921,
  "Ø±Ùħ": 771,
  "Ø±ÙħØ§": 8754,
  "Ø±ÙħØ§Ø¦ÙĬØ§Øª": 51400,
  "Ø±ÙħØ§Øª": 33892,
  "Ø±ÙħØ§ÙĨ": 4773,
  "Ø±ÙħØ§Ùĩ": 29357,
  "Ø±ÙħØ©": 4150,
  "Ø±ÙħØª": 10233,
  "Ø±ÙħØªÙĩ": 23341,
  "Ø±ÙħØªÙĩØ§": 25752,
  "Ø±ÙħØ¬": 4699,
  "Ø±ÙħØ¬Ø©": 6295,
  "Ø±ÙħØ¬Ùĩ": 62086,
  "Ø±ÙħØ¬ÙĬØ§Øª": 11319,
  "Ø±ÙħØ¬ÙĬØ©": 30712,
  "Ø±ÙħØ¯": 39964,
  "Ø±ÙħØ¯ÙĬ": 49966,
  "Ø±ÙħØ°ÙĬ": 35334,
  "Ø±ÙħØ±": 49442,
  "Ø±ÙħØ²": 18022,
  "Ø±ÙħØ³": 34860,
  "Ø±ÙħØ´": 32565,
  "Ø±ÙħØ´Ø¨Ø§Øª": 49397,
  "Ø±ÙħØµ": 56696,
  "Ø±ÙħÙ": 2814,
  "Ø±ÙħÙĤ": 60579,
  "Ø±ÙħÙĥ": 36401,
  "Ø±ÙħÙĦ": 11814,
  "Ø±ÙħÙĦØ©": 29461,
  "Ø±ÙħÙĦÙģ": 44382,
  "Ø±ÙħÙĩ": 13108,
  "Ø±ÙħÙĩØ§": 39737,
  "Ø±ÙħÙĪ": 3650,
  "Ø±ÙħÙĪØ§": 30682,
  "Ø±ÙħÙĪØª": 17909,
  "Ø±ÙħÙĪØ²": 10160,
  "Ø±ÙħÙĪÙĤØ©": 24097,
  "Ø±ÙħÙĪÙĥ": 18307,
  "Ø±ÙħÙĪÙĦØ§": 24936,
  "Ø±ÙħÙĪÙĨ": 10552,
  "Ø±ÙħÙĪÙĨØ§Øª": 49867,
  "Ø±ÙħÙī": 6219,
  "Ø±ÙħÙĬ": 6440,
  "Ø±ÙħÙĬØ§": 58398,
  "Ø±ÙħÙĬØ©": 36204,
  "Ø±ÙħÙĬØ¯": 43651,
  "Ø±ÙħÙĬØ²": 41891,
  "Ø±ÙħÙĬØ³": 56545,
  "Ø±ÙħÙĬÙĦ": 8032,
  "Ø±ÙħÙĬÙħ": 10168,
  "Ø±ÙħÙĬÙĨ": 3497,
  "Ø±ÙħÙĬÙĨÙĬ": 47609,
  "Ø±ÙħÙĬÙĩ": 62003,
  "Ø±ÙĨ": 13137,
  "Ø±ÙĨØ§": 31527,
  "Ø±ÙĨØ§ÙħØ¬": 6970,
  "Ø±ÙĨØ³ÙĬØ©": 23234,
  "Ø±ÙĨÙĬØ©": 17260,
  "Ø±Ùĩ": 4713,
  "Ø±ÙĩØ§": 13214,
  "Ø±ÙĩØ§Ø¨": 14793,
  "Ø±ÙĩØ§Ø¨ÙĬÙĬÙĨ": 29866,
  "Ø±ÙĩØ§ÙĤ": 62751,
  "Ø±ÙĩØ§ÙĨ": 59799,
  "Ø±ÙĪ": 461,
  "Ø±ÙĪØ¡": 43401,
  "Ø±ÙĪØ¡Ø©": 15875,
  "Ø±ÙĪØ§": 2603,
  "Ø±ÙĪØ§Øª": 5515,
  "Ø±ÙĪØ§ØªÙĬØ§": 12146,
  "Ø±ÙĪØ§ØŃ": 8681,
  "Ø±ÙĪØ§ÙĦ": 49941,
  "Ø±ÙĪØ§ÙĨ": 29118,
  "Ø±ÙĪØ§Ùĩ": 38208,
  "Ø±ÙĪØ¨": 3080,
  "Ø±ÙĪØ¨Ø§Øª": 7326,
  "Ø±ÙĪØ¨Ø§Øµ": 45109,
  "Ø±ÙĪØ¨Ø©": 32899,
  "Ø±ÙĪØ¨ÙĪÙĦÙĪØ¬ÙĬØ§": 55227,
  "Ø±ÙĪØ©": 4893,
  "Ø±ÙĪØª": 5435,
  "Ø±ÙĪØªÙĬÙĨ": 32641,
  "Ø±ÙĪØªÙĬÙĨØ§Øª": 55484,
  "Ø±ÙĪØ¬": 2602,
  "Ø±ÙĪØ¬Ø§": 44315,
  "Ø±ÙĪØ¬Ùĩ": 48099,
  "Ø±ÙĪØ¬ÙĬÙĨ": 22123,
  "Ø±ÙĪØ®": 62142,
  "Ø±ÙĪØ¯ÙĬ": 35388,
  "Ø±ÙĪØ±": 20948,
  "Ø±ÙĪØ±Ø©": 2606,
  "Ø±ÙĪØ±ÙĬ": 7626,
  "Ø±ÙĪØ±ÙĬØ©": 8490,
  "Ø±ÙĪØ²": 11268,
  "Ø±ÙĪØ³": 2098,
  "Ø±ÙĪØ³Ø©": 16008,
  "Ø±ÙĪØ³ÙĪÙģØª": 12619,
  "Ø±ÙĪØ³ÙĬØ©": 18244,
  "Ø±ÙĪØ´": 14228,
  "Ø±ÙĪØ´Ø§Øª": 15412,
  "Ø±ÙĪØ´Ø©": 53803,
  "Ø±ÙĪØ´ÙĬÙĩ": 36141,
  "Ø±ÙĪØ¶": 1655,
  "Ø±ÙĪØ¶Ø§": 54556,
  "Ø±ÙĪØ¶Ø©": 10951,
  "Ø±ÙĪØ·": 1823,
  "Ø±ÙĪØ·ÙĬ": 40587,
  "Ø±ÙĪØ¹": 1139,
  "Ø±ÙĪØ¹Ø§Øª": 26850,
  "Ø±ÙĪØ¹Ø©": 11930,
  "Ø±ÙĪØ¹ÙĬ": 39323,
  "Ø±ÙĪØŃ": 4083,
  "Ø±ÙĪØŃØ§Øª": 2868,
  "Ø±ÙĪØŃØ©": 8552,
  "Ø±ÙĪØŃÙĩ": 53250,
  "Ø±ÙĪØŃÙĬØ©": 50239,
  "Ø±ÙĪÙģ": 1627,
  "Ø±ÙĪÙģØ§": 19152,
  "Ø±ÙĪÙģØ§Øª": 21222,
  "Ø±ÙĪÙģØ©": 5790,
  "Ø±ÙĪÙģÙĩ": 45241,
  "Ø±ÙĪÙģÙĪÙĨ": 51555,
  "Ø±ÙĪÙģÙĬ": 62209,
  "Ø±ÙĪÙĤ": 6029,
  "Ø±ÙĪÙĤØ§Øª": 10486,
  "Ø±ÙĪÙĤØ©": 23391,
  "Ø±ÙĪÙĥ": 36147,
  "Ø±ÙĪÙĦÙĬÙĩ": 33866,
  "Ø±ÙĪÙħ": 25843,
  "Ø±ÙĪÙħØ§ÙĨÙĬ": 44720,
  "Ø±ÙĪÙĨ": 6953,
  "Ø±ÙĪÙĩ": 13518,
  "Ø±ÙĪÙĩØ§": 27525,
  "Ø±ÙĪÙĬ": 26969,
  "Ø±ÙĪÙĬØ©": 11725,
  "Ø±ÙĪÙĬØª": 48610,
  "Ø±ÙĪÙĬØ¬": 47331,
  "Ø±ÙĪÙĬØ¬ÙĬØ©": 54603,
  "Ø±ÙĪÙĬÙĨ": 45882,
  "Ø±Ùī": 585,
  "Ø±ÙĬ": 335,
  "Ø±ÙĬØ¦ÙĬÙĦ": 54808,
  "Ø±ÙĬØ§": 2301,
  "Ø±ÙĬØ§Ø¡": 11480,
  "Ø±ÙĬØ§Øª": 2414,
  "Ø±ÙĬØ§Ø³": 59852,
  "Ø±ÙĬØ§Ø¶Ø©": 35159,
  "Ø±ÙĬØ§Ø¶Ø©Ø³ÙĬØ±Ø©": 58936,
  "Ø±ÙĬØ§Ùģ": 51883,
  "Ø±ÙĬØ§ÙĦ": 37357,
  "Ø±ÙĬØ§ÙĨ": 8491,
  "Ø±ÙĬØ¨": 1201,
  "Ø±ÙĬØ¨Ø§": 2947,
  "Ø±ÙĬØ¨Ø§Øª": 12312,
  "Ø±ÙĬØ¨Ø©": 3296,
  "Ø±ÙĬØ¨ÙĥØ©": 37141,
  "Ø±ÙĬØ¨Ùĩ": 30313,
  "Ø±ÙĬØ¨Ùī": 54330,
  "Ø±ÙĬØ¨ÙĬ": 11548,
  "Ø±ÙĬØ¨ÙĬØ©": 4410,
  "Ø±ÙĬØ©": 1896,
  "Ø±ÙĬØª": 2828,
  "Ø±ÙĬØªØ§": 54620,
  "Ø±ÙĬØªØ§ÙĨÙĬØ§": 46483,
  "Ø±ÙĬØªØ±ÙĬØ§": 16737,
  "Ø±ÙĬØªØ´": 30574,
  "Ø±ÙĬØªÙĩ": 24280,
  "Ø±ÙĬØ«": 28514,
  "Ø±ÙĬØ¬": 6668,
  "Ø±ÙĬØ¬Ø§Øª": 40915,
  "Ø±ÙĬØ¬ÙĬ": 31041,
  "Ø±ÙĬØ¬ÙĬÙĨ": 14388,
  "Ø±ÙĬØ®": 14263,
  "Ø±ÙĬØ¯": 998,
  "Ø±ÙĬØ¯Ø§": 20149,
  "Ø±ÙĬØ¯Ø§Øª": 22221,
  "Ø±ÙĬØ¯Ø©": 2926,
  "Ø±ÙĬØ¯Ø¬": 38899,
  "Ø±ÙĬØ¯Ùĩ": 35351,
  "Ø±ÙĬØ¯ÙĬ": 29883,
  "Ø±ÙĬØ¯ÙĬØ©": 53533,
  "Ø±ÙĬØ±": 1099,
  "Ø±ÙĬØ±Ø§": 32854,
  "Ø±ÙĬØ±Ø§Øª": 45833,
  "Ø±ÙĬØ±Ø©": 7672,
  "Ø±ÙĬØ±Øª": 53417,
  "Ø±ÙĬØ±Ø¬Ùī": 45613,
  "Ø±ÙĬØ±Ùĥ": 11408,
  "Ø±ÙĬØ±ÙĬ": 3948,
  "Ø±ÙĬØ²": 15257,
  "Ø±ÙĬØ³": 2558,
  "Ø±ÙĬØ³ÙĬ": 34236,
  "Ø±ÙĬØ´": 5028,
  "Ø±ÙĬØ¶": 3598,
  "Ø±ÙĬØ¶Ø©": 11215,
  "Ø±ÙĬØ·": 1746,
  "Ø±ÙĬØ·Ø§ÙĨÙĬØ§": 14548,
  "Ø±ÙĬØ·Ø©": 7748,
  "Ø±ÙĬØ¹": 3056,
  "Ø±ÙĬØ¹Ø§Øª": 24761,
  "Ø±ÙĬØ¹Ø©": 3260,
  "Ø±ÙĬØ¹ÙĬØ©": 38126,
  "Ø±ÙĬØº": 12491,
  "Ø±ÙĬØŃ": 2459,
  "Ø±ÙĬØŃØ§": 10175,
  "Ø±ÙĬØŃØ§Øª": 3415,
  "Ø±ÙĬØŃØ©": 6655,
  "Ø±ÙĬØŃÙĬØ©": 63365,
  "Ø±ÙĬÙ": 1052,
  "Ø±ÙĬÙģ": 1342,
  "Ø±ÙĬÙģØ©": 9308,
  "Ø±ÙĬÙģÙĬ": 21019,
  "Ø±ÙĬÙĤ": 720,
  "Ø±ÙĬÙĤØ§Ùħ": 56206,
  "Ø±ÙĬÙĤØ©": 1628,
  "Ø±ÙĬÙĤÙī": 24200,
  "Ø±ÙĬÙĤÙĬ": 5146,
  "Ø±ÙĬÙĤÙĬØ§": 2670,
  "Ø±ÙĬÙĤÙĬØ©": 5340,
  "Ø±ÙĬÙĥ": 2796,
  "Ø±ÙĬÙĥØ§": 29103,
  "Ø±ÙĬÙĥØ§Øª": 48010,
  "Ø±ÙĬÙĥØ§ÙĨÙĬØ©": 57292,
  "Ø±ÙĬÙĥØ©": 28435,
  "Ø±ÙĬÙĥØ³": 44535,
  "Ø±ÙĬÙĥÙĩ": 47314,
  "Ø±ÙĬÙĥÙĪ": 41949,
  "Ø±ÙĬÙĥÙĬ": 38513,
  "Ø±ÙĬÙĦ": 2687,
  "Ø±ÙĬÙĦØ§": 55435,
  "Ø±ÙĬÙĦØ§ÙĨ": 44671,
  "Ø±ÙĬÙĦØ§ÙĨÙĥØ§Øª": 59156,
  "Ø±ÙĬÙħ": 1287,
  "Ø±ÙĬÙħØ§Øª": 48380,
  "Ø±ÙĬÙħØ©": 2975,
  "Ø±ÙĬÙħÙĩ": 44959,
  "Ø±ÙĬÙħÙĬØ±": 36763,
  "Ø±ÙĬÙĨ": 2110,
  "Ø±ÙĬÙĩ": 5477,
  "Ø±ÙĬÙĩØ§": 26430,
  "Ø±ÙĬÙĩØ§Øª": 39161,
  "Ø±ÙĬÙĪ": 35292,
  "Ø±ÙĬÙĪØ³": 56309,
  "Ø±ÙĬÙĪÙĨ": 31660,
  "Ø±ÙĬÙĬÙĦ": 45954,
  "Ø±ÙĬÙĬÙĨ": 10348,
  "Ø²": 315,
  "Ø²Ø¡": 14993,
  "Ø²Ø¤": 52716,
  "Ø²Ø¦Ø©": 16102,
  "Ø²Ø§": 3411,
  "Ø²Ø§Ø¡": 6967,
  "Ø²Ø§Ø¦Ø±": 10363,
  "Ø²Ø§Ø¦Ø±Ùģ": 59336,
  "Ø²Ø§Ø¨": 3665,
  "Ø²Ø§Øª": 29550,
  "Ø²Ø§Ø¯": 34825,
  "Ø²Ø§Ø±": 22756,
  "Ø²Ø§Ø±Ø©": 41637,
  "Ø²Ø§Ø²": 16672,
  "Ø²Ø§Ø²Ø§Øª": 25382,
  "Ø²Ø§Ø¹": 15442,
  "Ø²Ø§ÙĤ": 24889,
  "Ø²Ø§ÙĦ": 12164,
  "Ø²Ø§ÙĦØ©": 9507,
  "Ø²Ø§Ùħ": 2716,
  "Ø²Ø§ÙħÙĨ": 10020,
  "Ø²Ø§ÙħÙī": 42759,
  "Ø²Ø§ÙĨ": 9419,
  "Ø²Ø§ÙĨØ§Øª": 37936,
  "Ø²Ø§ÙĨØ©": 52684,
  "Ø²Ø§ÙĨÙĬ": 40617,
  "Ø²Ø§ÙĪØ¬": 38642,
  "Ø²Ø§ÙĪÙĬØ©": 57001,
  "Ø²Ø§ÙĬØ¯": 7060,
  "Ø²Ø¨": 1309,
  "Ø²Ø¨Ø±Ø©": 61105,
  "Ø²Ø©": 842,
  "Ø²Øª": 9201,
  "Ø²Ø¬": 22010,
  "Ø²Ø¯Ø§Ø¯": 33899,
  "Ø²Ø±": 5792,
  "Ø²Ø±Ø§Ø¹": 61932,
  "Ø²Ø±Ø©": 14171,
  "Ø²Ø±Ø¹Ø©": 61861,
  "Ø²Ø±ÙĤ": 60333,
  "Ø²Ø±ÙĬ": 37383,
  "Ø²Ø²": 6496,
  "Ø²Ø³": 36234,
  "Ø²Ø¹": 4741,
  "Ø²Ø¹Ø§Ø¬": 20045,
  "Ø²Ø¹Ø©": 11321,
  "Ø²Ø¹Ø¬": 35642,
  "Ø²ØŃ": 16512,
  "Ø²Ù": 562,
  "Ø²Ùģ": 21543,
  "Ø²ÙĤ": 4961,
  "Ø²ÙĤÙĨØ§": 55759,
  "Ø²ÙĤÙĩ": 48446,
  "Ø²ÙĤÙĬÙĦ": 57944,
  "Ø²ÙĥÙĬØ©": 49536,
  "Ø²ÙĦ": 1537,
  "Ø²ÙĦØ§ÙĤ": 31040,
  "Ø²ÙĦØ©": 14230,
  "Ø²ÙĦØª": 44710,
  "Ø²ÙĦÙĥ": 54283,
  "Ø²ÙĦÙĩ": 33388,
  "Ø²ÙĦÙĪØ§": 30991,
  "Ø²ÙĦÙĬØ©": 43291,
  "Ø²Ùħ": 2122,
  "Ø²ÙħØ§": 45357,
  "Ø²ÙħØ§Øª": 7757,
  "Ø²ÙħØ§ÙĨ": 20107,
  "Ø²ÙħØ¨ÙĬÙĤ": 31474,
  "Ø²ÙħØ©": 2263,
  "Ø²ÙħØª": 56828,
  "Ø²ÙħÙĩ": 26571,
  "Ø²ÙħÙĪØ§": 62225,
  "Ø²ÙħÙĪØ±": 41596,
  "Ø²ÙħÙĬØ©": 30899,
  "Ø²ÙħÙĬØ±": 62987,
  "Ø²ÙħÙĬÙĨ": 35354,
  "Ø²ÙĨ": 4761,
  "Ø²ÙĨØ©": 50107,
  "Ø²Ùĩ": 3185,
  "Ø²ÙĩØ§": 31577,
  "Ø²ÙĩØ§Øª": 25434,
  "Ø²ÙĩØ§Ø±": 56536,
  "Ø²ÙĩØ±": 31333,
  "Ø²ÙĪ": 5829,
  "Ø²ÙĪØ§Ø¬": 31686,
  "Ø²ÙĪØ¬": 6531,
  "Ø²ÙĪØ¯": 52768,
  "Ø²ÙĪØ±": 29929,
  "Ø²ÙĪÙĤ": 15424,
  "Ø²ÙĪÙĤÙĬ": 26582,
  "Ø²ÙĪÙĦ": 15346,
  "Ø²ÙĪÙħ": 44799,
  "Ø²ÙĪÙĨ": 9454,
  "Ø²ÙĪÙĬ": 12250,
  "Ø²ÙĪÙĬØ¯": 23275,
  "Ø²ÙĪÙĬØ±": 35210,
  "Ø²ÙĪÙĬÙĦØ§": 17210,
  "Ø²Ùī": 11500,
  "Ø²ÙĬ": 1210,
  "Ø²ÙĬØ§": 5942,
  "Ø²ÙĬØ§Ø¡": 5742,
  "Ø²ÙĬØ§Øª": 20389,
  "Ø²ÙĬØ§ÙĨ": 41545,
  "Ø²ÙĬØ¨": 45919,
  "Ø²ÙĬØ¨Ø§": 58728,
  "Ø²ÙĬØ©": 1965,
  "Ø²ÙĬØª": 63027,
  "Ø²ÙĬØ¬": 12104,
  "Ø²ÙĬØ¯": 1596,
  "Ø²ÙĬØ±": 31871,
  "Ø²ÙĬØ±Ø©": 14332,
  "Ø²ÙĬØ±ÙĬ": 63878,
  "Ø²ÙĬØ²": 1346,
  "Ø²ÙĬØ²Ù": 46695,
  "Ø²ÙĬØ²ÙĬ": 46749,
  "Ø²ÙĬØŃ": 60339,
  "Ø²ÙĬÙģ": 9005,
  "Ø²ÙĬÙģØ©": 26364,
  "Ø²ÙĬÙĤ": 24111,
  "Ø²ÙĬÙĥ": 29235,
  "Ø²ÙĬÙĥØ§": 61782,
  "Ø²ÙĬÙĦ": 5696,
  "Ø²ÙĬÙĦØ§": 38216,
  "Ø²ÙĬÙĦØ§Øª": 28821,
  "Ø²ÙĬÙĦØ§ÙĨØ¯Ø§": 35084,
  "Ø²ÙĬÙĦØ©": 41274,
  "Ø²ÙĬÙħ": 30537,
  "Ø²ÙĬÙħØ§Øª": 54136,
  "Ø²ÙĬÙħØ©": 9245,
  "Ø²ÙĬÙĨ": 3179,
  "Ø²ÙĬÙĨØ©": 43252,
  "Ø²ÙĬÙĨÙĬØ©": 58706,
  "Ø²ÙĬÙĩ": 8351,
  "Ø²ÙĬÙĩØ©": 43282,
  "Ø²ÙĬÙĪ": 50415,
  "Ø²ÙĬÙĪÙĨ": 2749,
  "Ø²ÙĬÙĬÙĨ": 15772,
  "Ø³": 283,
  "Ø³Ø§": 4387,
  "Ø³Ø§Ø¡": 1658,
  "Ø³Ø§Ø¡Ø©": 18574,
  "Ø³Ø§Ø¡Ù": 10395,
  "Ø³Ø§Ø¡ÙĦ": 10397,
  "Ø³Ø§Ø¡ÙĦÙĪÙĨ": 51262,
  "Ø³Ø§Ø¦Ø±": 5526,
  "Ø³Ø§Ø¦ÙĦ": 30844,
  "Ø³Ø§Ø¨": 4255,
  "Ø³Ø§Ø¨Ø§Øª": 27777,
  "Ø³Ø§Ø¨Ùĩ": 49927,
  "Ø³Ø§Ø¨ÙĬØ¹": 54557,
  "Ø³Ø§Øª": 1232,
  "Ø³Ø§ØªØ°Ø©": 22651,
  "Ø³Ø§ØªÙĬØ±": 39197,
  "Ø³Ø§ØªÙĬÙĨ": 7297,
  "Ø³Ø§Ø¯": 3061,
  "Ø³Ø§Ø±": 9572,
  "Ø³Ø§Ø±Ø©": 4626,
  "Ø³Ø§Ø±Ø¹Ø©": 47801,
  "Ø³Ø§Ø±Ùĩ": 49461,
  "Ø³Ø§Ø±ÙĬÙħ": 55403,
  "Ø³Ø§Ø³": 5381,
  "Ø³Ø§Ø³ÙĬØ©": 37744,
  "Ø³Ø§Ø·": 10036,
  "Ø³Ø§Ø·Ø©": 8495,
  "Ø³Ø§Ø¹": 49848,
  "Ø³Ø§ÙĥØ±": 29514,
  "Ø³Ø§ÙĦ": 29138,
  "Ø³Ø§ÙĦØ©": 22954,
  "Ø³Ø§Ùħ": 1885,
  "Ø³Ø§ÙħØ§": 51661,
  "Ø³Ø§ÙħØ©": 44317,
  "Ø³Ø§ÙħØŃ": 16676,
  "Ø³Ø§ÙĨ": 3200,
  "Ø³Ø§ÙĨØª": 51685,
  "Ø³Ø§ÙĨÙĬ": 29867,
  "Ø³Ø§ÙĩÙĦ": 56138,
  "Ø³Ø§ÙĪÙī": 33083,
  "Ø³Ø¨": 592,
  "Ø³Ø¨Ø§": 50992,
  "Ø³Ø¨Ø§Ø¨": 2463,
  "Ø³Ø¨Ø§Øª": 21541,
  "Ø³Ø¨Ø§ÙĤ": 44020,
  "Ø³Ø¨Ø§ÙĨ": 25069,
  "Ø³Ø¨Ø§ÙĨÙĬ": 52802,
  "Ø³Ø¨Ø§ÙĨÙĬØ§": 7945,
  "Ø³Ø¨Ø§ÙĨÙĬØ©": 33969,
  "Ø³Ø¨Ø¨": 1318,
  "Ø³Ø¨Ø©": 2674,
  "Ø³Ø¨Øª": 40640,
  "Ø³Ø¨Ø±ÙĬØ³": 25169,
  "Ø³Ø¨Ø´ÙĨ": 38846,
  "Ø³Ø¨ÙĤ": 6509,
  "Ø³Ø¨Ùĩ": 17282,
  "Ø³Ø¨ÙĩØ§": 42376,
  "Ø³Ø¨ÙĪ": 36102,
  "Ø³Ø¨ÙĪØ±Øª": 50344,
  "Ø³Ø¨ÙĪØ±Øº": 29900,
  "Ø³Ø¨ÙĪØ¹": 1886,
  "Ø³Ø¨ÙĪØ¹ÙĬÙĨ": 45893,
  "Ø³Ø¨ÙĪÙĨ": 42963,
  "Ø³Ø¨ÙĬØ±": 27061,
  "Ø³Ø¨ÙĬÙĨ": 27221,
  "Ø³Ø©": 790,
  "Ø³Øª": 407,
  "Ø³ØªØ§": 30522,
  "Ø³ØªØ§Ø°": 2759,
  "Ø³ØªØ§Ø±": 53581,
  "Ø³ØªØ§ÙĦ": 34419,
  "Ø³ØªØ§ÙĨ": 2305,
  "Ø³ØªØ§ÙĨÙĬ": 5503,
  "Ø³ØªØ§ÙĨÙĬØ©": 10995,
  "Ø³ØªØ§ÙĨÙĬÙĬÙĨ": 60587,
  "Ø³ØªØ®Ø¯Ùħ": 45341,
  "Ø³ØªØ±": 2992,
  "Ø³ØªØ±Ø§": 23365,
  "Ø³ØªØ±Ø§Ø¯": 29564,
  "Ø³ØªØ±Ø§ÙĦÙĬ": 58150,
  "Ø³ØªØ±Ø§ÙĦÙĬØ§": 10589,
  "Ø³ØªØ±ÙĪÙĦ": 26459,
  "Ø³ØªØ±ÙĬ": 59243,
  "Ø³ØªØ±ÙĬÙħ": 37018,
  "Ø³ØªØ³": 51236,
  "Ø³ØªØ·ÙĬØ¹": 38674,
  "Ø³ØªØºØ±Ø§Ùħ": 60518,
  "Ø³ØªÙĤ": 54123,
  "Ø³ØªÙĨ": 21947,
  "Ø³ØªÙĩ": 14998,
  "Ø³ØªÙĩØ§": 15800,
  "Ø³ØªÙĩÙħ": 49570,
  "Ø³ØªÙĪ": 29147,
  "Ø³ØªÙĪØ±": 12456,
  "Ø³ØªÙĪØ±ÙĬØ©": 51288,
  "Ø³ØªÙĪØ³ØªÙĬØ±ÙĪÙĨ": 63433,
  "Ø³ØªÙĪÙĦ": 61828,
  "Ø³ØªÙĪÙĨ": 15844,
  "Ø³ØªÙĬ": 32729,
  "Ø³ØªÙĬØ©": 18257,
  "Ø³ØªÙĬØ±": 6823,
  "Ø³ØªÙĬØ±ÙĪÙĨ": 47863,
  "Ø³ØªÙĬÙĨ": 25354,
  "Ø³Ø¬ÙĬÙĦ": 3359,
  "Ø³Ø®": 11742,
  "Ø³Ø¯": 3515,
  "Ø³Ø¯Ùĩ": 39819,
  "Ø³Ø±": 776,
  "Ø³Ø±Ø§": 29800,
  "Ø³Ø±Ø§Ø¦ÙĬ": 1877,
  "Ø³Ø±Ø§Ø¦ÙĬÙĦ": 2028,
  "Ø³Ø±Ø§Øª": 22932,
  "Ø³Ø±Ø§Ø¹": 20284,
  "Ø³Ø±Ø§Ùģ": 37710,
  "Ø³Ø±Ø©": 35044,
  "Ø³Ø±Øª": 49390,
  "Ø³Ø±Ø¹": 11451,
  "Ø³Ø±Ø¹Ø©": 33301,
  "Ø³Ø±ØŃ": 21488,
  "Ø³Ø±Ùĩ": 17155,
  "Ø³Ø±ÙĬØ©": 28798,
  "Ø³Ø±ÙĬÙĨ": 21518,
  "Ø³Ø³": 3879,
  "Ø³Ø³Ø§Øª": 2085,
  "Ø³Ø³Ø©": 1961,
  "Ø³Ø³Øª": 8195,
  "Ø³Ø³ÙĪ": 32331,
  "Ø³Ø³ÙĪØ§Ø±Ø§Øª": 37031,
  "Ø³Ø·": 1642,
  "Ø³Ø·Ø©": 24230,
  "Ø³Ø·Ø³": 3405,
  "Ø³Ø·ÙĨØ¨ÙĪÙĦ": 15380,
  "Ø³Ø·ÙĪ": 40900,
  "Ø³Ø·ÙĪØ±Ø©": 61817,
  "Ø³Ø¹": 7157,
  "Ø³Ø¹Ø§Ùģ": 47865,
  "Ø³Ø¹ÙĬØ¯": 10903,
  "Ø³ØŃ": 29340,
  "Ø³Ù": 382,
  "Ø³Ùģ": 2058,
  "Ø³ÙģÙĪØ±Ø¯": 50629,
  "Ø³ÙģÙĬ": 13542,
  "Ø³ÙģÙĬØ±": 57316,
  "Ø³ÙģÙĬÙĦØ¯": 48034,
  "Ø³ÙĤ": 26087,
  "Ø³ÙĤØ§Ø¡": 62544,
  "Ø³ÙĤØ§Ø·": 16460,
  "Ø³Ùĥ": 7988,
  "Ø³ÙĥØ§Ùī": 63788,
  "Ø³ÙĥØ±": 1858,
  "Ø³ÙĥØ±ÙĬ": 2667,
  "Ø³ÙĥØ±ÙĬØ©": 2291,
  "Ø³ÙĥØ±ÙĬÙĬÙĨ": 55767,
  "Ø³ÙĥØ³": 26723,
  "Ø³ÙĥÙĪ": 15121,
  "Ø³ÙĥÙĪÙĬØª": 44338,
  "Ø³ÙĥÙĬ": 14832,
  "Ø³ÙĦ": 1930,
  "Ø³ÙĦØ§Ùħ": 7286,
  "Ø³ÙĦØ©": 53832,
  "Ø³ÙĦÙħ": 18765,
  "Ø³ÙĦÙĨ": 44662,
  "Ø³ÙĦÙĨØ¯Ø§": 27616,
  "Ø³ÙĦÙĨØ¯Ø§Øª": 59190,
  "Ø³ÙĦÙĨØ¯ÙĬØ©": 18986,
  "Ø³ÙĦÙĩ": 44404,
  "Ø³ÙĦÙĩØ§": 45018,
  "Ø³ÙĦÙĪ": 3517,
  "Ø³ÙĦÙĪØ§": 32501,
  "Ø³ÙĦÙĪØ¨": 4950,
  "Ø³ÙĦÙĪØ¨Ùĩ": 56097,
  "Ø³ÙĦÙĪÙĦ": 49242,
  "Ø³ÙĦÙĪÙĨ": 51890,
  "Ø³ÙĦÙĬ": 33115,
  "Ø³Ùħ": 500,
  "Ø³ÙħØ§Ø¡": 3062,
  "Ø³ÙħØ§Ø¦Ø©": 28733,
  "Ø³ÙħØ§Øª": 28304,
  "Ø³ÙħØ§Ø³": 37071,
  "Ø³ÙħØ§Ø¹ÙĬ": 9171,
  "Ø³ÙħØ§Ø¹ÙĬÙĦ": 38865,
  "Ø³ÙħØ§Ø¹ÙĬÙĦÙĬØ©": 32582,
  "Ø³ÙħØ§ÙĦ": 23739,
  "Ø³ÙħØ§ÙĨ": 29792,
  "Ø³ÙħØ¨Ø±": 3310,
  "Ø³ÙħØ¨ÙĪØ±": 42886,
  "Ø³ÙħØ¨ÙĪØ±Øº": 20650,
  "Ø³ÙħØ©": 5214,
  "Ø³ÙħØª": 10424,
  "Ø³ÙħØªÙĩ": 44323,
  "Ø³ÙħØ¯Ø©": 28326,
  "Ø³ÙħØ±": 22870,
  "Ø³ÙħØŃ": 3120,
  "Ø³ÙħÙĥ": 41902,
  "Ø³ÙħÙĩ": 28754,
  "Ø³ÙħÙĩØ§": 44378,
  "Ø³ÙħÙĪ": 6469,
  "Ø³ÙħÙĪØ§": 31715,
  "Ø³ÙħÙĪÙĨ": 60277,
  "Ø³ÙħÙĪÙĩ": 53566,
  "Ø³ÙħÙĬØ©": 2500,
  "Ø³ÙħÙĬÙĨ": 39626,
  "Ø³ÙĨ": 1529,
  "Ø³ÙĨØ§Øª": 43689,
  "Ø³ÙĨØ§Ø¯": 17487,
  "Ø³ÙĨØ§Ø¯Ùĩ": 28112,
  "Ø³ÙĨØ§ÙĦ": 14794,
  "Ø³ÙĨØ©": 33509,
  "Ø³ÙĨØ¯Ø±": 21977,
  "Ø³ÙĨØ³": 46167,
  "Ø³ÙĨØ·": 33221,
  "Ø³ÙĨØ·ÙĬÙĨØ©": 36062,
  "Ø³Ùĩ": 5856,
  "Ø³ÙĩØ§": 20782,
  "Ø³ÙĩØ§ÙĦ": 47204,
  "Ø³ÙĪ": 4433,
  "Ø³ÙĪØ£": 40856,
  "Ø³ÙĪØ§": 32056,
  "Ø³ÙĪØ§Ø±": 46390,
  "Ø³ÙĪØ§Ø±Ø§Øª": 8036,
  "Ø³ÙĪØ¨ÙĬ": 22422,
  "Ø³ÙĪØ©": 19919,
  "Ø³ÙĪØ®": 58119,
  "Ø³ÙĪØ±": 24292,
  "Ø³ÙĪØ±Ø©": 51069,
  "Ø³ÙĪØ³": 38567,
  "Ø³ÙĪØ·Ø©": 44427,
  "Ø³ÙĪÙĤ": 27583,
  "Ø³ÙĪÙĤÙĬ": 48810,
  "Ø³ÙĪÙĦ": 12573,
  "Ø³ÙĪÙĦÙĩ": 47926,
  "Ø³ÙĪÙħ": 4416,
  "Ø³ÙĪÙĨ": 3587,
  "Ø³ÙĪÙĨØ¬": 52241,
  "Ø³Ùī": 1562,
  "Ø³ÙĬ": 610,
  "Ø³ÙĬØ¡": 18449,
  "Ø³ÙĬØ§": 1681,
  "Ø³ÙĬØ§Øª": 9346,
  "Ø³ÙĬØ§Ø±Ø§Øª": 38251,
  "Ø³ÙĬØ§Ø³ÙĬØ©": 43609,
  "Ø³ÙĬØ§ÙĤ": 52055,
  "Ø³ÙĬØ§ÙĨ": 20860,
  "Ø³ÙĬØ¨": 17970,
  "Ø³ÙĬØ¨ÙĬ": 17131,
  "Ø³ÙĬØ©": 2257,
  "Ø³ÙĬØª": 9360,
  "Ø³ÙĬØªÙĩ": 32308,
  "Ø³ÙĬØªÙĩØ§": 40413,
  "Ø³ÙĬØªÙĬ": 61690,
  "Ø³ÙĬØªÙĬÙĨ": 40894,
  "Ø³ÙĬØ¬": 25790,
  "Ø³ÙĬØ®": 12281,
  "Ø³ÙĬØ¯": 6099,
  "Ø³ÙĬØ¯Ø³": 14467,
  "Ø³ÙĬØ±": 5617,
  "Ø³ÙĬØ±Ø©": 36798,
  "Ø³ÙĬØ±Øª": 45233,
  "Ø³ÙĬØ±ÙĬ": 21485,
  "Ø³ÙĬØ²": 46468,
  "Ø³ÙĬØ³": 2969,
  "Ø³ÙĬØ³Ø©": 48315,
  "Ø³ÙĬØ³ÙĬ": 22958,
  "Ø³ÙĬØ·": 5753,
  "Ø³ÙĬØ·Ø©": 11702,
  "Ø³ÙĬØ·Ø±": 7603,
  "Ø³ÙĬØ¹": 6810,
  "Ø³ÙĬØŃ": 3232,
  "Ø³ÙĬØŃÙĬØ©": 14934,
  "Ø³ÙĬØŃÙĬÙĬÙĨ": 21045,
  "Ø³ÙĬÙģ": 4867,
  "Ø³ÙĬÙģØ±": 20013,
  "Ø³ÙĬÙģØ±Ø§Øª": 7156,
  "Ø³ÙĬÙģØ³Ø§Ø¡": 47405,
  "Ø³ÙĬÙģÙĩ": 45961,
  "Ø³ÙĬÙĤ": 1990,
  "Ø³ÙĬÙĤÙī": 4603,
  "Ø³ÙĬÙĤÙĬ": 12144,
  "Ø³ÙĬÙĤÙĬØ©": 8621,
  "Ø³ÙĬÙĥ": 7371,
  "Ø³ÙĬÙĥØ§": 50588,
  "Ø³ÙĬÙĥÙĬ": 15470,
  "Ø³ÙĬÙĦ": 24320,
  "Ø³ÙĬÙĦØ©": 11529,
  "Ø³ÙĬÙĦØª": 61082,
  "Ø³ÙĬÙĦÙĬØ§": 45522,
  "Ø³ÙĬÙħ": 5338,
  "Ø³ÙĬÙħØ§Øª": 32404,
  "Ø³ÙĬÙĨ": 1659,
  "Ø³ÙĬÙĩ": 12315,
  "Ø³ÙĬÙĩØ§": 41766,
  "Ø³ÙĬÙĪ": 5063,
  "Ø³ÙĬÙĪØ³": 48905,
  "Ø³ÙĬÙĪØ·": 11911,
  "Ø³ÙĬÙĪÙħ": 32993,
  "Ø³ÙĬÙĪÙĨ": 23425,
  "Ø³ÙĬÙĪÙĬ": 13095,
  "Ø³ÙĬÙĪÙĬØ©": 8614,
  "Ø³ÙĬÙĬØ±": 9020,
  "Ø³ÙĬÙĬÙĨ": 22792,
  "Ø´": 313,
  "Ø´Ø¢": 61907,
  "Ø´Ø¢Øª": 18543,
  "Ø´Ø£": 25353,
  "Ø´Ø£Ø©": 57042,
  "Ø´Ø¦Ø©": 42462,
  "Ø´Ø§": 10183,
  "Ø´Ø§Ø¡": 2083,
  "Ø´Ø§Ø¡Ø§Øª": 35793,
  "Ø´Ø§Ø¦Ùĩ": 48492,
  "Ø´Ø§Ø¦ÙĩØ§": 56899,
  "Ø´Ø§Ø¦ÙĬØ©": 30194,
  "Ø´Ø§Ø¨": 5892,
  "Ø´Ø§Øª": 6426,
  "Ø´Ø§Ø¯": 5416,
  "Ø´Ø§Ø¯Ø§Øª": 13713,
  "Ø´Ø§Ø¯ÙĬ": 53535,
  "Ø´Ø§Ø¯ÙĬØ©": 26059,
  "Ø´Ø§Ø±": 1418,
  "Ø´Ø§Ø±Ø§Øª": 4384,
  "Ø´Ø§Ø±Ø©": 3456,
  "Ø´Ø§Ø±Ø¯": 19450,
  "Ø´Ø§Ø±Ùĥ": 15331,
  "Ø´Ø§Ø±ÙĪÙĨ": 23529,
  "Ø´Ø§Ø±Ùī": 25803,
  "Ø´Ø§Ø±ÙĬ": 9865,
  "Ø´Ø§Ø±ÙĬØ©": 49111,
  "Ø´Ø§Ø±ÙĬØ¹": 13705,
  "Ø´Ø§Ø´": 59317,
  "Ø´Ø§Ø´Ø©": 48114,
  "Ø´Ø§Ø·": 3676,
  "Ø´Ø§Ùģ": 3878,
  "Ø´Ø§ÙĤ": 18955,
  "Ø´Ø§Ùĥ": 30698,
  "Ø´Ø§ÙĦ": 14422,
  "Ø´Ø§Ùħ": 33144,
  "Ø´Ø§ÙĨ": 21000,
  "Ø´Ø§Ùĩ": 33697,
  "Ø´Ø¨": 6599,
  "Ø´Ø¨Ø§Ø¹": 62135,
  "Ø´Ø¨Ø§Ùĩ": 43169,
  "Ø´Ø¨Ø«": 44410,
  "Ø´Ø©": 1789,
  "Ø´Øª": 7656,
  "Ø´ØªØ§Øª": 59248,
  "Ø´ØªØ§ÙĬÙĨ": 20709,
  "Ø´ØªØ±Ø§Ùĥ": 19387,
  "Ø´Ø¬Ø§Ø±": 45019,
  "Ø´Ø®Ø§Øµ": 8224,
  "Ø´Ø¯": 2189,
  "Ø´Ø¯Ø¯Ø©": 25055,
  "Ø´Ø¯Ùĩ": 45283,
  "Ø´Ø¯ÙĬÙĨ": 44860,
  "Ø´Ø±": 601,
  "Ø´Ø±Ø§": 39027,
  "Ø´Ø±Ø§Ø¡": 53279,
  "Ø´Ø±Ø§Øª": 2758,
  "Ø´Ø±Ø§Ùģ": 4703,
  "Ø´Ø±Ø§ÙģÙĬØ©": 47033,
  "Ø´Ø±Ø§ÙĤ": 39389,
  "Ø´Ø±Ø§Ùĥ": 17959,
  "Ø´Ø±Ø©": 2048,
  "Ø´Ø±Øª": 10420,
  "Ø´Ø±Ø¯": 37703,
  "Ø´Ø±Ø°Ùħ": 60661,
  "Ø´Ø±Ø¹": 47553,
  "Ø´Ø±ØŃ": 11695,
  "Ø´Ø±Ùģ": 16356,
  "Ø´Ø±ÙĤ": 34882,
  "Ø´Ø±Ùĥ": 63946,
  "Ø´Ø±ÙĥØ©": 23340,
  "Ø´Ø±Ùĩ": 23967,
  "Ø´Ø±ÙĪØ§": 49174,
  "Ø´Ø±ÙĪÙĨ": 9879,
  "Ø´Ø±ÙĬ": 25921,
  "Ø´Ø±ÙĬØ©": 14860,
  "Ø´Ø±ÙĬÙĨ": 2486,
  "Ø´Ø³ØªØ±": 8358,
  "Ø´Ø´": 57337,
  "Ø´Ø·": 23693,
  "Ø´Ø·Ø©": 3578,
  "Ø´Ø¹": 10682,
  "Ø´Ø¹Ø§Ø±": 34549,
  "Ø´Ø¹Ø§ÙĦ": 37623,
  "Ø´Ø¹Ø©": 23066,
  "Ø´Ø¹Ø±": 14223,
  "Ø´ØºØ§ÙĦ": 24681,
  "Ø´ØŃ": 2393,
  "Ø´ØŃØ§Øª": 45714,
  "Ø´ØŃØ©": 55130,
  "Ø´ØŃÙĬ": 60612,
  "Ø´ØŃÙĬÙĨ": 20136,
  "Ø´Ù": 1374,
  "Ø´Ùģ": 1081,
  "Ø´ÙģØ©": 27298,
  "Ø´ÙģØª": 9467,
  "Ø´ÙģÙĪÙĨ": 47708,
  "Ø´ÙģÙī": 2369,
  "Ø´ÙģÙĬ": 17109,
  "Ø´ÙģÙĬØ§Øª": 5519,
  "Ø´ÙģÙĬØ±": 30742,
  "Ø´ÙģÙĬÙħ": 55103,
  "Ø´ÙĤ": 2525,
  "Ø´ÙĤØ§ÙĤ": 29371,
  "Ø´ÙĤÙĤ": 47007,
  "Ø´Ùĥ": 13433,
  "Ø´ÙĥØ§ÙĦ": 27736,
  "Ø´ÙĥÙĦ": 7459,
  "Ø´ÙĦ": 2704,
  "Ø´ÙĦÙĪÙĨ": 41021,
  "Ø´ÙĦÙĪÙĨØ©": 5399,
  "Ø´ÙĦÙĬÙħ": 35176,
  "Ø´Ùħ": 17086,
  "Ø´ÙħØ©": 55830,
  "Ø´ÙħÙĪÙĨ": 42638,
  "Ø´ÙħÙĬØ±": 42978,
  "Ø´ÙĨ": 4055,
  "Ø´ÙĨØ§Øª": 49809,
  "Ø´Ùĩ": 5089,
  "Ø´ÙĩØ§": 57979,
  "Ø´ÙĩØ§Ø¯": 10326,
  "Ø´ÙĩØ§Ø±": 51857,
  "Ø´ÙĩØ¯": 7423,
  "Ø´ÙĩØ±": 22712,
  "Ø´ÙĪ": 6401,
  "Ø´ÙĪØ§": 33802,
  "Ø´ÙĪØ§Ø¦ÙĬØ©": 63158,
  "Ø´ÙĪØ©": 34832,
  "Ø´ÙĪØ±": 18032,
  "Ø´ÙĪØ³ØªØ³": 57331,
  "Ø´ÙĪØ´": 58943,
  "Ø´ÙĪØ´Ø©": 46362,
  "Ø´ÙĪØ·": 29961,
  "Ø´ÙĪÙģ": 18813,
  "Ø´ÙĪÙģØ©": 23453,
  "Ø´ÙĪÙĤ": 55936,
  "Ø´ÙĪÙĨ": 12394,
  "Ø´Ùī": 6670,
  "Ø´ÙĬ": 2047,
  "Ø´ÙĬØ§": 10330,
  "Ø´ÙĬØ§Ø¡": 6134,
  "Ø´ÙĬØ§Øª": 7505,
  "Ø´ÙĬØ§ÙĦ": 36051,
  "Ø´ÙĬØ§ÙĨ": 63195,
  "Ø´ÙĬØ©": 6378,
  "Ø´ÙĬØª": 27098,
  "Ø´ÙĬØ¯": 10857,
  "Ø´ÙĬØ±": 10446,
  "Ø´ÙĬØ±Ø§Øª": 16764,
  "Ø´ÙĬØ±Ø©": 9969,
  "Ø´ÙĬØ±ÙĬ": 53905,
  "Ø´ÙĬØ±ÙĬØª": 56113,
  "Ø´ÙĬØ²": 27112,
  "Ø´ÙĬØ´": 34402,
  "Ø´ÙĬØ·": 17713,
  "Ø´ÙĬØ·Ø©": 62211,
  "Ø´ÙĬØŃ": 5786,
  "Ø´ÙĬÙģ": 2683,
  "Ø´ÙĬÙĨ": 7520,
  "Ø´ÙĬÙĨÙĥÙĪ": 61511,
  "Ø´ÙĬÙĩ": 20919,
  "Øµ": 311,
  "ØµØ§": 15909,
  "ØµØ§Ø¡": 11660,
  "ØµØ§Ø¦ÙĦ": 22636,
  "ØµØ§Ø¦ÙĬ": 24405,
  "ØµØ§Ø¦ÙĬØ©": 29271,
  "ØµØ§Ø¨": 5767,
  "ØµØ§Ø¨Ø§Øª": 8402,
  "ØµØ§Ø¨Ø©": 2890,
  "ØµØ§Ø¨ØªÙĩ": 38461,
  "ØµØ§Ø¨Ùĩ": 51530,
  "ØµØ§Øª": 6498,
  "ØµØ§Ø¯": 12063,
  "ØµØ§Ø±": 1907,
  "ØµØ§Ø±Ø§Øª": 11948,
  "ØµØ§Ø±Ø¹": 50861,
  "ØµØ§Ø±Ø¹Ø©": 45252,
  "ØµØ§Ø±Ùī": 11388,
  "ØµØ§Ø±ÙĬ": 13625,
  "ØµØ§Øµ": 5510,
  "ØµØ§ØŃ": 18684,
  "ØµØ§Ùģ": 12329,
  "ØµØ§ÙĦ": 1598,
  "ØµØ§ÙĦØ§Øª": 2877,
  "ØµØ§ÙĦØŃ": 63693,
  "ØµØ§Ùħ": 55345,
  "ØµØ§ÙĨ": 30748,
  "ØµØ¨": 2859,
  "ØµØ¨Ø§": 51235,
  "ØµØ¨Ø©": 38854,
  "ØµØ¨ØŃ": 3144,
  "ØµØ¨Ùĩ": 59232,
  "ØµØ¨ÙĬÙĨ": 63266,
  "ØµØ©": 1012,
  "ØµØª": 10338,
  "ØµØ¯": 1425,
  "ØµØ¯Ø§Ø±": 4038,
  "ØµØ¯Ø§Ø±Ø§Øª": 13873,
  "ØµØ¯Ø§ÙĤÙĬØ©": 42885,
  "ØµØ¯Ø©": 36785,
  "ØµØ¯Ø±": 5847,
  "ØµØ¯Ø¹": 50924,
  "ØµØ¯ÙĤ": 10369,
  "ØµØ¯ÙĤØ§Ø¡": 8557,
  "ØµØ¯Ùī": 60721,
  "ØµØ±": 591,
  "ØµØ±Ø§Ø±": 11563,
  "ØµØ±Ø§Ùģ": 28424,
  "ØµØ±Ø©": 6749,
  "ØµØ±Øª": 17279,
  "ØµØ±Ø®": 40391,
  "ØµØ±Ùģ": 6742,
  "ØµØ±ÙĨØ§": 58202,
  "ØµØ±Ùĩ": 25966,
  "ØµØ±ÙĩØ§": 39267,
  "ØµØ±ÙĪÙĨ": 31062,
  "ØµØ±ÙĬ": 4855,
  "ØµØ±ÙĬØ©": 1707,
  "ØµØ±ÙĬÙĨ": 23554,
  "ØµØµ": 9424,
  "ØµØ¹Ø©": 39124,
  "ØµØŃ": 4334,
  "ØµØŃØ§Ø¨": 7176,
  "ØµØŃØ§ØŃ": 49556,
  "ØµØŃÙĥ": 34740,
  "ØµØŃÙī": 55490,
  "ØµÙ": 559,
  "ØµÙģ": 941,
  "ØµÙģØ§Øª": 60789,
  "ØµÙģØ©": 16465,
  "ØµÙģØŃ": 5522,
  "ØµÙģØŃØ§Øª": 23854,
  "ØµÙģÙĩ": 25499,
  "ØµÙģÙĪØ±": 26501,
  "ØµÙģÙĬØ©": 16923,
  "ØµÙĤ": 35279,
  "ØµÙĦ": 739,
  "ØµÙĦØ§": 20375,
  "ØµÙĦØ§Øª": 63779,
  "ØµÙĦØ§ØŃ": 3057,
  "ØµÙĦØ©": 6246,
  "ØµÙĦØª": 8141,
  "ØµÙĦØŃ": 56614,
  "ØµÙĦÙĥ": 46895,
  "ØµÙĦÙĩ": 28974,
  "ØµÙĦÙĩØ§": 37278,
  "ØµÙĦÙĪ": 50650,
  "ØµÙĦÙĪØ§": 10476,
  "ØµÙĦÙĪÙĨ": 49508,
  "ØµÙĦÙĬ": 18372,
  "ØµÙĦÙĬØ§Øª": 35163,
  "ØµÙĦÙĬØ©": 10740,
  "ØµÙĦÙĬÙĨ": 36556,
  "ØµÙħ": 5644,
  "ØµÙħØ§Øª": 22110,
  "ØµÙħØ©": 12493,
  "ØµÙħØ¯": 36273,
  "ØµÙħÙĩ": 26263,
  "ØµÙħÙĪÙĨ": 61404,
  "ØµÙħÙĬÙĨ": 58481,
  "ØµÙĨ": 14229,
  "ØµÙĨØ©": 42047,
  "ØµÙĨØ¹": 60565,
  "ØµÙĩ": 20477,
  "ØµÙĪ": 49355,
  "ØµÙĪØ§Øª": 46234,
  "ØµÙĪØ±": 3075,
  "ØµÙĪØ±Ø©": 13913,
  "ØµÙĪØµ": 1866,
  "ØµÙĪØµÙĬØ©": 44544,
  "ØµÙĪÙĦ": 1078,
  "ØµÙĪÙĦÙĩ": 30278,
  "ØµÙĪÙħ": 24365,
  "ØµÙĪÙĨ": 20544,
  "ØµÙī": 3323,
  "ØµÙĬ": 1670,
  "ØµÙĬØ§": 51554,
  "ØµÙĬØ§Øª": 2775,
  "ØµÙĬØ§Ø¹": 45777,
  "ØµÙĬØ§Ùħ": 55171,
  "ØµÙĬØ§ÙĨ": 17561,
  "ØµÙĬØ§ÙĨØ©": 43612,
  "ØµÙĬØ¨": 2863,
  "ØµÙĬØ¨Ø©": 15120,
  "ØµÙĬØ©": 8158,
  "ØµÙĬØ¯": 4866,
  "ØµÙĬØ±": 9369,
  "ØµÙĬØ±ÙĬ": 32073,
  "ØµÙĬØµ": 5271,
  "ØµÙĬØµØ§": 16780,
  "ØµÙĬØŃ": 7722,
  "ØµÙĬØŃØ©": 13009,
  "ØµÙĬÙģ": 10156,
  "ØµÙĬÙĦ": 4540,
  "ØµÙĬÙĦØ§": 24140,
  "ØµÙĬÙĦØ§Øª": 40995,
  "ØµÙĬÙĦØ©": 7430,
  "ØµÙĬÙĦÙĬ": 36462,
  "ØµÙĬÙĦÙĬØ©": 25393,
  "ØµÙĬÙĨ": 12826,
  "ØµÙĬÙĩ": 32241,
  "ØµÙĬÙĪÙĨ": 25622,
  "Ø¶": 314,
  "Ø¶Ø§": 1077,
  "Ø¶Ø§Ø¡": 1341,
  "Ø¶Ø§Ø¡Ø§Øª": 39707,
  "Ø¶Ø§Ø¡Ø©": 10848,
  "Ø¶Ø§Ø¡Ù": 59652,
  "Ø¶Ø§Ø¡ÙĦ": 59696,
  "Ø¶Ø§Ø¦Ø¹": 11550,
  "Ø¶Ø§Ø¨": 49463,
  "Ø¶Ø§Ø©": 26989,
  "Ø¶Ø§Øª": 26945,
  "Ø¶Ø§Ø±": 9651,
  "Ø¶Ø§Ø±Ø©": 31589,
  "Ø¶Ø§Ø¹": 5507,
  "Ø¶Ø§Ø¹Ø©": 25120,
  "Ø¶Ø§Ø¹Ùģ": 23265,
  "Ø¶Ø§Ø¹ÙģØ©": 47378,
  "Ø¶Ø§ØŃ": 46916,
  "Ø¶Ø§Ùģ": 1400,
  "Ø¶Ø§ÙģØ§Øª": 40377,
  "Ø¶Ø§ÙģØ©": 1340,
  "Ø¶Ø§ÙģØªÙĩØ§": 47911,
  "Ø¶Ø§ÙģØ±": 44974,
  "Ø¶Ø§ÙģÙĩ": 46592,
  "Ø¶Ø§ÙĦ": 28320,
  "Ø¶Ø§ÙħÙĨ": 12823,
  "Ø¶Ø§ÙħÙĨÙĬÙĨ": 58180,
  "Ø¶Ø§ÙĨ": 2245,
  "Ø¶Ø§Ùĩ": 30750,
  "Ø¶Ø§ÙĩØ§": 21093,
  "Ø¶Ø§ÙĬØ§": 7583,
  "Ø¶Ø¨": 4196,
  "Ø¶Ø¨Ø§Ø·": 16462,
  "Ø¶Ø¨Ø©": 23186,
  "Ø¶Ø¨Ø·": 39366,
  "Ø¶Ø¨Ø·Ø©": 60460,
  "Ø¶Ø¨ÙĪØ·": 39213,
  "Ø¶Ø©": 1327,
  "Ø¶Øª": 11974,
  "Ø¶Ø¬": 26398,
  "Ø¶Ø®Ùħ": 43018,
  "Ø¶Ø¯": 54625,
  "Ø¶Ø±": 1334,
  "Ø¶Ø±Ø§Ø¨": 10610,
  "Ø¶Ø±Ø§Ø¨Ø§Øª": 49962,
  "Ø¶Ø±Ø§Øª": 15497,
  "Ø¶Ø±Ø§Ø±": 16109,
  "Ø¶Ø±Ø¨": 30832,
  "Ø¶Ø±Ø©": 27499,
  "Ø¶Ø±Ø±": 27315,
  "Ø¶Ø±Ø±ÙĬÙĨ": 47797,
  "Ø¶Ø±Ø¹": 54564,
  "Ø¶Ø±ÙĪØ§": 51242,
  "Ø¶Ø±ÙĪØ±Ø©": 6438,
  "Ø¶Ø·Ø±": 28665,
  "Ø¶Ø¹": 859,
  "Ø¶Ø¹Ø§Ùģ": 21388,
  "Ø¶Ø¹Ø©": 44218,
  "Ø¶Ø¹Ùģ": 32104,
  "Ø¶Ø¹ÙģÙĬÙĨ": 41911,
  "Ø¶ØŃ": 1859,
  "Ø¶ØŃØª": 30923,
  "Ø¶ØŃÙĥ": 16523,
  "Ø¶ØŃÙĥØ©": 18379,
  "Ø¶ØŃÙī": 12637,
  "Ø¶ØŃÙĬØ©": 13890,
  "Ø¶ØŃÙĬÙĨ": 60647,
  "Ø¶Ù": 603,
  "Ø¶ÙģØ§Ø¡": 42521,
  "Ø¶ÙĦ": 926,
  "Ø¶ÙĦØ§Øª": 34666,
  "Ø¶ÙĦØ©": 32439,
  "Ø¶ÙĦÙĦØ©": 43035,
  "Ø¶ÙĦÙĪØ§": 28526,
  "Ø¶Ùħ": 2000,
  "Ø¶ÙħØ§Ø±": 24562,
  "Ø¶ÙħØ§Ùħ": 5564,
  "Ø¶ÙħØ§ÙĨ": 11348,
  "Ø¶ÙħØ©": 53485,
  "Ø¶ÙħÙĨ": 2202,
  "Ø¶ÙħÙĨØ©": 17973,
  "Ø¶ÙħÙĩ": 43702,
  "Ø¶ÙħÙĪÙĨ": 9616,
  "Ø¶ÙħÙĬØ©": 46074,
  "Ø¶ÙħÙĬÙĨ": 20978,
  "Ø¶ÙĨ": 13508,
  "Ø¶ÙĨÙĩ": 60484,
  "Ø¶ÙĨÙĩØ§": 51664,
  "Ø¶Ùĩ": 25721,
  "Ø¶ÙĪ": 1708,
  "Ø¶ÙĪØ¡": 19572,
  "Ø¶ÙĪØ§": 19999,
  "Ø¶ÙĪØ§Ø¡": 57546,
  "Ø¶ÙĪØ®": 46238,
  "Ø¶ÙĪØ±": 2038,
  "Ø¶ÙĪØ¹": 1214,
  "Ø¶ÙĪÙĨ": 19948,
  "Ø¶ÙĪÙĬ": 45489,
  "Ø¶ÙĪÙĬØ©": 14760,
  "Ø¶Ùī": 3607,
  "Ø¶ÙĬ": 1488,
  "Ø¶ÙĬØ¡": 29334,
  "Ø¶ÙĬØ§": 32267,
  "Ø¶ÙĬØ§Øª": 9253,
  "Ø¶ÙĬØ¨": 20500,
  "Ø¶ÙĬØ©": 5908,
  "Ø¶ÙĬØ±": 3990,
  "Ø¶ÙĬØ±Ø§Øª": 18712,
  "Ø¶ÙĬØ±ÙĬ": 32710,
  "Ø¶ÙĬØ¶": 56219,
  "Ø¶ÙĬØ¹": 32551,
  "Ø¶ÙĬØŃ": 5769,
  "Ø¶ÙĬØŃØ©": 13474,
  "Ø¶ÙĬØŃÙĬ": 61516,
  "Ø¶ÙĬÙģ": 2422,
  "Ø¶ÙĬÙģØ©": 12658,
  "Ø¶ÙĬÙģÙĩ": 37425,
  "Ø¶ÙĬÙģÙĬ": 32823,
  "Ø¶ÙĬÙĤ": 9898,
  "Ø¶ÙĬÙĦØ§Øª": 14803,
  "Ø¶ÙĬÙĦØ©": 8509,
  "Ø¶ÙĬÙĨ": 19992,
  "Ø¶ÙĬÙĩ": 14022,
  "Ø·": 309,
  "Ø·Ø£": 10399,
  "Ø·Ø¦": 15202,
  "Ø·Ø§": 6409,
  "Ø·Ø§Ø¡": 2264,
  "Ø·Ø§Ø¦Ùĩ": 41837,
  "Ø·Ø§Ø¦ÙĩØ§": 47751,
  "Ø·Ø§Ø¦ÙĩÙħ": 42796,
  "Ø·Ø§Ø¨": 10753,
  "Ø·Ø§Ø¨Ø®": 53800,
  "Ø·Ø§Ø©": 35626,
  "Ø·Ø§Øª": 3189,
  "Ø·Ø§Ø±": 1673,
  "Ø·Ø§Ø±Ø§Øª": 22013,
  "Ø·Ø§Ø³": 31393,
  "Ø·Ø§Ø¹": 1124,
  "Ø·Ø§Ø¹Ø©": 31973,
  "Ø·Ø§Ø¹Ù": 9254,
  "Ø·Ø§Ø¹Ùħ": 9707,
  "Ø·Ø§Ø¹ÙĬ": 60415,
  "Ø·Ø§ØŃØ©": 42542,
  "Ø·Ø§Ùģ": 11463,
  "Ø·Ø§ÙĤ": 11511,
  "Ø·Ø§ÙĤØ§Øª": 26277,
  "Ø·Ø§ÙĦ": 4140,
  "Ø·Ø§ÙĦØ¨": 14272,
  "Ø·Ø§ÙĦØ©": 48101,
  "Ø·Ø§Ùħ": 38597,
  "Ø·Ø§ÙĨ": 3555,
  "Ø·Ø§ÙĨØ§Øª": 51784,
  "Ø·Ø§ÙĨÙĬ": 26230,
  "Ø·Ø§ÙĨÙĬØ©": 15455,
  "Ø·Ø¨": 2803,
  "Ø·Ø¨Ø§Ø¡": 17836,
  "Ø·Ø¨Ø§Øª": 54825,
  "Ø·Ø¨Ø§Ø¹": 32978,
  "Ø·Ø¨Ø§Ø¹Ø§Øª": 61095,
  "Ø·Ø¨Ø§ÙĤ": 8396,
  "Ø·Ø¨Ø©": 12927,
  "Ø·Ø¨Ø®": 34366,
  "Ø·Ø¨ÙĤ": 8683,
  "Ø·Ø¨ÙĪØ·": 59651,
  "Ø·Ø¨ÙĬÙĤ": 7546,
  "Ø·Ø©": 712,
  "Ø·Øª": 10026,
  "Ø·ØªÙĩ": 30285,
  "Ø·ØªÙĩØ§": 17313,
  "Ø·Ø¯Ùħ": 24249,
  "Ø·Ø±": 796,
  "Ø·Ø±Ø£": 21033,
  "Ø·Ø±Ø§Ø¨": 17548,
  "Ø·Ø±Ø§Ø¨Ø§Øª": 12750,
  "Ø·Ø±Ø§Øª": 50118,
  "Ø·Ø±Ø§Ùģ": 4046,
  "Ø·Ø±Ø§ÙĨ": 37669,
  "Ø·Ø±Ø¨": 28516,
  "Ø·Ø±Ø©": 4913,
  "Ø·Ø±Øª": 20063,
  "Ø·Ø±Ø¯": 12494,
  "Ø·Ø±Ø³Ø©": 45923,
  "Ø·Ø±ØŃ": 4423,
  "Ø·Ø±ÙĤ": 15174,
  "Ø·Ø±ÙĤØª": 32541,
  "Ø·Ø±ÙĨØ¬": 54150,
  "Ø·Ø±Ùĩ": 39842,
  "Ø·Ø±ÙĪØ§": 30737,
  "Ø·Ø±ÙĪÙĨ": 35933,
  "Ø·Ø±ÙĬ": 56178,
  "Ø·Ø±ÙĬØ©": 6024,
  "Ø·Ø³": 38046,
  "Ø·Ø´": 28944,
  "Ø·Ø·": 3962,
  "Ø·Ø·Ø§Øª": 10884,
  "Ø·Ø¹": 1805,
  "Ø·Ø¹Ø§Ùħ": 33362,
  "Ø·Ø¹Ø©": 26070,
  "Ø·Ø¹Øª": 20229,
  "Ø·Ø¹ÙħØ©": 42554,
  "Ø·Ø¹ÙĬÙħ": 36048,
  "Ø·ØºØ±ÙĦ": 31238,
  "Ø·ØŃ": 4012,
  "Ø·Ù": 1693,
  "Ø·Ùģ": 2135,
  "Ø·ÙģØ¦": 50580,
  "Ø·ÙģØ§": 55981,
  "Ø·ÙģØ§Ø¡": 15662,
  "Ø·ÙģØ§Øª": 25355,
  "Ø·ÙģØ§Ùģ": 41190,
  "Ø·ÙģØ§ÙĦ": 1937,
  "Ø·ÙģØ§ÙĨ": 54122,
  "Ø·ÙģØ©": 55137,
  "Ø·ÙģÙī": 3611,
  "Ø·ÙģÙĬ": 15576,
  "Ø·ÙģÙĬÙĨ": 38536,
  "Ø·ÙĤ": 4789,
  "Ø·ÙĤØ©": 913,
  "Ø·ÙĤÙĩ": 63591,
  "Ø·ÙĦ": 4920,
  "Ø·ÙĦØ§Ø¹": 5182,
  "Ø·ÙĦØ§Ø¹Ø§Øª": 53458,
  "Ø·ÙĦØ§ÙĤ": 1899,
  "Ø·ÙĦØ§ÙĤØ§": 28769,
  "Ø·ÙĦØ§ÙĤØ©": 26936,
  "Ø·ÙĦØ¨": 2685,
  "Ø·ÙĦØ¨Ø§Øª": 6770,
  "Ø·ÙĦØ©": 24063,
  "Ø·ÙĦØª": 46529,
  "Ø·ÙĦØ¹": 6127,
  "Ø·ÙĦØ¹Ø§Øª": 46030,
  "Ø·ÙĦØ¹Øª": 53352,
  "Ø·ÙĦØŃ": 6277,
  "Ø·ÙĦØŃØ§Øª": 35405,
  "Ø·ÙĦÙĤ": 2072,
  "Ø·ÙĦÙĤØ§Øª": 61519,
  "Ø·ÙĦÙĤØª": 56752,
  "Ø·ÙĦÙĪØ¨": 44209,
  "Ø·ÙĦÙĪÙĨ": 27242,
  "Ø·ÙĦÙĬÙĨ": 55050,
  "Ø·Ùħ": 7605,
  "Ø·ÙħØ¦": 27401,
  "Ø·ÙħØ¦ÙĨ": 36123,
  "Ø·ÙħØ§Ø¹": 42786,
  "Ø·ÙħØª": 30156,
  "Ø·ÙĨ": 2255,
  "Ø·ÙĨØ¨ÙĪÙĦ": 10228,
  "Ø·ÙĨØ©": 32666,
  "Ø·ÙĨØ¹": 63227,
  "Ø·ÙĨØ¹Ø©": 53690,
  "Ø·Ùĩ": 6563,
  "Ø·ÙĩØ§": 33368,
  "Ø·ÙĩØ§Ø¯": 17831,
  "Ø·ÙĪ": 9021,
  "Ø·ÙĪØ§": 46119,
  "Ø·ÙĪØ§ÙĨ": 7383,
  "Ø·ÙĪØ§ÙĨØ§Øª": 14967,
  "Ø·ÙĪØ§ÙĨØ©": 17641,
  "Ø·ÙĪØ¨Ø©": 14275,
  "Ø·ÙĪØ©": 40288,
  "Ø·ÙĪØ±": 3730,
  "Ø·ÙĪØ±Ø©": 5883,
  "Ø·ÙĪØ±ÙĬ": 30084,
  "Ø·ÙĪØ±ÙĬØ©": 39231,
  "Ø·ÙĪØ³": 25542,
  "Ø·ÙĪØ´": 37418,
  "Ø·ÙĪØ·": 7841,
  "Ø·ÙĪØ·Ø§Øª": 13491,
  "Ø·ÙĪØ·Ø©": 23490,
  "Ø·ÙĪÙĦ": 9975,
  "Ø·ÙĪÙĦØ©": 8222,
  "Ø·ÙĪÙħ": 7585,
  "Ø·ÙĪÙĨ": 8551,
  "Ø·ÙĪÙĨÙĬÙĪ": 22689,
  "Ø·ÙĪÙĬ": 15038,
  "Ø·ÙĪÙĬØ±": 3051,
  "Ø·Ùī": 5040,
  "Ø·ÙĬ": 2406,
  "Ø·ÙĬØ¡": 44587,
  "Ø·ÙĬØ§Øª": 9044,
  "Ø·ÙĬØ§Ø¯": 40673,
  "Ø·ÙĬØ§Ùģ": 21100,
  "Ø·ÙĬØ¨": 5323,
  "Ø·ÙĬØ©": 11637,
  "Ø·ÙĬØ±": 18056,
  "Ø·ÙĬØ·": 4256,
  "Ø·ÙĬØ¹": 1849,
  "Ø·ÙĬØ¹Ø©": 26348,
  "Ø·ÙĬØ¹ÙĪØ§": 52433,
  "Ø·ÙĬÙģ": 12271,
  "Ø·ÙĬÙĥ": 30986,
  "Ø·ÙĬÙĦ": 8529,
  "Ø·ÙĬÙħ": 18545,
  "Ø·ÙĬÙĨ": 6543,
  "Ø·ÙĬÙĩ": 29253,
  "Ø·ÙĬÙĩØ§": 29689,
  "Ø·ÙĬÙĬÙĨ": 37731,
  "Ø¸": 377,
  "Ø¸Ø§": 32873,
  "Ø¸Ø§Ø¦Ùģ": 2534,
  "Ø¸Ø§Øª": 8257,
  "Ø¸Ø§Ø±": 3719,
  "Ø¸Ø§Ø±Ø§Øª": 32060,
  "Ø¸Ø§Ø¸": 49708,
  "Ø¸Ø§ÙģØ©": 22253,
  "Ø¸Ø§ÙģØ±": 21316,
  "Ø¸Ø§Ùħ": 1000,
  "Ø¸Ø§Ùĩ": 4285,
  "Ø¸Ø§ÙĩØ±": 6402,
  "Ø¸Ø§ÙĩØ±Ø§Øª": 6800,
  "Ø¸Ø§ÙĩØ±Ø©": 11665,
  "Ø¸Ø§ÙĩØ±ÙĪÙĨ": 15965,
  "Ø¸Ø§ÙĩØ±ÙĬÙĨ": 8325,
  "Ø¸Ø§ÙĬØ§": 44301,
  "Ø¸Ø¨Ùī": 53366,
  "Ø¸Ø¨ÙĬ": 4600,
  "Ø¸Ø©": 2359,
  "Ø¸Øª": 54288,
  "Ø¸Ø±": 756,
  "Ø¸Ø±Ø©": 17072,
  "Ø¸Ø±Ùĥ": 60798,
  "Ø¸Ø±ÙĪØ§": 19502,
  "Ø¸Ø±ÙĬ": 37016,
  "Ø¸Ù": 1084,
  "Ø¸Ùģ": 12016,
  "Ø¸ÙģØ§Øª": 49470,
  "Ø¸ÙģÙĬ": 22241,
  "Ø¸ÙģÙĬÙĨ": 16037,
  "Ø¸ÙĦ": 4677,
  "Ø¸ÙĦØ§Øª": 28204,
  "Ø¸ÙĦØ©": 43775,
  "Ø¸ÙĦÙħ": 50754,
  "Ø¸ÙĦÙĪÙħ": 17406,
  "Ø¸Ùħ": 1252,
  "Ø¸ÙħØ§Øª": 4065,
  "Ø¸ÙħØ©": 1525,
  "Ø¸ÙħØªÙĩØ§": 47199,
  "Ø¸ÙħÙĩ": 20711,
  "Ø¸ÙĨ": 8631,
  "Ø¸Ùĩ": 18096,
  "Ø¸ÙĩØ§Ø±": 9004,
  "Ø¸ÙĩØ±": 1754,
  "Ø¸ÙĩØ±Øª": 13252,
  "Ø¸ÙĩØ±ÙĪØ§": 56505,
  "Ø¸ÙĪØ±": 57200,
  "Ø¸ÙĪÙħØ©": 23871,
  "Ø¸Ùī": 6305,
  "Ø¸ÙĬ": 7622,
  "Ø¸ÙĬØ©": 55429,
  "Ø¸ÙĬÙģ": 1269,
  "Ø¸ÙĬÙģØ©": 3751,
  "Ø¸ÙĬÙģÙĬ": 14451,
  "Ø¸ÙĬÙģÙĬØ©": 13402,
  "Ø¸ÙĬÙħ": 1385,
  "Ø¸ÙĬÙħØ§": 62234,
  "Ø¹": 276,
  "Ø¹Ø§": 903,
  "Ø¹Ø§Ø¡": 5595,
  "Ø¹Ø§Ø¡Ø§Øª": 19228,
  "Ø¹Ø§Ø¦ÙĦÙĬØ©": 58782,
  "Ø¹Ø§Ø¨": 21664,
  "Ø¹Ø§Ø©": 18852,
  "Ø¹Ø§Øª": 1571,
  "Ø¹Ø§ØªØ§": 52882,
  "Ø¹Ø§ØªÙĩØ§": 61341,
  "Ø¹Ø§Ø¬": 27652,
  "Ø¹Ø§Ø¬ÙĦØ©": 44607,
  "Ø¹Ø§Ø¯": 3370,
  "Ø¹Ø§Ø¯Ø©": 2729,
  "Ø¹Ø§Ø¯ØªÙĩ": 27420,
  "Ø¹Ø§Ø¯ØªÙĩØ§": 25431,
  "Ø¹Ø§Ø¯ØªÙĩÙħ": 59153,
  "Ø¹Ø§Ø¯Ùĩ": 62227,
  "Ø¹Ø§Ø±": 1253,
  "Ø¹Ø§Ø±Ø§Øª": 28053,
  "Ø¹Ø§Ø±Ø¶": 10636,
  "Ø¹Ø§Ø±Ø¶Ø©": 16911,
  "Ø¹Ø§Ø±Ùģ": 10526,
  "Ø¹Ø§Ø´": 15290,
  "Ø¹Ø§Ø¶": 49398,
  "Ø¹Ø§Ùģ": 8642,
  "Ø¹Ø§ÙģØ§Øª": 28340,
  "Ø¹Ø§ÙģÙĬØ©": 56954,
  "Ø¹Ø§ÙĦ": 17214,
  "Ø¹Ø§ÙĦÙħ": 29472,
  "Ø¹Ø§ÙĦÙī": 7981,
  "Ø¹Ø§ÙĦÙĬØ§Øª": 15487,
  "Ø¹Ø§Ùħ": 2996,
  "Ø¹Ø§ÙħØ§Øª": 50348,
  "Ø¹Ø§ÙħÙĦ": 15833,
  "Ø¹Ø§ÙħÙĦØ§Øª": 39770,
  "Ø¹Ø§ÙħÙĦÙĬÙĨ": 46565,
  "Ø¹Ø§ÙĨ": 7289,
  "Ø¹Ø§ÙĨØ©": 21704,
  "Ø¹Ø§Ùĩ": 30431,
  "Ø¹Ø§ÙĩØ§": 31652,
  "Ø¹Ø§ÙĪØ¯": 60967,
  "Ø¹Ø§ÙĪÙĨ": 2892,
  "Ø¹Ø§ÙĪÙĨØ©": 52160,
  "Ø¹Ø§ÙĪÙī": 27237,
  "Ø¹Ø§ÙĪÙĬ": 37348,
  "Ø¹Ø§ÙĬØ©": 2326,
  "Ø¹Ø¨": 862,
  "Ø¹Ø¨Ø¦Ø©": 20883,
  "Ø¹Ø¨Ø§Ø¡": 15960,
  "Ø¹Ø¨Ø§Ø¯": 48519,
  "Ø¹Ø¨Ø§Ø±Ø©": 56534,
  "Ø¹Ø¨Ø§ÙĨ": 32369,
  "Ø¹Ø¨Ø©": 4271,
  "Ø¹Ø¨Ø¯": 17857,
  "Ø¹Ø¨ÙĬ": 24034,
  "Ø¹Ø¨ÙĬØ±": 9786,
  "Ø¹Ø©": 476,
  "Ø¹Øª": 1713,
  "Ø¹ØªØ§Ø¯": 51595,
  "Ø¹ØªØ§ÙĨ": 51444,
  "Ø¹ØªØ±ÙĬ": 61339,
  "Ø¹ØªÙĤØ¯": 9486,
  "Ø¹ØªÙĨØ§": 32758,
  "Ø¹ØªÙĩ": 31341,
  "Ø¹ØªÙĩØ§": 26597,
  "Ø¹ØªÙĩÙħ": 30354,
  "Ø¹ØªÙĪÙĨ": 53239,
  "Ø¹ØªÙĬÙĨ": 21770,
  "Ø¹Ø«": 8743,
  "Ø¹Ø«Ø§Øª": 52561,
  "Ø¹Ø«Ø©": 36094,
  "Ø¹Ø¬": 15855,
  "Ø¹Ø¯": 454,
  "Ø¹Ø¯Ø§": 40292,
  "Ø¹Ø¯Ø§Ø¡": 13297,
  "Ø¹Ø¯Ø§Øª": 14199,
  "Ø¹Ø¯Ø§Ø¯": 1960,
  "Ø¹Ø¯Ø§Ø¯Ø§Øª": 8242,
  "Ø¹Ø¯Ø§Ø¯ÙĬØ©": 55718,
  "Ø¹Ø¯Ø§Ùħ": 6363,
  "Ø¹Ø¯Ø©": 6893,
  "Ø¹Ø¯Øª": 13266,
  "Ø¹Ø¯Ø¯": 8218,
  "Ø¹Ø¯Ø¯Ø©": 4070,
  "Ø¹Ø¯Ø¯ÙĬØ©": 44638,
  "Ø¹Ø¯Ùħ": 49553,
  "Ø¹Ø¯ÙĨØ§": 36464,
  "Ø¹Ø¯Ùĩ": 29120,
  "Ø¹Ø¯ÙĩØ§": 40376,
  "Ø¹Ø¯ÙĪØ§": 27836,
  "Ø¹Ø¯ÙĪÙĨ": 36444,
  "Ø¹Ø¯ÙĬ": 32644,
  "Ø¹Ø¯ÙĬÙĨ": 27656,
  "Ø¹Ø±": 860,
  "Ø¹Ø±Ø§Ø¡": 27064,
  "Ø¹Ø±Ø§Ø¨": 29617,
  "Ø¹Ø±Ø§Øª": 25170,
  "Ø¹Ø±Ø§Ø¶": 4127,
  "Ø¹Ø±Ø§Ø¶ÙĬØ©": 39524,
  "Ø¹Ø±Ø§Ùģ": 22790,
  "Ø¹Ø±Ø©": 18675,
  "Ø¹Ø±Ø¬": 54769,
  "Ø¹Ø±Ø¶": 4343,
  "Ø¹Ø±Ø¹": 50598,
  "Ø¹Ø±Ùģ": 9386,
  "Ø¹Ø±ÙĬ": 27694,
  "Ø¹Ø²": 40580,
  "Ø¹Ø´": 25490,
  "Ø¹Ø¶": 666,
  "Ø¹Ø¶Ø§Ø¡": 1641,
  "Ø¹Ø¸Ø©": 48690,
  "Ø¹Ù": 427,
  "Ø¹Ùģ": 1626,
  "Ø¹ÙģØ§Ø¡": 33420,
  "Ø¹ÙģØ±ÙĬ": 19580,
  "Ø¹ÙĤ": 33068,
  "Ø¹ÙĤØ§Ø¯": 25201,
  "Ø¹ÙĤØ¯": 14732,
  "Ø¹Ùĥ": 21134,
  "Ø¹ÙĥØ§Ø³": 25527,
  "Ø¹ÙĥØ§Ø³Ø§Øª": 54120,
  "Ø¹ÙĥØ©": 48667,
  "Ø¹ÙĥØ³": 11661,
  "Ø¹ÙĦ": 788,
  "Ø¹ÙĦØ§Ùħ": 5408,
  "Ø¹ÙĦØ§ÙĨ": 6549,
  "Ø¹ÙĦØ©": 42015,
  "Ø¹ÙĦØª": 40147,
  "Ø¹ÙĦÙĤ": 16403,
  "Ø¹ÙĦÙĥ": 14833,
  "Ø¹ÙĦÙħ": 8733,
  "Ø¹ÙĦÙĨ": 2040,
  "Ø¹ÙĦÙĨØ§": 49181,
  "Ø¹ÙĦÙĨØª": 3238,
  "Ø¹ÙĦÙĩ": 6954,
  "Ø¹ÙĦÙĩØ§": 8596,
  "Ø¹ÙĦÙĩÙħ": 24863,
  "Ø¹ÙĦÙĪ": 24017,
  "Ø¹ÙĦÙĪØ§": 11767,
  "Ø¹ÙĦÙĪÙħ": 38424,
  "Ø¹ÙĦÙĪÙħØ§Øª": 9577,
  "Ø¹ÙĦÙĪÙĩ": 36368,
  "Ø¹ÙĦÙĪÙĩØ§": 60878,
  "Ø¹ÙĦÙī": 10306,
  "Ø¹ÙĦÙĬ": 26720,
  "Ø¹ÙĦÙĬÙħ": 43293,
  "Ø¹Ùħ": 656,
  "Ø¹ÙħØ¦Ø©": 61338,
  "Ø¹ÙħØ§": 62404,
  "Ø¹ÙħØ§Ø¡": 20337,
  "Ø¹ÙħØ§Ø¦Ø©": 23361,
  "Ø¹ÙħØ§Ø±": 4787,
  "Ø¹ÙħØ§ÙĦ": 1284,
  "Ø¹ÙħØ©": 4628,
  "Ø¹ÙħØª": 14151,
  "Ø¹ÙħØªÙĩ": 39538,
  "Ø¹ÙħØ¯": 7621,
  "Ø¹ÙħØ¯Ø©": 15303,
  "Ø¹ÙħØ±": 5841,
  "Ø¹ÙħØ´": 51618,
  "Ø¹ÙħÙĤ": 10459,
  "Ø¹ÙħÙĦ": 4011,
  "Ø¹ÙħÙĦØ©": 11523,
  "Ø¹ÙħÙĦÙĩ": 31636,
  "Ø¹ÙħÙĦÙĩØ§": 36495,
  "Ø¹ÙħÙĦÙĬ": 42996,
  "Ø¹ÙħÙĩ": 22576,
  "Ø¹ÙħÙĩØ§": 36473,
  "Ø¹ÙħÙĪÙĨ": 61000,
  "Ø¹ÙħÙĬØ±": 17399,
  "Ø¹ÙĨ": 6640,
  "Ø¹ÙĨØ§": 46676,
  "Ø¹Ùĩ": 3525,
  "Ø¹ÙĩØ§": 9099,
  "Ø¹ÙĩÙħ": 46388,
  "Ø¹ÙĪ": 1967,
  "Ø¹ÙĪØ§": 8867,
  "Ø¹ÙĪØ§Ùħ": 14066,
  "Ø¹ÙĪØ¨": 18367,
  "Ø¹ÙĪØ¨Ø§Øª": 8187,
  "Ø¹ÙĪØ¨Ø©": 6034,
  "Ø¹ÙĪØ©": 6576,
  "Ø¹ÙĪØªÙĩ": 17777,
  "Ø¹ÙĪØ¯": 3718,
  "Ø¹ÙĪØ¯Ø©": 51751,
  "Ø¹ÙĪØ¯ÙĬ": 17919,
  "Ø¹ÙĪØ¯ÙĬØ©": 8054,
  "Ø¹ÙĪØ¯ÙĬÙĬÙĨ": 48940,
  "Ø¹ÙĪØ°": 21896,
  "Ø¹ÙĪØ°Ø©": 40926,
  "Ø¹ÙĪØ±": 20484,
  "Ø¹ÙĪÙĥ": 8259,
  "Ø¹ÙĪÙĨ": 4164,
  "Ø¹ÙĪÙĩ": 49185,
  "Ø¹ÙĪÙĩØ§": 48138,
  "Ø¹Ùī": 1833,
  "Ø¹ÙĬ": 1161,
  "Ø¹ÙĬØ§": 6890,
  "Ø¹ÙĬØ§Ø¡": 32071,
  "Ø¹ÙĬØ§Øª": 14064,
  "Ø¹ÙĬØ§Ø¯": 13409,
  "Ø¹ÙĬØ§ÙĨ": 18400,
  "Ø¹ÙĬØ¨": 15469,
  "Ø¹ÙĬØ©": 1691,
  "Ø¹ÙĬØª": 16005,
  "Ø¹ÙĬØªØ±": 54562,
  "Ø¹ÙĬØªÙĩ": 20995,
  "Ø¹ÙĬØªÙĩØ§": 24901,
  "Ø¹ÙĬØªÙĩÙħ": 43391,
  "Ø¹ÙĬØ¬": 43637,
  "Ø¹ÙĬØ¯": 1166,
  "Ø¹ÙĬØ¯Ùī": 58861,
  "Ø¹ÙĬØ¯ÙĬ": 25179,
  "Ø¹ÙĬØ±": 46729,
  "Ø¹ÙĬØ³": 54585,
  "Ø¹ÙĬØ´": 4871,
  "Ø¹ÙĬØ¹": 63270,
  "Ø¹ÙĬÙģ": 37406,
  "Ø¹ÙĬÙģØ©": 51252,
  "Ø¹ÙĬÙĤ": 35462,
  "Ø¹ÙĬÙħ": 3930,
  "Ø¹ÙĬÙĨ": 3807,
  "Ø¹ÙĬÙĩ": 8896,
  "Ø¹ÙĬÙĩØ§": 19779,
  "Ø¹ÙĬÙĪÙĨ": 16130,
  "Ø¹ÙĬÙĬÙĨ": 5927,
  "Øº": 381,
  "ØºØ§": 6548,
  "ØºØ§Ø¡": 20702,
  "ØºØ§Ø©": 31034,
  "ØºØ§Øª": 32548,
  "ØºØ§Ø«Ø©": 24801,
  "ØºØ§Ø±": 6964,
  "ØºØ§Ø±Øª": 45705,
  "ØºØ§Ùģ": 7657,
  "ØºØ§ÙģÙĪØ±Ø©": 29457,
  "ØºØ§ÙĦ": 3965,
  "ØºØ§ÙĦØ§Øª": 25695,
  "ØºØ§ÙĦÙĩ": 37460,
  "ØºØ§ÙĦÙĩØ§": 55963,
  "ØºØ§ÙĦÙī": 53229,
  "ØºØ§ÙĦÙĬ": 9588,
  "ØºØ§ÙĦÙĬØ©": 20317,
  "ØºØ§Ùħ": 17143,
  "ØºØ§ÙħØ±Ø©": 53391,
  "ØºØ§ÙĨ": 3472,
  "ØºØ§ÙĨØ³ØªØ§ÙĨ": 6490,
  "ØºØ§ÙĨÙĬ": 11894,
  "ØºØ§ÙĨÙĬØ©": 18540,
  "ØºØ§ÙĪØ§Øª": 25031,
  "ØºØ¨": 2891,
  "ØºØ¨Ø§Øª": 21343,
  "ØºØ¨Ø©": 6978,
  "ØºØ¨ØªÙĩ": 62537,
  "ØºØ¨ÙĬ": 40525,
  "ØºØ©": 5781,
  "ØºØª": 19991,
  "ØºØ¯": 10957,
  "ØºØ¯Ø§Ø¯": 22079,
  "ØºØ¯ÙĪØ±": 27829,
  "ØºØ°ÙĬØ©": 16172,
  "ØºØ±": 1560,
  "ØºØ±Ø§Ø¨": 32142,
  "ØºØ±Ø§Øª": 20008,
  "ØºØ±Ø§Ø¯": 58804,
  "ØºØ±Ø§Ø¶": 8315,
  "ØºØ±Ø§Ùģ": 38639,
  "ØºØ±Ø§ÙģÙĬ": 26391,
  "ØºØ±Ø§ÙģÙĬØ§": 11003,
  "ØºØ±Ø§ÙģÙĬØ©": 17049,
  "ØºØ±Ø§ÙĤ": 29936,
  "ØºØ±Ø§Ùħ": 15272,
  "ØºØ±Ø¨": 5389,
  "ØºØ±Ø¨ÙĬØ©": 56665,
  "ØºØ±Ø¨ÙĬØ©ØºÙħÙĪØ¶": 59019,
  "ØºØ±Ø¨ÙĬØ©ØºÙħÙĪØ¶ÙĤØµÙĬØ±Ø©": 60473,
  "ØºØ±Ø©": 13695,
  "ØºØ±Ø³": 10483,
  "ØºØ±ÙĤ": 9031,
  "ØºØ±ÙĦ": 30546,
  "ØºØ±Ùī": 16505,
  "ØºØ±ÙĬ": 50878,
  "ØºØ±ÙĬØ©": 48657,
  "ØºØ²": 59688,
  "ØºØ³": 42271,
  "ØºØ³ÙĦØ§ÙģÙĬØ§": 59791,
  "ØºØ´": 19882,
  "ØºØ´ÙĤØ±": 23872,
  "ØºØ¶": 17003,
  "ØºØ¶Ø§Ø¡": 53620,
  "ØºØ·": 1428,
  "ØºØ·Ø§Ø¡": 40252,
  "ØºØ·Ø©": 48555,
  "ØºØ·Ù": 8786,
  "ØºØ·Ùī": 27465,
  "ØºØ·ÙĬ": 8787,
  "ØºØ·ÙĬØ§Øª": 25851,
  "ØºØ·ÙĬØ©": 5287,
  "ØºÙ": 784,
  "ØºÙģ": 14115,
  "ØºÙģØ§Ø±": 36440,
  "ØºÙģØ±": 14843,
  "ØºÙģÙĪØ±Ø©": 42859,
  "ØºÙĦ": 2677,
  "ØºÙĦØ§": 63081,
  "ØºÙĦØ§ÙĤ": 5596,
  "ØºÙĦØ§ÙĦ": 10214,
  "ØºÙĦØ¨": 10654,
  "ØºÙĦØ¨ÙĬØ©": 35204,
  "ØºÙĦØ©": 33513,
  "ØºÙĦØª": 31508,
  "ØºÙĦÙģ": 43047,
  "ØºÙĦÙĤ": 20408,
  "ØºÙĦÙĩ": 30862,
  "ØºÙĦÙĩØ§": 29426,
  "ØºÙĦÙĪØ§": 45255,
  "ØºÙĦÙĪÙĨ": 23948,
  "ØºÙĦÙĬ": 37570,
  "ØºÙĦÙĬÙģ": 60134,
  "ØºÙĦÙĬÙĨ": 38048,
  "ØºÙħ": 1369,
  "ØºÙħØ§Ø¡": 53230,
  "ØºÙħØ§Øª": 16106,
  "ØºÙħØ©": 51823,
  "ØºÙħØ¶": 52188,
  "ØºÙħÙĪØ¶": 58174,
  "ØºÙĨ": 17052,
  "ØºÙĨØ§Ø¡": 38834,
  "ØºÙĨÙī": 30300,
  "ØºÙĨÙĬ": 13740,
  "ØºÙĨÙĬØ©": 34829,
  "ØºÙĩ": 18516,
  "ØºÙĩØ§": 57490,
  "ØºÙĩØ§Ùħ": 57289,
  "ØºÙĩØ§ÙĬ": 32928,
  "ØºÙĪ": 5437,
  "ØºÙĪØ§": 29629,
  "ØºÙĪØ§ØªÙĬÙħ": 55585,
  "ØºÙĪØ§ØªÙĬÙħØ§ÙĦØ§Ø³Ø±ÙĬÙĦØ§ÙĨÙĥØ§Øª": 59600,
  "ØºÙĪØ§ØªÙĬÙħØ§ÙĦØ§Ø³Ø±ÙĬÙĦØ§ÙĨÙĥØ§ØªÙĨØ²Ø§ÙĨÙĬØ§ØªÙĪÙĨØ³ÙĥØ±ÙĪØ§ØªÙĬØ§": 60522,
  "ØºÙĪØ§ÙĬ": 18527,
  "ØºÙĪØ±": 23307,
  "ØºÙĪØ³": 30241,
  "ØºÙĪØ³ÙĦØ§ÙģÙĬØ§": 47855,
  "ØºÙĪØ·": 5887,
  "ØºÙĪØ·Ø©": 41129,
  "ØºÙĪÙĦ": 45539,
  "ØºÙĪÙĦÙĬ": 9147,
  "ØºÙĪÙĦÙĬØ©": 39734,
  "ØºÙĪÙĨ": 32938,
  "ØºÙĪÙĬ": 39393,
  "ØºÙī": 16461,
  "ØºÙĬ": 1384,
  "ØºÙĬØ§Ø¨": 16252,
  "ØºÙĬØ§ÙĨ": 20336,
  "ØºÙĬØ¨": 7533,
  "ØºÙĬØ«": 28495,
  "ØºÙĬØ±": 1058,
  "ØºÙĬØ±Ø§Øª": 7456,
  "ØºÙĬØ±Ø©": 2532,
  "ØºÙĬØ±Ùĩ": 35784,
  "ØºÙĬØ±ÙĩØ§": 28376,
  "ØºÙĬØ±ÙĬ": 56051,
  "ØºÙĬØ²": 23826,
  "ØºÙĬØ²Ø³ØªØ§ÙĨ": 33331,
  "ØºÙĬØ¶": 32723,
  "ØºÙĬÙģ": 31776,
  "ØºÙĬÙĦ": 3087,
  "ØºÙĬÙĦØ§": 42259,
  "ØºÙĬÙĦØ©": 59057,
  "ØºÙĬÙĨ": 43865,
  "ØºÙĬÙĨÙĬ": 63357,
  "ØºÙĬÙĬØ±": 2065,
  "ØŃ": 290,
  "ØŃØ§": 4370,
  "ØŃØ§Ø¡": 4228,
  "ØŃØ§Ø¨": 1674,
  "ØŃØ§Ø¨Ùĩ": 45131,
  "ØŃØ§Øª": 1294,
  "ØŃØ§Ø«": 6869,
  "ØŃØ§Ø¯": 1202,
  "ØŃØ§Ø¯Ø«Ø§Øª": 52346,
  "ØŃØ§Ø¯ÙĬ": 14705,
  "ØŃØ§Ø¯ÙĬØ©": 26926,
  "ØŃØ§Ø±": 9819,
  "ØŃØ§Ùģ": 63350,
  "ØŃØ§ÙģØ©": 28144,
  "ØŃØ§ÙĤ": 6960,
  "ØŃØ§ÙĦ": 26655,
  "ØŃØ§ÙĦØ©": 24942,
  "ØŃØ§Ùħ": 7552,
  "ØŃØ§ÙĨ": 5708,
  "ØŃØ§ÙĨØ§Øª": 4900,
  "ØŃØ§ÙĪÙĦ": 27437,
  "ØŃØ§ÙĬØ§": 26406,
  "ØŃØ§ÙĬÙĦ": 53625,
  "ØŃØ¨": 2323,
  "ØŃØ¨Ø§": 29051,
  "ØŃØ¨Ø§Ø¨": 45158,
  "ØŃØ¨Ø§Ø·": 17705,
  "ØŃØ¨Øª": 26787,
  "ØŃØ¨ØªÙĩ": 61876,
  "ØŃØ¨Ùĩ": 41526,
  "ØŃØ¨ÙĩØ§": 58011,
  "ØŃØ©": 662,
  "ØŃØª": 2136,
  "ØŃØªØ§Ø¬": 20622,
  "ØŃØªÙĨØ§": 29283,
  "ØŃØªÙĩ": 30334,
  "ØŃØªÙĩØ§": 39783,
  "ØŃØ«": 1298,
  "ØŃØ¯": 641,
  "ØŃØ¯Ø§Øª": 6942,
  "ØŃØ¯Ø§Ø«": 5037,
  "ØŃØ¯Ø§Ø±": 34342,
  "ØŃØ¯Ø©": 1040,
  "ØŃØ¯Ø«": 1671,
  "ØŃØ¯Ø«Ø©": 34964,
  "ØŃØ¯Ø¯": 12606,
  "ØŃØ¯Ùī": 55507,
  "ØŃØ±": 964,
  "ØŃØ±Ø§": 45717,
  "ØŃØ±Ø§Ø¬": 51397,
  "ØŃØ±Ø§Ø²": 32744,
  "ØŃØ±Ø§Ùģ": 2469,
  "ØŃØ±Ø§ÙĤ": 51900,
  "ØŃØ±Ø¨": 43869,
  "ØŃØ±Ø¬": 41563,
  "ØŃØ±Ø±": 15820,
  "ØŃØ±Ø²": 32064,
  "ØŃØ±Ø´": 25634,
  "ØŃØ±Øµ": 21278,
  "ØŃØ±Ùĥ": 52330,
  "ØŃØ³Ø§ÙĨ": 46689,
  "ØŃØ³ÙĨ": 10567,
  "ØŃØ´": 46107,
  "ØŃØµ": 3097,
  "ØŃØµØ§Ø¡": 28556,
  "ØŃØµØ§Ø¡Ø§Øª": 55461,
  "ØŃØµØ§Ø¦ÙĬØ§Øª": 39799,
  "ØŃØµÙĦ": 39340,
  "ØŃØµÙĨ": 50310,
  "ØŃØµÙĬÙĦ": 42863,
  "ØŃØ¶": 39503,
  "ØŃØ¶Ø±": 27670,
  "ØŃØ¶Ø±Ø§Øª": 41058,
  "ØŃØ·": 8838,
  "ØŃØ·Ø§Ø·": 36196,
  "ØŃÙ": 434,
  "ØŃÙģ": 4188,
  "ØŃÙģØ©": 55283,
  "ØŃÙģÙĦØ§Øª": 43699,
  "ØŃÙĤ": 2640,
  "ØŃÙĤØ§Øª": 60753,
  "ØŃÙĤØ§ÙĤ": 11265,
  "ØŃÙĤØ§ÙĤØ§Øª": 19520,
  "ØŃÙĤÙĤ": 28057,
  "ØŃÙĤÙĩ": 34781,
  "ØŃÙĤÙĪÙĤ": 22314,
  "ØŃÙĤÙĬÙĨ": 30961,
  "ØŃÙĥ": 9411,
  "ØŃÙĥØ§Ùħ": 12453,
  "ØŃÙĥÙħ": 54801,
  "ØŃÙĦ": 1826,
  "ØŃÙĦØ§Øª": 10964,
  "ØŃÙĦØ©": 1489,
  "ØŃÙĦÙĪ": 22077,
  "ØŃÙĦÙĪØ§": 38771,
  "ØŃÙĦÙĪÙĦ": 6106,
  "ØŃÙħ": 1784,
  "ØŃÙħØ§": 46629,
  "ØŃÙħØ§Ø¶": 54919,
  "ØŃÙħØ§ÙĦ": 42626,
  "ØŃÙħØ§Ùħ": 20253,
  "ØŃÙħØ§ÙĨ": 27035,
  "ØŃÙħØ©": 5026,
  "ØŃÙħØª": 18780,
  "ØŃÙħØªÙĥ": 37353,
  "ØŃÙħØªÙĩ": 33521,
  "ØŃÙħØ¯": 661,
  "ØŃÙħØ³": 18581,
  "ØŃÙħÙĤ": 44092,
  "ØŃÙħÙĦ": 9642,
  "ØŃÙħÙĦØ§Øª": 56154,
  "ØŃÙħÙĦÙĩ": 12416,
  "ØŃÙħÙĦÙĩØ§": 13997,
  "ØŃÙħÙĨ": 31174,
  "ØŃÙħÙĩ": 19940,
  "ØŃÙħÙĪÙĦ": 59675,
  "ØŃÙħÙĬØ©": 15091,
  "ØŃÙĨ": 1514,
  "ØŃÙĨØ§": 11216,
  "ØŃÙĨØ§ÙĨ": 32152,
  "ØŃÙĨØ©": 11672,
  "ØŃÙĨÙĬ": 61021,
  "ØŃÙĩ": 5732,
  "ØŃÙĩØ§": 27372,
  "ØŃÙĪ": 3329,
  "ØŃÙĪØ§": 21233,
  "ØŃÙĪØ§Ø°": 16694,
  "ØŃÙĪØ§ÙĨ": 49335,
  "ØŃÙĪØ«": 9877,
  "ØŃÙĪØ°": 17728,
  "ØŃÙĪØ±": 20706,
  "ØŃÙĪØµØ§Øª": 53789,
  "ØŃÙĪÙĦ": 12413,
  "ØŃÙĪÙĨ": 14167,
  "ØŃÙĪÙĨØ©": 9191,
  "ØŃÙī": 10292,
  "ØŃÙĬ": 1225,
  "ØŃÙĬØ§": 8111,
  "ØŃÙĬØ§Ø¡": 4049,
  "ØŃÙĬØ§Øª": 5363,
  "ØŃÙĬØ§Ø²": 18874,
  "ØŃÙĬØ§ÙĨ": 3714,
  "ØŃÙĬØ§ÙĨØ§": 5355,
  "ØŃÙĬØ¨": 4500,
  "ØŃÙĬØ©": 8462,
  "ØŃÙĬØª": 19857,
  "ØŃÙĬØªÙĩ": 40125,
  "ØŃÙĬØ«": 47027,
  "ØŃÙĬØ¯": 2303,
  "ØŃÙĬØ±Ø©": 27415,
  "ØŃÙĬØ²": 28930,
  "ØŃÙĬØµ": 38608,
  "ØŃÙĬØ·": 3397,
  "ØŃÙĬØŃ": 1265,
  "ØŃÙĬØŃÙĬÙĦ": 42917,
  "ØŃÙĬÙģ": 14809,
  "ØŃÙĬÙģØ©": 2088,
  "ØŃÙĬÙĤ": 31598,
  "ØŃÙĬÙĦ": 6216,
  "ØŃÙĬÙĦØ§Øª": 63223,
  "ØŃÙĬÙĦØ©": 50105,
  "ØŃÙĬÙĦÙĩ": 19963,
  "ØŃÙĬÙĦÙĩØ§": 55375,
  "ØŃÙĬÙĦÙĩÙħ": 44432,
  "ØŃÙĬÙĦÙĬ": 53728,
  "ØŃÙĬÙħ": 15258,
  "ØŃÙĬÙĨ": 6545,
  "ØŃÙĬÙĩ": 15215,
  "ØŃÙĬÙĪ": 62857,
  "ØŃÙĬÙĪÙĨ": 20145,
  "ØŃÙĬÙĬÙĨ": 7385,
  "Ù": 153,
  "Ù¡": 3443,
  "Ù¡Ù": 5108,
  "Ù¢": 4134,
  "Ù£": 7774,
  "Ù¤": 9444,
  "Ù¤Ùł": 55027,
  "Ù¥": 9047,
  "Ù¦": 11601,
  "Ù§": 12418,
  "Ù¨": 13046,
  "Ù©": 13281,
  "Ùª": 9117,
  "Ù«": 46699,
  "Ù¬": 15223,
  "Ù±": 27673,
  "Ùģ": 279,
  "ÙģØ¡": 48302,
  "ÙģØ£": 42446,
  "ÙģØ¦": 50051,
  "ÙģØ¦Ø©": 27617,
  "ÙģØ§": 1208,
  "ÙģØ§Ø¡": 2249,
  "ÙģØ§Ø¡Ø§Øª": 12693,
  "ÙģØ§Ø¡Ø©": 5806,
  "ÙģØ§Ø©": 15638,
  "ÙģØ§Øª": 2569,
  "ÙģØ§ØªØ±": 12440,
  "ÙģØ§ØªÙĬØŃ": 19965,
  "ÙģØ§Ø®": 29166,
  "ÙģØ§Ø¯": 16586,
  "ÙģØ§Ø¯Ø©": 3720,
  "ÙģØ§Ø¯Ø¹": 63281,
  "ÙģØ§Ø¯Ùĩ": 50731,
  "ÙģØ§Ø°": 56529,
  "ÙģØ§Ø±": 6998,
  "ÙģØ§Ø±Ø©": 20886,
  "ÙģØ§Ø±ÙĬØª": 59119,
  "ÙģØ§Ø¶": 22802,
  "ÙģØ§Ø¶Ø§Øª": 33691,
  "ÙģØ§Ø¶Ø©": 9415,
  "ÙģØ§Ø¸": 3406,
  "ÙģØ§Ø¹": 1074,
  "ÙģØ§Ø¹Ù": 4840,
  "ÙģØ§Ø¹ÙĦ": 5778,
  "ÙģØ§Ø¹ÙĦØ§Øª": 36981,
  "ÙģØ§Ø¹ÙĦÙĬØ©": 40305,
  "ÙģØ§Ø¹ÙĬ": 14206,
  "ÙģØ§Ùģ": 4223,
  "ÙģØ§ÙģÙĩ": 46640,
  "ÙģØ§ÙģÙĬØ©": 20030,
  "ÙģØ§ÙģÙĬØ´": 62934,
  "ÙģØ§ÙĤ": 1295,
  "ÙģØ§ÙĤØ§Øª": 25137,
  "ÙģØ§ÙĤØ©": 61847,
  "ÙģØ§ÙĤØ³": 37704,
  "ÙģØ§ÙĤÙħ": 13486,
  "ÙģØ§ÙĤÙħØ©": 62468,
  "ÙģØ§ÙĤÙĬ": 41163,
  "ÙģØ§ÙĤÙĬØ§Øª": 8947,
  "ÙģØ§ÙĤÙĬØ©": 13754,
  "ÙģØ§ÙĥÙĬØ§": 19363,
  "ÙģØ§ÙĦ": 1035,
  "ÙģØ§ÙĨ": 10334,
  "ÙģØ§Ùĩ": 52826,
  "ÙģØ§ÙĩÙħ": 7070,
  "ÙģØ§ÙĩÙĬÙħ": 7740,
  "ÙģØ§ÙĪØ©": 36668,
  "ÙģØ§ÙĪØª": 11562,
  "ÙģØ§ÙĪØªØ©": 21867,
  "ÙģØ§ÙĪØ¶": 3181,
  "ÙģØ§ÙĪØ¶Ø§Øª": 4419,
  "ÙģØ§ÙĬØ§Øª": 32617,
  "ÙģØ§ÙĬØ©": 14310,
  "ÙģØ©": 1009,
  "ÙģØª": 820,
  "ÙģØªØ§Ø¡": 6110,
  "ÙģØªØ§Ø¡Ø§Øª": 29781,
  "ÙģØªØ§ØŃ": 10944,
  "ÙģØªØ§ÙĨ": 61664,
  "ÙģØªØªØ§ØŃ": 30306,
  "ÙģØªØŃ": 3927,
  "ÙģØªØŃØ©": 37673,
  "ÙģØªØŃØª": 59228,
  "ÙģØªÙĥ": 54282,
  "ÙģØªÙĨØ§": 63801,
  "ÙģØªÙĩ": 38445,
  "ÙģØªÙĩØ§": 13752,
  "ÙģØªÙĩÙħ": 34805,
  "ÙģØªÙĬ": 40828,
  "ÙģØªÙĬÙĨ": 25254,
  "ÙģØ¬Ø§Ø±": 24423,
  "ÙģØ¬Ø±": 15386,
  "ÙģØ¬Ø±Ø§Øª": 29663,
  "ÙģØ®": 46724,
  "ÙģØ¯": 13130,
  "ÙģØ¯Ø±Ø§ÙĦÙĬØ©": 37502,
  "ÙģØ°": 5160,
  "ÙģØ±": 633,
  "ÙģØ±Ø§": 50097,
  "ÙģØ±Ø§Ø¡": 47564,
  "ÙģØ±Ø§Øª": 6431,
  "ÙģØ±Ø§Ø¬": 8295,
  "ÙģØ±Ø§Ø¯": 2597,
  "ÙģØ±Ø§Ø·": 24990,
  "ÙģØ±Ø§Øº": 55987,
  "ÙģØ±Ø§ØŃ": 8042,
  "ÙģØ±Ø§ÙĨ": 14465,
  "ÙģØ±Ø©": 7754,
  "ÙģØ±Øª": 9012,
  "ÙģØ±Ø¬": 21891,
  "ÙģØ±Ø¯": 5574,
  "ÙģØ±Ø¯Ø§Øª": 15543,
  "ÙģØ±Ø¯Ø©": 35412,
  "ÙģØ±Ø¹": 28651,
  "ÙģØ±Øº": 16933,
  "ÙģØ±ØŃ": 47062,
  "ÙģØ±ÙĤ": 25077,
  "ÙģØ±ÙĤØ©": 21067,
  "ÙģØ±Ùĩ": 47572,
  "ÙģØ±ÙĪØ§": 57453,
  "ÙģØ±ÙĪÙĨ": 54296,
  "ÙģØ±Ùī": 43712,
  "ÙģØ±ÙĬ": 20561,
  "ÙģØ±ÙĬÙĤÙĬØ§": 27279,
  "ÙģØ±ÙĬÙĨ": 18343,
  "ÙģØ²": 5311,
  "ÙģØ²Ø§Øª": 47783,
  "ÙģØ²Ø©": 41675,
  "ÙģØ³": 695,
  "ÙģØ³Ø§Ø¯": 26376,
  "ÙģØ³Ø§Ø±": 12529,
  "ÙģØ³Ø§Ø±Ø§Øª": 4454,
  "ÙģØ³Ø§ØŃ": 48030,
  "ÙģØ³Ø®": 63087,
  "ÙģØ³Ø¯": 56742,
  "ÙģØ³Ø±": 31079,
  "ÙģØ³ÙĥÙħ": 38731,
  "ÙģØ³ÙĨØ§": 21344,
  "ÙģØ³ÙĩÙħ": 10925,
  "ÙģØ³ÙĪØ±": 27334,
  "ÙģØ³ÙĬ": 12811,
  "ÙģØ³ÙĬØ±": 3154,
  "ÙģØ³ÙĬØ±Ø§Øª": 39009,
  "ÙģØ´": 4888,
  "ÙģØ´Ø§ÙĦ": 49280,
  "ÙģØ´Ø§ÙĪÙĨ": 50763,
  "ÙģØµ": 44726,
  "ÙģØµØ§ÙĦ": 40817,
  "ÙģØ¶": 1460,
  "ÙģØ¶Ø©": 24216,
  "ÙģØ¶ÙĦ": 1017,
  "ÙģØ¶ÙĦÙĬØ©": 32179,
  "ÙģØ¶ÙĬÙĦ": 52186,
  "ÙģØ·": 10965,
  "ÙģØ·Ø§Ø±": 58252,
  "ÙģØ¸": 2158,
  "ÙģØ¸Ø©": 15152,
  "ÙģØ¹": 803,
  "ÙģØ¹Ø§Øª": 6386,
  "ÙģØ¹Ø§ÙĦ": 7405,
  "ÙģØ¹Ø§ÙĦØ§Øª": 32106,
  "ÙģØ¹Ø§ÙĦÙĩ": 48926,
  "ÙģØ¹Ø§ÙĦÙĬØ©": 51497,
  "ÙģØ¹Ø§Ùħ": 59187,
  "ÙģØ¹Ø©": 26728,
  "ÙģØ¹Øª": 54498,
  "ÙģØ¹ÙĦ": 42102,
  "ÙģØ¹ÙĦÙĩ": 20541,
  "ÙģØ¹ÙĦÙĬÙĨ": 46946,
  "ÙģØ¹Ùĩ": 51505,
  "ÙģØ¹ÙĪÙĦ": 15517,
  "ÙģØ¹Ùī": 47551,
  "ÙģØ¹ÙĬØ©": 17343,
  "ÙģØ¹ÙĬÙĦ": 4486,
  "ÙģØ¹ÙĬÙĨ": 60995,
  "ÙģØºØ§ÙĨØ³ØªØ§ÙĨ": 32412,
  "ÙģØŃ": 35152,
  "ÙģØŃØ©": 31115,
  "ÙģÙ": 443,
  "ÙģÙģ": 10043,
  "ÙģÙģØ©": 33634,
  "ÙģÙĤ": 2427,
  "ÙģÙĤØ§Øª": 21721,
  "ÙģÙĤØ©": 22284,
  "ÙģÙĤØ¯": 42968,
  "ÙģÙĤØ·": 32138,
  "ÙģÙĥ": 20527,
  "ÙģÙĥØ§Ø±": 11924,
  "ÙģÙĥØ±": 52171,
  "ÙģÙĦ": 1240,
  "ÙģÙĦØ§Øª": 22584,
  "ÙģÙĦØ§Ùħ": 13958,
  "ÙģÙĦØ©": 13615,
  "ÙģÙĦØª": 16315,
  "ÙģÙĦÙĪ": 29738,
  "ÙģÙĦÙĪØ§": 52017,
  "ÙģÙĦÙĪÙĨ": 10635,
  "ÙģÙĦÙĪÙĨØ²Ø§": 13011,
  "ÙģÙĦÙĬ": 15134,
  "ÙģÙĦÙĬÙĤØ©": 19101,
  "ÙģÙĨ": 5193,
  "ÙģÙĨØ§": 53043,
  "ÙģÙĨØ§Ø¯ÙĤ": 58043,
  "ÙģÙĨØ²ÙĪÙĬ": 48797,
  "ÙģÙĨØ²ÙĪÙĬÙĦØ§ÙĥÙĪÙĦÙĪÙħØ¨ÙĬ": 59509,
  "ÙģÙĨÙĩ": 58275,
  "ÙģÙĨÙĬ": 60970,
  "ÙģÙĩ": 8150,
  "ÙģÙĩØ§": 26677,
  "ÙģÙĩØ§Ùħ": 39036,
  "ÙģÙĩÙħ": 21058,
  "ÙģÙĪ": 3282,
  "ÙģÙĪØ§": 24704,
  "ÙģÙĪØª": 42936,
  "ÙģÙĪØ°": 25926,
  "ÙģÙĪØ±": 4957,
  "ÙģÙĪØ±Ø¯": 25475,
  "ÙģÙĪØ±ÙĨÙĬØ§": 13369,
  "ÙģÙĪÙģ": 13101,
  "ÙģÙĪÙģØ©": 45972,
  "ÙģÙĪÙģÙĬÙĨ": 37567,
  "ÙģÙĪÙĤ": 10490,
  "ÙģÙĪÙĤØ©": 38422,
  "ÙģÙĪÙĥØ³": 23817,
  "ÙģÙĪÙĦ": 51680,
  "ÙģÙĪÙĦØ©": 16285,
  "ÙģÙĪÙĦÙĥ": 49758,
  "ÙģÙĪÙĨ": 8426,
  "ÙģÙĪÙĨÙĬØ©": 54687,
  "ÙģÙĪÙĬØ©": 51387,
  "ÙģÙī": 3693,
  "ÙģÙĬ": 526,
  "ÙģÙĬØ§": 3687,
  "ÙģÙĬØ§Ø¡": 35575,
  "ÙģÙĬØ§Øª": 3103,
  "ÙģÙĬØ§ÙĨ": 11464,
  "ÙģÙĬØ§ÙĨÙĬ": 59858,
  "ÙģÙĬØ©": 3343,
  "ÙģÙĬØª": 5242,
  "ÙģÙĬØªØ§ÙĦ": 50685,
  "ÙģÙĬØªØ§ÙħÙĬÙĨ": 52914,
  "ÙģÙĬØªØ´": 12812,
  "ÙģÙĬØªÙĩ": 41901,
  "ÙģÙĬØªÙĩØ§": 54027,
  "ÙģÙĬØ«": 39791,
  "ÙģÙĬØ¬ÙĨ": 33792,
  "ÙģÙĬØ¯": 1995,
  "ÙģÙĬØ¯Ø©": 45764,
  "ÙģÙĬØ¯Ø±Ø§ÙĦÙĬØ©": 46702,
  "ÙģÙĬØ¯ÙĬ": 43932,
  "ÙģÙĬØ¯ÙĬÙģ": 39553,
  "ÙģÙĬØ¯ÙĬÙĨ": 39098,
  "ÙģÙĬØ°": 1475,
  "ÙģÙĬØ°Ùĩ": 37860,
  "ÙģÙĬØ±": 6736,
  "ÙģÙĬØ±ÙĬ": 20757,
  "ÙģÙĬØ±ÙĬÙĬÙĨ": 62553,
  "ÙģÙĬØ²": 8670,
  "ÙģÙĬØ³": 6560,
  "ÙģÙĬØ³Ø©": 30945,
  "ÙģÙĬØ³ÙĪØ±": 15390,
  "ÙģÙĬØ´": 18794,
  "ÙģÙĬØ¶": 5514,
  "ÙģÙĬØ¶Ø§Øª": 23001,
  "ÙģÙĬØ¶Ø©": 58562,
  "ÙģÙĬØ¸": 11572,
  "ÙģÙĬØ¹": 6539,
  "ÙģÙĬØŃ": 34755,
  "ÙģÙĬÙģ": 3368,
  "ÙģÙĬÙģØ©": 7363,
  "ÙģÙĬÙĤ": 3167,
  "ÙģÙĬÙĤÙĬÙħ": 56126,
  "ÙģÙĬÙĥ": 11206,
  "ÙģÙĬÙĥØ§": 47016,
  "ÙģÙĬÙĥØ³": 25515,
  "ÙģÙĬÙĦ": 24105,
  "ÙģÙĬÙĦØ§Øª": 57241,
  "ÙģÙĬÙĦØ©": 16223,
  "ÙģÙĬÙĦØ¯": 19036,
  "ÙģÙĬÙĦÙħ": 56995,
  "ÙģÙĬÙĦÙĬ": 48595,
  "ÙģÙĬÙħ": 52669,
  "ÙģÙĬÙĨ": 2529,
  "ÙģÙĬÙĨØ©": 57577,
  "ÙģÙĬÙĨÙĬØ§": 21902,
  "ÙģÙĬÙĩ": 2842,
  "ÙģÙĬÙĩØ§": 16886,
  "ÙģÙĬÙĩÙĬ": 12288,
  "ÙģÙĬÙĪ": 47082,
  "ÙģÙĬÙĪÙĨ": 28472,
  "ÙģÙĬÙĬÙĨ": 10242,
  "ÙĤ": 282,
  "ÙĤØ§": 1288,
  "ÙĤØ§Ø¡": 2539,
  "ÙĤØ§Ø¦ÙĤ": 1690,
  "ÙĤØ§Ø¨": 8725,
  "ÙĤØ§Ø¨Ø©": 9107,
  "ÙĤØ§Ø¨ÙĦ": 33571,
  "ÙĤØ§Øª": 1158,
  "ÙĤØ§ØªÙ": 35102,
  "ÙĤØ§ØªÙĦ": 37082,
  "ÙĤØ§ØªÙĩØ§": 49419,
  "ÙĤØ§Ø¯": 7951,
  "ÙĤØ§Ø¯Ø§Øª": 31719,
  "ÙĤØ§Ø°": 4826,
  "ÙĤØ§Ø±": 14039,
  "ÙĤØ§Ø²ÙĬÙĤ": 14769,
  "ÙĤØ§Øµ": 27591,
  "ÙĤØ§Ø¶": 24261,
  "ÙĤØ§Ø·": 4800,
  "ÙĤØ§Ø·Ø¹": 28592,
  "ÙĤØ§Ø·Ø¹Ø©": 30412,
  "ÙĤØ§Ø¹": 24966,
  "ÙĤØ§Ùģ": 33257,
  "ÙĤØ§ÙģØ©": 7142,
  "ÙĤØ§ÙĤ": 28883,
  "ÙĤØ§ÙĦ": 4100,
  "ÙĤØ§ÙĦØ©": 19065,
  "ÙĤØ§Ùħ": 4113,
  "ÙĤØ§ÙħØ©": 5691,
  "ÙĤØ§ÙĨ": 20562,
  "ÙĤØ§ÙĪØ©": 50579,
  "ÙĤØ§ÙĪÙħ": 58514,
  "ÙĤØ§ÙĪÙħØ©": 28128,
  "ÙĤØ§ÙĪÙĬ": 54956,
  "ÙĤØ§ÙĪÙĬÙĦ": 46267,
  "ÙĤØ§ÙĬØ©": 8602,
  "ÙĤØ¨": 1350,
  "ÙĤØ¨Ø§Ø¶": 30575,
  "ÙĤØ¨Ø§Ø·": 12825,
  "ÙĤØ¨Ø§ÙĦ": 3367,
  "ÙĤØ¨Ø§ÙĦØ§": 22963,
  "ÙĤØ¨Ø§ÙĦÙĩ": 59930,
  "ÙĤØ¨Ø©": 58762,
  "ÙĤØ¨Ø¶": 54883,
  "ÙĤØ¨ÙĦ": 1822,
  "ÙĤØ¨ÙĦØª": 47379,
  "ÙĤØ¨ÙĦÙĩ": 25603,
  "ÙĤØ¨ÙĦÙĩØ§": 29462,
  "ÙĤØ¨Ùĩ": 47999,
  "ÙĤØ©": 494,
  "ÙĤØª": 669,
  "ÙĤØªØ§ÙĨ": 38286,
  "ÙĤØªØ¨Ø§Ø³": 36559,
  "ÙĤØªØ±Ø¨": 35247,
  "ÙĤØªØµ": 1100,
  "ÙĤØªØµØ§Ø¯": 8417,
  "ÙĤØªØµØ§Ø¯ÙĬ": 27192,
  "ÙĤØªØµØ§Ø¯ÙĬØ©": 29563,
  "ÙĤØªØµØ±": 57257,
  "ÙĤØªÙĥ": 13639,
  "ÙĤØªÙĥÙħ": 57137,
  "ÙĤØªÙĦÙĩ": 40972,
  "ÙĤØªÙĨØ§": 14969,
  "ÙĤØªÙĩ": 19023,
  "ÙĤØªÙĩØ§": 5973,
  "ÙĤØªÙĩÙħ": 13411,
  "ÙĤØªÙĩÙħØ§": 39129,
  "ÙĤØªÙĬ": 49847,
  "ÙĤØªÙĬÙĨ": 13066,
  "ÙĤØ¯": 683,
  "ÙĤØ¯Ø§Ø±": 25308,
  "ÙĤØ¯Ø§Ùħ": 7352,
  "ÙĤØ¯Ø§ÙħÙĩ": 56580,
  "ÙĤØ¯Ø§ÙĨ": 28327,
  "ÙĤØ¯Ø©": 9343,
  "ÙĤØ¯Ø³": 47398,
  "ÙĤØ¯Ùħ": 2915,
  "ÙĤØ¯Ùĩ": 29879,
  "ÙĤØ¯ÙĩØ§": 60045,
  "ÙĤØ¯ÙĪÙĨØ³": 40605,
  "ÙĤØ¯ÙĪÙĨÙĬ": 58731,
  "ÙĤØ¯ÙĬÙĨ": 62561,
  "ÙĤØ°": 16545,
  "ÙĤØ±": 1066,
  "ÙĤØ±Ø£": 5012,
  "ÙĤØ±Ø§": 36249,
  "ÙĤØ±Ø§Ø¡": 21202,
  "ÙĤØ±Ø§Ø±": 3303,
  "ÙĤØ±Ø§Øµ": 22228,
  "ÙĤØ±Ø§Ø¶": 19021,
  "ÙĤØ±Ø§Ø·": 2166,
  "ÙĤØ±Ø§Ø·ÙĬØ©": 45731,
  "ÙĤØ±Ø§Ùħ": 28445,
  "ÙĤØ±Ø§ÙĨ": 57524,
  "ÙĤØ±Ø©": 4397,
  "ÙĤØ±Ø±": 16080,
  "ÙĤØ±Ø·ÙĬØ©": 63253,
  "ÙĤØ±Ø¹": 51240,
  "ÙĤØ±ÙĬØ©": 28697,
  "ÙĤØ³": 4714,
  "ÙĤØ³Ø§Ùħ": 18455,
  "ÙĤØ³Ùħ": 29906,
  "ÙĤØµ": 4572,
  "ÙĤØµØ§Ø¡": 21377,
  "ÙĤØµÙĪØ¯": 30052,
  "ÙĤØµÙĬØ±Ø©": 58885,
  "ÙĤØ¶": 37893,
  "ÙĤØ·": 2497,
  "ÙĤØ·Ø§Ø¨": 13965,
  "ÙĤØ·Ø§Ø¹": 32892,
  "ÙĤØ·Ø¨": 24642,
  "ÙĤØ·Ø©": 38522,
  "ÙĤØ·Øª": 20982,
  "ÙĤØ·Ø±Ùĥ": 51649,
  "ÙĤØ·Ø±ÙĥØ§Ø²Ø§Ø®Ø³ØªØ§ÙĨ": 53689,
  "ÙĤØ·Ø¹": 33493,
  "ÙĤØ·Ø¹Ø©": 30874,
  "ÙĤØ·Ø¹Øª": 39989,
  "ÙĤØ¹": 4545,
  "ÙĤØ¹Ø©": 63068,
  "ÙĤØ¹Ùĩ": 46335,
  "ÙĤÙ": 423,
  "ÙĤÙģ": 3024,
  "ÙĤÙģÙĬÙĨ": 14892,
  "ÙĤÙĤ": 1662,
  "ÙĤÙĤØ©": 36680,
  "ÙĤÙĤÙĬÙĨ": 59011,
  "ÙĤÙĦ": 757,
  "ÙĤÙĦØ§": 57084,
  "ÙĤÙĦØ§Ø¨": 15924,
  "ÙĤÙĦØ§Øª": 54201,
  "ÙĤÙĦØ§ÙĦ": 15050,
  "ÙĤÙĦØ§ÙĦÙĬØ©": 47680,
  "ÙĤÙĦØ§ÙĨ": 24923,
  "ÙĤÙĦØ¨": 41477,
  "ÙĤÙĦØ©": 4099,
  "ÙĤÙĦØª": 62426,
  "ÙĤÙĦÙħ": 28250,
  "ÙĤÙĦÙĨ": 53994,
  "ÙĤÙĦÙĩ": 47311,
  "ÙĤÙĦÙĩØ§": 32124,
  "ÙĤÙĦÙĪ": 30596,
  "ÙĤÙĦÙĪØ§": 17349,
  "ÙĤÙĦÙĪØ¨": 18709,
  "ÙĤÙĦÙĪØ¨Ø©": 57805,
  "ÙĤÙĦÙĪÙĨ": 20586,
  "ÙĤÙĦÙĬÙħ": 17160,
  "ÙĤÙĦÙĬÙĨ": 48635,
  "ÙĤÙħ": 1192,
  "ÙĤÙħØ§Ø±": 11128,
  "ÙĤÙħØ©": 15941,
  "ÙĤÙħØª": 19869,
  "ÙĤÙħØ´Ø©": 20619,
  "ÙĤÙħØµ": 32749,
  "ÙĤÙħÙĩ": 34797,
  "ÙĤÙĨ": 30918,
  "ÙĤÙĨØ§": 57094,
  "ÙĤÙĨØ§Ø¹": 21331,
  "ÙĤÙĨÙĬØ©": 53968,
  "ÙĤÙĩ": 2133,
  "ÙĤÙĩØ§": 13841,
  "ÙĤÙĩÙĦÙĬØ©": 15213,
  "ÙĤÙĪ": 51306,
  "ÙĤÙĪØ§": 9495,
  "ÙĤÙĪØ¨": 6589,
  "ÙĤÙĪØ¨ÙĬ": 34959,
  "ÙĤÙĪØª": 23043,
  "ÙĤÙĪØ¯": 7560,
  "ÙĤÙĪØ¯Ø©": 20241,
  "ÙĤÙĪØ±": 18119,
  "ÙĤÙĪØ³": 17414,
  "ÙĤÙĪØ·": 4589,
  "ÙĤÙĪÙģ": 13795,
  "ÙĤÙĪÙĤ": 3245,
  "ÙĤÙĪÙĦ": 3698,
  "ÙĤÙĪÙĦØ©": 8580,
  "ÙĤÙĪÙħ": 6376,
  "ÙĤÙĪÙĨ": 11561,
  "ÙĤÙī": 1351,
  "ÙĤÙĬ": 745,
  "ÙĤÙĬØ§": 2278,
  "ÙĤÙĬØ§Ø¡": 46933,
  "ÙĤÙĬØ§Øª": 4391,
  "ÙĤÙĬØ§Ø¯": 57786,
  "ÙĤÙĬØ§Ø³": 11458,
  "ÙĤÙĬØ¨": 4546,
  "ÙĤÙĬØ¨Ø©": 15359,
  "ÙĤÙĬØ¨ÙĦØ©": 54134,
  "ÙĤÙĬØ©": 2624,
  "ÙĤÙĬØª": 3156,
  "ÙĤÙĬØªÙĩ": 23480,
  "ÙĤÙĬØªÙĩØ§": 28382,
  "ÙĤÙĬØªÙĩÙħ": 63505,
  "ÙĤÙĬØªÙĬÙĨ": 59045,
  "ÙĤÙĬØ¯": 2800,
  "ÙĤÙĬØ¯Ø©": 6414,
  "ÙĤÙĬØ±": 36780,
  "ÙĤÙĬØ³": 23522,
  "ÙĤÙĬØ·": 42706,
  "ÙĤÙĬØ·ÙĬ": 61499,
  "ÙĤÙĬØ¹": 3340,
  "ÙĤÙĬØ¹Ø©": 36041,
  "ÙĤÙĬØŃ": 34691,
  "ÙĤÙĬÙģ": 6177,
  "ÙĤÙĬÙģØ©": 34105,
  "ÙĤÙĬÙĤ": 773,
  "ÙĤÙĬÙĤØ©": 1517,
  "ÙĤÙĬÙĤÙĩ": 58683,
  "ÙĤÙĬÙĤÙĬ": 4308,
  "ÙĤÙĬÙĤÙĬØ©": 4167,
  "ÙĤÙĬÙĥ": 49175,
  "ÙĤÙĬÙĦ": 30920,
  "ÙĤÙĬÙĦØ©": 8019,
  "ÙĤÙĬÙħ": 7824,
  "ÙĤÙĬÙĨ": 8543,
  "ÙĤÙĬÙĩ": 5682,
  "ÙĤÙĬÙĩØ§": 23172,
  "ÙĤÙĬÙĪÙĨ": 16540,
  "ÙĤÙĬÙĬÙĨ": 26890,
  "Ùĥ": 284,
  "ÙĥØ£Ø³": 21138,
  "ÙĥØ§": 1429,
  "ÙĥØ§Ø¡": 6596,
  "ÙĥØ§Ø¨": 31877,
  "ÙĥØ§Ø©": 9762,
  "ÙĥØ§Øª": 2628,
  "ÙĥØ§ØªØ±Ø©": 47169,
  "ÙĥØ§ØªÙĩ": 11633,
  "ÙĥØ§ØªÙĪ": 48774,
  "ÙĥØ§Ø¯": 3921,
  "ÙĥØ§Ø¯ÙĬØ±": 34656,
  "ÙĥØ§Ø¯ÙĬÙħÙĬ": 24908,
  "ÙĥØ§Ø¯ÙĬÙħÙĬØ©": 6044,
  "ÙĥØ§Ø¯ÙĬÙħÙĬÙĬÙĨ": 41509,
  "ÙĥØ§Ø°ÙĬØ¨": 59891,
  "ÙĥØ§Ø±": 2398,
  "ÙĥØ§Ø±Ø§": 43052,
  "ÙĥØ§Ø³": 9193,
  "ÙĥØ§Ø³Ø§Øª": 62789,
  "ÙĥØ§Ø³Ø©": 49210,
  "ÙĥØ§Ø³Øª": 33921,
  "ÙĥØ§Ø³ÙĦ": 44136,
  "ÙĥØ§Ùĥ": 29065,
  "ÙĥØ§ÙĥØ§Ùģ": 38683,
  "ÙĥØ§ÙĥÙĬÙĨ": 49950,
  "ÙĥØ§ÙĦ": 3277,
  "ÙĥØ§ÙĦØ§Øª": 18575,
  "ÙĥØ§ÙĦØ©": 4722,
  "ÙĥØ§ÙĦÙĪØ±ÙĬØ§": 22867,
  "ÙĥØ§ÙĦÙĬ": 34160,
  "ÙĥØ§ÙĦÙĬØ§Øª": 35155,
  "ÙĥØ§ÙĦÙĬØ©": 19216,
  "ÙĥØ§Ùħ": 2712,
  "ÙĥØ§ÙħØ§": 39105,
  "ÙĥØ§ÙħØ¯": 52947,
  "ÙĥØ§ÙĨ": 1307,
  "ÙĥØ§ÙĨÙĬ": 46992,
  "ÙĥØ§ÙĨÙĬØ§Øª": 58801,
  "ÙĥØ§ÙĨÙĬØ©": 25034,
  "ÙĥØ§ÙĪ": 38221,
  "ÙĥØ§ÙĪÙī": 7934,
  "ÙĥØ§ÙĪÙĬ": 7099,
  "ÙĥØ§ÙĬ": 27930,
  "ÙĥØ§ÙĬØ©": 11335,
  "ÙĥØ¨": 4252,
  "ÙĥØ¨Ø§Øª": 32099,
  "ÙĥØ¨Ø§Ø±": 49094,
  "ÙĥØ¨Ø©": 36262,
  "ÙĥØ¨Ø±": 2882,
  "ÙĥØ©": 1285,
  "ÙĥØª": 587,
  "ÙĥØªØ¦Ø§Ø¨": 25056,
  "ÙĥØªØ§Ø¨": 60521,
  "ÙĥØªØ§Øª": 14770,
  "ÙĥØªØ§ØªÙĪØ±": 44086,
  "ÙĥØªØ§ØªÙĪØ±ÙĬ": 62738,
  "ÙĥØªØ§ØªÙĪØ±ÙĬØ©": 26619,
  "ÙĥØªØ§Ùģ": 57473,
  "ÙĥØªØ¨": 4350,
  "ÙĥØªØ¨Ø©": 49191,
  "ÙĥØªØ©": 29920,
  "ÙĥØªØªØ§Ø¨": 39610,
  "ÙĥØªØ³": 57864,
  "ÙĥØªØ³Ø§Ø¨": 40655,
  "ÙĥØªØ³Ø¨": 58613,
  "ÙĥØªØ´Ø§Ùģ": 16810,
  "ÙĥØªØ´Ø§ÙģØ§Øª": 54216,
  "ÙĥØªØ´Ùģ": 21836,
  "ÙĥØªÙ": 26747,
  "ÙĥØªÙģØ§Ø¡": 35843,
  "ÙĥØªÙģÙĬ": 49344,
  "ÙĥØªÙĥ": 63504,
  "ÙĥØªÙĦØ§Øª": 51048,
  "ÙĥØªÙĦÙĨØ¯Ø§": 61353,
  "ÙĥØªÙĨØ§": 58346,
  "ÙĥØªÙĩ": 30732,
  "ÙĥØªÙĩØ§": 26464,
  "ÙĥØªÙĪ": 62471,
  "ÙĥØªÙĪØ¨Ø±": 40910,
  "ÙĥØªÙĪØ±": 1236,
  "ÙĥØªÙĪØ±Ø©": 7700,
  "ÙĥØªÙĬØ±ÙĬØ§": 40164,
  "ÙĥØªÙĬÙĨ": 44446,
  "ÙĥØ«": 43978,
  "ÙĥØ«Ø§Ø±": 47887,
  "ÙĥØ«Ø±": 1469,
  "ÙĥØ¯": 1199,
  "ÙĥØ¯Ø§": 24421,
  "ÙĥØ¯Ø©": 36547,
  "ÙĥØ¯Ø³": 49607,
  "ÙĥØ¯ÙĬ": 60704,
  "ÙĥØ°Ø§": 3606,
  "ÙĥØ±": 553,
  "ÙĥØ±Ø§": 4030,
  "ÙĥØ±Ø§Øª": 40031,
  "ÙĥØ±Ø§Ø¯": 11727,
  "ÙĥØ±Ø§Ø±": 17892,
  "ÙĥØ±Ø§Ùħ": 26891,
  "ÙĥØ±Ø§ÙĨÙĬØ§": 28533,
  "ÙĥØ±Ø§Ùĩ": 20841,
  "ÙĥØ±Ø©": 2032,
  "ÙĥØ±Øª": 17720,
  "ÙĥØ±Ø±": 5986,
  "ÙĥØ±Ø±Ø©": 7477,
  "ÙĥØ±Ø±Ùĩ": 58406,
  "ÙĥØ±Ø²": 35449,
  "ÙĥØ±Ùĩ": 10938,
  "ÙĥØ±ÙĩØ§": 36176,
  "ÙĥØ±ÙĪØ§": 28476,
  "ÙĥØ±ÙĪØ§ØªÙĬØ§": 45569,
  "ÙĥØ±ÙĪÙĨ": 9986,
  "ÙĥØ±ÙĪÙĨØ©": 40037,
  "ÙĥØ±Ùī": 3442,
  "ÙĥØ±ÙĬ": 1499,
  "ÙĥØ±ÙĬØ§": 10422,
  "ÙĥØ±ÙĬØ§Øª": 10918,
  "ÙĥØ±ÙĬØ§Ø³": 40326,
  "ÙĥØ±ÙĬØ³": 32276,
  "ÙĥØ±ÙĬÙĨ": 16120,
  "ÙĥØ²": 1379,
  "ÙĥØ²Ø©": 39290,
  "ÙĥØ³": 951,
  "ÙĥØ³Ø§Øª": 40109,
  "ÙĥØ³Ø§Ø±": 19847,
  "ÙĥØ³ØªØ§ÙĨ": 25751,
  "ÙĥØ³ØªØ±Ø§": 52021,
  "ÙĥØ³Ø¬ÙĬÙĨ": 18929,
  "ÙĥØ³Ø¯Ø©": 22202,
  "ÙĥØ³Ø±": 38687,
  "ÙĥØ³Ø³ÙĪØ§Ø±Ø§Øª": 13353,
  "ÙĥØ³ÙĪÙĨ": 29336,
  "ÙĥØ³ÙĬ": 17185,
  "ÙĥØ³ÙĬØ±": 27765,
  "ÙĥØ³ÙĬÙĥ": 34935,
  "ÙĥØ´": 35087,
  "ÙĥØ´Ø§Ùģ": 18596,
  "ÙĥØ´Ø§ÙģÙĬØ©": 57287,
  "ÙĥØ´Ùģ": 18206,
  "ÙĥØ´ÙĨ": 45209,
  "ÙĥÙ": 405,
  "ÙĥÙģ": 14391,
  "ÙĥÙģÙĪØ±Øª": 26343,
  "ÙĥÙĥ": 10945,
  "ÙĥÙĦ": 644,
  "ÙĥÙĦØ§Øª": 4199,
  "ÙĥÙĦØ©": 2273,
  "ÙĥÙĦØª": 17776,
  "ÙĥÙĦÙħ": 8477,
  "ÙĥÙĦÙĩ": 13307,
  "ÙĥÙĦÙĩØ§": 22404,
  "ÙĥÙĦÙĪ": 23640,
  "ÙĥÙĦÙĪØ§": 20399,
  "ÙĥÙĦÙĪÙĨ": 35423,
  "ÙĥÙĦÙĬ": 7071,
  "ÙĥÙĦÙĬØ²": 52672,
  "ÙĥÙĦÙĬØ²ÙĬ": 13833,
  "ÙĥÙĦÙĬØ²ÙĬØ©": 16305,
  "ÙĥÙħ": 638,
  "ÙĥÙħØ§": 18623,
  "ÙĥÙħØ§Ø´": 49936,
  "ÙĥÙħØ§ÙĦ": 5241,
  "ÙĥÙħØ§ÙĦØ§": 32090,
  "ÙĥÙħØ§Ùħ": 45524,
  "ÙĥÙħØ§ÙĨ": 11957,
  "ÙĥÙħØ§ÙĨØ³ØªØ§ÙĨ": 24732,
  "ÙĥÙħØ¨": 52305,
  "ÙĥÙħØ¨ÙĪØ¯ÙĬ": 55787,
  "ÙĥÙħØ©": 1568,
  "ÙĥÙħØª": 11779,
  "ÙĥÙħØªÙĩ": 21351,
  "ÙĥÙħØªÙĩÙħ": 45110,
  "ÙĥÙħØ´": 49785,
  "ÙĥÙħÙĦ": 10114,
  "ÙĥÙħÙĦØ§Øª": 26535,
  "ÙĥÙħÙĦØ©": 23953,
  "ÙĥÙħÙĦØª": 23015,
  "ÙĥÙħÙĪ": 24945,
  "ÙĥÙħÙĪØ§": 30461,
  "ÙĥÙĨ": 549,
  "ÙĥÙĨØ§": 23916,
  "ÙĥÙĨØ§Øª": 22656,
  "ÙĥÙĨØ©": 17700,
  "ÙĥÙĨØª": 7108,
  "ÙĥÙĨØ¬": 35096,
  "ÙĥÙĨØ¯": 24614,
  "ÙĥÙĨØ¯Ø§Ø§ÙĦÙĬØ§Ø¨Ø§ÙĨ": 59345,
  "ÙĥÙĨØ¯Ø§Ø§ÙĦÙĬØ§Ø¨Ø§ÙĨÙĥÙĪØ±ÙĬØ§": 59649,
  "ÙĥÙĨØ¯Ø±": 4106,
  "ÙĥÙĨØ¯Ø±ÙĬØ©": 4459,
  "ÙĥÙĨØ¯Ø±ÙĬÙĩ": 62521,
  "ÙĥÙĨØ¯ÙĨ": 43964,
  "ÙĥÙĨØ¯ÙĨØ§ÙģÙĬØ©": 56506,
  "ÙĥÙĨØ²": 34897,
  "ÙĥÙĨÙĩ": 31591,
  "ÙĥÙĨÙĪÙĦÙĪØ¬ÙĬØ§": 4016,
  "ÙĥÙĨÙĬØ©": 5552,
  "ÙĥÙĩ": 6056,
  "ÙĥÙĩØ§": 39110,
  "ÙĥÙĪ": 1704,
  "ÙĥÙĪØ§": 23591,
  "ÙĥÙĪØ§Ø¯": 22391,
  "ÙĥÙĪØ§Ø¯ÙĪØ±": 19348,
  "ÙĥÙĪØ§Ø´": 59504,
  "ÙĥÙĪØ¨": 21563,
  "ÙĥÙĪØ¨Ø©": 34343,
  "ÙĥÙĪØª": 35086,
  "ÙĥÙĪØ±": 7295,
  "ÙĥÙĪØ±ÙĬØ§": 43773,
  "ÙĥÙĪØ³": 24524,
  "ÙĥÙĪØ´": 63629,
  "ÙĥÙĪÙģ": 25295,
  "ÙĥÙĪÙģÙĬØªØ´": 63436,
  "ÙĥÙĪÙĥ": 11258,
  "ÙĥÙĪÙĥØ§Øª": 61079,
  "ÙĥÙĪÙĦ": 22029,
  "ÙĥÙĪÙĦØ§Øª": 11590,
  "ÙĥÙĪÙĦÙĨ": 46176,
  "ÙĥÙĪÙħ": 10349,
  "ÙĥÙĪÙħØ§Øª": 36758,
  "ÙĥÙĪÙħØ©": 4497,
  "ÙĥÙĪÙħÙĬØ¯ÙĬ": 58300,
  "ÙĥÙĪÙħÙĬØ¯ÙĬØ§ÙħØºØ§ÙħØ±Ø©": 60229,
  "ÙĥÙĪÙħÙĬØ¯ÙĬØ§ÙħØºØ§ÙħØ±Ø©ÙħÙĪØ³ÙĬÙĤÙĬØ©": 60863,
  "ÙĥÙĪÙħÙĬØ¯ÙĬØ§ÙħØºØ§ÙħØ±Ø©ÙħÙĪØ³ÙĬÙĤÙĬØ©ÙĪØ«Ø§Ø¦ÙĤÙĬØ©": 62633,
  "ÙĥÙĪÙĨ": 1381,
  "ÙĥÙĪÙĨØ§Øª": 46692,
  "ÙĥÙĪÙĨØ©": 33605,
  "ÙĥÙĪÙī": 27679,
  "ÙĥÙĪÙĬÙĨ": 5320,
  "ÙĥÙī": 5981,
  "ÙĥÙĬ": 811,
  "ÙĥÙĬØ§": 2104,
  "ÙĥÙĬØ§Ø¡": 49972,
  "ÙĥÙĬØ§Øª": 10546,
  "ÙĥÙĬØ§Ø¬": 6782,
  "ÙĥÙĬØ§Ø³": 16304,
  "ÙĥÙĬØ§ÙĨ": 20601,
  "ÙĥÙĬØ¨": 3798,
  "ÙĥÙĬØ¨Ø©": 62146,
  "ÙĥÙĬØ©": 882,
  "ÙĥÙĬØª": 7318,
  "ÙĥÙĬØªØ§": 56239,
  "ÙĥÙĬØªÙĬÙĨ": 53732,
  "ÙĥÙĬØ¯": 2744,
  "ÙĥÙĬØ±": 3811,
  "ÙĥÙĬØ±ÙĨ": 59523,
  "ÙĥÙĬØ±ÙĬ": 60264,
  "ÙĥÙĬØ±ÙĬØ©": 57369,
  "ÙĥÙĬØ²": 3545,
  "ÙĥÙĬØ²Ø©": 29646,
  "ÙĥÙĬØ³": 19987,
  "ÙĥÙĬØ´": 30474,
  "ÙĥÙĬØ¹": 31409,
  "ÙĥÙĬØ¹ÙĬÙĨ": 55667,
  "ÙĥÙĬÙģ": 2786,
  "ÙĥÙĬÙģØ§": 33594,
  "ÙĥÙĬÙģØ§Øª": 17258,
  "ÙĥÙĬÙģØ©": 36978,
  "ÙĥÙĬÙģÙĬØ©": 32015,
  "ÙĥÙĬÙĥ": 7842,
  "ÙĥÙĬÙĦ": 2612,
  "ÙĥÙĬÙĦØ§": 47279,
  "ÙĥÙĬÙĦØ§Øª": 28861,
  "ÙĥÙĬÙĦØ©": 34392,
  "ÙĥÙĬÙĦÙĩØ§": 57996,
  "ÙĥÙĬÙĦÙĬ": 59719,
  "ÙĥÙĬÙħ": 6759,
  "ÙĥÙĬÙĨ": 3702,
  "ÙĥÙĬÙĨØ§": 25066,
  "ÙĥÙĬÙĨØ§Øª": 37702,
  "ÙĥÙĬÙĨØ©": 33549,
  "ÙĥÙĬÙĩ": 6462,
  "ÙĥÙĬÙĪ": 13350,
  "ÙĥÙĬÙĪÙĨ": 12574,
  "ÙĥÙĬÙĬÙĨ": 19676,
  "ÙĦØ": 261,
  "ÙĦØ¡": 30535,
  "ÙĦØ¢": 11220,
  "ÙĦØ¢Ù": 50718,
  "ÙĦØ¢Ùħ": 59614,
  "ÙĦØ£": 5237,
  "ÙĦØ£Øª": 34991,
  "ÙĦØ¤": 9576,
  "ÙĦØ¤ÙĦØ¤": 20402,
  "ÙĦØ¤ÙĩØ§": 58177,
  "ÙĦØ¥": 25265,
  "ÙĦØ¦": 5036,
  "ÙĦØ¦Ø©": 37415,
  "ÙĦØ¦Ùĥ": 6963,
  "ÙĦØ§": 320,
  "ÙĦØ§Ø": 366,
  "ÙĦØ§Ø¡": 1163,
  "ÙĦØ§Ø¡Ø§Øª": 26647,
  "ÙĦØ§Ø¡Ù": 29032,
  "ÙĦØ§Ø¡Ùħ": 29086,
  "ÙĦØ§Ø¡ÙħØ©": 47709,
  "ÙĦØ§Ø£": 52121,
  "ÙĦØ§Ø¤": 20858,
  "ÙĦØ§Ø¤Ùĩ": 37993,
  "ÙĦØ§Ø¦": 2160,
  "ÙĦØ§Ø¦Ø¹": 27364,
  "ÙĦØ§Ø¦ØŃØ©": 36730,
  "ÙĦØ§Ø¦Ù": 6712,
  "ÙĦØ§Ø¦ÙĤ": 39134,
  "ÙĦØ§Ø¦ÙĥØ©": 31348,
  "ÙĦØ§Ø¦ÙĦ": 15992,
  "ÙĦØ§Ø¦Ùħ": 12318,
  "ÙĦØ§Ø¦ÙħØ©": 57460,
  "ÙĦØ§Ø¦Ùĩ": 21166,
  "ÙĦØ§Ø¦ÙĩØ§": 33865,
  "ÙĦØ§Ø¦ÙĩÙħ": 32151,
  "ÙĦØ§Ø¦ÙĬ": 16326,
  "ÙĦØ§Ø¦ÙĬØ©": 26199,
  "ÙĦØ§Ø¨": 1183,
  "ÙĦØ§Ø¨Ø©": 11956,
  "ÙĦØ§Ø¨Ø¯": 12093,
  "ÙĦØ§Ø¨Ø³": 3445,
  "ÙĦØ§Ø¨Ø³Ø§Øª": 18698,
  "ÙĦØ§Ø¨Ù": 42327,
  "ÙĦØ§Ø¨ÙĬ": 57557,
  "ÙĦØ§Ø©": 2143,
  "ÙĦØ§Øª": 628,
  "ÙĦØ§ØªØ©": 47349,
  "ÙĦØ§ØªØ±": 15659,
  "ÙĦØ§ØªÙ": 39931,
  "ÙĦØ§ØªÙĩ": 12346,
  "ÙĦØ§ØªÙĩØ§": 14006,
  "ÙĦØ§ØªÙĩÙħ": 15167,
  "ÙĦØ§ØªÙĬ": 40106,
  "ÙĦØ§ØªÙĬÙĨ": 28025,
  "ÙĦØ§ØªÙĬÙĨÙĬØ©": 37081,
  "ÙĦØ§ØªÙĬÙĨÙĬØ©Ø§ÙĦØµÙĪÙħØ§ÙĦÙĬØ©": 60086,
  "ÙĦØ§ØªÙĬÙĨÙĬØ©Ø§ÙĦØµÙĪÙħØ§ÙĦÙĬØ©Ø§ÙĦØ³ÙĦÙĪÙģØ§ÙĥÙĬØ©Ø§ÙĦÙħØ§ÙĪØ±ÙĬØ§ÙĦØ³ÙĪØ§ØŃÙĬÙĦÙĬØ©": 60734,
  "ÙĦØ§Ø«": 966,
  "ÙĦØ§Ø«Ø©": 8699,
  "ÙĦØ§Ø¬": 1126,
  "ÙĦØ§Ø¬Ø¦": 41660,
  "ÙĦØ§Ø¬Ø¦ÙĬÙĨ": 5032,
  "ÙĦØ§Ø¬Ø§Øª": 10092,
  "ÙĦØ§Ø¬Ø©": 16365,
  "ÙĦØ§Ø¬ÙĬÙĨ": 32592,
  "ÙĦØ§Ø®": 26109,
  "ÙĦØ§Ø¯": 981,
  "ÙĦØ§Ø¯Ø§Øª": 55845,
  "ÙĦØ§Ø¯Ø©": 5417,
  "ÙĦØ§Ø¯Ø´": 26154,
  "ÙĦØ§Ø¯Ùĩ": 14043,
  "ÙĦØ§Ø¯ÙĬØ´": 12779,
  "ÙĦØ§Ø¯ÙĬØ´Ø¨": 45013,
  "ÙĦØ§Ø¯ÙĬØ´Ø¨ÙĨÙħØ§Ø¨": 49270,
  "ÙĦØ§Ø°": 10829,
  "ÙĦØ§Ø°ÙĤÙĬØ©": 49001,
  "ÙĦØ§Ø±": 1093,
  "ÙĦØ§Ø±Ù": 18817,
  "ÙĦØ§Ø±ÙĪØ³ÙĬ": 13133,
  "ÙĦØ§Ø±ÙĪØ³ÙĬØ§Ø§ÙĦØ£": 59216,
  "ÙĦØ§Ø±ÙĪØ³ÙĬØ§Ø§ÙĦØ£Ø±Ø¯ÙĨÙĤØ·Ø±ÙĥØ§Ø²Ø§Ø®Ø³ØªØ§ÙĨ": 59953,
  "ÙĦØ§Ø±ÙĪØ³ÙĬØ©": 40814,
  "ÙĦØ§Ø±ÙĬ": 18876,
  "ÙĦØ§Ø±ÙĬØ§": 39859,
  "ÙĦØ§Ø±ÙĬÙĨ": 44108,
  "ÙĦØ§Ø²": 13288,
  "ÙĦØ§Ø²Ù": 21964,
  "ÙĦØ§Ø²ÙĦ": 28246,
  "ÙĦØ§Ø²Ùħ": 14193,
  "ÙĦØ§Ø²ÙħØ§": 26709,
  "ÙĦØ§Ø²ÙħØ©": 13732,
  "ÙĦØ§Ø³": 2693,
  "ÙĦØ§Ø³Ø©": 28504,
  "ÙĦØ§Ø³Øª": 60101,
  "ÙĦØ§Ø³ØªÙĬÙĥ": 10038,
  "ÙĦØ§Ø³Ù": 9864,
  "ÙĦØ§Ø³ÙģØ©": 23836,
  "ÙĦØ§Ø³ÙĦ": 16836,
  "ÙĦØ§Ø³Ùħ": 40289,
  "ÙĦØ§Ø³ÙĬ": 38379,
  "ÙĦØ§Ø³ÙĬÙĥÙĬ": 24662,
  "ÙĦØ§Ø³ÙĬÙĥÙĬØ©": 15281,
  "ÙĦØ§Ø´": 3473,
  "ÙĦØ§Ø´Ø§Øª": 23595,
  "ÙĦØ§Ø´Ù": 50556,
  "ÙĦØ§Ø´Ùĥ": 38011,
  "ÙĦØ§Ø´Ùī": 32622,
  "ÙĦØ§Ø´ÙĬ": 50835,
  "ÙĦØ§Øµ": 4300,
  "ÙĦØ§ØµØ©": 35275,
  "ÙĦØ§ØµÙĤ": 63598,
  "ÙĦØ§ØµÙĤØ©": 57279,
  "ÙĦØ§Ø·": 4932,
  "ÙĦØ§Ø·ÙĪÙĨ": 42652,
  "ÙĦØ§Ø·ÙĬÙĨ": 26848,
  "ÙĦØ§Ø¹": 1263,
  "ÙĦØ§Ø¹Ø¨": 4808,
  "ÙĦØ§Ø¹Ø¨ÙĬÙĨ": 19629,
  "ÙĦØ§Ø¹ÙĤ": 32740,
  "ÙĦØ§Øº": 3932,
  "ÙĦØ§ØŃ": 908,
  "ÙĦØ§ØŃØ©": 29807,
  "ÙĦØ§ØŃØ¸": 3980,
  "ÙĦØ§ØŃØ¸Ø§Øª": 8168,
  "ÙĦØ§ØŃØ¸Ø©": 39947,
  "ÙĦØ§ØŃÙ": 22939,
  "ÙĦØ§ØŃÙĤ": 18536,
  "ÙĦØ§ØŃÙĤØ©": 12769,
  "ÙĦØ§ØŃÙħ": 26469,
  "ÙĦØ§ØŃÙĬØ§Øª": 41833,
  "ÙĦØ§ØŃÙĬØ©": 51264,
  "ÙĦØ§ØŃÙĬÙĨ": 38299,
  "ÙĦØ§Ù": 419,
  "ÙĦØ§Ùģ": 1344,
  "ÙĦØ§ÙģØ§": 23075,
  "ÙĦØ§ÙģØ§Øª": 34298,
  "ÙĦØ§ÙģØ©": 11076,
  "ÙĦØ§ÙģÙĬ": 26512,
  "ÙĦØ§ÙģÙĬØ§": 30866,
  "ÙĦØ§ÙĤ": 906,
  "ÙĦØ§ÙĤØ§Ø©": 35048,
  "ÙĦØ§ÙĤØ§Øª": 2102,
  "ÙĦØ§ÙĤØ©": 2014,
  "ÙĦØ§ÙĤØªÙĩØ§": 44987,
  "ÙĦØ§ÙĤÙĩ": 32958,
  "ÙĦØ§ÙĤÙī": 41839,
  "ÙĦØ§ÙĤÙĬ": 9452,
  "ÙĦØ§ÙĤÙĬØ§": 34415,
  "ÙĦØ§ÙĤÙĬØ§Øª": 20396,
  "ÙĦØ§ÙĤÙĬØ©": 25829,
  "ÙĦØ§Ùĥ": 2506,
  "ÙĦØ§ÙĥØ§Øª": 56273,
  "ÙĦØ§ÙĥÙĪÙĦÙĪÙħØ¨ÙĬ": 59505,
  "ÙĦØ§ÙĦ": 593,
  "ÙĦØ§ÙĦØ": 2751,
  "ÙĦØ§ÙĦØ§": 18364,
  "ÙĦØ§ÙĦØ§Øª": 8093,
  "ÙĦØ§ÙĦØ©": 4315,
  "ÙĦØ§ÙĦØª": 13469,
  "ÙĦØ§ÙĦØªÙĩ": 23977,
  "ÙĦØ§ÙĦØªÙĩØ§": 32290,
  "ÙĦØ§ÙĦÙħ": 27269,
  "ÙĦØ§ÙĦÙĩ": 11610,
  "ÙĦØ§ÙĦÙĩØ§": 12358,
  "ÙĦØ§ÙĦÙĩÙħ": 34862,
  "ÙĦØ§ÙĦÙĩÙĨØºØ§Ø±ÙĬØ©": 59567,
  "ÙĦØ§ÙĦÙĬ": 11792,
  "ÙĦØ§ÙĦÙĬØ©": 10889,
  "ÙĦØ§Ùħ": 552,
  "ÙĦØ§ÙħØ§": 17118,
  "ÙĦØ§ÙħØ§Øª": 5724,
  "ÙĦØ§ÙħØ©": 2237,
  "ÙĦØ§ÙħØª": 14920,
  "ÙĦØ§ÙħØªÙĩ": 36717,
  "ÙĦØ§ÙħØ°": 53368,
  "ÙĦØ§ÙħØ°Ø©": 35828,
  "ÙĦØ§ÙħØ³": 21002,
  "ÙĦØ§ÙħØŃ": 19368,
  "ÙĦØ§ÙħÙĨØ§": 28135,
  "ÙĦØ§ÙħÙĩ": 16968,
  "ÙĦØ§ÙħÙĪ": 39042,
  "ÙĦØ§ÙħÙī": 7872,
  "ÙĦØ§ÙħÙĬ": 1444,
  "ÙĦØ§ÙħÙĬØ§": 27843,
  "ÙĦØ§ÙħÙĬØ§Øª": 17528,
  "ÙĦØ§ÙħÙĬØ©": 1209,
  "ÙĦØ§ÙħÙĬØ°": 8415,
  "ÙĦØ§ÙħÙĬØ°Ùĩ": 35310,
  "ÙĦØ§ÙħÙĬÙĩ": 10149,
  "ÙĦØ§ÙħÙĬÙĪÙĨ": 24581,
  "ÙĦØ§ÙħÙĬÙĬÙĨ": 13414,
  "ÙĦØ§ÙĨ": 977,
  "ÙĦØ§ÙĨØ§": 18993,
  "ÙĦØ§ÙĨØ§Øª": 2793,
  "ÙĦØ§ÙĨØªØ§": 44966,
  "ÙĦØ§ÙĨØ¯": 5133,
  "ÙĦØ§ÙĨØ¯Ø§": 20618,
  "ÙĦØ§ÙĨØ¯ÙĪ": 47931,
  "ÙĦØ§ÙĨØ¯ÙĬ": 52584,
  "ÙĦØ§ÙĨØ¯ÙĬØ©": 28866,
  "ÙĦØ§ÙĨÙĥØ§": 18374,
  "ÙĦØ§ÙĨÙĩ": 28800,
  "ÙĦØ§ÙĨÙĬ": 8022,
  "ÙĦØ§ÙĨÙĬØ©": 8167,
  "ÙĦØ§ÙĨÙĬÙĬÙĨ": 50734,
  "ÙĦØ§Ùĩ": 5568,
  "ÙĦØ§ÙĩØ§": 27018,
  "ÙĦØ§ÙĪØ§Øª": 45422,
  "ÙĦØ§ÙĪØ©": 6293,
  "ÙĦØ§ÙĪØ³Ùĥ": 59713,
  "ÙĦØ§ÙĪØ³ÙĥÙĬÙĨÙĬØ§ÙħØ§ÙĦØ·": 60034,
  "ÙĦØ§ÙĪÙī": 43274,
  "ÙĦØ§ÙĪÙĬ": 19511,
  "ÙĦØ§ÙĬ": 7077,
  "ÙĦØ§ÙĬØ§": 5334,
  "ÙĦØ§ÙĬØ§Øª": 1771,
  "ÙĦØ§ÙĬØ¨": 47736,
  "ÙĦØ§ÙĬØ©": 5264,
  "ÙĦØ§ÙĬØª": 8804,
  "ÙĦØ§ÙĬØ¯": 52857,
  "ÙĦØ§ÙĬØ³": 33325,
  "ÙĦØ§ÙĬØ³ØªÙĬØ´ÙĨ": 36449,
  "ÙĦØ§ÙĬÙĨ": 5772,
  "ÙĦØ§ÙĬÙĬÙĨ": 9983,
  "ÙĦØ¨": 520,
  "ÙĦØ¨Ø§": 53944,
  "ÙĦØ¨Ø§Øª": 9859,
  "ÙĦØ¨Ø§Ø³": 53754,
  "ÙĦØ¨Ø§ÙĨ": 36246,
  "ÙĦØ¨Ø§ÙĨÙĬ": 36610,
  "ÙĦØ¨Ø§ÙĨÙĬØ§Ø£": 46284,
  "ÙĦØ¨Ø§ÙĨÙĬØ©": 57082,
  "ÙĦØ¨Ø©": 4078,
  "ÙĦØ¨Øª": 22856,
  "ÙĦØ¨Ø±": 35394,
  "ÙĦØ¨Ø±Ø§ÙĬØª": 59926,
  "ÙĦØ¨Ø±Øª": 57736,
  "ÙĦØ¨Ø³": 15689,
  "ÙĦØ¨Ù": 4930,
  "ÙĦØ¨Ùĥ": 16492,
  "ÙĦØ¨ÙĥÙĬ": 52883,
  "ÙĦØ¨ÙĦ": 34316,
  "ÙĦØ¨ÙĦØ©": 46784,
  "ÙĦØ¨ÙĨ": 19011,
  "ÙĦØ¨ÙĨØ§ÙĨ": 44647,
  "ÙĦØ¨Ùĩ": 14517,
  "ÙĦØ¨ÙĩØ§": 48640,
  "ÙĦØ¨ÙĪÙĦ": 26133,
  "ÙĦØ¨ÙĪÙĨ": 25250,
  "ÙĦØ¨Ùī": 42697,
  "ÙĦØ¨ÙĬ": 5164,
  "ÙĦØ¨ÙĬØ©": 2980,
  "ÙĦØ¨ÙĬØ³": 31663,
  "ÙĦØ¨ÙĬÙĨ": 14719,
  "ÙĦØ©": 396,
  "ÙĦØª": 560,
  "ÙĦØªØ§": 12735,
  "ÙĦØªØ§ÙĨ": 17239,
  "ÙĦØªØ©": 32991,
  "ÙĦØªØ±": 15559,
  "ÙĦØªØ±Ø§": 21571,
  "ÙĦØªØ±Ø§Ø³": 40379,
  "ÙĦØªØ²Ø§Ùħ": 48920,
  "ÙĦØªØ²Ùħ": 22628,
  "ÙĦØªØ³": 40424,
  "ÙĦØªØŃÙĤ": 59748,
  "ÙĦØªÙ": 7135,
  "ÙĦØªÙĤÙī": 28439,
  "ÙĦØªÙĤÙĬ": 13243,
  "ÙĦØªÙĥ": 11770,
  "ÙĦØªÙĥÙħ": 38773,
  "ÙĦØªÙħ": 22384,
  "ÙĦØªÙĨØ§": 13094,
  "ÙĦØªÙĩ": 2499,
  "ÙĦØªÙĩØ§": 4284,
  "ÙĦØªÙĩØ¨Ø©": 61768,
  "ÙĦØªÙĩÙħ": 9602,
  "ÙĦØªÙĪÙĨ": 12580,
  "ÙĦØªÙī": 48088,
  "ÙĦØªÙĬ": 8297,
  "ÙĦØªÙĬÙĥ": 39382,
  "ÙĦØªÙĬÙĥÙĪ": 20294,
  "ÙĦØªÙĬÙĨ": 5789,
  "ÙĦØ«": 4672,
  "ÙĦØ¬": 1227,
  "ÙĦØ¬Ø£": 8290,
  "ÙĦØ¬Ø§Øª": 49915,
  "ÙĦØ¬Ø©": 27019,
  "ÙĦØ¬Ù": 32189,
  "ÙĦØ¬Ùħ": 52129,
  "ÙĦØ¬ÙħÙĩÙĪØ±ÙĬØ©": 58961,
  "ÙĦØ¬ÙĬ": 63843,
  "ÙĦØ¬ÙĬÙĥ": 39436,
  "ÙĦØ®": 4803,
  "ÙĦØ®Øµ": 10611,
  "ÙĦØ®ØµØ§Øª": 30884,
  "ÙĦØ®Ù": 63115,
  "ÙĦØ®ÙĬØµ": 29035,
  "ÙĦØ¯": 730,
  "ÙĦØ¯Ø§": 46021,
  "ÙĦØ¯Ø§Øª": 15685,
  "ÙĦØ¯Ø§ÙĨ": 17334,
  "ÙĦØ¯Ø©": 14336,
  "ÙĦØ¯Ù": 44106,
  "ÙĦØ¯Ùĩ": 18403,
  "ÙĦØ¯ÙĪÙĨ": 16468,
  "ÙĦØ¯ÙĬ": 46273,
  "ÙĦØ¯ÙĬØ§Øª": 20306,
  "ÙĦØ¯ÙĬØ©": 12793,
  "ÙĦØ°": 5488,
  "ÙĦØ°Ø§Øª": 54405,
  "ÙĦØ°Ø°": 50317,
  "ÙĦØ±": 5638,
  "ÙĦØ²": 3584,
  "ÙĦØ²Ø§ÙĦ": 14954,
  "ÙĦØ²Ø§Ùħ": 19081,
  "ÙĦØ²Ø§ÙħÙĬ": 51518,
  "ÙĦØ²Ø§ÙħÙĬØ©": 37799,
  "ÙĦØ²Ù": 7996,
  "ÙĦØ²Ùħ": 6251,
  "ÙĦØ²ÙħØ§Øª": 9494,
  "ÙĦØ²ÙħØ§ØªÙĩØ§": 28388,
  "ÙĦØ²ÙħØ©": 55301,
  "ÙĦØ²ÙĬ": 50074,
  "ÙĦØ³": 507,
  "ÙĦØ³Ø§Øª": 14708,
  "ÙĦØ³Ø§ÙĨ": 9103,
  "ÙĦØ³Ø©": 3107,
  "ÙĦØ³Øª": 39281,
  "ÙĦØ³ØªØ±ÙĪÙĦ": 31855,
  "ÙĦØ³Ø·": 1072,
  "ÙĦØ³Ø·ÙĬÙĨ": 11502,
  "ÙĦØ³Ø·ÙĬÙĨÙĬÙĬÙĨ": 15655,
  "ÙĦØ³Ù": 2021,
  "ÙĦØ³ÙģØ©": 6318,
  "ÙĦØ³Ùĥ": 47171,
  "ÙĦØ³ÙĦ": 2425,
  "ÙĦØ³ÙĦØ§Øª": 4305,
  "ÙĦØ³ÙĦØ©": 3797,
  "ÙĦØ³Ùħ": 33572,
  "ÙĦØ³ÙĨ": 29140,
  "ÙĦØ³ÙĨØ©": 58217,
  "ÙĦØ³ÙĨÙĥÙĬ": 61374,
  "ÙĦØ³ÙĪÙģ": 22183,
  "ÙĦØ³ÙĪÙĨ": 20765,
  "ÙĦØ³Ùī": 58887,
  "ÙĦØ³ÙĬ": 6170,
  "ÙĦØ´": 7867,
  "ÙĦØ´Ø§ÙĨ": 22192,
  "ÙĦØ´Ù": 60180,
  "ÙĦØµ": 2142,
  "ÙĦØµØ§Øª": 52757,
  "ÙĦØµØ©": 28712,
  "ÙĦØµÙĤ": 29466,
  "ÙĦØµÙĤØ§Øª": 24422,
  "ÙĦØ·": 957,
  "ÙĦØ·Ø§Øª": 10867,
  "ÙĦØ·Ø§ÙĨ": 21499,
  "ÙĦØ·Ø©": 5436,
  "ÙĦØ·Ù": 38147,
  "ÙĦØ·Ùģ": 37066,
  "ÙĦØ·ÙĨØ©": 25792,
  "ÙĦØ·ÙĬ": 46154,
  "ÙĦØ·ÙĬÙģ": 9123,
  "ÙĦØ¸": 32321,
  "ÙĦØ¹": 782,
  "ÙĦØ¹Ø§": 51903,
  "ÙĦØ¹Ø§Ø¨": 2752,
  "ÙĦØ¹Ø§Øª": 21673,
  "ÙĦØ¹Ø¨": 2017,
  "ÙĦØ¹Ø¨Ø©": 29170,
  "ÙĦØ¹Ø¨Ùĩ": 23984,
  "ÙĦØ¹Ø©": 4763,
  "ÙĦØ¹Øª": 7307,
  "ÙĦØ¹Ù": 33618,
  "ÙĦØ¹ÙĤØ©": 42879,
  "ÙĦØ¹ÙĨ": 39333,
  "ÙĦØ¹Ùĩ": 40767,
  "ÙĦØ¹ÙĩØ§": 56716,
  "ÙĦØ¹ÙĬ": 50500,
  "ÙĦØº": 742,
  "ÙĦØºØ§Ø¡": 4986,
  "ÙĦØºØ§Øª": 14343,
  "ÙĦØºØ§Ø±ÙĬ": 30714,
  "ÙĦØºØ§Ø±ÙĬØ©": 34931,
  "ÙĦØºØ§Ø²": 15918,
  "ÙĦØºØ§Ùħ": 23268,
  "ÙĦØºØ©": 5231,
  "ÙĦØºÙ": 12202,
  "ÙĦØºÙĦ": 35397,
  "ÙĦØºÙħ": 43235,
  "ÙĦØºÙī": 32169,
  "ÙĦØºÙĬ": 16938,
  "ÙĦØŃ": 845,
  "ÙĦØŃØ§ØŃ": 61134,
  "ÙĦØŃØ§ÙĤ": 41026,
  "ÙĦØŃØ§ÙĨ": 27966,
  "ÙĦØŃØ©": 1607,
  "ÙĦØŃØ¸": 50883,
  "ÙĦØŃÙ": 23248,
  "ÙĦØŃÙģØ§Ø©": 58124,
  "ÙĦØŃÙĤ": 9920,
  "ÙĦØŃÙĦØ©": 57284,
  "ÙĦØŃÙħ": 46393,
  "ÙĦØŃÙĩ": 45302,
  "ÙĦØŃÙī": 62780,
  "ÙĦØŃÙĬ": 31866,
  "ÙĦØŃÙĬÙĨ": 22479,
  "ÙĦÙ": 270,
  "ÙĦÙģ": 506,
  "ÙĦÙģØ§": 15683,
  "ÙĦÙģØ§Øª": 3394,
  "ÙĦÙģØ§Ø¸": 27772,
  "ÙĦÙģØ§ÙĨÙĬØ§": 45817,
  "ÙĦÙģØ©": 2402,
  "ÙĦÙģØª": 4526,
  "ÙĦÙģØ²ÙĬÙĪÙĨ": 3234,
  "ÙĦÙģØ¸": 62574,
  "ÙĦÙģÙ": 9010,
  "ÙĦÙģÙĦ": 15799,
  "ÙĦÙģÙĨØ§": 53226,
  "ÙĦÙģÙĩ": 17132,
  "ÙĦÙģÙĩØ§": 48650,
  "ÙĦÙģÙĪÙĨ": 38065,
  "ÙĦÙģÙĬ": 14222,
  "ÙĦÙģÙĬØ§": 42160,
  "ÙĦÙģÙĬØ©": 26457,
  "ÙĦÙģÙĬÙħ": 56158,
  "ÙĦÙģÙĬÙĨ": 19376,
  "ÙĦÙĤ": 536,
  "ÙĦÙĤØ§": 7766,
  "ÙĦÙĤØ§Ø¡": 6956,
  "ÙĦÙĤØ§Ø¨": 20392,
  "ÙĦÙĤØ§Øª": 5810,
  "ÙĦÙĤØ§ÙĨ": 32707,
  "ÙĦÙĤØ©": 1038,
  "ÙĦÙĤØª": 5922,
  "ÙĦÙĤÙ": 5106,
  "ÙĦÙĤÙħ": 60683,
  "ÙĦÙĤÙĩ": 11917,
  "ÙĦÙĤÙĩØ§": 49871,
  "ÙĦÙĤÙĪØ§": 34422,
  "ÙĦÙĤÙĪÙĨ": 15672,
  "ÙĦÙĤÙī": 4715,
  "ÙĦÙĤÙĬ": 5274,
  "ÙĦÙĤÙĬÙĨ": 22348,
  "ÙĦÙĥ": 363,
  "ÙĦÙĥØ§": 27447,
  "ÙĦÙĥØ§Øª": 12106,
  "ÙĦÙĥØ©": 20853,
  "ÙĦÙĥØª": 24438,
  "ÙĦÙĥØªØ±": 1479,
  "ÙĦÙĥØªØ±ÙĪÙĨÙĬ": 47237,
  "ÙĦÙĥØªØ±ÙĪÙĨÙĬØ§Øª": 27888,
  "ÙĦÙĥØªØ±ÙĪÙĨÙĬØ©": 28574,
  "ÙĦÙĥØ³": 19461,
  "ÙĦÙĥÙ": 4373,
  "ÙĦÙĥÙĦ": 30272,
  "ÙĦÙĥÙĦÙĪØ±": 49565,
  "ÙĦÙĥÙħ": 6113,
  "ÙĦÙĥÙĩ": 29125,
  "ÙĦÙĥÙĪÙĬØª": 51574,
  "ÙĦÙĥÙĪÙĬØªØ§ÙĦØµÙĪÙħØ§ÙĦØ¨": 59424,
  "ÙĦÙĥÙĬ": 11173,
  "ÙĦÙĥÙĬØ©": 9242,
  "ÙĦÙĦ": 2235,
  "ÙĦÙĦØ": 402,
  "ÙĦÙĦØ§": 3511,
  "ÙĦÙĦØ§Ø": 1962,
  "ÙĦÙĦØ§Ø¨": 17811,
  "ÙĦÙĦØ§Øª": 5046,
  "ÙĦÙĦØ§Ø«": 49859,
  "ÙĦÙĦØ§Ø¬": 12076,
  "ÙĦÙĦØ§Ø¬Ø¦ÙĬÙĨ": 18406,
  "ÙĦÙĦØ§Ø¯": 22135,
  "ÙĦÙĦØ§Ø±": 13267,
  "ÙĦÙĦØ§Ø¹": 5954,
  "ÙĦÙĦØ§Ø¹Ø¨": 23822,
  "ÙĦÙĦØ§ØŃ": 9036,
  "ÙĦÙĦØ§Ù": 7929,
  "ÙĦÙĦØ§Ùģ": 48312,
  "ÙĦÙĦØ§ÙĤ": 25881,
  "ÙĦÙĦØ§Ùħ": 21832,
  "ÙĦÙĦØ§ÙĨ": 6579,
  "ÙĦÙĦØ¨": 58189,
  "ÙĦÙĦØª": 15630,
  "ÙĦÙĦÙ": 5115,
  "ÙĦÙĦÙĥ": 51736,
  "ÙĦÙĦÙĨ": 34199,
  "ÙĦÙĦÙĨØ§": 43664,
  "ÙĦÙĦÙĩ": 6926,
  "ÙĦÙĦÙĩØ§": 24182,
  "ÙĦÙĦÙĩÙ": 55601,
  "ÙĦÙĦÙĩÙħ": 55781,
  "ÙĦÙĦÙĪ": 22008,
  "ÙĦÙĦÙĪØ§": 47586,
  "ÙĦÙĦÙĪÙĨ": 18784,
  "ÙĦÙĦÙī": 47475,
  "ÙĦÙĦÙĬ": 16230,
  "ÙĦÙĦÙĬÙĨ": 15475,
  "ÙĦÙħ": 328,
  "ÙĦÙħØ§": 2483,
  "ÙĦÙħØ§Øª": 2611,
  "ÙĦÙħØ§Ùħ": 40351,
  "ÙĦÙħØ§ÙĨ": 2097,
  "ÙĦÙħØ§ÙĨØ§Øª": 38968,
  "ÙĦÙħØ§ÙĨÙĬ": 4031,
  "ÙĦÙħØ§ÙĨÙĬØ§": 13601,
  "ÙĦÙħØ§ÙĨÙĬØ©": 3153,
  "ÙĦÙħØ§ÙĨÙĬÙĬÙĨ": 53591,
  "ÙĦÙħØ¨ÙĬ": 8913,
  "ÙĦÙħØ¨ÙĬØ§Ø¯": 16024,
  "ÙĦÙħØ¨ÙĬØ©": 11109,
  "ÙĦÙħØ¨ÙĬÙĥ": 49715,
  "ÙĦÙħØ©": 1581,
  "ÙĦÙħØª": 14114,
  "ÙĦÙħØ°": 56915,
  "ÙĦÙħØ±Øª": 21803,
  "ÙĦÙħØ³": 18786,
  "ÙĦÙħØ´": 63059,
  "ÙĦÙħÙ": 3864,
  "ÙĦÙħÙĥ": 51029,
  "ÙĦÙħÙĦÙģ": 44115,
  "ÙĦÙħÙĨ": 5313,
  "ÙĦÙħÙĨØ§": 10536,
  "ÙĦÙħÙĨØªØ¯Ùī": 47679,
  "ÙĦÙħÙĨØ¯": 52900,
  "ÙĦÙħÙĨÙ": 22758,
  "ÙĦÙħÙĨÙĬ": 22800,
  "ÙĦÙħÙĨÙĬÙĪÙħ": 26811,
  "ÙĦÙħÙĩ": 11583,
  "ÙĦÙħÙĩØ§": 30730,
  "ÙĦÙħÙĪØ§": 13018,
  "ÙĦÙħÙĪÙĨ": 4481,
  "ÙĦÙħÙĪÙĨØ¯": 53961,
  "ÙĦÙħÙĬ": 4032,
  "ÙĦÙħÙĬØ©": 60263,
  "ÙĦÙħÙĬØ°": 19855,
  "ÙĦÙħÙĬØ°Ø©": 53294,
  "ÙĦÙħÙĬØ¹": 35024,
  "ÙĦÙħÙĬÙĨ": 1892,
  "ÙĦÙħÙĬÙĬÙĨ": 49819,
  "ÙĦÙĨ": 910,
  "ÙĦÙĨØ§": 2429,
  "ÙĦÙĨØª": 8192,
  "ÙĦÙĨÙĬ": 24122,
  "ÙĦÙĩ": 486,
  "ÙĦÙĩØ§": 833,
  "ÙĦÙĩØ§Ùħ": 28389,
  "ÙĦÙĩØ©": 25317,
  "ÙĦÙĩÙ": 1857,
  "ÙĦÙĩÙħ": 1982,
  "ÙĦÙĩÙħØ§": 10120,
  "ÙĦÙĩÙĨ": 38263,
  "ÙĦÙĩÙĪØ¨": 42876,
  "ÙĦÙĩÙĬ": 12157,
  "ÙĦÙĪ": 637,
  "ÙĦÙĪØ§": 5233,
  "ÙĦÙĪØ§Øª": 10643,
  "ÙĦÙĪØ§ØŃ": 53489,
  "ÙĦÙĪØ§ÙĨ": 5443,
  "ÙĦÙĪØ¨": 2423,
  "ÙĦÙĪØ¨Ø§": 27873,
  "ÙĦÙĪØ¨Ø§ÙĦ": 38612,
  "ÙĦÙĪØ¨Ø©": 6242,
  "ÙĦÙĪØ¨Ùĩ": 43420,
  "ÙĦÙĪØ¨ÙĬÙĨ": 22237,
  "ÙĦÙĪØ©": 32736,
  "ÙĦÙĪØª": 43236,
  "ÙĦÙĪØªÙĬ": 22874,
  "ÙĦÙĪØ«": 33760,
  "ÙĦÙĪØ¬": 22353,
  "ÙĦÙĪØ¯": 21139,
  "ÙĦÙĪØ¯Ø±Ø§Øª": 59242,
  "ÙĦÙĪØ±": 10800,
  "ÙĦÙĪØ±Ø§": 60030,
  "ÙĦÙĪØ±ÙĬÙĨ": 41590,
  "ÙĦÙĪØ³": 8331,
  "ÙĦÙĪØ·Ø©": 38739,
  "ÙĦÙĪØ¹": 10055,
  "ÙĦÙĪØº": 36076,
  "ÙĦÙĪÙģ": 10912,
  "ÙĦÙĪÙģØ§": 39840,
  "ÙĦÙĪÙģØ§ÙĥÙĬ": 56732,
  "ÙĦÙĪÙģØ§ÙĥÙĬØ©": 40797,
  "ÙĦÙĪÙģØ©": 33739,
  "ÙĦÙĪÙĤ": 45931,
  "ÙĦÙĪÙĥ": 4478,
  "ÙĦÙĪÙĦ": 38288,
  "ÙĦÙĪÙĦÙĪ": 50915,
  "ÙĦÙĪÙħ": 5255,
  "ÙĦÙĪÙħØ§": 55706,
  "ÙĦÙĪÙħØ§Øª": 10194,
  "ÙĦÙĪÙħØ©": 48167,
  "ÙĦÙĪÙĨ": 4765,
  "ÙĦÙĪÙĨØ²Ø§": 45621,
  "ÙĦÙĪÙĩ": 24196,
  "ÙĦÙĪÙĩØ§": 34359,
  "ÙĦÙĪÙĬ": 33996,
  "ÙĦÙĪÙĬØ©": 14567,
  "ÙĦÙĪÙĬØ²": 41450,
  "ÙĦÙĪÙĬØ³": 13355,
  "ÙĦÙĪÙĬÙĨ": 55325,
  "ÙĦÙī": 316,
  "ÙĦÙīØ¡": 63438,
  "ÙĦÙĬ": 321,
  "ÙĦÙĬØ§": 1711,
  "ÙĦÙĬØ§Øª": 1347,
  "ÙĦÙĬØ§Ø³": 57081,
  "ÙĦÙĬØ§Ùģ": 12643,
  "ÙĦÙĬØ§ÙĨ": 17951,
  "ÙĦÙĬØ¨": 3460,
  "ÙĦÙĬØ¨Ø³": 16739,
  "ÙĦÙĬØ¨ÙĬ": 37309,
  "ÙĦÙĬØ¨ÙĬÙĨ": 31263,
  "ÙĦÙĬØ©": 478,
  "ÙĦÙĬØª": 7593,
  "ÙĦÙĬØªÙĥ": 52600,
  "ÙĦÙĬØªÙĩ": 30644,
  "ÙĦÙĬØªÙĩØ§": 31337,
  "ÙĦÙĬØªÙĪ": 46325,
  "ÙĦÙĬØªÙĪØ§ÙĨÙĬØ§Ø³ÙĦÙĪÙģØ§ÙĥÙĬ": 59689,
  "ÙĦÙĬØ«": 51142,
  "ÙĦÙĬØ¬": 15207,
  "ÙĦÙĬØ¯": 4937,
  "ÙĦÙĬØ¯ÙĬØ©": 61185,
  "ÙĦÙĬØ±": 53387,
  "ÙĦÙĬØ²": 30275,
  "ÙĦÙĬØ²ÙĬØ©": 31892,
  "ÙĦÙĬØ²ÙĬÙĩ": 49590,
  "ÙĦÙĬØ³": 4301,
  "ÙĦÙĬØ³Ø§Ø±": 34138,
  "ÙĦÙĬØ³ÙĬ": 63021,
  "ÙĦÙĬØ´": 52664,
  "ÙĦÙĬØ´ÙĬØ§Øª": 33032,
  "ÙĦÙĬØµ": 8436,
  "ÙĦÙĬØ·": 13595,
  "ÙĦÙĬØ¹": 55572,
  "ÙĦÙĬØ¹Ø©": 20550,
  "ÙĦÙĬØº": 12242,
  "ÙĦÙĬØŃ": 10485,
  "ÙĦÙĬÙ": 647,
  "ÙĦÙĬÙģ": 1970,
  "ÙĦÙĬÙģØ§Øª": 5536,
  "ÙĦÙĬÙģØ©": 11772,
  "ÙĦÙĬÙģØ²ÙĬÙĪÙĨ": 9605,
  "ÙĦÙĬÙģÙĩ": 20473,
  "ÙĦÙĬÙģÙĪÙĨ": 16582,
  "ÙĦÙĬÙĤ": 2918,
  "ÙĦÙĬÙĤØ§Øª": 3977,
  "ÙĦÙĬÙĤØ©": 50462,
  "ÙĦÙĬÙĥ": 4319,
  "ÙĦÙĬÙĥØ³": 29832,
  "ÙĦÙĬÙĥÙĪØ¨ØªØ±": 39766,
  "ÙĦÙĬÙĥÙĪÙħ": 57209,
  "ÙĦÙĬÙĥÙĪÙĨ": 30106,
  "ÙĦÙĬÙĥÙĬØ©": 46839,
  "ÙĦÙĬÙĦ": 1277,
  "ÙĦÙĬÙĦØ§": 13500,
  "ÙĦÙĬÙĦØ§Øª": 14307,
  "ÙĦÙĬÙĦØ©": 7179,
  "ÙĦÙĬÙĦÙĩ": 52326,
  "ÙĦÙĬÙĦÙĩØ§": 36616,
  "ÙĦÙĬÙħ": 766,
  "ÙĦÙĬÙħØ§": 23261,
  "ÙĦÙĬÙħØ§ÙĨ": 28005,
  "ÙĦÙĬÙħØ©": 7832,
  "ÙĦÙĬÙħÙĩ": 15529,
  "ÙĦÙĬÙħÙī": 26412,
  "ÙĦÙĬÙħÙĬ": 4103,
  "ÙĦÙĬÙħÙĬØ§": 24282,
  "ÙĦÙĬÙħÙĬØ©": 4942,
  "ÙĦÙĬÙħÙĬÙĩ": 50010,
  "ÙĦÙĬÙĨ": 869,
  "ÙĦÙĬÙĨØ§": 2849,
  "ÙĦÙĬÙĨØ¬": 59501,
  "ÙĦÙĬÙĨØº": 34153,
  "ÙĦÙĬÙĨÙ": 11716,
  "ÙĦÙĬÙĨÙī": 56469,
  "ÙĦÙĬÙĨÙĬ": 12030,
  "ÙĦÙĬÙĨÙĬØ©": 44879,
  "ÙĦÙĬÙĩ": 3035,
  "ÙĦÙĬÙĩØ§": 9852,
  "ÙĦÙĬÙĩÙħ": 61683,
  "ÙĦÙĬÙĪ": 2660,
  "ÙĦÙĬÙĪØ¨ÙĬØ©": 16348,
  "ÙĦÙĬÙĪØªÙĬÙĥ": 23808,
  "ÙĦÙĬÙĪÙĨ": 9776,
  "ÙĦÙĬÙĪÙĪØ¯": 23470,
  "ÙĦÙĬÙĬ": 44750,
  "ÙĦÙĬÙĬÙĨ": 6600,
  "ÙĦÙĬÙĬÙĩ": 60314,
  "ÙħØ¢": 16637,
  "ÙħØ£": 5805,
  "ÙħØ£Ø³": 24615,
  "ÙħØ£Ø³Ø§Ø©": 24161,
  "ÙħØ£Ù": 19746,
  "ÙħØ£Ùħ": 53466,
  "ÙħØ£ÙĨ": 44102,
  "ÙħØ£ÙĨØ©": 42339,
  "ÙħØ£ÙĨÙĬÙĨØ©": 34348,
  "ÙħØ¤": 896,
  "ÙħØ¦": 5737,
  "ÙħØ¦Ø§Øª": 7235,
  "ÙħØ¦Ø©": 12019,
  "ÙħØ¦Ø²Ø§Ø²": 60801,
  "ÙħØ¦ÙĨ": 18679,
  "ÙħØ¦ÙĨØ§ÙĨ": 17429,
  "ÙħØ§": 365,
  "ÙħØ§Ø¡": 3471,
  "ÙħØ§Ø£": 50829,
  "ÙħØ§Ø¦": 26355,
  "ÙħØ§Ø¦Ø©": 8503,
  "ÙħØ§Ø¦Ø¯Ø©": 23137,
  "ÙħØ§Ø¦ÙĦ": 33385,
  "ÙħØ§Ø¦ÙĬ": 34795,
  "ÙħØ§Ø¦ÙĬØ©": 28803,
  "ÙħØ§Ø§Ø": 61502,
  "ÙħØ§Ø¨": 21565,
  "ÙħØ§Ø¨ÙĬÙĨ": 19129,
  "ÙħØ§Øª": 3884,
  "ÙħØ§Ø«": 38607,
  "ÙħØ§Ø¬": 13309,
  "ÙħØ§Ø¬Ø©": 55990,
  "ÙħØ§Ø¬Ø¯": 9304,
  "ÙħØ§Ø¬Ø³ØªÙĬØ±": 14103,
  "ÙħØ§Ø¬ÙĦ": 54758,
  "ÙħØ§Ø¬Ùĩ": 33343,
  "ÙħØ§Ø®": 51496,
  "ÙħØ§Ø¯": 9131,
  "ÙħØ§Ø¯Ø©": 3318,
  "ÙħØ§Ø¯ØªÙĩ": 47373,
  "ÙħØ§Ø¯ÙĬ": 20719,
  "ÙħØ§Ø¯ÙĬØ§": 21920,
  "ÙħØ§Ø¯ÙĬØ©": 15047,
  "ÙħØ§Ø°": 50538,
  "ÙħØ§Ø°Ø§": 4492,
  "ÙħØ§Ø±": 1420,
  "ÙħØ§Ø±Ø§Øª": 8842,
  "ÙħØ§Ø±Ø©": 20420,
  "ÙħØ§Ø±Ø³": 42218,
  "ÙħØ§Ø±Ø³Ø§Øª": 29609,
  "ÙħØ§Ø±Ø³Ø©": 15541,
  "ÙħØ§Ø±Ùĥ": 5773,
  "ÙħØ§Ø±ÙĥØ§Øª": 36225,
  "ÙħØ§Ø±ÙĥØ©": 23492,
  "ÙħØ§Ø±ÙĬ": 17108,
  "ÙħØ§Ø±ÙĬØ§": 21329,
  "ÙħØ§Ø±ÙĬØ§ÙĨ": 35855,
  "ÙħØ§Ø±ÙĬÙĨ": 34808,
  "ÙħØ§Ø±ÙĬÙĪ": 18880,
  "ÙħØ§Ø²": 5739,
  "ÙħØ§Ø²ÙĦÙĨØ§": 55212,
  "ÙħØ§Ø²ÙĨ": 16449,
  "ÙħØ§Ø³": 5008,
  "ÙħØ§Ø³Ø§Øª": 50599,
  "ÙħØ§Ø³Ø©": 21367,
  "ÙħØ§Ø´": 17392,
  "ÙħØ§Ø´ÙĬ": 41384,
  "ÙħØ§Øµ": 42125,
  "ÙħØ§Ø¶": 22025,
  "ÙħØ§Ø¶ÙĬ": 22400,
  "ÙħØ§Ø¶ÙĬØ©": 33902,
  "ÙħØ§Ø·": 42472,
  "ÙħØ§Ø¹": 9909,
  "ÙħØ§Ø¹Ø§Øª": 29393,
  "ÙħØ§Ø¹Ø©": 9230,
  "ÙħØ§Øº": 24906,
  "ÙħØ§ØºÙĬ": 50227,
  "ÙħØ§ØŃ": 13608,
  "ÙħØ§Ù": 2155,
  "ÙħØ§ÙĤ": 28215,
  "ÙħØ§Ùĥ": 6141,
  "ÙħØ§ÙĥÙĨ": 4903,
  "ÙħØ§ÙĦ": 1339,
  "ÙħØ§ÙĦØ§": 11421,
  "ÙħØ§ÙĦØª": 52008,
  "ÙħØ§ÙĦØ·": 19770,
  "ÙħØ§ÙĦÙĤØ©": 36827,
  "ÙħØ§ÙĦÙĥ": 4744,
  "ÙħØ§ÙĦÙĩ": 9942,
  "ÙħØ§ÙĦÙĩØ§": 9457,
  "ÙħØ§ÙĦÙĩÙħ": 21677,
  "ÙħØ§ÙĦÙī": 13859,
  "ÙħØ§ÙĦÙĬ": 2498,
  "ÙħØ§ÙĦÙĬØ§Øª": 28607,
  "ÙħØ§ÙĦÙĬØ©": 2623,
  "ÙħØ§ÙĦÙĬÙĥ": 39785,
  "ÙħØ§Ùħ": 3401,
  "ÙħØ§ÙħØ§Øª": 30263,
  "ÙħØ§ÙħØ©": 41302,
  "ÙħØ§ÙĨ": 1477,
  "ÙħØ§ÙĨØ©": 12223,
  "ÙħØ§ÙĨÙĬ": 25489,
  "ÙħØ§Ùĩ": 17804,
  "ÙħØ§ÙĩØ§": 45793,
  "ÙħØ§ÙĩÙĬ": 12510,
  "ÙħØ§ÙĩÙĬØ±": 4044,
  "ÙħØ§ÙĩÙĬØ±ÙĬ": 16495,
  "ÙħØ§ÙĪÙĬ": 39068,
  "ÙħØ§ÙĬ": 4523,
  "ÙħØ§ÙĬØ§": 26901,
  "ÙħØ§ÙĬØ©": 2074,
  "ÙħØ§ÙĬØ±": 24858,
  "ÙħØ¨": 989,
  "ÙħØ¨Ø§Ø¨": 35625,
  "ÙħØ¨Ø§Ø¨ÙĪÙĬ": 38475,
  "ÙħØ¨Ø§Ø±": 1483,
  "ÙħØ¨Ø§Ø±ÙĬØ§Øª": 57951,
  "ÙħØ¨Ø§Ø²": 47324,
  "ÙħØ¨Ø¯": 9813,
  "ÙħØ¨Ø¯Ø£": 8538,
  "ÙħØ¨Ø±": 6083,
  "ÙħØ¨Ø±Ø§Ø·": 42732,
  "ÙħØ¨Ø±Ø§Ø·ÙĪØ±ÙĬØ©": 60177,
  "ÙħØ¨Ø±ÙĬ": 20951,
  "ÙħØ¨Ø±ÙĬØ§ÙĦÙĬØ©": 30134,
  "ÙħØ¨ÙĬ": 62250,
  "ÙħØ¨ÙĬØª": 61649,
  "ÙħØ¨ÙĬØ¯": 52797,
  "ÙħØ¨ÙĬØ¯Ø§Øª": 19201,
  "ÙħØ¨ÙĬØ¹": 23220,
  "ÙħØ¨ÙĬØ¹Ø§Øª": 8690,
  "ÙħØ¨ÙĬÙĪØªØ±": 9582,
  "ÙħØ©": 688,
  "ÙħØª": 548,
  "ÙħØªØ±": 2119,
  "ÙħØªØ¹": 25417,
  "ÙħØªØŃØ§ÙĨØ§Øª": 18303,
  "ÙħØªÙĥ": 47438,
  "ÙħØªÙĦ": 39182,
  "ÙħØªÙħ": 12744,
  "ÙħØªÙħØ±": 21299,
  "ÙħØªÙħØ³": 30371,
  "ÙħØªÙħÙĥÙĨ": 62596,
  "ÙħØªÙħÙĬØ²": 6803,
  "ÙħØªÙħÙĬØ²Ø©": 11671,
  "ÙħØªÙĨØ§": 31374,
  "ÙħØªÙĩ": 8687,
  "ÙħØªÙĩØ§": 9546,
  "ÙħØªÙĩÙħ": 27739,
  "ÙħØªÙī": 7035,
  "ÙħØªÙĬ": 47844,
  "ÙħØªÙĬÙĨ": 26586,
  "ÙħØ«": 1590,
  "ÙħØ«Ø§ÙĦ": 27849,
  "ÙħØ«ÙĦ": 1197,
  "ÙħØ«ÙĦØ©": 28245,
  "ÙħØ«ÙĬ": 27337,
  "ÙħØ«ÙĬØ±": 15208,
  "ÙħØ«ÙĬÙĦ": 28928,
  "ÙħØ¬": 551,
  "ÙħØ¬Ø§Ø¯": 43613,
  "ÙħØ¬Ø¯": 57563,
  "ÙħØ¬Ùħ": 27555,
  "ÙħØ¬ÙĬ": 44097,
  "ÙħØ¬ÙĬØ¡": 36085,
  "ÙħØ¬ÙĬØ¨": 38720,
  "ÙħØ¬ÙĬØ©": 54843,
  "ÙħØ¬ÙĬØ¯": 30076,
  "ÙħØ®": 911,
  "ÙħØ®Ø±Ø¬": 10613,
  "ÙħØ®Øµ": 63509,
  "ÙħØ®ØµØµ": 10565,
  "ÙħØ®ØµØµØ©": 13856,
  "ÙħØ¯": 642,
  "ÙħØ¯Ø§Ø¯": 20441,
  "ÙħØ¯Ø§Ø¯Ø§Øª": 16555,
  "ÙħØ¯Ø§ÙĨÙĬ": 62423,
  "ÙħØ¯Ø©": 33437,
  "ÙħØ¯ÙĦÙĪ": 62403,
  "ÙħØ¯ÙħØ¬": 56462,
  "ÙħØ¯ÙħØ¬Ø©": 54111,
  "ÙħØ¯ÙħØ±": 42242,
  "ÙħØ¯ÙħØ±Ø©": 34459,
  "ÙħØ¯Ùī": 3347,
  "ÙħØ¯ÙĬ": 7905,
  "ÙħØ¯ÙĬØ±": 1633,
  "ÙħØ¯ÙĬÙĨØ©": 62834,
  "ÙħØ°": 5768,
  "ÙħØ°Ø¨ØŃØ©": 33553,
  "ÙħØ°Ùĥ": 35939,
  "ÙħØ°ÙĥØ±": 10510,
  "ÙħØ°Ùĩ": 12567,
  "ÙħØ°ÙĩØ¨": 15639,
  "ÙħØ±": 428,
  "ÙħØ±Ø§": 28835,
  "ÙħØ±Ø§Ø¡": 6075,
  "ÙħØ±Ø§Øª": 25891,
  "ÙħØ±Ø§Ø±": 55151,
  "ÙħØ±Ø§Ø¶": 7494,
  "ÙħØ±Ø§ÙĨÙĬ": 23685,
  "ÙħØ±Ø©": 5060,
  "ÙħØ±Øª": 37153,
  "ÙħØ±Ø¯": 28558,
  "ÙħØ±Ùĥ": 40560,
  "ÙħØ±ÙĥØ©": 35083,
  "ÙħØ±ÙĥØ²": 51777,
  "ÙħØ±ÙĥÙĬØ©": 37289,
  "ÙħØ±ÙħØ§Ùĩ": 34560,
  "ÙħØ±ÙħÙĪ": 55888,
  "ÙħØ±ÙħÙĪÙĤØ©": 37753,
  "ÙħØ±ÙħÙī": 11283,
  "ÙħØ±Ùĩ": 29619,
  "ÙħØ±ÙĩØ§": 61660,
  "ÙħØ±ÙĪ": 39394,
  "ÙħØ±ÙĪÙĨ": 52891,
  "ÙħØ±ÙĬ": 3758,
  "ÙħØ±ÙĬÙĥØ§": 13933,
  "ÙħØ±ÙĬÙħ": 7675,
  "ÙħØ²": 2308,
  "ÙħØ²ÙĬØ¬": 16759,
  "ÙħØ²ÙĬØ¯": 6406,
  "ÙħØ²ÙĬÙģ": 62380,
  "ÙħØ²ÙĬÙģØ©": 46115,
  "ÙħØ³": 508,
  "ÙħØ³Ø§Ùĥ": 16410,
  "ÙħØ³Ø©": 19424,
  "ÙħØ³Øª": 768,
  "ÙħØ³ØªØ®Ø¯Ùħ": 18664,
  "ÙħØ³Ùĥ": 20176,
  "ÙħØ³ÙĦØ³ÙĦØ§Øª": 36926,
  "ÙħØ³ÙĦÙĪ": 50890,
  "ÙħØ³ÙĦÙĪÙĦ": 54692,
  "ÙħØ³Ùħ": 33978,
  "ÙħØ³ÙħÙĪ": 18524,
  "ÙħØ³ÙĬ": 10670,
  "ÙħØ³ÙĬØ·Ø±": 58008,
  "ÙħØ³ÙĬØŃ": 33850,
  "ÙħØ³ÙĬØŃÙĬØ©": 20475,
  "ÙħØ´": 594,
  "ÙħØ´Ù": 33055,
  "ÙħØ´ÙĤ": 59994,
  "ÙħØ´ÙĬ": 33859,
  "ÙħØµ": 826,
  "ÙħØµØ§ÙĨ": 26955,
  "ÙħØµØ±": 1015,
  "ÙħØµØ±ÙģØ±": 59741,
  "ÙħØµØ±ÙģØ±ÙĨØ³Ø§Ø§ÙĦÙĩÙĨØ¯": 60076,
  "ÙħØµÙ": 43951,
  "ÙħØµÙĦ": 55159,
  "ÙħØµÙĬ": 48428,
  "ÙħØµÙĬØ¨": 51919,
  "ÙħØµÙĬØ¨Ø©": 32387,
  "ÙħØ¶": 2720,
  "ÙħØ¶Ø§Ùģ": 28543,
  "ÙħØ¶Ø§ÙģØ©": 34162,
  "ÙħØ¶Ø±": 32479,
  "ÙħØ¶ØŃÙĥ": 53397,
  "ÙħØ¶ØŃÙĥØ©": 25383,
  "ÙħØ¶Ùħ": 16352,
  "ÙħØ¶ÙħØ§Ø±": 44783,
  "ÙħØ¶ÙħÙĪÙĨ": 16250,
  "ÙħØ¶ÙĬ": 17768,
  "ÙħØ¶ÙĬÙģ": 4984,
  "ÙħØ¶ÙĬÙģØ©": 16458,
  "ÙħØ¶ÙĬÙĤ": 22886,
  "ÙħØ·": 1059,
  "ÙħØ·Ø§Ø±": 15081,
  "ÙħØ·Ø±": 9806,
  "ÙħØ¸": 4934,
  "ÙħØ¸Ø§ÙĩØ±Ø§Øª": 19290,
  "ÙħØ¸ÙĦ": 46523,
  "ÙħØ¸ÙĦÙĪÙħ": 39694,
  "ÙħØ¸ÙĩØ±": 12889,
  "ÙħØ¹": 375,
  "ÙħØ¹Ø§": 34011,
  "ÙħØ¹Ø§Ø¡": 16958,
  "ÙħØ¹Ø§Øª": 29671,
  "ÙħØ¹Ø§ÙĨ": 53338,
  "ÙħØ¹Ø©": 7467,
  "ÙħØ¹Ù": 38646,
  "ÙħØ¹ÙĨ": 44242,
  "ÙħØ¹Ùĩ": 43208,
  "ÙħØ¹ÙĬ": 39751,
  "ÙħØ¹ÙĬØ§Øª": 14796,
  "ÙħØ¹ÙĬØ©": 4036,
  "ÙħØº": 2508,
  "ÙħØºØ±": 8872,
  "ÙħØºØ·": 39203,
  "ÙħØºØ·Ùī": 58920,
  "ÙħØºÙħ": 44029,
  "ÙħØŃ": 570,
  "ÙħØŃÙ": 48061,
  "ÙħØŃÙĦ": 5471,
  "ÙħØŃÙħ": 11540,
  "ÙħØŃÙħØ¯": 798,
  "ÙħØŃÙħÙĬØ©": 22512,
  "ÙħØŃÙĬ": 25724,
  "ÙħØŃÙĬØ·": 8998,
  "ÙħÙ": 358,
  "ÙħÙģ": 1981,
  "ÙħÙģØ§Ø¹": 50501,
  "ÙħÙģØ§Ø¹ÙĦ": 42784,
  "ÙħÙģØ§ÙĩÙĬÙħ": 14560,
  "ÙħÙģØ§ÙĪØ¶": 45388,
  "ÙħÙģØ§ÙĪØ¶Ø§Øª": 10070,
  "ÙħÙģØª": 3508,
  "ÙħÙģØ±": 8632,
  "ÙħÙģØ±Ø¯": 33637,
  "ÙħÙģØ±Ø¯Ø§Øª": 28736,
  "ÙħÙģØ³": 34024,
  "ÙħÙģØ¶": 30469,
  "ÙħÙģØ¹": 27916,
  "ÙħÙģØ¹ÙĪÙĦ": 27261,
  "ÙħÙģÙĬØ¯": 7195,
  "ÙħÙģÙĬØ´": 46199,
  "ÙħÙĤ": 704,
  "ÙħÙĤÙĬØ§Ø³": 21161,
  "ÙħÙĤÙĬØ¨ÙĦØ©": 55849,
  "ÙħÙĤÙĬØ¯": 34218,
  "ÙħÙĤÙĬØ¯Ø©": 47385,
  "ÙħÙĥ": 853,
  "ÙħÙĥØ§ÙĨ": 5816,
  "ÙħÙĥØ§ÙĨØ§Øª": 14521,
  "ÙħÙĥØ§ÙĨÙĬØ§Øª": 11338,
  "ÙħÙĥØ§ÙĨÙĬØ©": 16736,
  "ÙħÙĥØª": 1478,
  "ÙħÙĥØ±": 18202,
  "ÙħÙĥØ±Ø±": 33285,
  "ÙħÙĥØ±Ø±Ø©": 51024,
  "ÙħÙĥÙħ": 46158,
  "ÙħÙĥÙħÙĦØ§Øª": 53028,
  "ÙħÙĥÙħÙĦØ©": 63656,
  "ÙħÙĥÙĨ": 7186,
  "ÙħÙĥÙĬ": 23639,
  "ÙħÙĥÙĬØ§Ø¬": 11967,
  "ÙħÙĥÙĬÙģ": 41332,
  "ÙħÙĥÙĬÙģØ§Øª": 27549,
  "ÙħÙĥÙĬÙģØ©": 55438,
  "ÙħÙĥÙĬÙĨ": 21461,
  "ÙħÙĦ": 516,
  "ÙħÙĦØ": 14583,
  "ÙħÙĦØ£": 24451,
  "ÙħÙĦØ¦": 36235,
  "ÙħÙĦØ§": 15649,
  "ÙħÙĦØ§Ø¡": 24928,
  "ÙħÙĦØ§Ø¦": 14155,
  "ÙħÙĦØ§Ø¦Ùħ": 32046,
  "ÙħÙĦØ§Ø¨Ø³": 6185,
  "ÙħÙĦØ§Ø¨Ø³Ø§Øª": 24494,
  "ÙħÙĦØ§Ø®": 47526,
  "ÙħÙĦØ§Ø°": 26566,
  "ÙħÙĦØ§Ø²Ùħ": 35847,
  "ÙħÙĦØ§Ø²ÙħØ©": 61913,
  "ÙħÙĦØ§Ø¹Ø¨": 18198,
  "ÙħÙĦØ§Ø¹ÙĤ": 35699,
  "ÙħÙĦØ§ØŃ": 6920,
  "ÙħÙĦØ§ØŃØ¸": 20238,
  "ÙħÙĦØ§ØŃØ¸Ø§Øª": 14991,
  "ÙħÙĦØ§Ù": 3722,
  "ÙħÙĦØ§Ùĥ": 15459,
  "ÙħÙĦØ§ÙĦ": 21674,
  "ÙħÙĦØ¨": 29493,
  "ÙħÙĦØ©": 9458,
  "ÙħÙĦØª": 2284,
  "ÙħÙĦØ«": 55682,
  "ÙħÙĦØ¬Ø£": 33729,
  "ÙħÙĦØ®Øµ": 19625,
  "ÙħÙĦØ®ØµØ§Øª": 41038,
  "ÙħÙĦØ¯": 41701,
  "ÙħÙĦØ²": 48964,
  "ÙħÙĦØ²Ù": 42954,
  "ÙħÙĦØ²Ùħ": 38491,
  "ÙħÙĦØµÙĤØ§Øª": 37914,
  "ÙħÙĦØ·": 60133,
  "ÙħÙĦØ¹": 8492,
  "ÙħÙĦØ¹Ø¨": 5606,
  "ÙħÙĦØº": 16959,
  "ÙħÙĦØŃ": 4374,
  "ÙħÙĦØŃØ©": 27775,
  "ÙħÙĦÙģ": 1610,
  "ÙħÙĦÙĤ": 37083,
  "ÙħÙĦÙĥ": 3492,
  "ÙħÙĦÙĥØ©": 6022,
  "ÙħÙĦÙĦ": 47064,
  "ÙħÙĦÙĦÙ": 55737,
  "ÙħÙĦÙħ": 9714,
  "ÙħÙĦÙĩ": 25880,
  "ÙħÙĦÙĪ": 15933,
  "ÙħÙĦÙĪØ§": 9547,
  "ÙħÙĦÙĪÙĥ": 59275,
  "ÙħÙĦÙĪÙĩ": 63019,
  "ÙħÙĦÙĬ": 1107,
  "ÙħÙĦÙĬØ§Øª": 12013,
  "ÙħÙĦÙĬÙħ": 60225,
  "ÙħÙħ": 1765,
  "ÙħÙħØ§": 53026,
  "ÙħÙħØ©": 14083,
  "ÙħÙħØª": 18622,
  "ÙħÙħÙĨ": 4171,
  "ÙħÙħÙĩ": 63011,
  "ÙħÙħÙĬ": 14815,
  "ÙħÙħÙĬØ©": 22573,
  "ÙħÙħÙĬÙĨ": 21308,
  "ÙħÙĨ": 302,
  "ÙħÙĨØ§": 2990,
  "ÙħÙĨØ§Ø¡": 44883,
  "ÙħÙĨØ§Ùĩ": 21662,
  "ÙħÙĨØ§ÙĩØ§": 43076,
  "ÙħÙĨØ©": 3834,
  "ÙħÙĨØª": 7511,
  "ÙħÙĨØªÙĬØ©": 44119,
  "ÙħÙĨØ³ÙĬØ©": 43758,
  "ÙħÙĨØ·ÙĤØ©": 51514,
  "ÙħÙĨØ¹": 14384,
  "ÙħÙĨØŃ": 15615,
  "ÙħÙĨÙ": 6841,
  "ÙħÙĨÙĩ": 25015,
  "ÙħÙĨÙĩØ§": 63538,
  "ÙħÙĨÙĪ": 61278,
  "ÙħÙĨÙĪØ§": 54385,
  "ÙħÙĨÙĪÙĨ": 27264,
  "ÙħÙĨÙī": 3757,
  "ÙħÙĨÙĬ": 6943,
  "ÙħÙĨÙĬØ§Øª": 50191,
  "ÙħÙĨÙĬØ©": 18393,
  "ÙħÙĨÙĬÙĨ": 12154,
  "ÙħÙĨÙĬÙĪÙħ": 24207,
  "ÙħÙĩ": 863,
  "ÙħÙĩØ§": 20446,
  "ÙħÙĩØ§Øª": 19463,
  "ÙħÙĩØ¯": 11993,
  "ÙħÙĩØ¯Ø¯": 44653,
  "ÙħÙĩØ±": 32489,
  "ÙħÙĩØ±Ø§ÙĨ": 50280,
  "ÙħÙĩØ±Ø¬": 48749,
  "ÙħÙĩØ±Ø¬Ø§ÙĨ": 4536,
  "ÙħÙĩØ±Ø¬Ø§ÙĨØ§Øª": 24361,
  "ÙħÙĩÙħ": 4563,
  "ÙħÙĩÙħØ§": 4518,
  "ÙħÙĩÙħØ©": 3827,
  "ÙħÙĩÙĪØ±": 3833,
  "ÙħÙĩÙĪØ±ÙĬ": 7524,
  "ÙħÙĩÙĪØ±ÙĬØ©": 1949,
  "ÙħÙĩÙĬ": 21669,
  "ÙħÙĩÙĬØ¨": 56656,
  "ÙħÙĪ": 421,
  "ÙħÙĪØ§": 8282,
  "ÙħÙĪØ§Øª": 43233,
  "ÙħÙĪØ§Ø¬": 61677,
  "ÙħÙĪØ§ÙĦ": 3548,
  "ÙħÙĪØª": 31964,
  "ÙħÙĪØ¯": 2096,
  "ÙħÙĪØ¯ÙĬØ©": 34639,
  "ÙħÙĪØ°Ø¬": 20461,
  "ÙħÙĪØ°Ø¬Ø§": 59944,
  "ÙħÙĪØ±": 5409,
  "ÙħÙĪØ±Ø§Øª": 58743,
  "ÙħÙĪØ±Ø¯": 33092,
  "ÙħÙĪØ±Ùĩ": 55074,
  "ÙħÙĪØ±ÙĪ": 40418,
  "ÙħÙĪØ±ÙĪØ«": 45843,
  "ÙħÙĪØ±ÙĬ": 60383,
  "ÙħÙĪØ±ÙĬØª": 54500,
  "ÙħÙĪØ²": 13895,
  "ÙħÙĪØ³": 34778,
  "ÙħÙĪØ³ÙĬÙĤÙĬØ©": 59368,
  "ÙħÙĪØ´": 28391,
  "ÙħÙĪØ¶": 11855,
  "ÙħÙĪØ¹": 3877,
  "ÙħÙĪØ¹Ø§Øª": 4361,
  "ÙħÙĪØ¹Ø©": 1315,
  "ÙħÙĪØ¹Ùĩ": 57418,
  "ÙħÙĪØŃ": 17173,
  "ÙħÙĪØŃØ§Øª": 19493,
  "ÙħÙĪØŃØ©": 48346,
  "ÙħÙĪÙĤØ¹": 60331,
  "ÙħÙĪÙĦ": 6604,
  "ÙħÙĪÙĦØ§Øª": 63483,
  "ÙħÙĪÙĦØ©": 7744,
  "ÙħÙĪÙĦÙĬÙĨ": 38603,
  "ÙħÙĪÙħ": 29440,
  "ÙħÙĪÙĨ": 3819,
  "ÙħÙĪÙĨØ§Ø¦ÙĬÙħ": 55328,
  "ÙħÙĪÙĩ": 33988,
  "ÙħÙĪÙĩØ§": 56891,
  "ÙħÙĪÙĬØ©": 5802,
  "ÙħÙĪÙĬÙĨ": 49455,
  "ÙħÙī": 1876,
  "ÙħÙĬ": 740,
  "ÙħÙĬØ§": 4288,
  "ÙħÙĬØ§Øª": 4128,
  "ÙħÙĬØ§Ø·": 62113,
  "ÙħÙĬØ©": 23026,
  "ÙħÙĬØª": 10106,
  "ÙħÙĬØªÙĩ": 21240,
  "ÙħÙĬØªÙĩØ§": 20699,
  "ÙħÙĬØ«": 56182,
  "ÙħÙĬØ¯": 2528,
  "ÙħÙĬØ¯Ø§ÙĨ": 26420,
  "ÙħÙĬØ¯ÙĬØ§": 37701,
  "ÙħÙĬØ±": 3484,
  "ÙħÙĬØ±Ø§": 52525,
  "ÙħÙĬØ±Øª": 56155,
  "ÙħÙĬØ±ÙĬ": 14628,
  "ÙħÙĬØ²": 2641,
  "ÙħÙĬØ²Ø§Øª": 35746,
  "ÙħÙĬØ²Ø©": 24477,
  "ÙħÙĬØ³": 2295,
  "ÙħÙĬØ³ÙĬ": 61468,
  "ÙħÙĬØ´": 32866,
  "ÙħÙĬØµ": 13203,
  "ÙħÙĬØ¹": 779,
  "ÙħÙĬØŃ": 44300,
  "ÙħÙĬÙ": 4509,
  "ÙħÙĬÙĤ": 5203,
  "ÙħÙĬÙĥ": 23922,
  "ÙħÙĬÙĦ": 1258,
  "ÙħÙĬÙĦØ§Øª": 37916,
  "ÙħÙĬÙĦØ©": 4023,
  "ÙħÙĬÙĦÙĩ": 9751,
  "ÙħÙĬÙĦÙĩØ§": 59750,
  "ÙħÙĬÙĦÙĬ": 23746,
  "ÙħÙĬÙĦÙĬØ©": 18681,
  "ÙħÙĬÙħ": 1737,
  "ÙħÙĬÙħØ§": 39542,
  "ÙħÙĬÙħØ©": 17946,
  "ÙħÙĬÙħÙ": 38848,
  "ÙħÙĬÙħÙĬ": 17992,
  "ÙħÙĬÙħÙĬØ©": 36393,
  "ÙħÙĬÙĨ": 3054,
  "ÙħÙĬÙĨØ§": 26796,
  "ÙħÙĬÙĨÙĬ": 29773,
  "ÙħÙĬÙĩ": 5130,
  "ÙħÙĬÙĩØ§": 22256,
  "ÙħÙĬÙĪ": 40245,
  "ÙħÙĬÙĪÙħ": 36729,
  "ÙħÙĬÙĪÙĨ": 17228,
  "ÙħÙĬÙĬØ±": 52115,
  "ÙħÙĬÙĬØ²": 6683,
  "ÙħÙĬÙĬÙĨ": 30107,
  "ÙĨ": 263,
  "ÙĨØ¢": 59977,
  "ÙĨØ§": 416,
  "ÙĨØ§Ø¡": 965,
  "ÙĨØ§Ø¦ÙĩØ§": 63146,
  "ÙĨØ§Ø¦ÙĬ": 5851,
  "ÙĨØ§Ø¦ÙĬØ©": 4077,
  "ÙĨØ§Ø¨ÙĦ": 27947,
  "ÙĨØ§Ø©": 2207,
  "ÙĨØ§Øª": 2658,
  "ÙĨØ§ØªÙĪØ±": 50395,
  "ÙĨØ§Ø¯": 13863,
  "ÙĨØ§Ø¯ÙĤ": 19020,
  "ÙĨØ§Ø¯ÙĬÙĤ": 50084,
  "ÙĨØ§Ø²": 14141,
  "ÙĨØ§Ø²ÙĦÙĬØ§": 41557,
  "ÙĨØ§Ø²ÙĬØ±": 18417,
  "ÙĨØ§Ø³": 42813,
  "ÙĨØ§Øµ": 21313,
  "ÙĨØ§ØµØ±": 18534,
  "ÙĨØ§Ø·": 30555,
  "ÙĨØ§Ø·Ø©": 36781,
  "ÙĨØ§Ø¹": 4453,
  "ÙĨØ§Ø¹Ø§Øª": 11826,
  "ÙĨØ§Ø¹Ø©": 5010,
  "ÙĨØ§ØŃ": 30805,
  "ÙĨØ§ØŃÙĪÙħ": 57314,
  "ÙĨØ§Ùģ": 4163,
  "ÙĨØ§ÙģØ³": 15334,
  "ÙĨØ§ÙĤ": 3491,
  "ÙĨØ§ÙĤØ©": 11945,
  "ÙĨØ§ÙĤØ´": 10690,
  "ÙĨØ§ÙĤØµ": 47499,
  "ÙĨØ§ÙĤØ¶": 8916,
  "ÙĨØ§ÙĤØ¶Ø§Øª": 47587,
  "ÙĨØ§ÙĤØ¶Ø©": 34216,
  "ÙĨØ§ÙĤÙĩ": 42663,
  "ÙĨØ§Ùĥ": 7466,
  "ÙĨØ§ÙĥÙħ": 32845,
  "ÙĨØ§Ùħ": 8418,
  "ÙĨØ§ÙħØ¬": 1186,
  "ÙĨØ§ÙħÙĬØ©": 17630,
  "ÙĨØ§ÙĨ": 909,
  "ÙĨØ§ÙĨØ§": 32868,
  "ÙĨØ§ÙĨØ©": 21135,
  "ÙĨØ§ÙĨØ¯ÙĬØ²": 54285,
  "ÙĨØ§ÙĨÙĩ": 36601,
  "ÙĨØ§ÙĨÙī": 39567,
  "ÙĨØ§ÙĨÙĬ": 54736,
  "ÙĨØ§ÙĨÙĬØ±": 30686,
  "ÙĨØ§ÙĨÙĬÙħÙĬØ´": 60430,
  "ÙĨØ§ÙĨÙĬÙĨ": 38427,
  "ÙĨØ§Ùĩ": 3099,
  "ÙĨØ§ÙĩØ§": 8033,
  "ÙĨØ§ÙĩÙħ": 24503,
  "ÙĨØ§ÙĩÙĬØ©": 26302,
  "ÙĨØ§ÙĪØ¨": 35607,
  "ÙĨØ§ÙĪÙĦ": 2694,
  "ÙĨØ§ÙĪÙĦÙĩ": 35063,
  "ÙĨØ§ÙĪÙĦÙĩØ§": 28602,
  "ÙĨØ§ÙĪÙī": 39426,
  "ÙĨØ§ÙĪÙĬ": 22185,
  "ÙĨØ§ÙĪÙĬÙĨ": 16557,
  "ÙĨØ§ÙĬØ©": 4156,
  "ÙĨØ§ÙĬÙħ": 54078,
  "ÙĨØ¨": 2862,
  "ÙĨØ¨Ø£": 48149,
  "ÙĨØ¨Ø¤": 45865,
  "ÙĨØ¨Ø§": 25449,
  "ÙĨØ¨Ø§Ø·": 33843,
  "ÙĨØ¨Ø±": 33769,
  "ÙĨØ¨Ø±Øº": 55831,
  "ÙĨØ¨ÙĦØ©": 12810,
  "ÙĨØ¨ÙĦÙĬ": 38339,
  "ÙĨØ¨Ùĩ": 31740,
  "ÙĨØ¨ÙĪÙĦ": 14782,
  "ÙĨØ¨ÙĬ": 14414,
  "ÙĨØ¨ÙĬØ©": 7782,
  "ÙĨØ©": 573,
  "ÙĨØª": 464,
  "ÙĨØªØ§": 27463,
  "ÙĨØªØ§Ø¦Ø¬": 21040,
  "ÙĨØªØ§Ø¬": 2226,
  "ÙĨØªØ§Ø¬ÙĪÙĨ": 62345,
  "ÙĨØªØ§Ø±ÙĬØ®": 57750,
  "ÙĨØªØ§Ø±ÙĬØ®Ø¬Ø±ÙĬÙħØ©": 59287,
  "ÙĨØªØ§Ø±ÙĬØ®Ø¬Ø±ÙĬÙħØ©ØŃØ±Ø¨": 61215,
  "ÙĨØªØ§Ø±ÙĬØ®Ø¬Ø±ÙĬÙħØ©ØŃØ±Ø¨Ø®ÙĬØ§ÙĦØ®ÙĬØ§ÙĦ": 63182,
  "ÙĨØªØ§ÙĦ": 39578,
  "ÙĨØªØ§ÙĨ": 28256,
  "ÙĨØªØ¬": 23569,
  "ÙĨØªØ®Ø§Ø¨Ø§Øª": 5653,
  "ÙĨØªØ³": 60861,
  "ÙĨØªØ¸Ø±": 30810,
  "ÙĨØªÙĤÙĦ": 40287,
  "ÙĨØªÙĥ": 34009,
  "ÙĨØªÙĨØ§": 46431,
  "ÙĨØªÙĩ": 6617,
  "ÙĨØªÙĩØ§": 7178,
  "ÙĨØªÙĩØ§Ùĥ": 36688,
  "ÙĨØªÙĩØ§ÙĥØ§Øª": 24561,
  "ÙĨØªÙĩÙħ": 22357,
  "ÙĨØªÙĩÙĬ": 24151,
  "ÙĨØªÙĪØ³": 13034,
  "ÙĨØªÙĬ": 22785,
  "ÙĨØªÙĬÙĨ": 4694,
  "ÙĨØªÙĬÙĨÙĪ": 61046,
  "ÙĨØªÙĬÙĨÙī": 23016,
  "ÙĨØªÙĬÙĨÙĬ": 12434,
  "ÙĨØªÙĬÙĨÙĬØ©": 40529,
  "ÙĨØ«": 30625,
  "ÙĨØ¬": 3846,
  "ÙĨØ¬Ø§Ø¨": 53278,
  "ÙĨØ¬Ø§Ø¨ÙĬØ©": 55502,
  "ÙĨØ¬Ø§Øª": 54515,
  "ÙĨØ¬Ø§ÙĨÙĬ": 44304,
  "ÙĨØ¬Ø¨ÙĬÙĦ": 24652,
  "ÙĨØ¬Ø©": 42459,
  "ÙĨØ¬Ø±": 8161,
  "ÙĨØ¬Ø±ÙĬØ§Øª": 63437,
  "ÙĨØ¬ØŃ": 42981,
  "ÙĨØ¬ÙĩØ§ÙĪØ³": 21707,
  "ÙĨØ¬ÙĬ": 57139,
  "ÙĨØ¬ÙĬØ©": 56759,
  "ÙĨØ¯": 707,
  "ÙĨØ¯Ø§": 5079,
  "ÙĨØ¯Ø§Øª": 6504,
  "ÙĨØ¯Ø©": 22423,
  "ÙĨØ¯Øª": 25779,
  "ÙĨØ¯Ø±": 45084,
  "ÙĨØ¯Ø±ÙĬ": 27823,
  "ÙĨØ¯Ø³": 17918,
  "ÙĨØ¯Ø³Ø©": 20160,
  "ÙĨØ¯Ø³ÙĬÙĨ": 17912,
  "ÙĨØ¯Ø¹ÙĪÙĥ": 9408,
  "ÙĨØ¯ÙĤ": 3839,
  "ÙĨØ¯ÙĤÙĬØ©": 18042,
  "ÙĨØ¯ÙĦØ³": 59520,
  "ÙĨØ¯ÙĨØª": 37945,
  "ÙĨØ¯Ùĩ": 24675,
  "ÙĨØ¯ÙĪØ±": 24850,
  "ÙĨØ¯ÙĪÙĤ": 3309,
  "ÙĨØ¯ÙĪÙĨÙĬØ³ÙĬØ§": 50003,
  "ÙĨØ¯Ùī": 15117,
  "ÙĨØ¯ÙĬ": 3358,
  "ÙĨØ¯ÙĬØ©": 3222,
  "ÙĨØ¯ÙĬÙĨ": 32940,
  "ÙĨØ¯ÙĬÙĨØ§": 41507,
  "ÙĨØ±": 14925,
  "ÙĨØ²": 6741,
  "ÙĨØ²Ø§Ùģ": 26546,
  "ÙĨØ²Ø§ÙĦ": 60866,
  "ÙĨØ²Ø§ÙĨØ©": 34902,
  "ÙĨØ²Ø§ÙĨÙĬØ§Øª": 49787,
  "ÙĨØ²Ø§ÙĨÙĬØ§ØªÙĪÙĨØ³": 59372,
  "ÙĨØ²Ø§ÙĨÙĬØ§ØªÙĪÙĨØ³ÙĥØ±ÙĪØ§ØªÙĬØ§": 59772,
  "ÙĨØ²Ùģ": 44019,
  "ÙĨØ²ÙĪÙĬÙĦØ§": 62341,
  "ÙĨØ²ÙĬØ±": 30860,
  "ÙĨØ³": 674,
  "ÙĨØ³Ø§": 3058,
  "ÙĨØ³Ø§Ø¡": 7724,
  "ÙĨØ³Ø§Ø§ÙĦÙĩÙĨØ¯": 58534,
  "ÙĨØ³Ø§Ø®": 34701,
  "ÙĨØ³Ø§ÙĨ": 1474,
  "ÙĨØ³Ø§ÙĨØ§": 47924,
  "ÙĨØ³Ø§ÙĨÙĬØ©": 3417,
  "ÙĨØ³Ø¨Ø©": 2179,
  "ÙĨØ³Ø©": 41045,
  "ÙĨØ³Øª": 42701,
  "ÙĨØ³ØŃØ§Ø¨": 19548,
  "ÙĨØ³ÙĥÙĬ": 61775,
  "ÙĨØ³ÙĪÙĨ": 41226,
  "ÙĨØ³ÙĬ": 2985,
  "ÙĨØ³ÙĬØ©": 2087,
  "ÙĨØ³ÙĬÙĤ": 45838,
  "ÙĨØ´": 55107,
  "ÙĨØµ": 50356,
  "ÙĨØµØ±": 35893,
  "ÙĨØµÙĦÙĬØ©": 62970,
  "ÙĨØ·": 17574,
  "ÙĨØ·ÙĨ": 3708,
  "ÙĨØ·ÙĬÙĨ": 53959,
  "ÙĨØ·ÙĬÙĨÙĬØ©": 41264,
  "ÙĨØ¸Ø±": 59132,
  "ÙĨØ¹": 1616,
  "ÙĨØ¹Ø§Ø¡": 25392,
  "ÙĨØ¹Ø§Ø´": 31226,
  "ÙĨØ¹Ø§Ùħ": 43161,
  "ÙĨØ¹Ø©": 17878,
  "ÙĨØ¹Øª": 25246,
  "ÙĨØ¹ÙĥØ³": 55010,
  "ÙĨØº": 11389,
  "ÙĨØºØ§Ø±ÙĬØ©": 46568,
  "ÙĨØºØ§ÙģÙĪØ±Ø©": 43083,
  "ÙĨØºØ§ÙĦÙĬØ©": 56033,
  "ÙĨØŃ": 31727,
  "ÙĨÙ": 447,
  "ÙĨÙģ": 3514,
  "ÙĨÙģØ§Ø±": 48252,
  "ÙĨÙģØ§ÙĦ": 26454,
  "ÙĨÙģØ°": 24926,
  "ÙĨÙģØ°Ø©": 34830,
  "ÙĨÙģØ³": 47862,
  "ÙĨÙĤ": 11052,
  "ÙĨÙĤØ©": 63003,
  "ÙĨÙĤØ¹Ø§Øª": 50708,
  "ÙĨÙĤÙĦ": 47105,
  "ÙĨÙĥ": 1755,
  "ÙĨÙĥØ§Ø±": 21234,
  "ÙĨÙĥØ¨ÙĪØª": 20322,
  "ÙĨÙĥØ±": 19932,
  "ÙĨÙĥÙĦÙĬØ²ÙĬØ©": 38220,
  "ÙĨÙĥÙħ": 57461,
  "ÙĨÙĥÙĬÙĦ": 48165,
  "ÙĨÙĦ": 63499,
  "ÙĨÙĦÙĨØ¯": 48182,
  "ÙĨÙĦÙĨØ¯Ø§": 18183,
  "ÙĨÙĦÙĨØ¯ÙĬ": 49862,
  "ÙĨÙĦÙĨØ¯ÙĬØ©": 17154,
  "ÙĨÙĦÙĪ": 25644,
  "ÙĨÙĦÙĪØ¬ÙĬØ§": 31906,
  "ÙĨÙħ": 3992,
  "ÙĨÙħØ§Ø¡": 15789,
  "ÙĨÙħØ§Ø¦ÙĬ": 32836,
  "ÙĨÙħØ§Ø¦ÙĬØ©": 29635,
  "ÙĨÙħØ§Ø¨": 46050,
  "ÙĨÙħØ§Ø°Ø¬": 27661,
  "ÙĨÙħØ§Ø±": 34474,
  "ÙĨÙħØ§Ø±Ùĥ": 13380,
  "ÙĨÙħØ§Ø·": 25086,
  "ÙĨÙħØ³": 24470,
  "ÙĨÙħØ³Ø§": 41922,
  "ÙĨÙħØ·": 27864,
  "ÙĨÙħÙĤ": 57999,
  "ÙĨÙħÙĪÙĬ": 23288,
  "ÙĨÙħÙĬØ©": 1910,
  "ÙĨÙĨ": 24769,
  "ÙĨÙĩ": 824,
  "ÙĨÙĩØ§": 6302,
  "ÙĨÙĩØ§Ø¡": 10139,
  "ÙĨÙĩØ§Ø±": 18520,
  "ÙĨÙĩØ§Ø¶": 57496,
  "ÙĨÙĩØ§Ùħ": 23136,
  "ÙĨÙĩØ¶": 46278,
  "ÙĨÙĩÙħ": 28458,
  "ÙĨÙĪ": 8693,
  "ÙĨÙĪØ§": 19552,
  "ÙĨÙĪØ§Øª": 1147,
  "ÙĨÙĪØ§ÙĨ": 4569,
  "ÙĨÙĪØ¨": 5711,
  "ÙĨÙĪØ¯": 13745,
  "ÙĨÙĪØ³": 54829,
  "ÙĨÙĪØ´": 63241,
  "ÙĨÙĪØ´ÙĬ": 35268,
  "ÙĨÙĪØ¹": 41062,
  "ÙĨÙĪÙĥ": 15189,
  "ÙĨÙĪÙĨ": 2825,
  "ÙĨÙĪÙĨØ©": 37535,
  "ÙĨÙī": 1032,
  "ÙĨÙĬ": 495,
  "ÙĨÙĬØ¦Ø§": 59004,
  "ÙĨÙĬØ¦ÙĬÙĦ": 36724,
  "ÙĨÙĬØ§": 1989,
  "ÙĨÙĬØ§Ø¡": 22853,
  "ÙĨÙĬØ§Ø¨Ø©": 21241,
  "ÙĨÙĬØ§Øª": 3996,
  "ÙĨÙĬØ§ÙĨ": 30814,
  "ÙĨÙĬØ§ÙĩÙĪ": 7252,
  "ÙĨÙĬØ¨": 24128,
  "ÙĨÙĬØ©": 671,
  "ÙĨÙĬØª": 6910,
  "ÙĨÙĬØªÙĩ": 21390,
  "ÙĨÙĬØªÙĩØ§": 25845,
  "ÙĨÙĬØªÙĬÙĨ": 49676,
  "ÙĨÙĬØ«": 55800,
  "ÙĨÙĬØ¬ÙħØ§": 22840,
  "ÙĨÙĬØ¯": 9300,
  "ÙĨÙĬØ±": 43091,
  "ÙĨÙĬØ²Ø©": 49611,
  "ÙĨÙĬØ³": 4025,
  "ÙĨÙĬØ³Ø©": 4680,
  "ÙĨÙĬØ³Øª": 12908,
  "ÙĨÙĬØ´": 17167,
  "ÙĨÙĬØ·Ø±Ø©": 18427,
  "ÙĨÙĬØ¹": 5516,
  "ÙĨÙĬØ¹Ø©": 41777,
  "ÙĨÙĬÙģ": 3041,
  "ÙĨÙĬÙģØ©": 16068,
  "ÙĨÙĬÙģØ±Ø©": 35283,
  "ÙĨÙĬÙĤ": 15646,
  "ÙĨÙĬÙĤØ©": 26172,
  "ÙĨÙĬÙĥ": 11833,
  "ÙĨÙĬÙħ": 42008,
  "ÙĨÙĬÙĨ": 1094,
  "ÙĨÙĬÙĨØ§": 30047,
  "ÙĨÙĬÙĨÙĬ": 57245,
  "ÙĨÙĬÙĩ": 1814,
  "ÙĨÙĬÙĩØ§": 7401,
  "ÙĨÙĬÙĪØ²": 59897,
  "ÙĨÙĬÙĪÙĨ": 49753,
  "ÙĨÙĬÙĬÙĨ": 4584,
  "Ùĩ": 280,
  "ÙĩØ§": 332,
  "ÙĩØ§Ø¡": 5112,
  "ÙĩØ§Ø¨": 1410,
  "ÙĩØ§Ø¨Ø§Øª": 22313,
  "ÙĩØ§Ø¨ÙĬ": 7545,
  "ÙĩØ§Ø¨ÙĬØ©": 6786,
  "ÙĩØ§Ø¨ÙĬÙĬÙĨ": 8682,
  "ÙĩØ§Øª": 4890,
  "ÙĩØ§Ø¯": 13134,
  "ÙĩØ§Ø¯Ø§Øª": 20832,
  "ÙĩØ§Ø¯Ø©": 12176,
  "ÙĩØ§Ø±": 4573,
  "ÙĩØ§Ø±Ø©": 25459,
  "ÙĩØ§Ø²": 8917,
  "ÙĩØ§Ø¶": 40729,
  "ÙĩØ§Ùģ": 48582,
  "ÙĩØ§ÙģØª": 35803,
  "ÙĩØ§ÙĤ": 18461,
  "ÙĩØ§ÙĦ": 24238,
  "ÙĩØ§ÙĦÙĥ": 46938,
  "ÙĩØ§ÙĦÙĥØ©": 58530,
  "ÙĩØ§ÙĦÙī": 12737,
  "ÙĩØ§ÙĦÙĬ": 4251,
  "ÙĩØ§ÙĦÙĬØ²": 57680,
  "ÙĩØ§Ùħ": 2971,
  "ÙĩØ§ÙħØ§Øª": 7704,
  "ÙĩØ§ÙĨ": 7068,
  "ÙĩØ§ÙĨØ§Øª": 37420,
  "ÙĩØ§ÙĨØ©": 16665,
  "ÙĩØ§ÙĪØ³": 19813,
  "ÙĩØ§ÙĪÙĨ": 26994,
  "ÙĩØ§ÙĪÙī": 58495,
  "ÙĩØ§ÙĪÙĬ": 51228,
  "ÙĩØ§ÙĬØ©": 1947,
  "ÙĩØ§ÙĬÙħØ±": 29925,
  "ÙĩØ§ÙĬÙĨØ©": 18526,
  "ÙĩØ¨": 2340,
  "ÙĩØ¨Ø§ÙĨ": 50016,
  "ÙĩØ¨Ø©": 13211,
  "ÙĩØ©": 1103,
  "ÙĩØªÙħ": 2210,
  "ÙĩØªÙħØ§Ùħ": 2797,
  "ÙĩØ¬": 6308,
  "ÙĩØ¬Ø©": 27789,
  "ÙĩØ¬ÙĬØ©": 60945,
  "ÙĩØ¯": 645,
  "ÙĩØ¯Ø¦Ø©": 11591,
  "ÙĩØ¯Ø§": 26623,
  "ÙĩØ¯Ø§Ø¡": 5569,
  "ÙĩØ¯Ø§Ø¡Ø§Øª": 21415,
  "ÙĩØ¯Ø§Øª": 59528,
  "ÙĩØ¯Ø§Ø±": 24035,
  "ÙĩØ¯Ø§Ùģ": 2392,
  "ÙĩØ¯Ø©": 28096,
  "ÙĩØ¯Øª": 10093,
  "ÙĩØ¯Ø¯": 5643,
  "ÙĩØ¯Ùģ": 1768,
  "ÙĩØ¯ÙģØ©": 18354,
  "ÙĩØ¯Ùĩ": 36755,
  "ÙĩØ¯ÙĬ": 35688,
  "ÙĩØ¯ÙĬØ©": 42120,
  "ÙĩØ¯ÙĬÙĨ": 38864,
  "ÙĩØ±": 597,
  "ÙĩØ±Ø§": 22938,
  "ÙĩØ±Ø§Ø¡": 12961,
  "ÙĩØ±Ø§Øª": 8565,
  "ÙĩØ±Ø§Ùħ": 13147,
  "ÙĩØ±Ø§ÙħØ§Øª": 37915,
  "ÙĩØ±Ø§ÙĨ": 4832,
  "ÙĩØ±Ø¨": 2061,
  "ÙĩØ±Ø¨Ø§Ø¡": 10098,
  "ÙĩØ±Ø©": 6583,
  "ÙĩØ±Øª": 18404,
  "ÙĩØ±Ø¬": 9857,
  "ÙĩØ±Ø¬Ø§ÙĨ": 2943,
  "ÙĩØ±Ø¬Ø§ÙĨØ§Øª": 11115,
  "ÙĩØ±Ùĩ": 20776,
  "ÙĩØ±ÙĩØ§": 49370,
  "ÙĩØ±ÙĪØ§": 40877,
  "ÙĩØ±ÙĪÙĨ": 61803,
  "ÙĩØ±ÙĬ": 12307,
  "ÙĩØ±ÙĬØ©": 18148,
  "ÙĩØ²": 14544,
  "ÙĩØ²Ø©": 2633,
  "ÙĩØ²Ùĩ": 6433,
  "ÙĩØ´": 19237,
  "ÙĩØ´Ø©": 22211,
  "ÙĩØ¶": 25972,
  "ÙĩÙ": 343,
  "ÙĩÙĤ": 26692,
  "ÙĩÙĦ": 848,
  "ÙĩÙĦØ§": 2937,
  "ÙĩÙĦØ§Øª": 17135,
  "ÙĩÙĦØ§Ùĥ": 47227,
  "ÙĩÙĦØ§ÙĪÙĬ": 62492,
  "ÙĩÙĦØ©": 5002,
  "ÙĩÙĦØª": 39905,
  "ÙĩÙĦÙĥ": 5445,
  "ÙĩÙĦÙĩ": 11658,
  "ÙĩÙĦÙĩØ§": 17971,
  "ÙĩÙĦÙĩÙħ": 46875,
  "ÙĩÙĦÙĪ": 30667,
  "ÙĩÙĦÙĪØ§": 44011,
  "ÙĩÙĦÙī": 41107,
  "ÙĩÙĦÙĬ": 6922,
  "ÙĩÙĦÙĬÙĨ": 23457,
  "ÙĩÙħ": 390,
  "ÙĩÙħØ§": 968,
  "ÙĩÙħØ§Øª": 37423,
  "ÙĩÙħØ§ÙĦ": 11940,
  "ÙĩÙħØ©": 1758,
  "ÙĩÙħØª": 49388,
  "ÙĩÙħØ±": 55835,
  "ÙĩÙħÙ": 6621,
  "ÙĩÙħÙĦ": 23736,
  "ÙĩÙħÙĩ": 37684,
  "ÙĩÙħÙī": 24303,
  "ÙĩÙħÙĬ": 12026,
  "ÙĩÙħÙĬØ©": 5441,
  "ÙĩÙħÙĬØªÙĩ": 21474,
  "ÙĩÙħÙĬØªÙĩØ§": 17952,
  "ÙĩÙħÙĬØ´": 16849,
  "ÙĩÙħÙĬÙĩ": 51394,
  "ÙĩÙĨ": 2274,
  "ÙĩÙĨØ¦": 22468,
  "ÙĩÙĨØ¦Ø©": 9845,
  "ÙĩÙĨØ§": 29339,
  "ÙĩÙĨØ§Øª": 29030,
  "ÙĩÙĨØ©": 48504,
  "ÙĩÙĨØº": 49186,
  "ÙĩÙĪ": 1703,
  "ÙĩÙĪØ¨Ø©": 47573,
  "ÙĩÙĪØ©": 7851,
  "ÙĩÙĪØªÙĬ": 52459,
  "ÙĩÙĪØ¯": 4738,
  "ÙĩÙĪØ¯Ø©": 36408,
  "ÙĩÙĪØ±": 2027,
  "ÙĩÙĪØ±Ø©": 11892,
  "ÙĩÙĪÙĦ": 9270,
  "ÙĩÙĪÙĦØ©": 3905,
  "ÙĩÙĪÙĦÙħ": 26239,
  "ÙĩÙĪÙĦÙĩ": 40251,
  "ÙĩÙĪÙħ": 4783,
  "ÙĩÙĪÙĨ": 19326,
  "ÙĩÙī": 1835,
  "ÙĩÙĬ": 556,
  "ÙĩÙĬØ£": 39531,
  "ÙĩÙĬØ¦Ø©": 9832,
  "ÙĩÙĬØ§": 15318,
  "ÙĩÙĬØ§Øª": 42412,
  "ÙĩÙĬØ§Ø±": 7090,
  "ÙĩÙĬØ§Ø±Ø§Øª": 39476,
  "ÙĩÙĬØ¨": 9508,
  "ÙĩÙĬØ¨Ø©": 24846,
  "ÙĩÙĬØ©": 10496,
  "ÙĩÙĬØª": 21487,
  "ÙĩÙĬØªÙĩ": 45118,
  "ÙĩÙĬØ¬": 29544,
  "ÙĩÙĬØ¯": 2920,
  "ÙĩÙĬØ¯Ø§": 9140,
  "ÙĩÙĬØ¯ÙĬ": 30260,
  "ÙĩÙĬØ±": 2417,
  "ÙĩÙĬØ±Ø©": 35654,
  "ÙĩÙĬØ²": 5201,
  "ÙĩÙĬØ²Ø§Øª": 14396,
  "ÙĩÙĬÙ": 11604,
  "ÙĩÙĬÙĤ": 60083,
  "ÙĩÙĬÙĥ": 13136,
  "ÙĩÙĬÙĦ": 3482,
  "ÙĩÙĬÙĦØ§": 51871,
  "ÙĩÙĬÙĦØ§Øª": 13175,
  "ÙĩÙĬÙħ": 1912,
  "ÙĩÙĬÙħØ©": 57031,
  "ÙĩÙĬÙħÙĪ": 41868,
  "ÙĩÙĬÙħÙĪÙģÙĬØªØ´": 44718,
  "ÙĩÙĬÙħÙĬ": 24436,
  "ÙĩÙĬÙĨ": 44312,
  "ÙĩÙĬÙĩ": 26626,
  "ÙĩÙĬÙĪ": 36203,
  "ÙĩÙĬÙĪÙĨÙĬØ©": 43114,
  "ÙĩÙĬÙĬØ¬": 30675,
  "ÙĪ": 262,
  "ÙĪØ¡": 1777,
  "ÙĪØ¡Ø§Øª": 49790,
  "ÙĪØ¡Ø©": 33785,
  "ÙĪØ£": 8563,
  "ÙĪØ¦Ùĩ": 42279,
  "ÙĪØ§": 518,
  "ÙĪØ§Ø¡": 1366,
  "ÙĪØ§Ø¦Ø¯": 14335,
  "ÙĪØ§Ø¦Ø±": 25108,
  "ÙĪØ§Ø¦Ùģ": 33827,
  "ÙĪØ§Ø¦ÙĦ": 29041,
  "ÙĪØ§Ø¦Ùħ": 35507,
  "ÙĪØ§Ø¦ÙĬ": 48399,
  "ÙĪØ§Ø¦ÙĬØ©": 8555,
  "ÙĪØ§Ø¨": 1887,
  "ÙĪØ§Ø¨Øª": 16577,
  "ÙĪØ§Ø¨Ø·": 26196,
  "ÙĪØ§Ø¨Ùĩ": 48437,
  "ÙĪØ§Ø¨ÙĬØ±": 38116,
  "ÙĪØ§Ø¨ÙĬØ³": 50122,
  "ÙĪØ§Ø©": 11333,
  "ÙĪØ§Øª": 650,
  "ÙĪØ§ØªØ¨": 8583,
  "ÙĪØ§ØªØ±": 11322,
  "ÙĪØ§ØªØ±Ø©": 52478,
  "ÙĪØ§ØªÙ": 13229,
  "ÙĪØ§ØªÙģ": 3528,
  "ÙĪØ§ØªÙĥ": 46852,
  "ÙĪØ§ØªÙħ": 19905,
  "ÙĪØ§ØªÙĩ": 25739,
  "ÙĪØ§ØªÙĩØ§": 21713,
  "ÙĪØ§ØªÙĩÙħ": 19303,
  "ÙĪØ§ØªÙĪ": 19458,
  "ÙĪØ§ØªÙĬ": 23208,
  "ÙĪØ§ØªÙĬØ±": 15684,
  "ÙĪØ§ØªÙĬÙħ": 17459,
  "ÙĪØ§ØªÙĬÙħØ§ÙĦØ§": 24391,
  "ÙĪØ§ØªÙĬÙħØ§ÙĦÙĬ": 23087,
  "ÙĪØ§Ø¬": 1278,
  "ÙĪØ§Ø¬Ø¨": 20143,
  "ÙĪØ§Ø¬Ø¨Ø§Øª": 19928,
  "ÙĪØ§Ø¬Ø©": 48358,
  "ÙĪØ§Ø¬Ø¯": 7923,
  "ÙĪØ§Ø¬Ø¯ÙĪÙĨ": 51521,
  "ÙĪØ§Ø¬Ø²": 12925,
  "ÙĪØ§Ø¬Ø³": 49083,
  "ÙĪØ§Ø¬Ù": 57069,
  "ÙĪØ§Ø¬ÙĨ": 39444,
  "ÙĪØ§Ø¬Ùĩ": 9357,
  "ÙĪØ§Ø¬ÙĩØ§Øª": 42207,
  "ÙĪØ§Ø¬ÙĩØ©": 6232,
  "ÙĪØ§Ø¬ÙĬ": 60629,
  "ÙĪØ§Ø¯": 12008,
  "ÙĪØ§Ø¯Ø«": 47608,
  "ÙĪØ§Ø¯Ø±": 22476,
  "ÙĪØ§Ø¯ÙĬ": 55661,
  "ÙĪØ§Ø±": 923,
  "ÙĪØ§Ø±Ø¦": 7410,
  "ÙĪØ§Ø±Ø¨": 14891,
  "ÙĪØ§Ø±ØªØ²": 58298,
  "ÙĪØ§Ø±Ø«": 11354,
  "ÙĪØ§Ø±Ø¬": 56949,
  "ÙĪØ§Ø±Ø¯": 11991,
  "ÙĪØ§Ø±Ø¶": 21375,
  "ÙĪØ§Ø±Ø¹": 4732,
  "ÙĪØ§Ø±ÙĤ": 19156,
  "ÙĪØ§Ø±Ùĩ": 44225,
  "ÙĪØ§Ø±ÙĩØ§": 41994,
  "ÙĪØ§Ø±Ùī": 35750,
  "ÙĪØ§Ø±ÙīØ¡": 54662,
  "ÙĪØ§Ø±ÙĬ": 31764,
  "ÙĪØ§Ø±ÙĬØ®": 16581,
  "ÙĪØ§Ø±ÙĬØ±": 53671,
  "ÙĪØ§Ø²": 29901,
  "ÙĪØ§Ø³": 23397,
  "ÙĪØ§Øµ": 12946,
  "ÙĪØ§ØµÙģ": 50715,
  "ÙĪØ§ØµÙĦ": 3918,
  "ÙĪØ§Ø·": 21877,
  "ÙĪØ§Ø·Ø±": 6391,
  "ÙĪØ§Ø¹": 2186,
  "ÙĪØ§Ø¹Ø¯": 5467,
  "ÙĪØ§Ø¹ÙĤ": 59471,
  "ÙĪØ§Ø¹Ùĩ": 26769,
  "ÙĪØ§Ø¹ÙĩØ§": 16856,
  "ÙĪØ§Ø¹ÙĬØ¯": 43505,
  "ÙĪØ§ØŃ": 19033,
  "ÙĪØ§ØŃÙĬ": 42328,
  "ÙĪØ§ØŃÙĬÙĦÙĬØ©": 58337,
  "ÙĪØ§Ùģ": 41061,
  "ÙĪØ§ÙģØ¹": 40296,
  "ÙĪØ§ÙģÙĤ": 42143,
  "ÙĪØ§ÙĤ": 2294,
  "ÙĪØ§ÙĤØ¨": 16383,
  "ÙĪØ§ÙĤØ¹Ø©": 23950,
  "ÙĪØ§ÙĤÙģ": 19726,
  "ÙĪØ§ÙĤÙħ": 27396,
  "ÙĪØ§ÙĤÙĬ": 43349,
  "ÙĪØ§ÙĤÙĬØ¹": 18847,
  "ÙĪØ§Ùĥ": 10245,
  "ÙĪØ§ÙĥØ¨": 10307,
  "ÙĪØ§ÙĥØ¨Ø©": 27007,
  "ÙĪØ§ÙĥØ´ÙĪØ·": 30821,
  "ÙĪØ§ÙĥÙĩ": 12099,
  "ÙĪØ§ÙĦ": 1848,
  "ÙĪØ§ÙĦÙĥ": 39073,
  "ÙĪØ§ÙĦÙĥØª": 59853,
  "ÙĪØ§ÙĦÙĥØªÙĦØ§ÙĨÙĬØ©": 59947,
  "ÙĪØ§ÙĦÙĩ": 18887,
  "ÙĪØ§ÙĦÙĩÙĪÙĦÙĨØ¯ÙĬØ©": 59605,
  "ÙĪØ§ÙĦÙī": 6760,
  "ÙĪØ§ÙĦÙĬ": 2400,
  "ÙĪØ§ÙĦÙĬØ³": 18443,
  "ÙĪØ§Ùħ": 3945,
  "ÙĪØ§ÙħØ±": 11810,
  "ÙĪØ§ÙħØ¹": 39017,
  "ÙĪØ§ÙħÙĦ": 17893,
  "ÙĪØ§ÙħÙĬØ³": 35270,
  "ÙĪØ§ÙĨ": 814,
  "ÙĪØ§ÙĨØ¦": 50491,
  "ÙĪØ§ÙĨØ§": 10405,
  "ÙĪØ§ÙĨØ¨": 6957,
  "ÙĪØ§ÙĨØ©": 42101,
  "ÙĪØ§ÙĨÙ": 59948,
  "ÙĪØ§ÙĨÙĩ": 13206,
  "ÙĪØ§ÙĨÙĩØ§": 62332,
  "ÙĪØ§ÙĨÙī": 31728,
  "ÙĪØ§ÙĨÙĬ": 9665,
  "ÙĪØ§ÙĨÙĬØ©": 17635,
  "ÙĪØ§ÙĨÙĬÙĨ": 3070,
  "ÙĪØ§Ùĩ": 3838,
[...]
